{
  "ĠÐ¿ÑĢÐ¾Ð´ÑĥÐºÑĤÐ¾Ð²": 8966,
  "ĠÐ¢Ð°ÑĢÐºÐ¾Ð²ÑģÐºÐ¾Ð³Ð¾": 50161,
  "ĠÐ½ÑĭÐ½ÐµÑĪ": 8475,
  "ĠÑĩÐ¸ÑģÐ»": 15463,
  "ĠÐľÑĥÐ´": 21264,
  "ĠÐ¾Ð±ÑĢÐ°Ð±Ð¾ÑĤÐºÑĥ": 38147,
  "ĠÑģÐµÐ¼ÐµÐ¹ÑģÑĤÐ²": 14489,
  "ĠÐ»ÑĥÑĩÑĪÐ¸Ð¼Ð¸": 37628,
  "ĠÐķ": 655,
  "ĠÐĵÐ°Ð²ÑĢÐ¸Ð»Ð¾Ð²": 40914,
  "ĠÐŀÐºÑģ": 12404,
  "ĠÑģÐ¸Ð¼ÑĦÐ¾Ð½": 13555,
  "ĠÑģÐ¾Ð²ÑĢÐµÐ¼ÐµÐ½": 1593,
  "ĠÑĢÐµÐ»ÑĮÑģÐ¾Ð²": 44448,
  "ĠÑģÑĤÐµÐº": 6377,
  "ĠÑĦÐ°ÐºÑĤÑĭ": 11640,
  "ĠÐĵÐµÐ½ÐµÑĢÐ°": 6008,
  "ĠÐ·Ð°Ð²Ð¾ÑĳÐ²": 18208,
  "--": 5684,
  "ĠÑĤÐµÐ¼Ð½Ð¾ÑĤÐµ": 48371,
  "ĠÐ¿ÑĢÐ°Ð²Ð¾ÑģÑĥÐ´": 31415,
  "ÐµÐ²ÐµÐ´": 9182,
  "ĠÐ¸Ð½ÑĦÐµÐºÑĨÐ¸Ð¾Ð½Ð½ÑĭÑħ": 48445,
  "ĠÑĢÐ°ÑģÑģÐ»Ð¾": 47668,
  "ĠÑıÐ´ÑĢÐ¾": 15074,
  "ÑĨÐµÑģÑģ": 6538,
  "ĠÐ´Ð¾ÑģÑĤÐ¸Ð³Ð»Ð¸": 18344,
  "ĠÐ½ÐµÐ¾Ð´Ð½Ð¾Ð·Ð½Ð°Ñĩ": 19548,
  "ĠÑĢÐµÑĩÐ½ÑĭÑħ": 33287,
  "ÑĤÑĥ": 722,
  "ĠÑĤÑĢÐµÐ±Ð¾Ð²Ð°Ð»Ð¸": 24999,
  "Ð¾ÐºÐ»Ð°": 35029,
  "ĠÐĵÐ°Ð³": 14091,
  "ĠÐ¿ÑĢÐ¾Ð´ÑĥÐºÑĤÐ°Ð¼Ð¸": 31877,
  "ĠÑĩÐµÑĤÐ²ÑĳÑĢÑĤÐ¾Ð¹": 22103,
  "ÐµÑĢÐ¸Ð°Ð»Ðµ": 21947,
  "Ð½Ð¾ÑĪÐµÐ½Ð¸Ð¹": 20929,
  "ĠÐ¿ÑĢÐ¾Ð¿Ð¾ÑĢÑĨÐ¸Ð¾Ð½Ð°Ð»ÑĮ": 18125,
  "ĠÐ²ÐµÐ»ÑĮÐ¼Ð¾Ð¶": 34853,
  "ĠÐ³Ð¾ÑĢÐ¼Ð¾Ð½Ð¾Ð²": 45738,
  "ĠÐ¦ÐłÐ£": 24739,
  "ĠÐ·Ð²ÑĥÐºÐ¾Ð·Ð°Ð¿": 20040,
  "z": 99,
  "ĠÑĢÐµÐºÑĢÐµÐ°": 42879,
  "ÑĢÑĥÑĪ": 1782,
  "ÑĥÑĩÑĩÐ¸": 31545,
  "ÑĥÑģÐ¾Ð²": 7643,
  "Ð¾Ð·Ð½Ð¾": 39652,
  "ĠÐ¿Ð°Ð»ÐµÑĨ": 39507,
  "ĠÑĢÐ°Ð·Ð²ÐµÐ´ÐºÐ°": 39427,
  "ĠÐķÐ²ÑĢÐ¾Ð¿Ð¾Ð¹": 43773,
  "Ð¾ÑĩÐµÐ½ÑĮ": 29250,
  "ĠÐ¥Ð¾Ð»Ð»": 38285,
  "ĠÐĳÐ°Ñĩ": 38746,
  "ÑīÐ¸Ð½Ð°": 9991,
  "W": 64,
  "ĠÐ¼ÐµÐ»Ð¾Ð´Ð¸Ð¸": 30791,
  "ĠÐĿÐ°ÑĩÐ°Ð»Ð¾": 12840,
  "ĠÐ¸Ð¼ÑĳÐ½": 13183,
  "ĠÐ¾ÑĢÑĥÐ´Ð¸ÐµÐ¼": 46723,
  "ÐļÑĥÐ½": 44203,
  "Ð¸Ð²Ð½Ð¾ÑģÑĤÑĮ": 37039,
  "ÐŀÐ³Ð¾Ð½ÑĳÐº": 49754,
  "ĠÐļÐµÐ´": 31073,
  "ĠÐ¿ÑĢÐ¸Ð½Ð¾Ñģ": 12409,
  "ĠÐĺÑĢÐºÑĥÑĤ": 10093,
  "ĠÐĴÐ¾Ð¿": 11450,
  "aj": 15811,
  "Ð¡Ð¾ÐµÐ´Ð¸Ð½": 31167,
  "ĠÐ¥Ð¸Ð³": 39204,
  "ĠÐĺÐ½Ð´": 3340,
  "ĠÐ»Ð¸ÑĨÐµÐ½Ð·Ð¸Ñİ": 38730,
  "ĠÐ¿Ð¾ÑģÐ²ÑıÑīÑĳÐ½": 17534,
  "ĠÐ¿ÑĢÐ¸ÑģÑĥÑĤÑģÑĤÐ²ÑĥÑİÑĤ": 15146,
  "ĠÐ¼Ð³Ð½Ð¾Ð²ÐµÐ½Ð½Ð¾": 38449,
  "ÑģÑĤÐµÐ¿": 45947,
  "ĠÐ¾ÑģÐ¾Ð±ÑĭÐ¼Ð¸": 48205,
  "sych": 25828,
  "ĠÐ¿ÑĥÑģÑĤ": 4664,
  "ĠÐ·Ð²ÑĥÐº": 6844,
  "ik": 4240,
  "ĠÐ¼Ð°ÐºÑģÐ¸Ð¼Ð°Ð»ÑĮÐ½Ð¾Ðµ": 33347,
  "ĠÐĶÐ²Ð¸Ð¶ÐµÐ½Ð¸Ðµ": 26829,
  "ÐµÑĢÐµ": 1368,
  "ĠÐ½ÐµÐºÐ¾Ð³Ð´Ð°": 21992,
  "ÐµÑĢÑģ": 767,
  "Ð¾Ð²Ð°Ð»Ð¾ÑģÑĮ": 47331,
  "ĠÑĦÐ¸Ð½Ð°Ð»Ðµ": 11419,
  "ĠÐĶÑĥÐ½Ð°Ð¹": 24985,
  "ĠÐĽÐ°Ð·": 13741,
  "ÐµÐµÑħ": 6543,
  "ĠÑĢÐ°Ð·Ð¼ÐµÑī": 5658,
  "ĠÐ´ÐµÐ¹ÑģÑĤÐ²Ð¸Ðµ": 5786,
  "ĠÐºÐ¸ÑĪÐµÑĩ": 20984,
  "ĠÐľÐµÐ½": 7505,
  "ĠÐŁÐ¾Ð»ÑĮÑĪÐ¸": 6824,
  "ĠÐĿÐ¥ÐĽ": 14720,
  "ÐĿÐµÑģ": 32203,
  "ĠÐĲÑĦ": 2398,
  "ĠÑģÑĥÐ±Ð±Ð¾ÑĤÑĥ": 31370,
  "ÐľÐ¸Ð½": 9371,
  "ĠÐĳÐµÑģÑģ": 12342,
  "Ġ163": 42802,
  "ĠÐºÐ¾Ð°Ð»Ð¸ÑĨÐ¸Ñİ": 43984,
  "ĠÑģÐ»Ð¾Ð¶Ð¸Ð»ÑģÑı": 37195,
  "Ð»Ð¸ÑĦ": 8436,
  "Ġ1964": 5716,
  "ĠÐºÑĢÐ¸ÑĤÐµÑĢ": 25674,
  "ĠÐ¿ÑĢÐ°Ð²Ð¾ÑģÐ»Ð°Ð²Ð¸Ñı": 41897,
  "ĠÐ¾ÑĤÐ¼ÐµÑĩÐ°ÑİÑĤ": 17911,
  "ĠÑĦÐ°Ð²Ð¾ÑĢÐ¸ÑĤ": 50087,
  "ĠÐļÑĢÐµÑī": 35028,
  "ĠÑģÑĢÐ°Ð¶Ð°Ð»Ð¸ÑģÑĮ": 38180,
  "ĠÐļÐ°Ð¼ÑĭÑĪ": 40183,
  "ĠÐ¿Ð¾ÑģÐ»ÐµÐ´ÑĥÑİÑīÐµÐ¼": 33335,
  "ĠÑģÑĤÐ¾Ð»ÐµÑĤ": 6832,
  "Ð³Ð¾Ð´Ñĥ": 966,
  "ĠÐ²ÑĢÐ°ÑĩÐµÐ¹": 17305,
  "Ġ88": 14679,
  "ĠÐĿÐļ": 10207,
  "ĠÐ¿ÑĢÐ¸Ð²Ð»ÐµÑĩ": 9751,
  "ĠÐ¿Ð¾ÑĤÐµÑĢÐ¸": 9406,
  "ĠÐ´Ð¾Ð±ÑĭÑĩÐ¸": 15077,
  "Ð±ÐµÑĢÐ°": 31374,
  "olk": 48316,
  "mon": 42724,
  "ĠÑĢÐµÑģÐ¿ÑĥÐ±Ð»Ð¸ÐºÐµ": 17618,
  "ĠÑĢÐ°Ð·Ð²Ð¸ÑĤÐ°Ñı": 47730,
  "ĠÐ¿ÑĢÐ¾ÑĢÑĭÐ²": 24635,
  "ĠÐ´Ð¾ÑħÐ¾Ð´Ð¾Ð²": 16519,
  "ÑĢÐ°ÑĤÐ¾Ð¼": 26986,
  "ĠÐ¿ÑĢÐµÑģÑĤÑĥÐ¿": 4169,
  "ĠÐĲÐ¼ÑĥÑĢÑģÐºÐ¾Ð¹": 42549,
  "ĠÐ´Ð¾ÐºÑĤÐ¾ÑĢÑģÐºÑĥÑİ": 31294,
  "ĠÐ¼Ð¸Ð½Ð¸Ð¼Ð°Ð»ÑĮÐ½ÑĭÐ¼": 44235,
  "ĠÐ£ÑįÐ¹Ð½": 42778,
  "ĠÐ½Ð°Ð²Ð¸Ð³Ð°ÑĨÐ¸Ð¸": 29301,
  "ĠÐŁÐ¾Ð»Ð½Ð°Ñı": 44619,
  "ĠÑĢÐ°ÑģÐ¿Ð¾ÑĢÑıÐ´": 21592,
  "ĠÑĢÐµÐ³ÑĥÐ»Ð¸ÑĢÐ¾Ð²": 10580,
  "ĠÐ¾Ð±ÑĪÐ¸Ð²": 41334,
  "ÑİÑĢÐµÑĢÐ°": 38345,
  "ĠÐ¿ÑĢÐ¾Ð´Ð°Ð½Ð°": 44350,
  "ĠÐĿÐ¸ÐºÐ¾Ð»ÑĮ": 17994,
  "ĠÐ·Ð°Ð´ÐµÐ¹ÑģÑĤÐ²": 17831,
  "ĠÐĺÐ½Ð´Ð¸ÐµÐ¹": 46572,
  "ÑĢÐ¸Ñħ": 2491,
  "ĠÐŃÐ»": 5685,
  "ĠÐ¿ÑĢÐ¸Ð½ÑĨÐ¸Ð¿Ð°Ð¼Ð¸": 48563,
  "ĠÐ²Ð¾Ð·Ð´ÑĥÑĪÐ½Ð¾": 31000,
  "ĠÑįÐ»ÐµÐºÑĤÑĢÐ¸ÑĦ": 45396,
  "ĠÐļÐ»Ð°Ð²Ð´": 14802,
  "Ð´Ð¾Ð²Ð¸Ñĩ": 29329,
  "ĠÐŁÑĢÐµÐ¾Ð±Ð»Ð°Ð´Ð°": 47510,
  "ĠÐ½Ð¾ÑģÐ¸Ð»Ð¸": 14852,
  "ĠÐĲÐ»ÐµÐºÑģÐ°Ð½Ð´ÑĢÐ¾Ð²ÑģÐºÐ¸Ð¹": 48650,
  "EL": 20414,
  "ĠÐ·Ð°Ð½Ð¸Ð¼Ð°ÑİÑĤÑģÑı": 20212,
  "ĠÐĴÑģÐ»ÐµÐ´ÑģÑĤÐ²Ð¸Ðµ": 26687,
  "ĠÐ°Ð¼Ð±ÑĥÐ»": 39723,
  "ÐµÑĢÐ±ÐµÑĢ": 23976,
  "ÐµÑĢÐµÐ²": 1363,
  "ÐłÐµÐº": 15462,
  "ÐµÑĨÐºÐ¾Ð¼": 24254,
  "ĠÑĥÑĩÐ°ÑģÑĤÐ½Ð¸ÑĨÐ°": 42339,
  "Ð»ÐµÐ´ÐµÐ½": 35413,
  "ĠÐ½Ð°Ð¿Ð°Ð´ÐµÐ½Ð¸Ñİ": 45500,
  "ĠEdition": 22766,
  "Ð²ÐµÑĢÐ¶": 3811,
  "aux": 48206,
  "ĠÑĤÐµÐ°ÑĤÑĢ": 5504,
  "ĠÐ¾Ð³ÑĢÐ°Ð½Ð¸ÑĩÐµÐ½Ð½Ð¾Ð¹": 29631,
  "ĠÐ´Ñĭ": 12943,
  "ĠÑĥÐ»ÑĮÑĤÐ¸Ð¼": 35974,
  "ĠÐ·Ð°ÐºÐ¾Ð½Ð¾Ð¿": 19451,
  "ĠÐļÐ¸ÑĪÐ¸Ð½": 19784,
  "ĠÐ¿Ð¾ÐºÑĥÐ¿ÐºÐµ": 45104,
  "ĠÐ°ÑĢÑĤÐ¸ÑģÑĤÐ°": 29418,
  "ĠâĢĭâĢĭ": 41924,
  "ĠÑģÐ±Ð»Ð¸Ð·": 29212,
  "ĠÑĢÐµÐºÐ¾Ð½ÑģÑĤÑĢÑĥ": 18814,
  "ĠÑģÑĤÑĢÐ°Ð½Ð¸ÑĨÐ°": 25052,
  "ĠÐ»ÐµÑģÐ¾Ð²": 15465,
  "ĠÐĿÐ¾Ð²Ð³Ð¾ÑĢÐ¾Ð´ÑģÐºÐ¾Ð¹": 18679,
  "ĠÐ³Ð¾Ð±": 34075,
  "ĠÐ¼Ð°ÑĢÐºÐ¸ÑĢÐ¾Ð²": 29613,
  "ĠÑĢÐµÑģ": 41085,
  "ĠÐĳÐ¾Ð½": 8855,
  "38": 4077,
  "ĠÐ¿Ð¾Ð³Ð¸Ð±Ð°ÐµÑĤ": 24422,
  "ĠÐ¿Ð¾Ð»Ð¾Ð¼": 33616,
  "Ð²Ð¸Ð¶ÐµÐ½Ð¸Ñı": 11862,
  "ĠÐ´Ð°Ñĩ": 16492,
  "ĠÐĴÑģÐµÐ¼Ð¸ÑĢÐ½Ð°Ñı": 40853,
  "ÑĩÐºÐ¸": 35313,
  "ĠÑĢÐ°Ð²ÐµÐ½ÑģÑĤÐ²Ð¾": 27494,
  "Ð»ÑĮÑģÐºÐ¸Ð¹": 20625,
  "ĠÐļÐ¸ÑĤÐ°Ð¹": 6686,
  "ÐºÐ¾ÑĢÐ°": 27492,
  "LE": 26677,
  "ÑıÑīÐµÐ³Ð¾ÑģÑı": 45082,
  "ĠÐ¸Ð½Ð¾ÑģÑĤÑĢÐ°Ð½Ð½ÑĭÐ¹": 29635,
  "ĠÐŀÑĤÐºÑĢÑĭÑĤÐ¾Ð¼": 38152,
  "ĠPHP": 40015,
  "IPS": 43034,
  "ĠÐ²Ð¾ÐµÐ½Ð½Ð¾Ð¼": 17908,
  "ÐµÐ¼ÑĭÐµ": 5162,
  "ĠÐ¾Ð±ÑĬÐµÐ´Ð¸Ð½Ð¸Ð»": 39817,
  "ĠÐĲÑĢÑĤÐ¸Ð»Ð»ÐµÑĢ": 50154,
  "Ð¸ÐºÑĥÐ»Ñĭ": 37559,
  "ÑĳÑĢÐ¾Ð²": 6143,
  "ĠÐ¿ÑĢÐ¸ÑĤÐ¾Ðº": 10155,
  "ĠÐ°Ð²ÑĤÐ¾Ð½Ð¾Ð¼Ð½Ð°Ñı": 48508,
  "ĠÐ°Ð²Ð°ÑĢÐ¸Ð¸": 18567,
  "ĠÐ°ÑĢÐµÐ°Ð»": 37600,
  "ĠÐŁÐ¾ÑĤÑĤÐµÑĢ": 27575,
  "Ð²ÑĥÐ´": 25913,
  "ĠÑĤÑĥÑģÐº": 27400,
  "ÐłÐ¾Ð¶Ð´ÐµÑģÑĤÐ²ÐµÐ½": 48122,
  "ĠÐ²Ð½ÑĥÑĤÑĢÐµÐ½Ð½Ð¸Ñħ": 6946,
  "ÐĹ": 884,
  "ĠÑģÐ¾Ð±ÑĭÑĤÐ¸Ð¹": 5878,
  "ĠÐ¢Ð²Ð¾ÑĢ": 19339,
  "ĠÑģÐ¾Ð»ÑĮ": 14564,
  "ĠÐ½Ð°Ñģ": 877,
  "ĠÐ³Ð²Ð°ÑĢÐ´ÐµÐ¹ÑģÐºÐ¾Ð¹": 25938,
  "ÐµÐºÐ¾Ð²": 24718,
  "ĠÑĢÐµÐºÐ¾ÑĢÐ´ÑģÐ¼ÐµÐ½": 46231,
  "ÑĥÐ´Ðµ": 33274,
  "ÐļÑĢÐ°Ð¹": 48048,
  "ĠÐ¡ÐµÐ²Ð°ÑģÑĤ": 13300,
  "ĠÐ¿ÑĢÐ¸Ð·ÑĢÐ°": 42686,
  "ĠÑĢÐ°Ð·Ð½Ð¾ÑģÑĤÑĮ": 40756,
  "ĠÑĤÑĢÐ¾Ð»Ð»ÐµÐ¹Ð±ÑĥÑģÐ¾Ð²": 35975,
  "ĠÑįÐºÑģÐ¿ÐµÑĢÐ¸Ð¼ÐµÐ½ÑĤÐ°Ð»ÑĮÐ½ÑĭÑħ": 36662,
  "Ð¸ÐºÐ°Ð²ÐºÐ°Ð·": 30880,
  "ten": 31160,
  "ĠÐłÐ°ÑģÐ¿Ð¾Ð»Ð¾Ð¶ÐµÐ½": 22102,
  "ĠÐ¿Ð¾Ð¿ÑĥÐ»ÑıÑĨÐ¸Ñı": 48343,
  "ĠFire": 23306,
  "ĠÑıÑĢÐºÐ¸Ðµ": 35008,
  "ĠÐĴÑĮÐµÑĤÐ½Ð°Ð¼": 10281,
  "ĠÑĥÑĢÐ¾Ð½": 33922,
  "ĠÑĦÐ¸Ð½ÑģÐºÐ¸Ñħ": 47069,
  "Ð°Ð½Ð°": 685,
  "ĠÐ¥Ð°Ð»": 11346,
  "ĠÑģÑĥÐ´Ñĭ": 23704,
  "ĠÐĶÐ°Ð»ÑĮ": 6145,
  "ĠÐ·Ð°Ð³Ð»Ð°Ð²Ð¸ÐµÐ¼": 43987,
  "ĠÑģÐ¾ÐºÑĢÐ°ÑĤÐ¸ÑĤÑĮ": 29341,
  "âĢ¦": 1670,
  "ĠÐºÐ¾Ð½ÐµÑĨ": 7730,
  "ÑĮÑıÐ¼Ð¸": 5698,
  "Ð»Ð°ÑĤÐµ": 34250,
  "ĠÐŀÑĢÐ»Ðµ": 19114,
  "ĠÐ¿ÑĢÐ¾Ð´Ð²Ð¸Ð¶ÐµÐ½Ð¸Ñı": 30643,
  "ĠÑĨÐµÑĢÐºÐ¾Ð²Ð½Ð¾": 28650,
  "ĠÐ²Ð¾Ð·Ð´ÑĥÑĪÐ½ÑĭÐ¹": 38813,
  "ĠÐ¿ÑĢÐ¾ÑĤÐµÐºÐ°": 20735,
  "Ð»Ð¸Ð¶": 3051,
  "109": 25598,
  "Ð¦Ð°ÑĢÐ¸": 39053,
  "ĠÑģÐ½ÑıÑĤÐ¸Ñı": 35529,
  "ĠÐºÐ¾Ð»Ð»ÐµÐ´": 7122,
  "Ð¾ÐºÐ¾Ð¼Ð±Ð¸Ð½Ð°ÑĤ": 27685,
  "led": 25673,
  "Ã©": 3161,
  "ĠÑģÐµÑĢÑĮÐµÐ·": 48003,
  "ĠÐ¼Ð½Ð¾Ð¶ÐµÑģÑĤÐ²Ð¾": 4013,
  "Ð°Ð½Ð´Ð°ÑĤ": 27358,
  "ĠÐ¼Ð°ÑĤ": 1010,
  "ĠÐ¿Ð»Ð°ÑĤÐµÐ¶ÐµÐ¹": 43721,
  "ĠÐ²ÐµÑĤÐµÑĢÐ°Ð½": 31941,
  "ĠÐ¿Ð°ÑĤÑĢÐ¸Ð°ÑĢÑħÐ¾Ð¼": 32073,
  "ĠÑģÐ°Ð¼ÑĥÑİ": 21989,
  "ÐµÐ½Ð±ÑĥÑĢÐ³": 44650,
  "ĠÑĢÐ°Ð·ÑĢÐµÑĪÐ¸Ð»Ð¸": 47917,
  "ÐµÑĤÑĢÐ°": 39037,
  "ĠÑĪÐ¿Ð¸Ð¾Ð½Ð°": 35414,
  "ĠÐŁÐµÑĤÑĢÐ¾Ð²Ð½Ð°": 25607,
  "Ð¸ÑĢÐ¾Ð²Ð°Ð½Ð½Ð°Ñı": 12111,
  "ĠÐ¿Ð¾Ð¼Ð¾ÑīÐ½Ð¸Ðº": 19534,
  "ĠÐ±Ð¾ÑĢÑĮ": 2800,
  "ĠÑħÐ°ÑĢÐ°ÐºÑĤÐµÑĢÐ¾Ð¼": 27507,
  "ĠÑģÐ¿Ð°Ð»ÑĮ": 41343,
  "ĠÐ±ÑĢÐ°ÑĥÐ·": 18759,
  "ĠÑĢÐµÐ²Ð¸Ð·": 25416,
  "ĠMight": 49861,
  "ĠÐ·ÐµÐ¼Ð»ÑĳÐ¹": 16948,
  "ĠÑģÐ±Ð¾ÑĢÐ½Ð¸ÐºÐ°Ñħ": 45692,
  "ĠÐ¨Ð°ÑĢ": 7090,
  "ÐµÑĤÑĢ": 46182,
  "ĠÐ´Ð²Ð¾ÑĢÐµ": 10169,
  "ĠÐ²ÑĭÐ·Ð¾Ð²Ð°": 39894,
  "ĠÐºÐ²Ð°ÑĢÑĤÐµÑĤ": 50213,
  "ĠÐ¿ÑĢÐ¸Ð½ÑĨÐ¸Ð¿Ð¾Ð²": 17343,
  "ĠÐ¼ÐµÑħÐ°Ð½Ð¸ÐºÐ°": 23444,
  "ĠÐĲÐ²ÑĤÐ¾ÑĢÑĭ": 22600,
  "ĠÐ²ÑģÑıÐºÐ¸Ð¹": 31747,
  "ĠÐ²ÑĭÐ²Ð¾Ð´Ñĥ": 14029,
  "ÐľÐ°Ñı": 27548,
  "ĠÑģÐ¾Ð¾Ð±ÑīÐ¸Ð»Ð¸": 26281,
  "ĠÐ°Ð½Ð°ÑĤÐ¾Ð¼Ð¸Ð¸": 32010,
  "ĠRos": 27874,
  "c": 76,
  "ĠÐ²ÑĭÐ³Ð¾Ð´Ñĭ": 43825,
  "Ð¡Ð¾ÑĩÐ¸Ð½ÐµÐ½Ð¸Ñı": 18003,
  "ÐĶÐ¸ÑĢÐµÐº": 48859,
  "Ð¥Ð°ÑĢÐ°ÐºÑĤÐµÑĢÐ¸ÑģÑĤÐ¸ÐºÐ°": 47772,
  "ĠCr": 20668,
  "ÑĢÐ°Ð·ÑĢÑıÐ´": 23055,
  "ĠÐŀÐ¿Ð¸Ñģ": 32428,
  "ĠÐ°ÑĤÐ»Ð°Ð½ÑĤ": 47674,
  "ĠÐļÐŁÐļ": 28992,
  "ĠÐľÐ¸ÑħÐ°Ð¹Ð»Ð¾Ð²ÐºÐ°": 39162,
  "ĠÐĿÐ¾Ð²": 1497,
  "ĠÐ§ÑĥÐ²Ð°ÑĪÑģÐºÐ¾Ð¹": 38825,
  "eth": 12235,
  "ĠÐºÐ»Ðµ": 26809,
  "ÐµÐ½ÑĤÐ°ÑĨÐ¸Ð¸": 10783,
  "Ġ1580": 47729,
  "ere": 10853,
  "ĠÑĢÐµÐ¿ÑĢÐ¾Ð´ÑĥÐºÑĤ": 41901,
  "ÑĩÐ¸ÐºÐ°Ð¼Ð¸": 16652,
  "ĠÐĵÑİÐ³Ð¾": 47399,
  "ĠBeat": 18622,
  "ĠÑĤÐ¸ÑĤÐ°Ð½Ð°": 40283,
  "Ð°Ð½ÑĨÐ°Ð¼Ð¸": 46032,
  "men": 44329,
  "P": 57,
  "Ð¸Ð·Ð¾Ð»Ñı": 42564,
  "ÑĨÐ¸Ð¸ÑĢÐ¾Ð²": 12686,
  "ÑĨÐµÐ½Ð°": 20635,
  "ĠÐ¾Ð´Ð½Ð¾ÐºÐ»Ð°ÑģÑģ": 32933,
  "ĠÐ½Ð¸ÑĩÑĤÐ¾Ð¶": 37847,
  "±": 119,
  "ĠÐ²Ð°ÑĢÐ¸Ð°Ð½ÑĤÐ°": 12428,
  "ĠÐ¸ÑģÐ¿ÑĭÑĤÐ°Ð»": 48735,
  "ĠÑĨÐ¸Ð²Ð¸Ð»": 8310,
  "ĠÑģÐ¾Ð¾ÑĤÐ²ÐµÑĤÑģÑĤÐ²Ð¸Ñı": 30572,
  "ÑĢÐµÐ»Ð»Ð¸": 39674,
  "ÐŁÑĢÐµ": 6818,
  "ĠÐ¤Ð¾Ð½": 14006,
  "ĠÐ¿ÑĢÐµÐ´ÑģÑĤÐ°Ð²Ð¸ÑĤÐµÐ»ÐµÐ¼": 16989,
  "ĠÑģÐ¾Ð¼Ð½": 8515,
  "ÐµÑĢÐ±ÑĥÑĢÐ³": 2166,
  "Ð±Ð°ÑģÑģ": 21714,
  "ĠÑĤÑĢÐµÐ±ÑĥÑİÑĤ": 19669,
  "ĠÐ°ÑĢÑħÐ¸ÑĤÐµÐºÑĤÐ¾ÑĢÐ¾Ð¼": 23246,
  "ÐŁÑĢÐ°ÐºÑĤ": 27109,
  "ĠÑĪÐ°ÑĢÐ¾Ð²": 20872,
  "ĠÐļÐ°Ð¶Ð´Ð°Ñı": 22542,
  "Ð¸ÑĤ": 350,
  "ĠÐ´ÑĥÐ¿": 47791,
  "1950": 12764,
  "ĠÑģÐ¾ÑĨÐ¸Ð°Ð»Ð¸ÑģÑĤÐ¾Ð²": 34845,
  "ĠÐ³Ð°ÑĥÐ±": 20121,
  "ĠÐ»ÑİÐ±Ð¾Ð¿ÑĭÑĤ": 37335,
  "ĠÐĳ": 452,
  "Ð»ÑıÑĤÑĮÑģÑı": 11937,
  "ĠÑĩÐµÐ»Ð¾Ð²ÐµÑĩÐµÑģÐº": 4864,
  "ĠÐ²ÑģÑĤÑĢÐµÑĤÐ¸Ð»Ð¸": 36850,
  "ĠÐ¾Ð±ÑĬÑıÑģÐ½ÐµÐ½Ð¸Ðµ": 26119,
  "ĠÐ½Ð°ÑĨÐ¸Ð¾Ð½Ð°Ð»Ð¸Ð·Ð¼Ð°": 40387,
  "ĠÐ¸Ð·Ð²ÐµÑģÑĤÐ½ÑıÐºÐ°": 48238,
  "ĠÐ·ÐµÐ½Ð¸ÑĤ": 16010,
  "ĠÐ¿Ð¾Ð»Ð½Ð¾ÑģÑĤÑĮÑİ": 3037,
  "ĠÐ²Ð¾Ð·Ð¼Ð¾Ð¶Ð½Ñĭ": 24218,
  "Ð¸Ð°Ð½Ðµ": 36645,
  "ĠÐ¿Ð¾Ð»ÑĮÐ·Ð¾Ð²Ð°ÑĤÐµÐ»ÑĮ": 19477,
  "ĠÐ¼Ð¾ÑīÐ½Ð¾ÑģÑĤÐµÐ¹": 44431,
  "ĠÑĦÐ»Ð°Ð½Ð³Ðµ": 49158,
  "ĠÑįÐºÐ¾Ð½Ð¾Ð¼Ð¸ÑĩÐµÑģÐºÐ¸Ð¼": 25697,
  "Ð¾Ð¶Ð´Ð°ÐµÑĤ": 19699,
  "ÑĢÐ¸ÐºÐ¾Ð²": 29939,
  "Ð¸Ð½Ð´ÑĥÑģÑĤ": 23324,
  "ĠÐµÐ¿Ð¸ÑģÐºÐ¾Ð¿Ñĥ": 48973,
  "ĠÑĥÐ·Ð½Ð°Ð²": 14895,
  "ĠÑģÑĩÐ¸ÑĤÐ°Ð»Ð¾ÑģÑĮ": 15238,
  "ĠÐ¿ÑĢÐ¾Ð¸Ð·Ð²": 8472,
  "ĠÐ¾Ð±ÑĢÐ°Ð±Ð¾ÑĤ": 5623,
  "Ð¶ÐµÐ½Ð¸Ðµ": 6983,
  "ĠÐºÐ°Ð¿Ð¸ÑĤÐ°Ð»Ð¸Ð·Ð¼Ð°": 30583,
  "ĠÐĲÐ¿": 7198,
  "ĠÐ²Ð½Ð¸Ð¼Ð°Ð½Ð¸Ðµ": 4709,
  "Ð¾ÑĢÑıÐ´": 5228,
  "ĠÐĴÐ¾Ð»Ð³Ñĥ": 44893,
  "ĠÐ°Ð½ÑĤÐ¸ÑĤ": 22758,
  "ĠÐ¿Ð¾Ð»ÑĥÑĩÐ°ÐµÑĤÑģÑı": 17783,
  "ĠÐ¡ÑİÐ´Ð°": 41732,
  "ĠÑģÐ¾Ð²ÐµÑģÑĤÐ¸": 30985,
  "ĠÑģÐºÐ¾ÑĢÐ¾Ð¹": 35259,
  "ĠÐ¸Ð³ÑĢÐ°Ñı": 43205,
  "ÐºÐ¾Ð´": 16482,
  "ĠÐ¼Ð¾Ð»Ð¾Ð´ÑĭÐ¼": 20225,
  "ĠÐ¡Ð¸Ð¼Ðµ": 23344,
  "ĠÑĥÐ»": 5318,
  "ĠÑįÐ»ÐµÐºÑĤÑĢÐ¾Ð´": 11230,
  "ÑĦÐµÐ½": 15801,
  "ĠÑģÑĥÑīÐµÑģÑĤÐ²Ð¾Ð²Ð°ÑĤÑĮ": 16292,
  "ĠÐºÐ»ÐµÐ¹": 30240,
  "Ð»Ð¸Ð±Ð¾": 3977,
  "ĠÐ´ÐµÐ¹ÑģÑĤÐ²ÑĥÑİÑĤ": 11238,
  "ĠÐ¾Ð¿ÑĢÐµÐ´ÐµÐ»ÑĳÐ½Ð½Ð¾Ð¼": 32654,
  "ĠÐ½Ð°ÑģÐ¸Ð»Ð¸Ðµ": 31595,
  "ĠÑįÐ½ÐµÑĢÐ³ÐµÑĤÐ¸ÑĩÐµÑģÐºÐ¾Ð¹": 46229,
  "ĠÑĤÐµÐºÑģÑĤ": 2307,
  "ĠÐ¿ÑģÐµÐ²Ð´Ð¾Ð½Ð¸Ð¼": 9181,
  "ĠÐ°ÑĢÑħÐ¸Ð¿ÐµÐ»Ð°Ð³": 32509,
  "Ru": 41660,
  "ĠÐ´ÐµÑĦÐ¸ÑĨÐ¸ÑĤ": 28815,
  "ĠÐ¿Ð¾Ð¿ÑĭÑĤÐ°Ð»ÑģÑı": 13708,
  "ÐļÐ¾Ð½ÑģÑĤÐ°Ð½ÑĤÐ¸Ð½": 42437,
  "ÑĢÐ¾Ð´": 745,
  "ĠÐŁÐ¾Ð±ÐµÐ´Ñĭ": 12116,
  "ÑĨÐµÑĢ": 17051,
  "ĠÑĢÐµÐ¿ÐµÑĤ": 22655,
  "ĠÐ¢Ð°ÑĨÐ¸ÑĤ": 49911,
  "ĠÑĢÐ°ÑģÐ¿Ð¾Ð»Ð¾Ð¶ÐµÐ½Ð½Ð°Ñı": 23254,
  "ĠÐĶÐ°Ð³ÐµÑģÑĤÐ°Ð½Ðµ": 46372,
  "ĠÑģÐ¸Ð»": 1450,
  "Ð¾Ð½Ð´Ð¾": 29380,
  "ĠÐķÑģÑĤÑĮ": 13152,
  "Ð½Ð¾ÑĢÐ¾Ð¶Ð´": 47755,
  "ĠÐºÑĢÐ¾Ð²ÑĮÑİ": 26974,
  "ĠÐ¿Ð¾Ð¼ÐµÑīÐ¸ÐºÐ¾Ð²": 47149,
  "ĠÐĶÑĢÐµÐ²Ð½ÐµÐ³Ð¾": 16035,
  "ume": 22602,
  "ĺ": 209,
  "ĠÐ¿ÑĢÐ¾Ð¸Ð·Ð²Ð¾Ð´Ð¸Ð»Ð¸": 44612,
  "ÐĲÑıÐºÑģ": 46477,
  "ĠÐ¿ÑĢÐ¸ÐºÐ°Ð·": 3666,
  "Ð°Ð»Ð¸Ð±": 10643,
  "ÐŁÐ»Ð°ÑĤ": 27276,
  "ĠÐ¿ÑĢÐ¾Ð¸ÑģÑĪÐµÑģÑĤÐ²Ð¸Ñı": 37313,
  "ĠÐ¸Ð·Ð¾Ð±ÑĢÐ°Ð¶ÐµÐ½Ð¸ÐµÐ¼": 12150,
  "ĠÐ¿ÑĢÐ¾Ð³ÑĢÐ°Ð¼Ð¼Ñĭ": 4409,
  "ĠÑĪÐ»Ð¾": 25985,
  "Ð§ÐµÑħ": 20710,
  "ĠÐļÐ¾Ð»ÑĮ": 10033,
  "ÑģÑĤÐ°ÑĢÑĪÐ¸Ð¹": 32350,
  "ĠÑģÐºÐ¾ÑĢÐ¾ÑģÑĤÐ¸": 6649,
  "ÑĥÑĢÐ½Ð°Ð»Ð¸ÑģÑĤ": 42996,
  "Ð¸Ð´ÐµÑĢÐ»Ð°Ð½Ð´": 6013,
  "ÐµÐ½Ð³ÐµÐ¹": 47294,
  "Ð°Ð½Ð¸ÑıÑħ": 4746,
  "edia": 11701,
  "ĠÐ¿Ð¾ÑģÑĤÐ¾ÑıÐ½Ð½Ð¾Ð³Ð¾": 13579,
  "ĠÐĲÐ³": 4852,
  "ÑĪÑĥÑİ": 4299,
  "ĠÐºÑĢÑĥÐ¿Ð½Ð¾Ð¼Ð°ÑģÑĪÑĤÐ°Ð±": 43934,
  "ÑĢÐ¾ÑģÑģÐ¸Ð¹": 32389,
  "Ð¾Ð·ÐµÑĦ": 7605,
  "ĠÐ°ÑĥÐºÑĨÐ¸Ð¾Ð½": 30727,
  "ĠÐ¾ÑħÑĢÐ°Ð½Ð°": 33479,
  "ĠÐ¾Ð±ÑĭÑĩÐ½ÑĭÐ¼Ð¸": 39717,
  "âĢľ.": 16693,
  "ĠAust": 34637,
  "ÑĥÐ¼ÐµÐ½ÑĤÐ°Ð»ÑĮÐ½ÑĭÐ¹": 14858,
  "Ð¾Ð¾Ð±ÑĢÐ°Ð·Ð½ÑĭÑħ": 33211,
  "Ġ1989": 3783,
  "ĠÐºÐ¾Ð»ÐµÐ½Ð°": 49513,
  "CD": 19945,
  "ĠÐ¿ÑĥÑĪÐºÐ°": 25647,
  "ÐĲÑĢÑģÐµÐ½Ð°Ð»": 41640,
  "ĠÑģÑĤÑĥÐ»ÑĮ": 31543,
  "ĠÑĦÐ¾ÑĢÐ¼Ð°Ð¼Ð¸": 28078,
  "ĠÑĦÑĢÐµÐ¹": 25981,
  "ÐĽÐµÐ³": 15020,
  "ĠÐļÐ¾Ð½ÑģÑĤÐ¸ÑĤÑĥÑĨÐ¸Ñİ": 41232,
  "ÐĺÑģÑĤÐ¾ÑĢ": 5157,
  "ĠÐĴÐµÑĢÐ³": 26983,
  "ĠÑĢÐ²": 18757,
  "ĠÑĥÐ¼Ð¸ÑĢÐ°ÐµÑĤ": 20360,
  "Ð¡Ð¸": 32425,
  "ĠÐĲÐ»Ð¶Ð¸ÑĢÐ°": 43611,
  "ĠÑģÐµÑĤÑĮ": 7402,
  "ĠÐ²Ð¸Ð½Ð¾Ð³ÑĢÐ°Ð´Ð°": 31878,
  "ĠÐ¾ÐºÑĢÑĥÐ¶ÑĳÐ½": 37114,
  "ĠÐ¼Ð¾Ð´ÐµÑĢÐ½Ð°": 40892,
  "ĠÐłÐ¸Ð¼Ðµ": 7953,
  "ĠÐ¡Ð°Ð¼Ð¾Ð¹Ð»Ð¾Ð²": 42962,
  "ĠÐ¾Ð´Ð¸Ð½Ð°ÐºÐ¾Ð²ÑĭÐµ": 42953,
  "ĠÐ´Ð¸Ð½": 3812,
  "ĠÑįÑĦÑĦÐµÐºÑĤÐ¸Ð²": 4617,
  "ãģ": 15363,
  "ĠÐ·Ð°Ð´Ð°Ð½Ð¸Ð¹": 36918,
  "ÐŁÐµÑĢÐ²ÑĭÐ¼": 17800,
  "Ð³Ð¾Ð²Ð°Ñı": 29031,
  "ĠÐ¡ÐµÐ²ÐµÑĢÐ½Ð¾Ð¼": 17046,
  "ÑģÑĤÐ²ÐµÐ½Ð½ÑĭÐ¼Ð¸": 14230,
  "ĠÐ¢ÑĢÑĥÐ´Ð¾Ð²Ð¾Ð³Ð¾": 19479,
  "ĠÑĢÐ°ÑģÑģÐºÐ°Ð·ÑĭÐ²Ð°ÐµÑĤÑģÑı": 30150,
  "Ġ1877": 12851,
  "ĠÑĤÑıÐ¶ÑĳÐ»ÑĭÐ¼": 27819,
  "ĠÑģÐ¾Ð±Ð¾Ð¹": 2058,
  "ÑīÐµÐ»": 40810,
  "ĠÐ£Ð»Ð¸ÑĨÐ°": 16673,
  "ĠÑĥÑģÐ¸Ð»Ð¸Ð¹": 23456,
  "ÑİÑīÑĥÑİÑģÑı": 26442,
  "ĠÐĶÐ°Ð³": 10210,
  "ria": 31852,
  "ĠÑĢÐµÐ»Ð¸Ð³Ð¸Ð¾Ð·Ð½ÑĭÐ¼": 29332,
  "ĠÑıÑħÑĤ": 40693,
  "ĠÐŃÐ´": 4195,
  "ĠÐ¿Ð¾ÑģÑĤÐ¸Ð³": 30549,
  "ĠÐ¸ÑİÐ»Ñı": 1882,
  "ĠÐ¾Ð±ÑīÐ°ÑĤÑĮÑģÑı": 38361,
  "ÏĦ": 13364,
  "ĠÐ¿ÑĢÐ¸Ð·Ð½Ð°Ð»Ð¸": 21826,
  "erty": 45857,
  "ĠÑĦÐ¸Ð»ÑĮÐ¼Ð°Ð¼Ð¸": 43449,
  "ĠÐĴÐ°ÑģÐ¸Ð»ÑĮÐµÐ²Ð¸ÑĩÐ°": 26172,
  "ĠÐľÐ¾Ð·": 20911,
  "ĠÐ¾Ð±Ð»Ð°Ð´Ð°ÑĤÐµÐ»ÐµÐ¼": 30504,
  "ĠÐ¿ÑĢÐ¸Ð½ÑıÑĤÑĭÐµ": 40716,
  "ĠÐ¿ÐµÑĢÐ¸Ð¾Ð´Ð¸ÑĩÐµÑģÐºÐ¸": 18161,
  "ĠÐ·Ð°Ð¿Ð¸ÑģÐ°Ð½Ð¾": 40080,
  "ĠWW": 43068,
  "ĠÐ³Ð»Ð°Ð²Ð½Ð¾ÐºÐ¾Ð¼Ð°Ð½Ð´ÑĥÑİÑīÐ¸Ð¹": 35666,
  "ĠÐ¿Ð¾ÐºÑĢÑĭÑĤÐ¸Ðµ": 30488,
  "ĠÐ½Ð°ÑħÐ¾Ð´Ð¸Ð»Ð¸ÑģÑĮ": 7861,
  "ĠÐ¿Ð¾Ð·Ð²Ð¾Ð»ÑıÐµÑĤ": 4360,
  "ĠÐ¿Ð»ÐµÐ¼ÑıÐ½Ð½Ð¸Ðº": 23621,
  "mas": 41384,
  "ÐµÑģÐ¾Ð¼": 16108,
  "Life": 24293,
  "ĠÐķÐ²ÑĢÐ¾Ñģ": 21561,
  "ĠÐ²ÑĭÐ»Ð¾Ð¶": 32426,
  "ĠÐ¸ÑģÐ¿Ð°Ð½ÑģÐºÐ¾Ð¹": 23239,
  "ĠÐļÑĢÐ°ÐºÐ¾Ð²": 26157,
  "ÐĽÑĥÐ½": 45135,
  "Ð°ÑĤÐ¸Ð²Ð½Ð¾Ð¹": 24335,
  "Ġ1721": 37574,
  "ĠÐ´Ð¾Ð»ÐµÐ¹": 26778,
  "ĠÐ¥ÐĲÐľÐĲÐ¡": 45680,
  "Ð¸Ð¾Ð½Ð°": 6856,
  "Ð¸ÑģÑĤÐ¾": 25470,
  "ĠÐ¸Ð²": 17997,
  "Ð½ÐµÐ¹ÑĪÐ¸Ð¼": 13716,
  "ĠÐ¼ÐµÐ¶Ð´ÑĥÐ½Ð°ÑĢÐ¾Ð´Ð½ÑĥÑİ": 36649,
  "ĠÐ´Ð¾Ð»Ð¸Ð½Ð°": 27877,
  "ĠÐ¿ÑĢÐ°Ð²Ð¸Ð»Ð¸": 39138,
  "ÑįÐ½Ñģ": 24446,
  "ĠÐ´Ð¾ÑģÑĤÐ¸Ð³Ð°ÐµÑĤ": 10652,
  "ĠÑĢÑĭÐ±Ð°": 23549,
  "ĠÐ¾ÑģÐ²Ð¾Ð±Ð¾Ð¶Ð´Ð°ÐµÑĤ": 47009,
  "ĠÐ½Ð°Ð¹Ð´ÐµÐ½Ð½ÑĭÑħ": 38726,
  "ĠÑħÐ¾ÑĤÑıÑĤ": 25845,
  "Ð¿ÑĥÑģÑĤ": 42326,
  "ĠÑģÑĤÐ°Ð»Ðº": 17416,
  "ĠÑĥÐ¿ÑĢÐµÐº": 45613,
  "ĠUR": 28583,
  "ĠÐļÐ¾ÑģÑĤÑĢÐ¾Ð¼": 15394,
  "ĠÐ´Ð¾Ð³Ð¾Ð²Ð¾ÑĢ": 3832,
  "ĠDi": 47283,
  "ĠÐ¿Ð¾Ð¶Ð°Ð»Ð¾Ð²": 35651,
  "ĠÐ´ÐµÐ¼": 2507,
  "ĠÐ·Ð°ÑģÑĤÑĥÐ¿": 37650,
  "ĠÐ¡Ð¿Ð¸Ð»": 30036,
  "ĠÑĢÐ°ÑģÐ¿Ð¾ÑĢÑıÐ¶": 8053,
  "ĠÐĵÐ°Ð½Ð½Ð¸Ð±Ð°Ð»": 50160,
  "ĠÐ½Ð°Ð¿Ð°Ð´ÐµÐ½Ð¸Ñı": 13062,
  "ĠÐ¸Ð½ÑĤÐµÐ»Ð»Ð¸": 15014,
  "ĠÐºÐ»ÑĥÐ±Ð°Ñħ": 44092,
  "ĠÑĢÐµÐ¶Ð¸ÑģÑģÑĳÑĢÐ¾Ð¼": 11783,
  "ÐĺÐļ": 7581,
  "ym": 13015,
  "ĠÐ¿ÐµÑĢÐµÐ½ÐµÑģÑĳÐ½": 29392,
  "Ð³Ð¾ÑĢ": 2427,
  "ĠÑģÑĨÐµÐ½Ð°Ñħ": 35422,
  "ĠÐ¿Ð¾ÑħÐ¾Ð¶Ð¸Ð¹": 37255,
  "ĠÐ¼Ð°ÑģÑģÐ¾Ð²Ð¾Ð³Ð¾": 16889,
  "ĠÐ¿Ð¾Ð´Ð²ÐµÑĢ": 13051,
  "Ġint": 23178,
  "ĠÐĹÐ°Ð±Ð°Ð¹ÐºÐ°Ð»ÑĮ": 28348,
  "ĠÐ¢Ð¾ÑĢÐ³Ð¾Ð²": 21026,
  "ĠÐ°ÑĤÐ°Ðº": 8991,
  "ÐĳÐ¾Ð»": 15419,
  "ĠÐŁÑĢÐ¾Ð±Ð»ÐµÐ¼Ñĭ": 27863,
  "ĠStandard": 36628,
  "ĠÐļÑĢÐ°ÑģÐ½Ð¾ÑıÑĢÑģÐºÐ¸Ð¹": 46366,
  "ĠÐºÑĥÑĢÐ³Ð°Ð½": 25716,
  "ÑĢÐ¸ÑĤÐ¸Ðº": 32734,
  "ĠÐºÐ»Ñĳ": 48615,
  "SD": 14413,
  "Ð¾ÐºÑĤ": 13169,
  "ĠÑĢÐµÐ·ÐºÐ¾": 7538,
  "Ð»ÐµÐ±": 4400,
  "ĠÑĢÐ°Ð·Ð»Ð¸ÑĩÐ½ÑĭÐ¼": 14296,
  "ĠÐ½ÐµÐºÐ¾Ð¼": 18982,
  "ĠÐĵÐŀÐ¡Ð¢": 17788,
  "ĠÐľÐ°ÑĤÑĮ": 12859,
  "Ð»Ð¸Ñħ": 24604,
  "ÑģÐºÑĥÑİ": 1434,
  "ĠÐłÐ°ÑģÑģÑĤÐ¾ÑıÐ½Ð¸Ðµ": 27722,
  "man": 6499,
  "ĠÐ±Ð¾Ð³Ð°ÑĤ": 4558,
  "ĠÑģÑĢÐµÐ´Ð½Ð¸Ñħ": 11696,
  "ĠÐĶÐ½ÐµÐ¿ÑĢÐ¾Ð¿ÐµÑĤÑĢÐ¾Ð²": 42272,
  "Ð²ÐµÑģÑĤÐ¸": 4794,
  "ÑĢÐµÐ²Ð¸Ñĩ": 40071,
  "ÐĵÐ¸Ð´ÑĢÐ¾": 49323,
  "ĠÐ³ÑĢÑĥÐ¿Ð¿Ð°": 2775,
  "ĠÐ³ÑĢÐ°ÑĦÐ°": 7849,
  "ĠÑģÑĭÐ½": 2982,
  "ĠÐ²Ð°ÑĢÐ²Ð°ÑĢ": 31583,
  "ĠÐ°ÑĢÐ¼ÑıÐ½ÑģÐºÐ¸Ð¹": 24118,
  "ĠÐ¼ÑĥÐ½Ð¸ÑĨÐ¸Ð¿Ð°Ð»ÑĮÐ½ÑĭÐ¹": 13914,
  "Ġ1611": 49608,
  "Ð¿Ð°ÑĢÐ°ÑĤÐ°Ñħ": 47523,
  "ĠÐ»ÐµÑģÑĤ": 13050,
  "ĠÐłÑĥÐºÐ¾Ð²Ð¾Ð´": 13413,
  "ĠÐļÐ¸ÑĢÐ¸Ð»Ð»Ð¾Ð²": 39279,
  "ĠÐ·Ð²Ð°Ð½Ð¸Ðµ": 6206,
  "ĠÐ°ÑįÑĢÐ¾Ðº": 43394,
  "ĠÐ´Ð¸Ð°Ð³Ð½Ð¾ÑģÑĤ": 15536,
  "ĠÐ¿ÑĢÐµÐº": 2882,
  "Ð°Ð´ÐµÐ»ÑĮÑĦ": 19874,
  "ĠPet": 16688,
  "ĠÑĤÑıÐ³": 12528,
  "Ð»Ð¾ÑģÑĥÑĤÐ¾Ñĩ": 41918,
  "Ġ248": 45696,
  "Ð¿Ð¾ÑĢÐ°ÑĨÐ¸Ñı": 46678,
  "ĠÑģÐ¾Ð¾Ð±ÑīÐ°ÐµÑĤ": 10543,
  "Ð°Ð¼Ð¾": 44867,
  "Ð½ÑıÐº": 13076,
  "ĠÐ¡Ð²ÐµÑĢÑħ": 47647,
  "ĠÐ´Ð¾Ð±ÑĭÑĤ": 47503,
  "ĠÐºÐ¾Ð½ÑĮÐºÐ¾Ð±ÐµÐ¶": 46020,
  "ÐĲÑĤÐµ": 40977,
  "ĠÐ¿ÑĢÐµÐ´ÑĥÐ¿ÑĢÐµÐ¶Ð´": 15258,
  "ĠÐ¿ÑĢÐµÐ´Ð»Ð¾Ð¶ÐµÐ½Ð¸Ð¸": 47293,
  "ÐµÐ½ÑģÐºÐ¾Ðµ": 18988,
  "ĠÐĶÐ°Ð²Ð¸Ð´": 12128,
  "Ð¿Ð¾Ð¿ÑĥÐ»ÑıÑĢ": 23987,
  "ĠÐ½Ð¾ÑıÐ±": 1668,
  "ĠÑĢÐ°Ð·Ð¾Ð±": 12364,
  "ĠÐ·Ð°Ð²ÐµÑĢÑĪ": 2990,
  "ĠÐ¿Ð¾Ð³ÑĢÐµÑĪ": 35962,
  "ĠÐ»Ð°Ð¼Ð¿Ñĭ": 27539,
  "ÑĳÐ¼": 774,
  "Ð»ÐµÐºÑģ": 946,
  "ĠÐ§Ð¾Ñģ": 39091,
  "ĠÐ½Ð¾ÑģÐ¸ÑĤÐµÐ»ÐµÐ¹": 18699,
  "ĠServ": 24482,
  "ĠÐ²ÑĭÑģÑĪÑĥÑİ": 34859,
  "Ð»ÑĭÐµ": 9833,
  "Ð¸ÑĨÐºÐ¾Ð¼": 40268,
  "ÑİÐºÐ¾Ð²Ð°": 48467,
  "ĠÐ´ÐµÑıÑĤÐµÐ»Ñı": 29959,
  "ĠÐ½ÐµÐ´ÐµÐ»Ðµ": 49867,
  "ĠÐĵÐµÐ²": 31139,
  "ĠÐºÐ°ÑĢÐ±": 18689,
  "ÐļÐ¾Ð¿": 35316,
  "ĠÐ²Ð¾Ð·ÑĢÐ¾Ð¶Ð´": 24525,
  "ĠÐļÐ¸Ð¼": 10776,
  "ĠÐ¿Ð°ÑĢÑĤÐ¸ÐµÐ¹": 19291,
  "ĠÐ¾Ð±ÑģÐµÑĢÐ²Ð°ÑĤÐ¾ÑĢÐ¸Ð¸": 21415,
  "ĠÐĵÐ¾ÑĢÑıÑĩ": 46499,
  "ĠÐĳÐµÐ»Ð¾ÑĢÑĥÑģÑģÐºÐ¾Ð³Ð¾": 34385,
  "ĠÐ¿ÑĢÐ¸ÑĩÑĥÐ´": 45486,
  "ĠÐ½Ð°ÑĨÐ¸ÑģÑĤÐ°Ð¼Ð¸": 46362,
  "Ġ1654": 37475,
  "Ġ58": 11724,
  "ĠÐ°Ð½Ð³ÐµÐ»": 28537,
  "ĠÑģÐ¸ÑģÑĤÐµÐ¼Ñĥ": 5171,
  "ĠÐ°Ð»Ð³ÐµÐ±": 11483,
  "ĠÐ·Ð°ÐºÐ»ÑİÑĩÑĳÐ½": 16886,
  "oder": 48561,
  "ĠÑħÑĢÐ°Ð½Ð¸ÑĤÑĮ": 34574,
  "ĠÐ·Ð°Ð¿ÑĢÐµÑīÐ°ÐµÑĤ": 48906,
  "Ð½Ð¸ÑģÑĤ": 16052,
  "ĠÐ°Ð¼ÐµÑĢÐ¸ÐºÐ°Ð½": 1555,
  "Ð½Ð¸": 502,
  "ĠÐ°Ð´Ð¼Ð¸Ð½Ð¸ÑģÑĤÑĢÐ°ÑĤÐ¸Ð²": 3198,
  "ĠÑģÐ»ÑĥÑĩÐ°Ð¹Ð½ÑĭÑħ": 29193,
  "ĠÐ½ÐµÐ½Ð°Ð²Ð¸ÑģÑĤ": 17422,
  "Ð»Ð°Ð²Ð°": 2806,
  "Ð¸ÑĩÐ¸": 7895,
  "ĠÐ·Ð¾Ð¾Ð»Ð¾Ð³": 49895,
  "ÑĭÐ»Ð°": 19729,
  "ĠÑĢÐ¾Ð´Ð¸Ð»Ð°": 19069,
  "ĠÐ´Ð¸Ð°Ð¼ÐµÑĤ": 7539,
  "ĠÐ³ÐµÑĤÐ¼Ð°Ð½Ð°": 35737,
  "ĠÐĿÐ°ÑĢÑĭÑĪ": 49808,
  "ĠÐºÐ°ÑĤÐ¾Ð»Ð¸ÐºÐ¾Ð²": 27821,
  "ĠÐ´Ð¸Ð½Ð¾Ð·Ð°Ð²": 27572,
  "ĠÐ¶Ð°Ð½ÑĢÐ¾Ð²": 22575,
  "É": 141,
  "ÐµÐ´Ð¸Ð½Ðµ": 3983,
  "ĠÐºÐ»ÐµÑĤ": 3834,
  "cess": 22532,
  "Â»:": 4506,
  "ĠÑįÐºÐ¸Ð¿Ð°Ð¶Ð°": 11835,
  "reen": 42633,
  "Ð½Ð¸ÑĢ": 22204,
  "ÑĩÐµÑģÐºÐ¾Ð¼": 17630,
  "ords": 7760,
  "ĠÑģÐ¸Ð½Ð¾Ð´Ð°": 46930,
  "ĠÐłÑĥÑģ": 1985,
  "ĠÑĢÐ¾Ð±Ð¾ÑĤÐ¾Ð²": 40400,
  "ÐµÑģÐºÐ°Ñı": 23508,
  "ĠÐ¿ÑĢÐµÐ½ÐµÐ±ÑĢÐµÐ¶": 32638,
  "ĠÐ¿Ð¸ÑĢÐ°ÑĤ": 14789,
  "ĠÐ²ÑģÑĤÑĢÐµÑĤÐ¸ÑĤÑĮ": 21597,
  "Ð½Ð°Ð·Ð²Ð°Ð½Ð¸Ðµ": 43483,
  "ĠÑĥÐ²ÐµÐ»Ð¸ÑĩÐ¸Ð²Ð°ÑİÑĤ": 48891,
  "ĠRem": 26833,
  "eral": 13528,
  "ÐŀÑģÐ¾Ð±": 10199,
  "ect": 5651,
  "ĠÐ¾Ð±ÑĢÐ°ÑĤÐ¸Ð»ÑģÑı": 12182,
  "ĠÐ¼Ð°Ð¹Ñı": 34387,
  "ĠÐ½Ð°Ð¿ÐµÑĩÐ°ÑĤÐ°Ð½Ð°": 50233,
  "ĠÐ¿ÐµÑīÐµÑĢÑĭ": 27556,
  "ĠÐºÐ¾Ð½ÑģÑĥÐ»ÑĮ": 14831,
  "ĠÐ²Ð²ÑĳÐ»": 13900,
  "ÐĿÐ°Ð²": 29719,
  "ĠÑģÑĤÑĢÐ¾Ð¸ÑĤÐµÐ»ÑĮÑģÑĤÐ²Ð¾Ð¼": 22127,
  "ĠTem": 35287,
  "ĠÑģÑĤÐ¾ÑıÐ»": 15157,
  "ÑģÑĤÐ²Ð¸Ðµ": 3867,
  ".).": 3741,
  "ĠÐ¿Ð¾Ð´ÑĢÑıÐ´": 11132,
  "ĠÐ¢Ð°ÐºÐ¾Ð¹": 15783,
  "ĠÐ¾Ð±ÑĬÐµÐ´Ð¸Ð½Ð¸ÑĤÑĮ": 26094,
  "ĠÐłÑĥÐ¼ÑĭÐ½Ð¸Ñı": 29071,
  "ĠÐľÐ¾ÑģÐºÐ¾Ð²ÑģÐºÐ°Ñı": 20570,
  "ĠÑĢÐµÐ»Ð¸Ð³Ð¸Ð¾Ð·Ð½ÑĭÑħ": 10544,
  "ĠAc": 13374,
  "ÐµÐ¶Ð°": 25656,
  "ĠÐºÐ¾Ð»Ð±Ð°Ñģ": 48225,
  "Ð¾ÑĢÐµ": 1339,
  "ĠÐķÑģÐ»Ð¸": 3790,
  "ĠÐ¿ÑĢÐ¾ÑĩÑĤ": 31633,
  "Ð¾Ð¿ÑĭÑĤ": 14476,
  "ĠÐ¿ÑĢÐ¾Ð¸Ð·Ð²Ð¾Ð´Ð½ÑĭÐµ": 27790,
  "ÐĳÐµÐ»Ð¾ÑĢÑĥÑģ": 21223,
  "ÐµÐ½Ð´Ð¾ÑĢÑĦ": 36207,
  "ÐĲÐ»Ð¸ÑģÐ°": 46293,
  "ÐµÑĤÐ½ÑĭÑħ": 36985,
  "Ġ239": 42758,
  "ĠÐļÐ¾Ð¼Ð¸ÑĤÐµÑĤÐ°": 15518,
  "inae": 21916,
  "Ð²Ð°Ð½Ðµ": 39743,
  "Ð¾ÐºÐ°": 1755,
  "Ð¶Ð°Ð²": 42110,
  "Ġ-": 2028,
  "ÑĢÐ°ÑĤÑĮÐµÐ²": 40772,
  "Ð¸Ð»ÑĮÐ½Ð¾": 24490,
  "ĠÑĥÐ½Ð¸Ð²ÐµÑĢÑģÐ¸ÑĤÐµÑĤÐ¾Ð²": 17786,
  "ĠÐĺÐ´ÐµÑı": 28704,
  "ĠÐ²ÐµÑĤÐµÑĢÐ¸Ð½": 36583,
  ".),": 4090,
  "ĠÐ½Ð°ÐºÐ°Ð»": 42224,
  "ĠÐ¿Ð¾ÑģÑĤÐ°Ð½Ð¾Ð²Ð»ÐµÐ½Ð¸Ñİ": 42250,
  "ĠÐ·Ð°Ð¼ÐµÑĤÐ½ÑĭÑħ": 50147,
  "ĠÑĢÐµÐ¹ÑĤÐ¸Ð½": 16737,
  "ĠÐ¿ÐµÑĢÑģÐ¾Ð½Ð°Ð¶ÐµÐ¼": 27118,
  "ĠÐŁÐ¾Ð³": 9756,
  "ĠÐŃÐ»Ð»Ð¸": 25248,
  "Ġ92": 18648,
  "ĠÑģÐ¼ÐµÐ½Ð¸Ð»": 17773,
  "ĠÐļÐ°ÑĥÐ½Ð°": 31524,
  "ÑħÐµ": 14174,
  "ĠÑĤÑĢÐ°": 1317,
  "Ð»Ð¾ÑĢ": 3155,
  "ÑĥÐ½Ð¾Ð²": 13167,
  "Ġ352": 34311,
  "Ex": 25875,
  "ĠÐłÐ¾Ð¶": 30244,
  "ÐŁÐ¾Ð½": 18587,
  "Ð°Ð½Ð½ÑĭÐ¹": 2450,
  "Ð°ÑĤÑĭÐ¼": 22594,
  "ĠÐ½Ð°Ð·ÑĭÐ²Ð°Ð»": 13052,
  "ĠÑĢÐ°ÑģÐ¿Ð°Ð»Ð°ÑģÑĮ": 41347,
  "ĠÐ¼Ð½Ð¾Ð³Ð¾Ñģ": 28925,
  "ÐĺÐ½ÑĦÐ¾ÑĢÐ¼Ð°": 41056,
  "ĠÑħÐ²Ð¾Ð¹": 27253,
  "Ġ550": 29600,
  "ĠÑĤÑĮÐ¼Ñĭ": 46398,
  "Ð²ÑĭÐ¿ÑĥÑģÐº": 28149,
  "Der": 35445,
  "ĠSega": 27503,
  "ĠÐ´ÑĥÑĢÐ°": 41081,
  "Ð¸Ð¼Ð±": 41612,
  "ĠÐ¿ÑĢÐ¾Ð¸Ð·Ð½ÑĳÑģ": 32881,
  ">": 39,
  "ĠÑĦÑĢÐ°Ð³Ð¼ÐµÐ½ÑĤ": 8114,
  "ÑģÑĤÑĢÐµ": 1366,
  "ĠÐĺÐ½ÑĤ": 10348,
  "ĠÐ¿ÑĢÐ¸Ð½ÑĨÐ¸Ð¿Ðµ": 22064,
  "ĠÐ±ÐµÐ¶Ð¸ÑĤ": 36486,
  "Ð¾Ð½Ð½Ð¾Ð¹": 22266,
  "ĠÐĶÐµÐ»": 10557,
  "Ġ1776": 29602,
  "v": 95,
  "ÑģÐ»ÑĥÐ¶": 3563,
  "ĠÐ½ÐµÐ¾ÑĤÑĬÐµÐ¼Ð»ÐµÐ¼Ð¾Ð¹": 42615,
  "ĠÐ¿ÑĢÐµÐ´Ð»Ð°Ð³": 5932,
  "ĠÐĳÐ¾Ð³": 2452,
  "ĠÐ½Ð°Ð´Ð¿Ð¸ÑģÑĮÑİ": 18049,
  "ĠÐĲÑĢÐ°Ð²Ð¸Ð¸": 26085,
  "ÐŁÑĢÐ¸Ð·": 23383,
  "ÑĨÐ¸ÑıÐ¼Ð¸": 6255,
  "ĠÐļÑĢÐ¸ÑĪÐ½Ñĭ": 49662,
  "Ð²ÐµÑĢÐ¾ÑıÑĤÐ½Ð¾": 42285,
  "ĠÐ»ÑĳÐ³ÐºÐ¸Ðµ": 25719,
  "ĠLe": 7450,
  "ĠCap": 19799,
  "Ġ34": 8622,
  "Ð¾Ð²ÑĥÑİ": 8367,
  "ĠÑĢÐ°ÑģÑģÑĤÐ°Ð²": 26352,
  "ĠÑģÐ»Ð¾Ð±Ð¾Ð´": 14752,
  "ĠÑģÑĤÐ¸ÑħÐ°Ñħ": 24835,
  "ĠÐĵÐ¾ÑĢÐºÐ¸": 49879,
  "ĠÐľÐ¸Ð½ÑģÐº": 18949,
  "ĠÐ²ÑĭÑĢÐ°Ð±Ð¾ÑĤÐºÐ°": 46957,
  "Ġ186": 2417,
  "ĠÐºÐ°Ðº": 558,
  "ĠÐļÐ±": 40749,
  "ĠÐºÑĢÑĥÐ¿Ð½Ð¾Ð¹": 18878,
  "ĠÐµÐ·Ð´Ð¸Ð»": 31818,
  "1933": 14341,
  "ĠÐºÐ¾ÑįÑĦÑĦÐ¸ÑĨÐ¸": 8646,
  "ĠÐ¾Ð±ÑĢÐ°Ð±Ð°ÑĤÑĭÐ²Ð°": 25595,
  "ÑĨÐµÐ²Ð¾Ð¹": 17757,
  "Ð¡ÑĤÐ¾": 25468,
  "ĠÐ¸Ð·Ð²ÐµÑģÑĤÐ½ÑĥÑİ": 31628,
  "Ð»Ð¸Ð³Ðµ": 42678,
  "ÐĳÐ¸ÑĤÐ²Ð°": 28816,
  "ĠÐľÐ°ÐºÐº": 12710,
  "ĠÐ¼Ð¸Ð½Ð¾Ð¼ÑĳÑĤ": 25987,
  "ĠÐ±Ð¾ÐºÑģÑĳÑĢ": 28022,
  "ĠÑĤÐ²Ð¾ÑĢÑĩÐµÑģÑĤÐ²Ñĥ": 27314,
  "ĠÐĴÐĵÐĺÐļÐ°": 44928,
  "ĠÐŁÐ¾ÑĢ": 10241,
  "Ð¼ÐµÑī": 11499,
  "ĠÐĶÐ¸Ð½Ð°Ð¼": 29431,
  "ĠGraphics": 48287,
  "ĠÐłÐ°Ð²": 14301,
  "ĠÐ¼Ð¾ÑĢÑģÐºÐ¾Ðµ": 41456,
  "ĠÐ³Ð¾Ð»Ð¾Ð²Ðµ": 19718,
  "ĠÑįÐ¿Ð¸Ð·Ð¾Ð´": 5689,
  "ĠÐ²ÑħÐ¾Ð´": 2184,
  "ĠÑħÑĢÐ°Ð¼Ñĭ": 17563,
  "ĠÐ»ÐµÑĤ": 963,
  "ĠÑģÐ¾Ð±ÑĭÑĤÐ¸ÑıÐ¼Ð¸": 25000,
  "ĠÐ°Ð»Ð³Ð¾ÑĢÐ¸ÑĤÐ¼Ð¾Ð²": 32108,
  "Ð»ÐµÑĤÐ¸Ñı": 10034,
  "ĠÐ¿Ð¾Ð¸ÑģÐºÐ°": 16221,
  "1931": 15391,
  "ĠÐĲÐ½Ð°Ðº": 32294,
  "ĠÐĲÑĢÑħÐ¸Ð¼": 38534,
  "ĠÐºÐ¾Ð½ÑĤÐ°Ðº": 20290,
  "ĠÐ¶ÐµÐ½ÑīÐ¸Ð½Ñĭ": 7341,
  "Ð¸Ð»ÐµÐ¹": 4867,
  "ĠÑĪÐ°Ð¿": 21346,
  "Ð¾Ð±ÐµÑĢÐµÐ¶": 12229,
  "ĠÐĵÑĢÐµÑĨÐ¸Ñİ": 34057,
  "ĠÐĺÐ½ÑĤÐµÑĢÐ½ÐµÑĤÐ°": 29215,
  "ĠÐĵÐµÐ½Ð½Ð°Ð´Ð¸Ð¹": 14644,
  "ĠÐ½Ð¸Ð·Ð¾Ð²": 31257,
  "ÐłÐµÑĪ": 20613,
  "ĠÐ¿Ð¾Ð¿Ð°Ð´Ð°Ð½Ð¸Ðµ": 45112,
  "ÑĢÐ¸ÑģÑĤÐ°": 31019,
  "ÐĳÑĢÐ¸": 38846,
  "Ð½Ð¾ÑĨÐµÐ½": 44129,
  "ĠÑĨÐµÐ½Ð·ÑĥÑĢÑĭ": 37312,
  "ĠÑĩÐ°ÑģÑĤÐ¸ÑĩÐ½Ð¾": 6638,
  "ĠÐĵÐ¾Ð¹": 41150,
  "ĠÐ´ÑĢÐ¾Ð²": 49758,
  "1932": 15646,
  "ĠÐ¡Ð²Ð¾Ð±Ð¾Ð´Ñĭ": 30723,
  "ÐµÑģÐºÐ¾Ð³Ð¾": 20532,
  "ĠÑıÑĢÐºÐ¸Ð¹": 30958,
  "ĠEst": 44012,
  "Ð¾Ð³Ð¾Ð»Ð¾Ð²": 40528,
  "ĠÑĢÐµÑĦÐµÑĢ": 11900,
  "ĠÐ¾ÑĤÑĩÑĳÑĤÐ»Ð¸Ð²Ð¾": 42608,
  "ĠÑĢÐµÐ»ÑıÑĤÐ¸Ð²": 35593,
  "ĠÐ²ÑĭÑģ": 1007,
  "ĠÐŁÐ¾Ð·Ð´Ð½ÐµÐµ": 9247,
  "ĠÑįÐºÐ¾Ð½Ð¾Ð¼Ð¸ÐºÑĥ": 24132,
  "ĠÐĴÐ¾ÑĢ": 9251,
  "Ð¾ÑĢÐ°Ð±": 2451,
  "ĠÐ¤ÐµÑģÑģ": 27636,
  "ĠÐĺÑģÑĤÐ¾ÑĢÐ¸ÑĩÐµÑģÐºÐ¸Ðµ": 39683,
  "ĠÑĤÑĢÐµÐ±Ð¾Ð²Ð°ÑĤÑĮ": 37746,
  "ĠÐºÐ¾Ð½ÐºÑĥÑĢÐµÐ½ÑĤÐ¾Ð²": 37298,
  "ĠÐ´Ð¾Ð³Ð¼Ð°ÑĤ": 20317,
  "Ð³Ð°Ð½": 829,
  "ĠÑĨÐ²ÐµÑĤ": 2835,
  "Ð¸Ð»Ð¾ÑģÐ¾ÑĦ": 2007,
  "ĠÐ¼ÐµÐ¶Ð´": 968,
  "ĠÑįÐ²Ð¾Ð»ÑİÑĨÐ¸Ñı": 33215,
  "ĠÐ¾ÑģÐ²Ð¾Ð±Ð¾Ð¶Ð´ÑĳÐ½": 16164,
  "ĠÑģÐ²ÑıÐ·ÑĮ": 6130,
  "ĠÐ¼ÑĥÑĩÐµÐ½Ð¸Ðº": 41123,
  "Ð¾ÐºÐ¾Ð²": 5856,
  "ÑĨÐ¸ÑıÐ¼": 11757,
  "ĠÐĲÐ·ÐµÑĢÐ±Ð°Ð¹Ð´Ð¶Ð°Ð½Ðµ": 26327,
  "ÑĬ": 670,
  "ĠÐ¿ÑĥÑĤÐµÑĪÐµÑģÑĤÐ²Ð¸Ð¸": 41646,
  "d": 77,
  "Ð³Ð¾Ñģ": 43621,
  "ĠÐ¿Ð¾Ð´Ð´ÐµÑĢÐ¶ÐºÐ¾Ð¹": 15739,
  "ĠÐ°Ð»ÑİÐ¼Ð¸Ð½Ð¸ÐµÐ²": 27889,
  "ĠÐ¿Ð¾Ð»Ð¸ÑĤÐ¸ÑĩÐµÑģÐºÐ°Ñı": 15955,
  "ÑģÑĢÐµÐ´Ð½ÑıÑı": 49474,
  "Ġ215": 37767,
  "ĠGN": 21248,
  "CP": 15641,
  "ĠÐºÐ¾ÑĢÐ¿ÑĥÑģÐ¾Ð¼": 25812,
  "ĠÐºÐ°Ð¿Ð¸ÑĤÐ°Ð»ÑĮÐ½ÑĭÐ¹": 49048,
  "ĠÐ¾Ð¶Ð¸Ð´Ð°": 14974,
  "ĠÐºÐ¾Ð»Ð»ÐµÐ³Ð¸Ð¸": 20742,
  "Ð½Ð¾ÐºÐ¾Ð¼": 9975,
  "ĠÐ½Ð¾ÑĪ": 24828,
  "ÑĨÐ¸Ð°Ð»ÑĮÐ½ÑĭÐµ": 26124,
  "Ð²Ð¾Ð»Ñİ": 2093,
  "ĠÐĺÐ³": 4936,
  "ĠÐ¿Ð¾Ð¿Ð°Ð»Ð°": 16909,
  "ĠÐ¿Ð»Ð¾ÑīÐ°Ð´ÑĮ": 5173,
  "Ð°ÑĤÐ¾ÑĩÐ½Ð¾": 43075,
  "ĠÑĤÐ²Ð¾ÑĢÑĩÐµÑģÑĤÐ²Ðµ": 11716,
  "Ð°Ñħ": 531,
  "ÐĲÐ¢Ðŀ": 11506,
  "ÑĤÐ¾Ð¼": 1218,
  "ÐµÐ²ÑĢ": 43184,
  "ÐµÐµÐ¼": 21210,
  "ĠÐ¿Ð°ÑĢÐºÐ¾Ð¼": 47991,
  "Ð¸Ð¹Ð½Ð¾Ð¹": 46035,
  "omy": 43380,
  "ĠÐĵÐ°ÑģÐ¿": 34042,
  "unter": 37241,
  "ĠÑĢÐ°Ð¹Ð¾Ð½Ñĥ": 18444,
  "ÑĢÑĥÐ¿Ð¿": 858,
  "ĠÐºÐ¸Ð½Ð¾ÑģÑĤÑĥÐ´Ð¸Ñı": 47382,
  "ĠÐĴÐ¾Ð»ÐºÐ¾Ð²": 23294,
  "ĠMC": 7737,
  "ĠÐŀÐºÐ¸": 31589,
  "ĠÐ±Ð»Ð°Ð³Ð¾ÑģÐºÐ»Ð¾Ð½": 39228,
  "ĠId": 37569,
  "ĠÐ²ÑĭÐ´Ð°Ð»": 32037,
  "ĠÑĢÐ°ÐºÐµÑĤÐ°": 25957,
  "ĠÑĥÐ¼ÐµÐ½ÑĮÑĪÐµÐ½Ð¸Ñı": 21494,
  "ĠÑĤÐ²ÑĳÑĢ": 6712,
  "ĠÐĲÐ²ÑĢÐ°": 19400,
  "ĠÐ½ÐµÐ´Ð°Ð²": 9884,
  "ÐµÐ´Ð¸Ð½Ð¾": 48876,
  "ÑģÐµÑĢÐ²ÐµÑĢ": 48839,
  "ĠÐĶÐ²Ð¾ÑĢ": 8042,
  "ĠÑĥÐ¶ÐµÑģÑĤÐ¾Ñĩ": 42092,
  "ĠÐľÐ°ÐºÑģÐ¸Ð¼": 5471,
  "ĠÐ¿Ð¾Ð»Ð¸": 17735,
  "Ð¾Ð½Ð°ÑĢ": 24699,
  "Ð¸ÑĢÑĥÐµÐ¼Ð¾Ð³Ð¾": 27138,
  "ĠÑģÐ¸Ñı": 24308,
  "Ð»Ð¸ÑģÐ°": 37319,
  "ĠÐłÐ°Ð¼Ñģ": 28018,
  "Ð¸Ð·Ð½Ñĭ": 30156,
  "ĠÑħÐ¸ÑĢÑĥÑĢ": 46987,
  "ĠÐ¿ÑĢÐ¸Ð½ÐµÑģÑĤÐ¸": 29553,
  "ĠÐ¿ÑĢÐ°Ð²Ð¾Ð³Ð¾": 21946,
  "ĠÐ¿ÑĢÐ¸ÑģÑĥÑī": 26536,
  "ĠÐĵÐ¸Ð»": 12863,
  "ĠÐ¿ÑĢÐ¸Ð¶": 18956,
  "2011": 8306,
  "Ð´Ð°ÑİÑĤ": 6081,
  "ĠÐ¾ÑĤÐºÑĢÑĭÑĤÐ¸Ñİ": 41102,
  "ĠÐļÑĥÑĢÑģÐº": 44624,
  "ĠÐ¼Ð°ÑģÑģÐ¾Ð²ÑĭÑħ": 17561,
  "ĠÐ§Ð°Ð¹ÐºÐ¾Ð²ÑģÐºÐ¾Ð³Ð¾": 32719,
  "ĠÐ½ÐµÑĥÐºÐ»Ð¾Ð½Ð½Ð¾": 48775,
  "ĠÐºÐ»Ð°ÑģÑģÑĥ": 18175,
  "Ð¾Ð¿": 438,
  "ĠÐ´Ð¾ÑģÑĤÐ°ÑĤÐ¾ÑĩÐ½Ð¾": 4234,
  "ÐµÑĩÐ½ÑĥÑİ": 39750,
  "ĠÑĤÐºÐ°Ð½Ð¸": 11475,
  "ĠÐ¾Ð»Ð¸Ð²": 26215,
  "1939": 11569,
  "Ð¸Ð²ÐµÑĢÑģÐ¸ÑĤ": 1332,
  "ÐºÐ¸Ð½ÑģÐºÐ¾Ð³Ð¾": 31205,
  "ra": 1838,
  "ĠÐºÐ²Ð°Ð½ÑĤ": 8752,
  "ĠÐ¿ÑĢÐ¾ÑģÑĥÑīÐµÑģÑĤÐ²Ð¾Ð²Ð°Ð»Ð°": 47861,
  "ĠUniversity": 11272,
  "yg": 37230,
  "ĠÐ±Ð°Ð»Ð°Ð½Ñģ": 20572,
  "ĠÑĢÑĥÑĩÐµÐ¹": 29337,
  "ĠÐļÑĥÐ´ÑĢÑıÐ²": 44461,
  "Ð°Ð½Ð½ÑĭÑħ": 2449,
  "ĠÐ¡ÐºÐ°Ð·ÐºÐ°": 47179,
  "ÑĢÐ°Ð·Ð´Ð½": 4945,
  "ĠÐĴÐ°ÑĪÐ¸Ð½Ð³ÑĤÐ¾Ð½Ðµ": 28888,
  "ĠÐ¿Ð¾Ð»ÑĥÑĩÐ°Ð»": 17522,
  "ĠÃ©": 44859,
  "ĠÐ³Ð¸Ð´ÑĢÐ¾Ðº": 18316,
  "ÐļÑĥÐ·": 16579,
  "ĠÑģÑĤÐ°ÑĢÑĪÐ¸Ð¼": 17718,
  "Ð¾Ð»ÑĮÑıÑĤÑĤÐ¸": 31011,
  "ÐµÑĢÑģÐ¾Ð½": 3724,
  "ĠÑģÑĦÐ¾ÑĢÐ¼Ð¸ÑĢÐ¾Ð²": 4996,
  "ĠÐ¿ÑĢÐµÐ´Ð¿Ð¾Ñģ": 28713,
  "ÑĢÐ¾ÑħÐ¾Ð´": 31075,
  "ĠÐŁÐµÐ½Ð·ÐµÐ½ÑģÐºÐ¾Ð¹": 32938,
  "ĠÐ½Ð°Ð·Ð½Ð°ÑĩÐµÐ½Ð¸Ñı": 8378,
  "ÑįÐ´": 7542,
  "ĠÐ³ÑĢÐ°Ð¶Ð´Ð°Ð½ÑģÐºÐ¾Ð¹": 8541,
  "ÐŁÑĢÐµÐ´ÑĭÑģÑĤÐ¾ÑĢÐ¸Ñı": 31957,
  "ĠÐ¿Ð¾Ð¿ÑĢÐ°Ð²": 12929,
  "ÐļÐ¾Ð¼Ð¼ÐµÐ½ÑĤÐ°ÑĢÐ¸Ð¸": 13073,
  "ĠAR": 19472,
  "Ġ1797": 20237,
  "ĠÐ»Ð¸ÑĤÑĢÐ¾Ð²": 36710,
  "ĠÐłÐ¾ÑģÑĤ": 5263,
  "ĠÐ¿ÑĢÐ¾ÑĤÐ¸Ð²Ð½Ð¸Ðº": 27087,
  "ĠÐ·ÐµÐ¼Ð»ÑıÐ½": 46643,
  "ĠÐ¤ÑĢÐ¸Ð´ÑĢÐ¸ÑħÐ¾Ð¼": 41529,
  "Ð¥ÐĲ": 36476,
  "ĠÐ°ÑĨÐµÑĤ": 19519,
  "ÑģÑĢÐµÐ´": 12308,
  "ĠÐ³Ð¾ÑģÑĥÐ´Ð°ÑĢÑģÑĤÐ²ÐµÐ½Ð½ÑĭÐ¼Ð¸": 26777,
  "ĠÑĢÐ¾": 37325,
  "ĠÐ¾Ð¿ÑĢÐµÐ´ÐµÐ»ÑĳÐ½Ð½Ð¾Ð¼Ñĥ": 48399,
  "ÐµÐ¼ÑĭÑħ": 3696,
  "ĠÐ¼Ð°ÑĤÐµÑĢÐ¸Ð°Ð»ÑĮÐ½ÑĭÑħ": 31575,
  "ÐµÑħÐ¸": 13335,
  "ĠÐŁÐµÑĢÐ²ÑĭÐµ": 9979,
  "ĠÐ¿ÑıÑĤÑĮ": 4818,
  "ĠÐ½ÐµÐ¾Ð±ÑĭÑĩ": 9713,
  "ĠÐ½ÐµÐ±Ð¾Ð»ÑĮÑĪÐ¾Ðµ": 16005,
  "ĠÐ´ÐµÑĤÑģÐºÐ¾Ð¼": 41042,
  "ĠÐĺÐ»Ð°ÑĢÐ¸Ð¾Ð½": 48605,
  "ĠÐ¨Ð°Ð´": 33236,
  "ĠÐ¿ÑĢÐµÐ´Ð¾ÑģÑĤÐ°Ð²": 3866,
  "ĠÐ¼ÐµÐ´Ð»ÐµÐ½Ð½ÐµÐµ": 46763,
  "ĠÑĤÐ¾ÑĩÐºÐ¸": 4185,
  "ĠÐ±Ð¾ÐµÐ²Ð¾Ðµ": 35425,
  "1824": 33587,
  "ĠÐ½Ð¾ÑģÐ¸ÑĤÐµÐ»ÑĮ": 37387,
  "ĠÐ¾Ð¿ÑĥÐ±Ð»Ð¸ÐºÐ¾Ð²Ð°Ð»Ð¸": 42468,
  "ĠÑĢÐ°Ð·Ð½Ð¾Ð²Ð¸Ð´": 8569,
  "ÐĴÐ¾Ð»Ð³Ð°": 34877,
  "ĠÐ°ÑĢÑĤÐ¸Ð»Ð»ÐµÑĢÐ¸Ñı": 33934,
  "ĠÑĩÑĥÐ²Ð°": 46252,
  "ÐłÐ°Ð¹Ð¾Ð½Ñĭ": 34725,
  "ÐµÐ½ÐºÐ°": 11613,
  "ĠÐ±Ð»Ð¸Ð·": 2692,
  "Ġ117": 14578,
  "Ð»ÐµÐ²": 3333,
  "ĠÐ¿ÑĢÐ¾Ð²Ð°Ð»": 16466,
  "Ð¡Ð¾Ð²Ð¼ÐµÑģÑĤ": 38423,
  "ĠÐ¢Ð¸ÑĤÐ°": 47120,
  "ĠÐ½Ð°Ð¿ÑĢÐ°Ð²Ð»ÐµÐ½Ð¸Ñı": 5271,
  "ĠÐ²Ð¾Ð»Ð¾ÐºÐ½Ð°": 28187,
  "Ð¿ÐµÑĪ": 13042,
  "ÑĥÑĩÐµÐ½Ð¸ÐºÐ¾Ð²": 39167,
  "ĠÐ¿Ð°Ð½ÐµÐ»Ð¸": 35660,
  "ĠÑģÑĥÑĤÐºÐ¸": 14157,
  "Ð½ÐµÑģÑģÐ°": 34457,
  "ĠÐļÐ°Ð±Ð¸Ð½": 23711,
  "ĠÐ·Ð¾Ð²": 23132,
  "ve": 12790,
  "ĠÐ³Ð¾ÑĢÐ¾Ð´": 638,
  "ĠÑģÐ¾ÑģÑĤÐ¾ÑıÐ»": 10078,
  "ĠÐ´Ð¾ÑģÑĤÐ¸Ð³Ð°Ð»Ð°": 37523,
  "ĠÑĥÐ³Ð»ÐµÑĢÐ¾Ð´": 28349,
  "ĠÑģÑĤÐ°ÑĤÐµÐ¹": 7620,
  "ĠÑģÐ²ÑıÐ·ÑĭÐ²Ð°ÐµÑĤ": 22352,
  "ĠÐºÐ°Ð¼Ð½ÐµÐ¼": 34754,
  "ÑĪÐµÐ½ÐºÐ¾": 22417,
  "ÑĤÐ¾Ð¹": 22011,
  "ĠÐºÐ¾ÑģÑĤÐ¸": 13261,
  "ĠÐĽÐ¾Ñĥ": 38896,
  "ĠÑĢÐ°ÑģÐ¿Ð¾Ð»Ð°Ð³Ð°Ð»Ð¾ÑģÑĮ": 34380,
  "ĠÐºÐ¾Ð´Ðµ": 41959,
  "Ð£Ð¿ÑĢÐ°Ð²Ð»ÐµÐ½Ð¸Ðµ": 30819,
  "ĠÑĨÐ¸Ð²Ð¸Ð»Ð¸Ð·Ð°ÑĨÐ¸Ð¸": 14061,
  "ĠÐ¿Ð»Ð¾ÑīÐ°Ð´ÐºÐµ": 21242,
  "ĠÐ²ÑĭÐ²Ð¾Ð´Ð¸ÑĤÑģÑı": 42880,
  "ĠÐ¾ÑĤÐºÐ»Ð¾Ð½Ð¸Ð»": 38288,
  "ĠÐ²ÑģÐ¿Ð¾Ð¼Ð½": 31557,
  "ĠÑĢÐ°ÑģÑģ": 1769,
  "ĠÐ±ÑĢÐ¸ÑĤÐ°Ð½ÑģÐºÐ¸Ðµ": 26080,
  "ĠÐĿÐ¸Ð³ÐµÑĢÐ¸Ð¸": 39779,
  "Ð¼Ð°ÑĢÑĪÐ°Ð»": 25681,
  "ĠÐ·Ð½Ð°Ð¼ÐµÐ½Ð¸ÑĤÑĭÐµ": 31579,
  "ÑĢÐ¾ÑĦÐµÑģÑģÐ¸Ð¾Ð½": 14982,
  "ĠÑĤÐµÑĢÐ°ÐºÑĤ": 25116,
  "ĠÐ¿ÑĢÐµÐ´Ð¾ÑĤÐ²ÑĢÐ°Ñī": 13851,
  "ÑĭÐ²Ð°Ð½Ð¸ÐµÐ¼": 40601,
  "ÑĢÐµÑĪÐ¸Ð¼": 40157,
  "Ð¡ÑĩÐ°ÑģÑĤ": 46400,
  "ĠÐ¿ÐµÑĢÑģÐ°Ð¼Ð¸": 49680,
  "ĠÐ»Ð°ÑĤÐ¸Ð½ÑģÐºÐ¾Ð¼": 28586,
  "ÑĥÐ»ÑıÑĨÐ¸Ñı": 22242,
  "Ð¾Ð¿ÑĤ": 18384,
  "ĠÑĤÐ¾Ð±Ð¾Ð¹": 48782,
  "ĠÐľÑĳÑĢÑĤÐ²": 44800,
  "ĠÐ´ÐµÑĢÐµÐ²ÑĮÐµÐ²": 13284,
  "ĠÑıÐ²Ð»ÐµÐ½Ð¸ÑıÐ¼Ð¸": 48577,
  "ĠÐ½Ð°ÑĨÐ¸Ð¾Ð½Ð°Ð»ÑĮÐ½ÑĭÑħ": 10534,
  "ĠÐļÐ¸ÐµÐ²ÑģÐºÐ°Ñı": 48737,
  "ĠÐ¿Ð¾Ð±ÐµÐ¶Ð´Ð°ÐµÑĤ": 34192,
  "ĠÑħÐ¾Ð»Ð¾Ð´Ð½ÑĭÐ¹": 35618,
  "ĠÐ¿Ð¾ÑħÐ¾ÑĢÐ¾Ð½Ð¸Ð»Ð¸": 47934,
  "ĠÐļÐ¾ÑĪÐ¸": 45788,
  "ÑģÐ¿Ð°Ñģ": 39133,
  "ÑĥÑĢÑģÐºÐ°Ñı": 43053,
  "ÑĬÑıÑģ": 42283,
  "ĠÐ½ÐµÐ´Ð¾ÑģÑĤÑĥÐ¿": 24680,
  "ĠÐ´ÑĢÐ¾Ð±": 15371,
  "ĠÐĵÑĢÐµÐ¹Ñģ": 40510,
  "ĠÐ´Ð²ÑĥÐ³": 36030,
  "Ð²ÐµÑĢÐ¶Ð´": 2285,
  "ĠÐ²Ð¸Ð´Ñĥ": 10202,
  "ĠÑĤÐ°ÐºÐ¶Ðµ": 650,
  "ĠÐ±ÐµÑĢÐµÐ³Ð°": 10380,
  "ĠÐ¿Ð¾ÑģÐµÐ»": 2519,
  "ĠÐ¾Ð¿ÑĢÐµÐ´ÐµÐ»ÑĳÐ½Ð½ÑĥÑİ": 25633,
  "ĠÑģÐ¿Ð°ÑĢÑĤ": 19701,
  "ĠÑĤÐµÐ¼Ð¿ÐµÑĢÐ°ÑĤÑĥÑĢÐ¾Ð¹": 22331,
  "ĠÐ¿Ð¾Ð²Ð¾Ð·": 45961,
  "ĠÐļÐ°ÑĢÐ»Ð¾Ð¼": 20146,
  "ĠÑĢÐ°Ð·Ð½Ð¾Ð¾Ð±ÑĢÐ°Ð·Ð¸ÐµÐ¼": 41966,
  "ĠÑģÐ¾ÑģÑĤÐ°Ð²Ð»ÐµÐ½Ð¸Ð¸": 44673,
  "ĠÑĪÐµÐ¸": 39201,
  "ÑĢÐ¾ÑģÐ¿ÐµÐºÑĤÐ¸Ð²": 38553,
  "ĠÐ¿ÐµÑĢÐµÐ¿ÑĢÐ°Ð²": 11491,
  "Ð¾Ð³Ð¸": 5169,
  "ĠÐ¶Ð¸Ð²Ð¾ÑĤÐ½ÑĭÑħ": 4721,
  "ĠÐ¡Ð°Ð½ÑĤÐ°": 16101,
  "itÃ©": 42237,
  "ÐĵÐĲ": 25217,
  "oph": 8100,
  "ĠÑĢÐ°ÑģÑģÐ¼Ð°ÑĤÑĢÐ¸Ð²Ð°Ð»": 23728,
  "ÑĩÐºÐ¾Ð¼": 37976,
  "Ð¼Ð°ÑĤÐµÑĢÐ¸": 40604,
  "ĠÐ¿Ð¾Ð»Ð¸ÑĤÐ¸ÑĩÐµÑģÐºÐ¾Ðµ": 21813,
  "ĠÐ¿ÑĢÐ°Ð²ÑĥÑİ": 35488,
  "ĠÐľÐ¾ÑĢÐ¾Ð·": 19130,
  "ÑĪÐ°ÑħÐ°": 39702,
  "Ð¾Ð¿Ð»Ð¾Ñī": 32551,
  "ĠÐŀÑĤÐ²": 30886,
  "ĠÐĲÐ»ÐµÐºÑģÐµÐµÐ²": 13661,
  "ÐµÐ»Ð¸": 747,
  "Ð¼ÐµÐ½": 509,
  "ÐŃÐ»ÐµÐºÑĤÑĢÐ¾Ð½": 30490,
  "ĠÐ£Ð½Ð¸Ð²ÐµÑĢÑģÐ¸ÑĤÐµÑĤÐ°": 12793,
  "ĠÑĤÐ¾Ð¼Ñĥ": 3582,
  "ĠÐ¡ÐŁ": 3831,
  "ÑĪÐ¸ÐµÑģÑı": 9270,
  "All": 39741,
  "ĠÑĥÐºÑĢÐµÐ¿Ð»ÐµÐ½Ð¸Ð¹": 25058,
  "ĠÐ¼ÐµÑħÐ°Ð½Ð¸Ð·Ð¼Ð¾Ð¼": 37388,
  "ĠÐ¿Ð°Ð¿Ðµ": 32375,
  "ĠÑģÐ»Ð¸ÑıÐ½Ð¸Ðµ": 30722,
  "ĠÐĲÐ´Ð°Ð¼Ñģ": 31005,
  "ĠÐłÐ¾Ð¼Ð°Ð½Ð¾Ð²ÑĭÑħ": 31786,
  "ĠÑĢÐ¾Ð¼Ð°Ð½Ñĭ": 19703,
  "ĠÐºÑĢÐ¸Ð²": 9451,
  "ĠÑģÐ¸Ð»Ð¾Ð²Ð¾Ð¹": 36959,
  "ĠÐĽÐµÐ¾Ð½": 4035,
  "Ð¸ÑĤÐµÐ»ÐµÐ¼": 2920,
  "ĠÐ¢ÐµÑĢÐ½": 30441,
  "ĠÐ²ÑĬÐµÐ·Ð´": 32727,
  "ÐľÐ¾Ð»Ð¾Ð´Ð¾Ð¹": 39064,
  "ÑĢÐ¾ÑģÑģ": 9595,
  "ĠÐ´ÐµÐ»ÐµÐ³Ð°ÑĤÐ¾Ð²": 38339,
  "ĠÐ´ÐµÐ¹ÑģÑĤÐ²ÑĥÑİÑīÐ¸Ñħ": 17641,
  "ĠÐ¾ÑģÑĤÐ°Ð½Ð°Ð²Ð»Ð¸Ð²": 14169,
  "ĠÑĦÐ¾ÑĢÐ¼Ð¸ÑĢÐ¾Ð²": 4015,
  "ĠÐ½ÐµÐº": 1163,
  "Ð½Ð¾ÐºÐµÐ½ÑĤ": 18393,
  "ats": 23210,
  "ĠÑĢÐµÑĦÐ¾ÑĢÐ¼Ñĥ": 36250,
  "ÐĿÐ°ÑĢÑıÐ´Ñĥ": 35561,
  "ĠÐľÐ¾ÑģÐºÐ¾Ð²ÑģÐºÐ¸Ð¹": 9077,
  "ÐµÑĢÐ¸Ð°Ð»Ð¾Ð²": 23177,
  "Ð±Ð¾Ð»": 6368,
  "ĠÐ¿ÑĢÐ¾Ð¸Ð·Ð²Ð¾Ð´Ð¸ÑĤÐµÐ»ÑĮÐ½Ð¾ÑģÑĤÑĮ": 27811,
  "ĠÐ£ÑĩÐ¸ÑĤ": 27326,
  "ĠÐºÐ¾Ð½ÑĤÑĢÐ°ÐºÑĤÑĥ": 49813,
  "ĠÐ´ÑĥÑĪÐµÐ²": 21425,
  "ĠÑĦÐ°ÑĢÐ°Ð¾Ð½Ð°": 22885,
  "ĠÑģÑĳÐ³ÑĥÐ½": 42172,
  "Ð¸ÐºÐ°ÑĨÐ¸Ñİ": 43134,
  "ĠÑģÐ¾Ð³Ð»Ð°ÑģÐ¸Ð»Ð¸ÑģÑĮ": 31259,
  "Ġ129": 30887,
  "ĠÐ¿ÑĢÐ¸Ð·Ð½Ð°Ð²Ð°Ð»": 28459,
  "ĠÐ·Ð½Ð°ÑĩÐ¸ÑĤÐµÐ»ÑĮÐ½Ð¾Ðµ": 11025,
  "Ð¾Ð½ÐµÑĤ": 27658,
  "ĠÐ¿Ð¾Ð½ÑıÑĤÐ¸Ñİ": 48992,
  "ĠÐºÐ¸Ð½Ð¾Ð¸ÑģÐºÑĥÑģÑģÑĤÐ²Ð°": 39787,
  "ÑīÐ¸Ðº": 3619,
  "ÑĥÑĢÐ¾Ð¶Ð´ÑĳÐ½Ð½Ð°Ñı": 35866,
  "ĠÐļÐ¾Ð»ÑĮÑĨÐ¾": 40794,
  "ĠÑĨÐµÐ»ÑĥÑİ": 37998,
  "ĠÐ¾ÑĢÐ»Ð°": 23494,
  "ĠÐ¾Ð±ÑĢÐµÐ·": 28944,
  "ĠÐºÐ»Ð°ÑģÑģÐ¸ÑĦÐ¸ÑĨÐ¸ÑĢÐ¾Ð²": 30339,
  "ĠÑĤÑİ": 4434,
  "ĠÑģÐ¾Ð±Ð¸ÑĢÐ°ÑĤÑĮ": 28453,
  "ĠÐ§ÐµÑĩ": 9640,
  "ÑĢÐ¸ÑĤÐ¸ÐºÐ¾Ð²": 20435,
  "Ð¸ÑģÑģÐºÐ¾Ð³Ð¾": 38598,
  "ĠÑĦÐµÐ¾Ð´Ð°Ð»ÑĮÐ½Ð¾Ð¹": 48017,
  "ĠÐ»Ð°ÑĤÑĭÐ½ÑĮ": 41543,
  "Ð¾ÐºÐ°Ñı": 32267,
  "ĠÐ£ÑĢÐ°Ð»ÑĮÑģÐºÐ¾Ð³Ð¾": 37083,
  "ĠÐ¿ÐµÑĢÐµÐ´Ð°ÑİÑĤ": 45964,
  "ÐµÐ½Ñĭ": 787,
  "ĠÑĢÐ°Ð½": 2126,
  "Ð»ÐµÐ½Ð½ÑĥÑİ": 18479,
  "ĠÑĥÐ·Ð½Ð°": 12040,
  "Ð¾ÑģÑĤ": 397,
  "ÑĢÐ¾Ð´ÑİÑģÐµÑĢ": 37795,
  "ĠÑħÑĢÐ¸ÑģÑĤÐ¸Ð°Ð½ÑģÑĤÐ²Ðµ": 32963,
  "ĠÐ¼ÐµÑĤÐ°Ð»Ð»Ð°Ð¼Ð¸": 45422,
  "ĠÐ´ÐµÐ½": 4495,
  "ĠÐ¼Ð»Ð°Ð´": 4631,
  "ÑĦÐ°Ð³": 11841,
  "ball": 44402,
  "ĠÐ²ÐµÐ½": 7398,
  "ĠÑĢÐ°Ð·Ð³ÑĢÑĥÐ·": 47836,
  "ĠÐ¢ÐµÐ»Ð¾": 35068,
  "Ñģ": 295,
  "ĠÑĤÐµÑħÐ½Ð¸ÐºÑĥÐ¼": 18207,
  "ÑĢÐ¾Ð¿Ð¾ÑĢÑĤ": 19483,
  "ĠÐ¸ÑģÐ¿Ð¾Ð»Ð½Ð¸ÑĤÐµÐ»ÑĮÐ½ÑĭÐ¹": 26012,
  "Ð¾Ð¶Ð°Ð½": 11766,
  "ĠÐ»ÐµÐ³Ð»Ð¸": 38274,
  "ĠÐ½Ð°Ð±Ð¸ÑĢÐ°": 25300,
  "ĠÐĲÐ»ÑıÑģÐºÐ¸": 44183,
  "ĠÐľÐµÐ´": 3499,
  "Ð·Ð²ÑĥÑĩ": 9407,
  "Ð¸Ð¼ÐµÑĤ": 9165,
  "ĠÐ´ÐµÑĦÐ¸ÑĨÐ¸ÑĤÐ°": 44119,
  "ĠÑģÐ¿ÐµÐºÑĥÐ»Ñı": 39842,
  "ĠÐľÐ°Ð»Ð¾Ð¹": 14467,
  "ĠÐºÐ¾Ð½ÑģÐ¾Ð»": 30501,
  "ĠÑĢÐ°Ð±Ð¾ÑĤÐ°Ð¼": 30471,
  "Ð°Ð³": 630,
  "ĠÐĲÐ²ÑģÑĤ": 3181,
  "ĠÐ´ÐµÑĤÑģÑĤÐ²Ð¾": 30608,
  "ĠÐ¸Ð¼Ðµ": 1066,
  "ĠÑĤÑĢÐ°Ð½ÑģÐ»Ð¸ÑĢÐ¾Ð²": 26466,
  "ĠÐ¡ÑĤÐ¸Ð»": 42986,
  "Ð°ÑĢÐ¸Ð¹": 5175,
  "ĠTop": 25629,
  "ĠÑģÐ»ÑĥÐ¶Ð±": 20659,
  "ĠÐ¾ÑĤÑģÑĥÑĤÑģÑĤÐ²Ð¾Ð²Ð°Ð»Ð¸": 43078,
  "ĠÐĵÐµÑĦ": 43497,
  "ĠÐ²Ð¾Ð¾Ð±ÑĢÐ°Ð¶": 31379,
  "ÑģÐºÐ¾ÑĤ": 36766,
  "ĠÑģÑĤÐ°ÑĢÑĪÐµÐ³Ð¾": 13706,
  "ĠÐºÐ¾Ð½ÑĤÐ¸Ð½ÐµÐ½ÑĤÐµ": 38727,
  "ĠÐ±Ð¾Ð³Ð¾Ñģ": 11897,
  "ÑĳÐ½ÑĥÑİ": 41672,
  "ÐĴÐ½ÑĥÑĤÑĢÐµÐ½": 27345,
  "ĠÐ±Ð»Ñİ": 19936,
  "ĠÑĢÐ¾ÑģÐºÐ¾ÑĪÐ¸": 46017,
  "ĠÐĳÐ°Ð½Ðº": 22647,
  "ĠÐ¿ÑĢÐ¸ÐºÐ»Ð°Ð´Ð½ÑĭÑħ": 40912,
  "ĠÐ¿ÑĢÐµÐ´ÑģÑĤÐ°Ð²Ð¸ÑĤÐµÐ»ÐµÐ¹": 5396,
  "ĠÐ¼ÑĥÐ½Ð¸ÑĨÐ¸Ð¿Ð°Ð»ÑĮÐ½Ð¾Ð¼": 46071,
  "ĠÐ´Ð°ÑĤÐ¸ÑĢÑĥÐµÑĤÑģÑı": 22973,
  "ĠÐĴÐ¸ÑĦ": 30215,
  "ÐºÐ°Ð½ÑĮ": 23941,
  "Ð»Ð¾Ð²ÑĭÐµ": 25653,
  "ĠÐ¼Ð¾ÑĤÐ¾ÑģÑĤÑĢÐµÐ»": 29779,
  "Ð°ÑĤÐµÐ»ÑĮÐ½Ð¾Ð¼Ñĥ": 35247,
  "ĠÐ¿Ð¾Ð·Ð¸ÑĨÐ¸Ð¸": 6335,
  "ĠÐ²Ð¾ÑģÑģÑĤÐ°Ð½Ð¾Ð²Ð»ÐµÐ½Ð¸Ñı": 12896,
  "ĠÐ¡ÐµÐ¼ÑĳÐ½Ð¾Ð²Ð°": 45158,
  "ĠÐ°ÑĢÐµÑģÑĤÐ¾Ð²Ð°ÑĤÑĮ": 45097,
  "Ð³ÑĥÐ½Ð¾Ð²": 46135,
  "ĠÐ·Ð°ÑĢÐµÐ³Ð¸ÑģÑĤÑĢÐ¸ÑĢÐ¾Ð²": 7699,
  "ĠÐºÑĢÐ°ÑģÐ½ÑĭÐ¹": 14839,
  "ĠÐĹÐ²ÐµÐ·Ð´Ñĭ": 23759,
  "112": 24277,
  "ÑĢÐ°Ð»ÑĮÐ½Ð¾Ðµ": 37055,
  "ĠÐ·Ð°ÑĦÐ¸ÐºÑģÐ¸ÑĢÐ¾Ð²Ð°Ð½Ð¾": 28635,
  "Ð¸ÑģÐ»ÐµÐ½": 2133,
  "ĠÐ»Ð¾ÑĪÐ°Ð´ÑĮ": 26193,
  "ĠÐ¿Ð¾Ð»ÑĥÑĩÐ¸Ð²ÑĪÐ°Ñı": 29182,
  "ĠÐ¿ÐµÑĢÐµÐ»Ð¾Ð¶": 36578,
  "Ð¸Ð´Ð·": 49595,
  "ĠÐĲÐ´Ð¾Ð»ÑĮÑĦ": 17701,
  "Ð§ÐµÐ»ÑģÐ¸": 30728,
  "ĠÑĥÐ¿Ð°Ð»": 22192,
  "ĠÐķÐ²ÑĢÐ¸Ð¿": 38951,
  "ÑıÑĤÑĮÑģÑı": 4422,
  "Ð¾Ð·Ð²Ð°Ð½": 30649,
  "1994": 8989,
  "ĠÑģÐ°Ð¼Ð¾Ð»ÑĳÑĤÐ¾Ð¼": 35692,
  "ĠÐ·Ð°Ð¿ÑĢÐµÑī": 5284,
  "ĠÐŁÐ¾Ð´Ð³Ð¾ÑĢ": 34757,
  "ÑĢÐ°Ð³Ð¼ÐµÐ½ÑĤÐ°": 36171,
  "ĠÐ¡ÐµÐ¹Ð¼": 30098,
  "ĠÐ¿Ð¾Ð»ÑĥÑĩÐ¸Ð»Ð¾ÑģÑĮ": 39709,
  "ÑĥÐ»ÐºÐ°": 49698,
  "ÐĴÐ¿Ð¾ÑģÐ»ÐµÐ´ÑģÑĤÐ²Ð¸Ð¸": 31099,
  "ÐĴÐ°Ð¶": 15046,
  "ĠÐ·Ð°ÑģÑĤÐ°Ð²Ð¸Ð»": 27884,
  "ĠÐ¿Ð¾Ð»Ð¸Ð³": 12450,
  "ÐŁÐµÑĢÐ²Ð¾Ð½Ð°ÑĩÐ°Ð»ÑĮÐ½Ð¾": 17457,
  "ĠÐĴÐ¸ÑĪÐ½Ñĥ": 29394,
  "ĠÑģÐ¾ÑħÑĢÐ°Ð½Ð¸Ð²ÑĪÐ¸ÐµÑģÑı": 34413,
  "ĠÑĤÐµÐ»ÐµÑģ": 8642,
  "ult": 8369,
  "Ð¾ÐºÑĢÑĥÐ³": 15744,
  "ĠÐ²Ð¸Ð·Ð¸ÑĤÐ°": 25972,
  "ĠÑģÑĦÐ¾ÑĢÐ¼Ð¸ÑĢÐ¾Ð²Ð°Ð»ÑģÑı": 34208,
  "Ð±ÑĭÑĪ": 13930,
  "Ġ185": 3235,
  "ĠÐŁÐ°Ð½Ð½": 37686,
  "ĠÐµÐ´Ð¸Ð½Ð¸ÑĨ": 7866,
  "ĠÐ´Ð¾ÑģÑĤÑĥÐ¿Ð½Ð¾Ð¹": 49626,
  "ĠÐ¿ÑĢÐ¾Ð²Ð¾Ð·Ð³Ð»Ð°ÑĪÑĳÐ½": 26869,
  "ĠÑĢÐ°ÑģÑĪÐ¸": 11081,
  "ĠÐ³ÐµÑĢÐ±": 4570,
  "ĠÑħÐ¾ÑĤÑĮ": 17333,
  "ĠÐ´ÑĥÑĢ": 29551,
  "ĠÐ³ÐµÑĢÐ¼Ð°Ð½ÑģÐºÐ¸Ð¼": 46724,
  "ÐĿÐ¸ÐºÐ¾Ð»Ð°": 20632,
  "1976": 12126,
  "ĠÐ¿Ð¸Ð»Ð¾ÑĤ": 9096,
  "Â±": 40637,
  "ĠÐ¢Ð°Ð»Ð»Ð¸Ð½": 39520,
  "Ð¡ÐµÑĢ": 13998,
  "ĠÐ¨Ð²Ð°ÑĢÑĨÐµÐ½": 46373,
  "ĠÐ¿ÑĢÐ¾Ð±Ð»ÐµÐ¼Ð°Ñħ": 43518,
  "ÑįÑĦÑĦÐ¸ÑĨÐ¸": 7541,
  "ÑģÐ´Ð°Ð¼": 39645,
  "ÑĥÑįÑĢ": 9621,
  "irtual": 40210,
  "ĠÑģÐ³Ð¾ÑĢÐ°Ð½Ð¸Ñı": 22626,
  "ĠÐ¨Ð¾Ð¿": 31170,
  "ĠÐ²Ð¾ÐµÐ½Ð½ÑĭÐ¹": 6093,
  "ĠÐ¸Ð·Ð²ÐµÑģÑĤÐ½ÑĭÐµ": 7791,
  "ĠÐ°Ð¼ÐµÑĢÐ¸ÐºÐ°Ð½ÐµÑĨ": 49786,
  "ÑģÐºÐ¾Ðµ": 961,
  "ĠÐ²Ð¾Ð·Ð¾Ð±Ð½Ð¾Ð²Ð¸Ð»": 35300,
  "230": 47557,
  "ÐºÐ¸Ð½ÑĭÐ¼": 29969,
  "ĠÐĳÑĢÐ°Ð¼": 45261,
  "ĠÑĢÐ°Ð±Ð¾Ñĩ": 2633,
  "ĠÐºÐ°Ð²ÐµÑĢ": 26358,
  "ĠÐºÐ¾Ð»Ð»ÐµÐº": 5624,
  "Ð¸Ð³Ð°Ð½": 29481,
  "ĠÑĢÐµÐ°Ð»ÑĮÐ½ÑĭÐ¹": 37425,
  "ĠÑĦÐ¸Ð·Ð¸ÑĩÐµÑģÐºÐ¸Ð¼": 36211,
  "ĠÐ³Ð¾Ð´Ð¾Ð²Ð¾Ð¹": 35064,
  "ĠÐŃÑĢÐ¼Ð¸ÑĤÐ°Ð¶Ð°": 47401,
  "ĠÑĥÐ´ÐµÐ»ÑıÐµÑĤÑģÑı": 49996,
  "Ð°Ð½Ð´Ð°Ñĥ": 31240,
  "ĠÐłÐ¾Ð³Ð¾Ð¶": 46515,
  "ÑĮÐµÑĢÑĭ": 22248,
  "ĠÑģÐµÑĢÐ²ÐµÑĢÐ¾Ð²": 40673,
  "ĠÑģÐ¿Ð¸Ð½Ñĭ": 43245,
  "ĠÐ´ÑĢ": 2628,
  "Ð²Ð°Ð»ÑĮÐ´": 26143,
  "ĠÑĤÐµÐ»ÐµÑĦÐ¾Ð½Ñĥ": 39770,
  "Ð°Ð»ÑĮÐ½Ð¾ÑģÑĤÑĮÑİ": 24612,
  "orks": 46810,
  "ĠÐ¿Ð¾ÑħÐ¾Ð´Ð°Ñħ": 35893,
  "ĠÑģÑĥÐ±ÑĬÐµÐºÑĤ": 10417,
  "ĠÐļÐ°Ð»Ð¸Ð½": 7867,
  "ĠÐ¡ÐµÐ²Ð°ÑģÑĤÐ¾Ð¿Ð¾Ð»Ñı": 31464,
  "Ð¾Ð¿ÐµÑĢ": 17350,
  "ĠÐºÐ¸ÑĤÐ°Ð¹ÑģÐºÐ¾Ð¹": 15554,
  "ĠÐ¾Ð±Ð¾Ð·Ð½Ð°ÑĩÐ°ÑĤÑĮ": 41362,
  "ĠÐĿÐ°Ð¿": 2891,
  "ĠÑģÑĥÑīÐµÑģÑĤÐ²Ð¾Ð²Ð°Ð²ÑĪÐ¸Ñħ": 38426,
  "tern": 6771,
  "ĠÐŁÑĤÐ¾Ð»ÐµÐ¼ÐµÐ¹": 25911,
  "ĠÐ¿ÑıÑĤÐ¸": 6092,
  "Ð¿Ð°Ð¼ÑıÑĤ": 28446,
  "Ð»ÑİÐ±": 5999,
  "ÐļÐ°Ð¼ÐµÐ½": 35638,
  "ĠÑĢÐ°ÑģÑĤÐµÐ½Ð¸Ðµ": 20509,
  "Ð½Ð¾Ð²ÑģÐºÐ°Ñı": 50187,
  "ĠÐ½ÐµÑģÐ¾Ð²ÐµÑĢÑĪ": 18390,
  "Ð»Ð¸Ð³Ð¸": 36551,
  "ÑģÐµÐ»ÑĮ": 11363,
  "ĠÐ·Ð°ÐºÐ»ÑİÑĩÐµÐ½Ð¸Ñı": 10526,
  "Ð¡Ð¾ÑĤÑĢÑĥÐ´Ð½Ð¸ÐºÐ¸": 24855,
  "ĠÐ°ÐºÐ°Ð´ÐµÐ¼Ð¸Ðº": 10345,
  "ĠÐĳÑĢÑĥÐ½": 32644,
  "ĠÐ¥Ð°ÑĤ": 19099,
  "ÐĴÐ¾Ð·ÑĢÐ¾Ð¶Ð´ÐµÐ½Ð¸Ðµ": 45051,
  "ĠÐ¿Ð¾ÐºÐ°Ð·ÑĭÐ²Ð°ÑĤÑĮ": 47953,
  "ĠÐ¥ÐµÑĤ": 49509,
  "ĠÑģÑĥ": 4176,
  "ĠÐĳÐµÐ»Ð³Ð¾ÑĢÐ¾Ð´": 18457,
  "ĠÑĥÑĤÐ²ÐµÑĢÐ¶Ð´ÐµÐ½Ð¸Ð¸": 30228,
  "ĠÑĢÐ¾Ð¼Ð°Ð½": 3778,
  "Ġ1781": 28122,
  "ĠÑģÑĢÐ°Ð²Ð½Ð¸ÑĤÐµÐ»ÑĮÐ½Ð¾": 11448,
  "ĠÐ°Ð»ÑĦÐ°Ð²Ð¸ÑĤ": 13823,
  "ĠDat": 39140,
  "ĠÑįÐºÑģÐ¿ÐµÐ´Ð¸": 40245,
  "ĠÐķÑĦ": 8058,
  "ĠÑĩÐ»ÐµÐ½Ð°Ð¼Ð¸": 12563,
  "ĠÐļÐ¸ÑĢÐ¾Ð²ÑģÐºÐ¸Ð¹": 44385,
  "Ð³Ð¾Ð²ÑĭÑħ": 24814,
  "ÐłÐ¾ÑģÑĤÐµÐ»ÐµÐºÐ¾Ð¼": 36897,
  "ĠÑģÐ¿ÑĢÐ°Ð²ÐºÐ°": 39014,
  "ĠÐºÐ¾Ð»ÐµÐ¸": 42335,
  "ery": 16895,
  "Ġ53": 12395,
  "ĠÑģÐ¾ÑĢÑĤÐ°": 21211,
  "Ð¿Ð¾Ð»ÑĮ": 26649,
  "ĠÐµÐ´Ð¸Ð½ÑĥÑİ": 24831,
  "ĠÑĢÐ¾Ð´Ð½Ð¾Ð³Ð¾": 26511,
  "85": 4734,
  "ĠÐ¾Ð±ÑģÑĤÑĢÐµ": 14437,
  "ique": 16018,
  "ĠÐ²ÑĭÐ¿ÑĥÑģÐº": 2968,
  "ĠÐ¿ÑĢÐµÐ²": 2688,
  "ĠDiv": 30252,
  "ÐľÐ¸ÑħÐ°Ð¸Ð»": 26853,
  "ĠÐ¤Ð¸Ð±": 44724,
  "ĠÐ¼ÐµÑģÑĤÐ°Ð¼": 40760,
  "Ð´Ð²Ðµ": 41606,
  "ÑĢÐ¾ÑĨÐµÑģÑģ": 18705,
  "-,": 15715,
  "ĠÐ¼Ð¸ÑĤÐ¾ÑħÐ¾Ð½Ð´": 25364,
  "ĠÑĢÑıÐ´Ñĥ": 15239,
  "ĠÑĩÐµÐ»Ð¾Ð²ÐµÑĩÐµÑģÐºÐ¾Ð¹": 14737,
  "ĠÐ¿Ð¾ÑıÑģ": 10904,
  "ith": 6987,
  "ĠÐ¿ÐµÑĢÐµÑĩÐµÐ½ÑĮ": 21377,
  "ĠÑģÐµÐ¼ÐµÐ¹ÑģÑĤÐ²Ð¾": 15913,
  "ĠÑĥÐ¿Ð°ÐºÐ¾Ð²ÐºÐ¸": 49831,
  "Ð¤Ð°ÑĢÐ°": 40269,
  "ĠÐ·Ð°Ð¼ÐµÐ½ÐµÐ½Ð°": 28693,
  "ÑĥÐ°": 6620,
  "ÐŁÑĢÐ¾Ðº": 24170,
  "ĠÑģÑĥÐ²": 37029,
  "ĠÐµÐ³Ð¸Ð¿ÐµÑĤ": 9796,
  "ĠÐ¾Ð¿ÑĥÐ±Ð»Ð¸ÐºÐ¾Ð²": 5058,
  "ĠÑĥÐ½Ð¸Ð²ÐµÑĢÑģÐ¸ÑĤÐµÑĤÐµ": 5720,
  "ÐĳÐ°Ð´": 44490,
  "ĠÐ¿ÑĢÐ¾ÑĪÐ»Ð¾": 17770,
  "ĠÑģÐ¾Ð¿ÑĢÐ°Ð²": 40277,
  "ĠÐĳÑĢÑįÐ´": 25912,
  "ĠÐ¡Ð¾Ð±ÑĭÑĤÐ¸Ñı": 42139,
  "Ð¼Ð¸ÑĢ": 6507,
  "Ð¸ÑĦÐ¸ÑĨÐ¸": 17252,
  "ĠÐĽÐµÐ½Ð¸Ð½Ð³ÑĢÐ°Ð´ÑģÐºÐ¸Ð¹": 29420,
  "ĠÐ¿ÑĢÐ¸Ð·ÑĭÐ²Ð°": 33008,
  "Ð²Ð¾Ð·Ð´ÑĥÑĪÐ½ÑĭÑħ": 48279,
  "Ð°Ñı": 394,
  "ĠÐ·Ð½Ð°Ð¼ÐµÐ½": 20148,
  "ĠÐŀÑĤÐ½Ð¾Ñģ": 22349,
  "ÑĤÑģÐºÐ¸Ð¹": 35511,
  "ĠÐ¸Ð¼ÐµÐ½Ð¾Ð²": 14566,
  "ĠÐ®Ð½Ð³Ð°": 47543,
  "ĠÑĨÐµÑĢÐºÐ¾Ð²Ð½ÑĭÐµ": 28692,
  "ĠÐĺÐ½Ð³ÑĥÑĪÐµÑĤÐ¸Ð¸": 46761,
  "1937": 11845,
  "ĠÑģÐµÑģÑģ": 10769,
  "ating": 46268,
  "ÐĴÐ¾ÐºÑĢÑĥÐ³": 39082,
  "ĠÐ½Ð¾Ð³Ñĥ": 29566,
  "Ð¾Ð²Ð°Ð½Ð½Ð°Ñı": 13648,
  "ÐĽÐµÐ½Ð¸Ð½Ð³ÑĢÐ°Ð´": 22041,
  "ÑģÑĤÑĢÐ°Ñı": 41961,
  "ĠÐ¤ÑĢÐ°Ð½ÑĨÐ¸Ñİ": 13853,
  "ĠHar": 17020,
  "Ð¾Ð³ÑĢÐ°ÑĦ": 917,
  "ĠÑģÑĤÐ°Ð²ÑĪÐ¸Ðµ": 34632,
  "ĠÐŁÐµÑĢÐ²Ð¾Ð·Ð²": 32135,
  "ĠÐķÐ´Ð¸Ð½Ð¾Ð¹": 50159,
  "ĠÑģÐºÐ»Ðµ": 48481,
  "1919": 13831,
  "ĠÐ³Ð¾ÑĢÐ¾Ð´ÑģÐºÐ¸Ðµ": 15263,
  "ĠExt": 29358,
  "ĠÐ¿Ð¾Ð´ÑģÑĤÑĥÐ¿": 30158,
  "Ð°ÐºÐ°Ð´": 21963,
  "ĠOxford": 26160,
  "ĠÐļÐ¾Ð½ÑģÑĤÐ¸ÑĤÑĥÑĨÐ¸Ð¾Ð½Ð½ÑĭÐ¹": 42360,
  "ĠÐ²Ð¾Ð¿ÑĢÐ¾ÑģÐ¾Ð¼": 24499,
  "ÐµÑĢÐ½Ð¾Ð³Ð¾": 16506,
  "ĠÐĲÑĤÐ¾Ð¼": 37808,
  "ĠÐ¿Ð¾ÑģÐ²ÑıÑīÐµÐ½Ð½ÑĭÐ¹": 41523,
  "ĠÐĲÐ¹Ð·": 37208,
  "Ð¾Ð²Ð°Ð½Ð½ÑĭÐ¼": 17233,
  "Ð»Ð¸Ð¿": 13635,
  "EX": 36337,
  "ĠÑģÐ»Ð¾Ð¶ÐµÐ½Ð¸Ñı": 32407,
  "Ġ1736": 45895,
  "Ð²ÐµÐ»Ð°": 16177,
  "Ð¼Ð¸Ð½Ñĭ": 12410,
  "ĠÑģÐ»Ð¾Ð¶Ð½Ð°Ñı": 35390,
  "ĠÐ¿Ð¾ÑģÐ»ÐµÐ´Ð½Ð¸Ð¼": 11871,
  "aro": 45473,
  "Ð°Ð±Ð°": 17828,
  "ĠÐĶÐ°Ð¼Ð°": 35714,
  "ĠÑįÐºÐ¾ÑģÐ¸ÑģÑĤÐµÐ¼": 39206,
  "Ġ275": 43650,
  "ĠÐ¿Ð¾ÑĢÑıÐ´ÐºÐ°": 6318,
  "ĠÐ·Ð°Ð¼ÐµÐ½Ð¸Ð²": 42532,
  "ĠÐ³Ñĥ": 22507,
  "Ð¾Ð»Ð¾Ð²Ð¸Ð½Ñĥ": 34495,
  "ĠÑģÐ¾Ð²ÐµÑĢÑĪÐ¸Ð»Ð¸": 23461,
  "Ð¶Ð´": 542,
  "ÐŀÑĤÐµÑĩ": 33447,
  "ĠÐŁÑĢÐ°Ð¹": 33940,
  "ĠÐ¿Ð»Ð¾ÑīÐ°Ð´ÐºÐ¾Ð¹": 50041,
  "ĠÐĳÐµÐ½Ð³": 28973,
  "ĠÐ¼ÑĥÐ¶ÑĩÐ¸Ð½Ð°Ð¼Ð¸": 37535,
  "Ð¸ÐºÐ°ÑĤÐ¾Ð²": 44795,
  "ÐŁÐ¾ÑħÐ¾ÑĢÐ¾Ð½": 6888,
  "ĠÐ´Ð¾Ñĩ": 2561,
  "ĠÐ·Ð°Ð¿ÑĥÑī": 15011,
  "ĠÐ¾Ð³ÑĢÐ¾Ð¼Ð½ÑĭÑħ": 32344,
  "ĠÐłÐĿÐļ": 20044,
  "ĠÐĲÑĢÐ¸": 16290,
  "ĠÑģÑĩÐ°ÑģÑĤ": 8444,
  "ÐŁÐµÑģÐ½ÑĮ": 44184,
  "ĠÐ´Ð¾Ð¼Ð¾Ð¼": 22939,
  "Ð°ÑĤÐ¸ÑĩÐµÑģÐºÐ¾Ð³Ð¾": 32148,
  "ĠÐ½Ð¾Ð¼Ð¸Ð½": 6765,
  "ĠÐºÐ¾Ð½ÐºÑĥ": 23544,
  "ĠÐ¿Ð¾ÑģÑĭ": 49692,
  "eme": 39968,
  "ÐŀÑĨÐµÐ½": 20844,
  "ÐŃÑħÐ¾": 32769,
  "Ð¿Ð¸ÑģÐ¾Ðº": 5094,
  "ĠÑĦÐ¸Ð·Ð¸ÑĩÐµÑģÐºÐ¸Ðµ": 21751,
  "ĠÐ¶Ð¸Ð´ÐºÐ¾Ð³Ð¾": 43017,
  "ĠÐºÐ¾ÑĢÐ¾Ð»ÐµÐ²Ð¾Ð¹": 38228,
  "ĠÐ²ÑģÐµÑĢÐ¾ÑģÑģÐ¸Ð¹": 28739,
  "ĠÑĥÑģÐ¿ÐµÑĪÐ½ÑĭÐ¼": 23151,
  "ĠÐĲÐľÐ¡": 48042,
  "ĠÐ»Ð¸ÑĤÐ¾Ð²ÑģÐºÐ¸Ð¹": 19831,
  "ĠÐ°ÐºÑĤÐ¸Ð²Ð°ÑĨÐ¸Ð¸": 45337,
  "ĠÐµÑīÑĳ": 1437,
  "ĠÐ¼Ð¾Ð»ÐµÐºÑĥÐ»Ñĭ": 17587,
  "ĠÐĽÑİÐºÑģÐµÐ¼": 22878,
  "ĠÐ¿Ð¾Ð»Ð¾ÑĤÐ½Ð°": 34726,
  "ÐµÐºÑĤÐ°Ðº": 16312,
  "ĠÐ¸Ð½ÑĤÐµÑĢÑĮÐµÑĢÐ°": 45275,
  "ĠÑĤÑĭ": 1732,
  "ĠÐ¸Ð·Ð¼ÐµÐ½ÐµÐ½Ð¸Ð¸": 23417,
  "ĠÐ²ÐºÐ»ÑİÑĩÐ¸Ð»Ð¸": 48321,
  "ÐŀÐ´Ð¸Ð½": 13694,
  "ĠÐ¿ÑĢÐ¾Ð¿Ð°Ð³Ð°Ð½Ð´Ðµ": 45437,
  "Ð±Ð¾Ð¹": 5832,
  "ĠÐ½Ð°ÑģÑĩÐ¸ÑĤ": 5466,
  "ÐłÐ°ÑģÐ¿ÑĢÐ¾ÑģÑĤÑĢÐ°Ð½ÐµÐ½Ð¸Ðµ": 22889,
  "ĠÐ¾Ð±Ð½Ð°ÑĢÑĥÐ¶Ð¸Ð»Ð¸": 17632,
  "ÐºÐ¾Ð²Ð¾Ð¹": 6787,
  "ĠÐ¾Ð±ÑĭÑĩÐ½Ð¾": 2886,
  "ÑħÐ°Ð·": 9863,
  "ÑıÐ±ÑĢÑĮ": 3954,
  "ĠÐ¾ÑĤÐ¼ÐµÑĩÐ°Ð»Ð¾ÑģÑĮ": 26689,
  "ĠÐ¼Ð°ÑģÐ»Ñı": 37659,
  "ĠÐŁÐµÑĤÑĢÐµ": 42632,
  "ĠÐ¿ÑĢÐ¾ÐºÐ°ÑĤ": 14992,
  "ĠÑĤÐ¾ÑĢÑĦÐ°": 47667,
  "ĠÐ¾ÑĦÐ¸ÑĨÐµÑĢ": 10320,
  "ĠÐ¼Ð¾ÑīÑĮ": 35462,
  "ĠÐĴÑģÐµÐ³Ð¾": 8210,
  "Ð½Ð¾Ð³Ð¾ÑĢ": 19223,
  "ĠÑĤÑĢÐ°Ð½": 1762,
  "Ġ280": 26551,
  "ĠÑĢÐ°Ð±Ð¾ÑĩÑĥÑİ": 44428,
  "ĠÐ¿ÑĢÐ¾Ð³ÑĥÐ»": 18967,
  "ĠÐ·Ð°Ð¸Ð¼ÑģÑĤÐ²Ð¾Ð²Ð°Ð½Ð¸Ð¹": 38438,
  "ĠÐ¿ÐµÑĢÐµÐ¼ÑĭÑĩÐºÐ¾Ð¹": 16702,
  "ĠÐ£Ð±Ð¸Ð¹ÑģÑĤÐ²Ð¾": 46123,
  "ĠÐºÑĢÐ°ÑģÐºÐ¸": 30166,
  "ĠÐĹÐ´ÐµÑģÑĮ": 5928,
  "ĠÑĥÑģÑĤÐ°Ð½Ð¾Ð²Ð»ÐµÐ½Ð¸Ðµ": 23771,
  "Ġ[âĢ¦]": 41577,
  "ĠÐ¿ÑĢÐ¾Ð²Ð¾Ð´Ð¸Ð»Ð°ÑģÑĮ": 27568,
  "ĠÐ¿Ð¾Ð»Ð¸ÑĤÐ¸ÑĩÐµÑģÐºÐ¸Ñħ": 6731,
  "Ð¾Ð³ÑĢÐ°ÑĦÐ¾Ð²": 50116,
  "ĠÐ´Ð½Ð°": 26449,
  "ÑĢÐµÑĤÑĮ": 4749,
  "ĠÐĵÐ°Ð½Ð½Ð¾Ð²": 28129,
  "ĠÐ±Ð°ÑĪÐµÐ½": 25188,
  "ĠÐľÐ°ÑĢÐ´": 35825,
  "Ð¾Ð»ÑĮÐ½ÑĭÐµ": 8501,
  "ĠÐºÐ°ÑĢÐ°Ð½Ð´Ð°": 40766,
  "ĠÐ¿Ð¾ÑģÐ»ÐµÐ´Ð¾Ð²Ð°Ð»Ð¸": 23516,
  "ĠÐ¢ÑĭÑģÑıÑĩ": 49659,
  "ĠÐ¸Ð·Ð±Ð¸ÑĢÐ°ÑİÑĤÑģÑı": 46741,
  "ĠâĢł": 16929,
  "ĊĠĊĠĊĠĊĠĊĠĊĠĊĠĊĠĊ": 34008,
  "ÐµÐ»ÑĮÐ·Ñı": 8006,
  "ĠÐ¾ÑħÐ»Ð°Ð¶Ð´ÐµÐ½Ð¸Ñı": 23839,
  "ı": 200,
  "ĠÐ¾Ð±Ð¸ÑħÐ¾Ð´": 44324,
  "ĠÑģÐ¼ÐµÐ¶": 26968,
  "ÐĹÐ¾": 40473,
  "ĠÑıÐ²Ð»ÑıÐµÑĤÑģÑı": 1038,
  "ĠÐ·Ð°Ð±Ð»ÑĥÐ¶Ð´ÐµÐ½Ð¸Ðµ": 40518,
  "ĠÐ¿ÑĢÐ¾Ð³Ð¾Ð»Ð¾Ñģ": 18154,
  "ĠÑģÑĢÐµÐ´Ð½ÐµÐ³Ð¾": 8570,
  "ĠÐ¤ÑĢÐ¸ÑĨ": 39047,
  "ÐĴÐ°ÑģÐ¸Ð»Ð¸Ð¹": 38930,
  "ĠÐ¸ÑģÑĤÐ¾ÑĩÐ½Ð¸ÐºÑĥ": 50128,
  "ÐŀÑĢÐ³Ð°Ð½Ñĭ": 36980,
  "ĠÑĨÐµÑĢÐºÐ¾Ð²Ð½ÑĭÐ¹": 32245,
  "ĠÑģÑĤÐ°ÑĢÑĥÑİ": 46421,
  "Ġ177": 44542,
  "Ð¾Ð³Ð»ÐµÐ±": 40302,
  "ĠÐ®ÑĢÐ¸Ð´": 43766,
  "ĠÐ¢ÑĢÐ¸Ð´ÑĨ": 34897,
  "erk": 48954,
  "Ð°Ð²ÑĪÐ¸Ð¼Ð¸": 11430,
  "ĠÑģÐµÐ¿Ð°ÑĢÐ°ÑĤ": 22752,
  "ĠÐºÐ¾Ð½ÑĤÑĢÑĢÐ°Ð·Ð²ÐµÐ´": 34538,
  "Ð°ÑģÑĤÑĢÐ¾ÑĦÐµ": 46083,
  "ĠÐ®Ð½Ð³": 32080,
  "ĠÑİÐ¶Ð½Ð¾Ðº": 30525,
  "ĠÑģÐ»Ð¾Ð²Ð°": 3237,
  "ĠÐ·Ð°Ð¿Ð»Ð°ÑĤÐ¸ÑĤÑĮ": 49004,
  "ÑĥÐ·Ð¸": 47348,
  "ÐĿÐ°Ñģ": 15533,
  "ĠÐ¡Ñĥ": 5381,
  "ÐŁÐ¸Ñģ": 8904,
  "Ð¿Ð¸ÑĥÑģ": 48657,
  "ĠÐ·Ð°Ð¼ÐµÐ´Ð»": 37409,
  "ĠÑĥÑĤÐ¾Ð»": 43512,
  "ĠÐ¿ÑĢÐ¾Ð²Ð¾Ð·Ð³Ð»Ð°ÑĪÐµÐ½Ð°": 25825,
  "Ð¸ÑīÐµÐ²Ð°": 31893,
  "Ð¾Ð¿ÑĢÐ¾Ð²Ð¾Ð·Ð³Ð»Ð°ÑĪ": 44987,
  "ĠÑĢÐ°Ð·ÑĥÐ¼Ð°": 21976,
  "ÑİÐ¼": 19517,
  "ĠÐºÐ¾Ð½Ð½Ð¸ÑĨÑĭ": 33815,
  "Ġ1938": 5473,
  "ĠÐ¼Ð¾Ð½Ð°ÑĢÑħ": 6042,
  "ĠHuman": 36601,
  "ĠÑģÑİÐ·ÐµÑĢ": 39347,
  "ĠÐ¼ÑĥÐ·ÐµÑıÑħ": 48285,
  "ĠÑģÐ¾Ð°Ð²": 25799,
  "ĠMartin": 40213,
  "ĠÑįÐºÑģÐ¿ÐµÐ´Ð¸ÑĨÐ¸Ð¹": 31837,
  "ĠÐ²Ð¾Ð¿Ð»Ð¾ÑīÐµÐ½Ð¸Ðµ": 33605,
  "ĠEast": 37859,
  "ĠÐ½Ð¾ÑĢÐ¼Ð°Ð»ÑĮÐ½Ð¾Ð¹": 25734,
  "ĠÑģÐ»ÑĥÑĩÐ°ÐµÐ²": 7508,
  "ĠÐ°Ð¿": 1162,
  "ĠÐļÐ¾Ð½Ð°Ð½": 40121,
  "ĠÐ´Ð¾ÑģÑĤÐ¸Ð¶": 4786,
  "ĠÐĶÐ¶Ð¾Ð½ÑģÐ°": 37919,
  "ĠÐ²ÑĢÐµÐ´Ð°": 30721,
  "ĠÐ±Ð°ÑģÐºÐµÑĤ": 11917,
  "ĠHoll": 38650,
  "ĠÐ°Ð²ÑĤÐ¾Ð¼Ð°ÑĤ": 5027,
  "ĠÐŀÑĤÐ½Ð¾ÑģÐ¸ÑĤÐµÐ»ÑĮÐ½Ð¾": 45184,
  "Ð¾Ð²Ð¾Ð¼Ñĥ": 25322,
  "Ð¾ÑĤÐºÑĢÑĭÑĤ": 24473,
  "ĠÐŀÐ¿ÐµÑĢÐ°ÑĤÐ¾ÑĢ": 17521,
  "ĠÐºÐ¾ÑģÑĤÐµÐ¹": 22276,
  "ĠÐ¿Ð¾ÑĤÐ¾Ð¼ÐºÐ¾Ð²": 20074,
  "ĠÑģÑĢÐµÐ´": 889,
  "ĠÐ¿Ð¾Ð³ÑĢÐ¾Ð¼": 26243,
  "ÑģÐ¾Ð»ÑİÑĤ": 5391,
  "ĠÐ½Ð°ÑĢÑĥÐ¶": 11867,
  "Ð£Ñģ": 18174,
  "ĠÑģÑĤÑĳÐº": 49184,
  "ÑĨÐºÐ°Ñı": 18436,
  "ĠÐ²Ð·Ð³Ð»ÑıÐ´Ð°": 37666,
  "ĠÐ¿ÑĢÐ¾ÑĨÐµÑģÑģÐ°Ñħ": 26746,
  "ĠÑĦÐ»Ð¾ÑĢÐµÐ½ÑĤ": 38985,
  "Ð¡ÑĬÑĳÐ¼ÐºÐ¸": 28228,
  "ĠTheory": 38086,
  "ÐĶÐ²Ðµ": 31887,
  "ĠÐ³Ð¾Ñģ": 11242,
  "ĠÐºÐ¾Ð½ÑĦÐ»Ð¸Ðº": 4223,
  "ÐľÐ°Ñħ": 24524,
  "ĠÑĢÐµÑģÑĥÑĢÑģÐ¾Ð²": 11249,
  "ÑģÑĥÐ»Ð°": 24333,
  "ĠÐ¿ÐµÑĩÐ°ÑĤÐ°Ð»Ð¸ÑģÑĮ": 42354,
  "ĠFM": 13460,
  "ĠÐķÑĢÐµÐ²": 19399,
  "ĠÑĢÐµÐ²Ð¾Ð»ÑİÑĨÐ¸Ñı": 13431,
  "ĠÐ¿ÑĢÐµÐ¿Ð¾Ð´Ð¾Ð±": 10465,
  "ĠÐºÐ¸ÑĪ": 9718,
  "ar": 841,
  "ĠÐľÐ¸Ð³": 22564,
  "Ð¸Ð½Ñģ": 32870,
  "Ð¾Ð¿ÐµÑı": 47651,
  "ĠÐ»Ð¸ÑĩÐ½Ð¾Ð¹": 15368,
  "awn": 49067,
  "ĠÑģÐ¸Ð½ÑĤÐ¾": 37997,
  "Ð¾Ð½Ð½": 40744,
  "ĠÐ¸Ð·Ð´Ð°Ð½Ð¸ÐµÐ¼": 28006,
  "ĠÐ¸ÐºÐ¾Ð½Ñĭ": 14930,
  "ĠÐ½Ð°ÑĨÐ¸Ð¾Ð½Ð°Ð»Ð¸ÑģÑĤÐ¾Ð²": 30235,
  "Ð¸ÑģÐºÑĥÑģ": 21797,
  "ÑĭÐ²Ð¾ÑĢÐ¾ÑĤ": 37141,
  "My": 35342,
  "ĠÐĴÐ»Ð°Ð´Ð¸Ð¼Ð¸ÑĢÑģÐºÐ¾Ð¹": 21547,
  "aceae": 47161,
  "Ð½Ð°ÑĩÐ°Ð»Ð°": 4615,
  "ĠÐ¿ÑĢÐµÐ²ÑĢÐ°ÑĤÐ¸Ð»Ð¸ÑģÑĮ": 34422,
  "ĠÐļÐ¾ÑĢÐ¾Ð»ÐµÐ²ÑģÐºÐ¾Ð¹": 31491,
  "ĠÐķÐºÐ°ÑĤÐµÑĢÐ¸Ð½Ð°": 10860,
  "ĠÐĹÐ½Ð°Ð¼ÐµÐ½Ð¸ÑĤ": 46735,
  "ĠÑģÐ²Ð°Ð´ÐµÐ±": 30543,
  "ÑİÐ¼ÐµÑĢ": 39441,
  "ĠÐ±ÐµÑģÐ¿Ð¾Ð»ÐµÐ·": 35227,
  "Ð°Ð³ÑĢÐ°Ð¼": 39305,
  "ument": 31321,
  "ĠDigital": 31010,
  "ĠÐ³Ð¸ÑĤÐ°ÑĢ": 18185,
  "ĠÐ¿ÑĤÐµÐ½": 30493,
  "ĠÐºÐ°ÑĢÑĮÐµÑĢÑĥ": 10480,
  "Ð¾Ð²Ð°Ð½Ð¸ÐµÐ¼": 2993,
  "ĠÐļÐ¾Ð¿": 7629,
  "ĠÐ²ÑĭÐ´ÐµÐ»ÐµÐ½": 30586,
  "ĠÐºÐ»Ð¸Ð¼Ð°ÑĤÐ¾Ð¼": 38681,
  "ĠÐľÐ¸ÑħÐ°Ð¹Ð»Ð¾Ð²Ð½Ð°": 28084,
  "ĠÐºÐ¾Ð¾ÑĢÐ´Ð¸Ð½Ð°ÑĤÑĭ": 20895,
  "Ð»Ð°Ð»": 20117,
  "ĠÑĤÐµÑĢÑıÑİÑĤ": 41160,
  "ĠÑģÐ²ÑıÐ·Ð°Ð½Ð½ÑĭÐ¼": 33622,
  "cyclop": 23047,
  "ÐµÑģÑĤÐ²Ñĥ": 4971,
  "ÐĲÐ¼ÑĥÑĢÐµ": 46199,
  "ĠÐºÑĥÐ»ÑĮÑĤÑĥÑĢÐµ": 6583,
  "ÐµÐ¹Ð½Ð¸": 34556,
  "ĠÐ¾ÑĢÐ¸ÐµÐ½ÑĤÐ°ÑĨÐ¸Ñı": 44380,
  "ĠÐ¤ÑĢÐ°Ð½ÑĨÐ°": 28076,
  "ĠÑĤÑĢÐ°Ð²ÑıÐ½": 39573,
  "Ġ</": 49727,
  "ĠÐĻÐ¾Ð·ÐµÑĦ": 20741,
  "ĠÐ°Ð²ÑĤÐ¾Ð¼Ð¾Ð±Ð¸Ð»ÐµÐ¹": 10057,
  "ÑĢÑıÐ¼ÑĥÑİ": 15000,
  "ĠÐŁÑĢÐ¾ÑĢ": 29320,
  "ĠÐ¿ÐµÑħÐ¾ÑĤÐ°": 42939,
  "ĠÑĢÐ°ÑģÐºÐ°Ð»": 46347,
  "ÐµÑĢÐµÐ¹": 6795,
  "ĠÐ®Ð³Ð¾ÑģÐ»Ð°Ð²Ð¸Ð¸": 15370,
  "ĠÐ·Ð°Ð½ÑıÐ»Ð¾": 48312,
  "ĠÐĵÐµÑģ": 45007,
  "ĠÐºÐ»Ð°ÑģÑģÐ¸ÐºÐ¸": 49122,
  "ĠÐ¿Ð»Ð°Ð½Ð°Ñħ": 24039,
  "111": 34641,
  "ĠÐ¾Ð±ÑĭÑĩ": 1972,
  "ĠÑĨÐ¸ÐºÐ»Ð°": 9134,
  "Ð¾Ð³ÐµÐ½Ð½Ð¾Ð³Ð¾": 50180,
  "ial": 7119,
  "ĠÑģÑĤÐ¾ÑĢÐ¾Ð½Ð°": 13500,
  "Ð¸Ð½Ð½Ð¾Ð³Ð¾": 36152,
  "ĠÐ¿ÑĢÐ¾Ð´Ð¾Ð»Ð¶": 1665,
  "ÑĭÐ´": 4373,
  "ĠÐ¡Ð¼Ð¸ÑĢÐ½Ð¾Ð²Ð°": 40507,
  "ĠÐ¾ÑĤÐ´Ð°Ð½": 44018,
  "ĠÐ·Ð°ÐºÑĢÑĭÑĤÑĭÐ¹": 47238,
  "ĠÐ¾ÑĨÐµÐ½ÐºÐµ": 15127,
  "ĠÐ±Ð¾ÐµÑģÐ¿Ð¾ÑģÐ¾Ð±": 41009,
  "ĠÐºÐ¾Ð¼Ð¿ÑĮÑİÑĤÐµÑĢÐ°": 16415,
  "ĠÐ¤Ð¸": 36506,
  "ĠÑĢÐ°ÑģÑģÐºÐ°Ð·Ðµ": 24117,
  "ĠÐ´ÑĥÐ³Ð¸": 27776,
  "ĠÐĵÑĥÐ¼": 18654,
  "ĠÑĤÑĢÑĥÐ´Ñĥ": 42870,
  "Ð°ÐºÑģÐ¸": 32157,
  "ĠÐ²ÑħÐ¾Ð´Ð¾Ð¼": 39562,
  "Ð¼ÐµÐ¹": 6757,
  "ÐµÑģÑĤÐ¸Ð²Ð°Ð»Ñı": 8851,
  "ĠÑĩÐµÑĢÐµÐ¿Ð°Ñħ": 38436,
  "Ð¸ÑģÐ¿ÑĭÑĤ": 16001,
  "ĠÐ´ÑĢÐ°Ð³Ð¾ÑĨÐµÐ½": 14557,
  "Ð¸Ð¹ÑģÐºÐ¸Ð¹": 2376,
  ".:": 1721,
  "ĠÐ³Ð¾ÑĢÑıÑĩÐµÐ¹": 40857,
  "ĠÐ»ÐµÐ´Ð½Ð¸ÐºÐ¾Ð²": 20599,
  "ĠASCII": 48776,
  "ĠÐłÐŀ": 24199,
  "ĠÐľÐ°ÑĢÑģÐµ": 48323,
  "Ġ31": 4196,
  "ĠÐºÑĥÐ»": 16236,
  "ÐĵÐµÐ¾ÑĢÐ³Ð¸Ð¹": 49833,
  "ĠÑĤÐ°Ð¹Ð½Ð¾": 21049,
  "ÑĢÐ°Ð²Ð¾Ð¾ÑħÑĢÐ°Ð½ÐµÐ½Ð¸Ðµ": 31610,
  "ÐĽÐ¸Ðº": 46262,
  "ĠÐ¡Ð°ÑĢÐ°": 11209,
  "ĠÐ¿ÑĢÐ¾Ð´Ð¾Ð»Ð¶Ð°ÑİÑĤ": 19380,
  "Ð¿Ð¾ÑįÑĤ": 35838,
  "Ð¸ÑģÑĮ": 596,
  "ĠÐ£Ð¾ÑĤÑģÐ¾Ð½": 41132,
  "ĠÐ¿Ð»Ð°Ð½Ð°Ð¼": 41405,
  "ĠÐĺÑģÑĤÐ¾ÑĢÐ¸Ñı": 5412,
  "ĠÐ¸Ð½ÑĦÐ°Ð½ÑĤÐµÑĢÐ¸Ð¸": 35058,
  "ĠÐ¿ÑĢÐµÐ´ÑģÐµÐ´Ð°ÑĤÐµÐ»ÐµÐ¼": 9500,
  "136": 46704,
  "Ð½Ð°ÑĩÐ¸Ð½Ð°Ñı": 45204,
  "ĠÑĢÐ¸ÑģÐºÐ°": 21487,
  "Ð°ÑĤÐ¾ÑĢÐµ": 27675,
  "ĠÐ½ÑĭÐ½ÐµÑĪÐ½ÐµÐ¹": 26675,
  "Ð¾Ð²ÐºÐ°": 10074,
  "ĠÐ¼Ð¾Ð¼ÐµÐ½ÑĤÐ°": 6869,
  "ĠÐ¾ÑĢÐ³Ð°Ð½Ð¸Ð·Ð°ÑĤÐ¾ÑĢÐ¾Ð¼": 42640,
  "ĠÑĥÑģÐ»Ð¾Ð²Ð¸ÐµÐ¼": 24095,
  "ĠÑıÐ¸ÑĨ": 21016,
  "ÑıÑīÐµÐ¹": 8278,
  "ĠÐĶÐ¶ÐµÐº": 8329,
  "ÐºÐ¸Ð½ÑģÐ¾Ð½": 50038,
  "Ð¢Ð¾Ð»ÑģÑĤ": 19837,
  "ĠÐºÐ¾Ð¼Ð¼ÐµÐ½ÑĤ": 7321,
  "Ð¡Ð°Ð¼": 5176,
  "ĠÑĢÐ¾Ð´Ð½ÑĭÑħ": 38524,
  "ĠÐļÐ¾Ð½ÑĦÐµÐ´ÐµÑĢÐ°": 29708,
  "Ð°ÑĤÐ°Ð¼Ð¸": 13859,
  "ĠÐ±Ð°ÑĪÐ½Ð¸": 11551,
  "ĠÐ±ÑĥÐ½Ð´": 47191,
  "ĠÑĤÑĢÐ¸Ð´ÑĨÐ°ÑĤÐ¸": 29570,
  "ĠÑįÐºÐ¾Ð½Ð¾Ð¼Ð¸ÑĩÐµÑģÐºÐ¾Ðµ": 26459,
  "Ð¸Ð¼Ð¾Ð²": 8786,
  "ĠÑıÐ³Ð¾Ð´": 32056,
  "ÐµÐ²Ð°Ð½Ð¸Ñı": 38165,
  "ĠÐ¿Ð¾ÑģÑĤÑĥÐ¿ÐºÐ¸": 44432,
  "ĠÐ´Ð²Ð¾ÑĢÑĥ": 30743,
  "ĠÑĤÑĢÐ°ÐºÑĤÐ°": 32490,
  "ÑĪÐµÐ»ÑĮ": 21702,
  "ÐĶÐ°Ð½": 21545,
  "1784": 49782,
  "SB": 2392,
  "ĠÑĤÐ²ÑĳÑĢÐ´Ð¾": 48911,
  "ĠÐ¼Ð½Ð¾Ð³Ð¾ÑĩÐ¸ÑģÐ»ÐµÐ½": 4156,
  "ĠÐ·Ð°Ñı": 2330,
  "ĠÐ½ÐµÐ·Ð°": 34127,
  "ĠÐºÐ¾Ð»ÐµÐ½": 31018,
  "ĠÐ¾Ð±ÑĬÑĳÐ¼Ð¾Ð²": 33208,
  "ĠÐ±ÐµÐ»Ð¾ÑĢÑĥÑģÑģÐºÐ¾Ð¹": 37752,
  "ĠÐĴÐ¾Ð¿ÑĢÐ¾ÑģÑĭ": 18387,
  "Ð»Ð¸Ð²ÑĥÐ´": 15160,
  "ĠÐ¿ÑĢÐ¸Ð²ÐµÐ»Ð¸": 10431,
  "ĠÑıÑīÐ¸Ðº": 38076,
  "ĠÑĤÑĢÐµÑĤÑĮ": 3230,
  "ĠÐ½ÐµÐ½Ð°Ð²Ð¸ÑģÑĤÑĮ": 35982,
  "Ġ1821": 21347,
  "ĠÐ³Ð»Ð°": 45317,
  "ÑĨÐ¸Ð½": 8962,
  "ĠÑĥÐ³Ð¾Ð»Ð¾Ð²Ð½Ð¾Ð³Ð¾": 21874,
  "ĠÐļÐ°ÑģÐ¿Ð°ÑĢÐ¾Ð²": 47623,
  "ÃŃ": 12256,
  "Ġ8": 1095,
  "ĠÐ¤ÑĢ": 31144,
  "ÐŀÑĩÐµÑĢÐºÐ¸": 48627,
  "ĠUGC": 10964,
  "ĠÐ¼ÐµÐ½ÑĮ": 3101,
  "ĠÐ²Ð°ÑĢÐ¸Ð°Ð½ÑĤ": 3496,
  "Ã´": 35377,
  "ÑħÑĥÐ´Ð¾Ð¶": 18526,
  "ĠÐ¸Ð½ÐºÐ²Ð¸Ð·": 33403,
  "Ð¢Ð¡": 12110,
  "Ð¸Ð»ÑĮÐ´Ð¸Ð¸": 19024,
  "ÑĢÐ°Ð»ÑĮÐ½Ð¾Ð¹": 23370,
  "ĠÑĥÑģÑĤÐ°Ð½Ð°Ð²Ð»Ð¸Ð²Ð°ÐµÑĤ": 28772,
  "Ð»Ð°ÑģÐ°": 18412,
  "ĠÐĶÐ°ÑĤ": 22597,
  "ĠÐ´Ð°Ð½": 1187,
  "ĠÐ¸ÑģÑĤÐ¾Ð»ÐºÐ¾Ð²": 26859,
  "Ð¾Ð¿ÑĢÐ¸Ð¼ÐµÑĩ": 6820,
  "ĠÐ¼Ð½Ð¾Ð¶": 2556,
  "ĠÐ³Ð¾Ð²Ð¾ÑĢ": 2112,
  "ĠÐĽÐ¾Ð¼Ð±Ð°ÑĢÐ´": 42979,
  "ĠÐ¢ÐŃ": 16397,
  "ĠÐ´ÑİÐ¹Ð¼Ð°": 47324,
  "do": 44931,
  "ĠÑģÐ²ÐµÑĤÐµ": 17453,
  "ĠÐ½Ð°ÑģÑĤÐ¾Ð»ÑĮÐ½ÑĭÑħ": 47731,
  "ĠÑĢÐ°Ð²Ð½Ð¾Ð´": 26418,
  "Ð½ÐµÐ³": 4939,
  "Ð°ÑıÐ½Ð°": 40747,
  "Ġ64": 8452,
  "ĠÐŁÐ¸Ð¿": 28919,
  "ĠÐºÐ¾Ð¼Ð¼ÑĥÐ½Ð¸ÑģÑĤÑĭ": 48259,
  "ĠÑģÑĤÐ°Ð½ÑĥÑĤ": 39006,
  "ĠÑĢÐ°ÑģÑħÐ¾Ð´Ñĭ": 18249,
  "Ð»ÐµÐ¼Ñĥ": 15892,
  "ĠÐ·Ð°ÑĢÑıÐ´Ð°": 18994,
  "Ð°Ð²ÑĪÐµÐµÑģÑı": 18865,
  "our": 4342,
  "ĠÑģÐ»Ð¸Ñı": 11767,
  "ĠÑģÐ°Ð´Ð¾Ð²": 23083,
  "Ð°Ð´Ð¾Ð±": 34898,
  "ÑĩÐµÑģÐºÐ¸Ð¹": 5194,
  "ĠÑģÐµÐ²ÐµÑĢÐ½ÐµÐµ": 24693,
  "ĠÐ½Ð°Ð·": 33265,
  "ĠSpring": 48509,
  "ĠÐ¾Ð±ÑĥÑĩÐµÐ½Ð¸Ð¸": 44565,
  "ĠÑģÑĤÐ²Ð¾Ð»Ð¾Ð²": 34105,
  "ĠÑģÐ²ÐµÑĢÑħÑĬÐµÑģÑĤ": 30041,
  "ĠÐ¾Ð±ÑĥÐ²ÑĮ": 38201,
  "ĠÐ·Ð°ÐºÑĢÑĭÑĤÐ°": 23709,
  "ĠÐĴÐ¾Ð»Ð³Ðµ": 25810,
  "ĠÑģÐµÐºÑĤÐ¾ÑĢÐ°": 18253,
  "ĠÐºÑĢÐµÐ´Ð¸ÑĤ": 13369,
  "ĠÐ¾ÑĤÐºÑĢÑĭÑĤÐ¾Ð³Ð¾": 19282,
  "ĠÑģÐµÐ³Ð¾Ð´Ð½ÑıÑĪ": 12184,
  "ĠÐ´Ð²Ð¾ÑĢÑıÐ½ÑģÐºÐ¸Ð¹": 29695,
  "ĠHer": 12475,
  "ĠÐ²ÑĭÐ´Ð²Ð¸Ð³": 16488,
  "ÐĴÐµÑģÑĤ": 16697,
  "Ð¾ÑĦÐ¸ÑĨÐ¸Ð°Ð»ÑĮÐ½ÑĭÐ¹": 40680,
  "oes": 17262,
  "ĠÐ°ÑĢÑħÐ¸ÑĤÐµÐºÑĤÑĥÑĢÐ½ÑĭÑħ": 30351,
  "ĠÐ»Ð¸ÐºÐ²Ð¸Ð´Ð°": 10802,
  "ĠÐ¡Ð¸Ð½Ð³Ð°Ð¿": 26122,
  "ĠÐ´ÑĥÑĪÑĥ": 16311,
  "ĠÐŃÐ¼Ð¼Ð°Ð½": 44107,
  "ĠÑĢÐ°Ð·Ð³Ð¾Ð²Ð°ÑĢÐ¸Ð²": 34775,
  "ĠÐ²ÑĭÑģÑĤÑĥÐ¿Ð°ÐµÑĤ": 9652,
  "ĠÑģÐ¾ÑĩÐ¸Ð½": 3652,
  "mes": 36587,
  "ĠLord": 49030,
  "Ð°Ð´Ð°Ð³Ð°": 33788,
  "Ð¾Ð°ÐºÑĤÐ¸Ð²": 44474,
  "yst": 7891,
  "ĠÑĪÐ²ÐµÐ´Ñĭ": 48980,
  "ĠÑģÐµÑĢÐ¿": 49517,
  "ĠÑıÐ´ÐµÑĢÐ½Ð¾Ð¹": 18073,
  "ĠÐ·Ð°Ð´ÑĥÐ¼": 12931,
  "ĠÐĿÐ°ÑĢÐ¾Ð´Ð½ÑĭÐ¹": 13956,
  "ĠÐ½Ð°ÑģÑĤÐ¾Ñı": 19192,
  "ÑħÐ¾Ð´Ð¸Ð¼Ð¾ÑģÑĤÐ¸": 39146,
  "Ġ(,": 3110,
  "esc": 30010,
  "ĠÐ¤ÑĢÑĥÐ½Ð·Ðµ": 32012,
  "ĠÐ¾Ð¼": 17980,
  "Ð¾ÑĦÐµÑĢ": 37736,
  "ĠÐ¿ÑĢÐ¾Ð´Ð°Ð¶Ñĥ": 18446,
  "ĠÐºÑĢÐ°Ðµ": 12792,
  "ĠÐ¶ÐµÐ»ÑĥÐ´": 11124,
  "ĠÐ·ÐµÐ¼Ð½Ð¾Ð³Ð¾": 31318,
  "Ð¾Ð³Ð½ÑĥÑĤ": 30634,
  "ĠÐĳÑĥÑĦÑĦ": 40795,
  "ĠÑĥÑĩÐµÐ½ÑĭÐµ": 42089,
  "ĠÐ¿ÑĢÐ¾Ð´ÑİÑģ": 5494,
  "ĠÐ·ÐµÑĢÐº": 10995,
  "ĠÐ²ÑħÐ¾Ð´Ð°": 18113,
  "ĠÐĴÐ°Ð´Ð¸Ð¼": 14944,
  "Ð¾Ð½ÑĤÑĢÐ¾Ð»": 37479,
  "ĠÐ¸ÑģÐ¿ÑĢÐ°Ð²": 9435,
  "ĠÐĶÐ¼Ð¸ÑĤÑĢÐ¸": 7334,
  "ĠÐ¿ÑĢÐ¾ÑıÐ²Ð¸Ð»": 25478,
  "ĠÑģÑĤÐ°Ð½Ð¸ÑĨÑĭ": 29155,
  "ĠÐºÑĢÑĥÐ¿Ð½ÐµÐ¹ÑĪÐµÐµ": 39054,
  "Ġ2007": 2594,
  "ÑĪÐºÐ°": 15981,
  "ĠÐĶÐ¾ÐºÑĤÐ¾ÑĢ": 19033,
  "ĠÐĶÐ¸Ð°Ð¼ÐµÑĤÑĢ": 41703,
  "ĠÐĹÐ°Ð²Ð¾Ð´": 18495,
  "VD": 9670,
  "ĠÐ¾Ð±Ð»Ð¸Ðº": 16656,
  "Ð²Ð°Ð»Ð¸ÑĦ": 48539,
  "ĠÑįÑģÐºÐ°Ð´ÑĢÐ¸Ð»ÑĮ": 31274,
  "ÐľÐ£": 37814,
  "ÑĳÑĤÐµ": 49420,
  "ĠÐºÑĢÑĭÐ»Ð°ÑĤ": 25266,
  "ĠÐ¦Ð²ÐµÑĤÐ°": 30570,
  "ÐľÐ°ÑĤÐµÐ¼Ð°ÑĤÐ¸ÐºÐ¸": 39284,
  "ÐŁÑĢÐ¸ÑĤ": 23182,
  "ÐĴÐ»Ð°ÑģÑĤÑĮ": 47652,
  "ĠÐ±ÑĥÐ´": 1209,
  "ĠÐ¿Ð¾Ð¼Ð¾Ð³": 4676,
  "ĠÐµÑģÑĤÐµÑģÑĤÐ²": 29289,
  "ĠÐłÐ¾Ð±ÐµÑĢ": 49796,
  "ĠHol": 31317,
  "ÑĢÐµÐ»Ð¸": 7858,
  "ÐºÐ¾Ð¹": 1070,
  "ĠÐ°ÑģÑģÐ¸ÑģÑĤ": 18473,
  "ĠÑįÐ¿Ð¾ÑħÐ°": 24896,
  "ĠÑģÐ¾Ð·Ð´Ð°Ð½Ð½ÑĭÑħ": 23654,
  "Ġalign": 22807,
  "ĠÐĲÑĢÐ¼ÐµÐ½Ð¸Ñı": 23260,
  "Ð»Ð¸ÑĨÑĭ": 21678,
  "ĠÐ½Ð°ÑĪÐµÐ³Ð¾": 12717,
  "ÑĤÐµÑĤ": 30404,
  "ÐŁÑĢÐµÐ¼": 14988,
  "ĠÐĲÐ»ÑĤÐ°Ð¹": 14830,
  "ĠÐ°Ð»ÑĦÐ°Ð²": 3656,
  "ĠÑħÐ°ÑĢÐ°ÐºÑĤÐµÑĢÐ°": 9294,
  "ĠÑĥÐ¼": 3767,
  "ÑģÐµÑĢÐ¸Ñı": 32940,
  "ĠÐ¿Ð¾Ð³ÑĢÐµÐ±ÐµÐ½Ð¸Ñı": 35083,
  "ÐµÑģÑĮÑİ": 28874,
  "Ð½ÑıÐ»Ð¸": 19807,
  "ĠÐ¾ÑģÑĤÐ°Ð²Ð°Ð»Ð¾ÑģÑĮ": 19544,
  "ĠÐĳÐµÐ½ÐµÐ´Ð¸Ðº": 19056,
  "ĠÐ¿ÑĢÐ¸Ð´ÐµÑĢÐ¶Ð¸Ð²Ð°Ð»ÑģÑı": 32689,
  "ĠÑģÑĬÐµÐ·Ð´Ðµ": 14627,
  "ĠÐ»Ð°Ð¼": 27736,
  "ĠÐĵÑĢÐ°Ð¶Ð´Ð°Ð½": 8028,
  "Ð¸Ð²ÑĪÐ¸Ð¼Ð¸ÑģÑı": 30462,
  "ĠÐ¸Ð½ÑĤÐµÑĢÐµÑģÐ½ÑĭÑħ": 46428,
  "ĠÐ¸Ð·Ð¼ÐµÐ½Ð¸Ð»Ð°ÑģÑĮ": 27221,
  "ĠÐ¿ÑĢÐ¾ÑĤÐ¸Ð²Ð½Ð¸ÐºÐ¾Ð¼": 20825,
  "ÑĩÐµÑģÐºÐ¾Ð¼Ñĥ": 41164,
  "ÐĶÐµÐ¹ÑģÑĤÐ²Ð¸Ðµ": 22694,
  "ĠÐ¢ÑĥÑĤ": 16310,
  "ĠÐ²ÑĭÐ·Ð²Ð°Ð½Ð½ÑĭÑħ": 42760,
  "ĠÐ¼Ð¸ÑĢÐ½Ð¾Ð³Ð¾": 19425,
  "ĠÐļÑĥÐ¿ÐµÑĢ": 34392,
  "ĠÐ¾Ð±ÑīÐµÑģÑĤÐ²Ð¾Ð¼": 21421,
  "ĠÐ¿Ð¾ÑģÑĤÑĢÐ¾Ð¸ÑĤÑĮ": 13435,
  "ĠÑģÑĥÐ¼Ð¼Ðµ": 19954,
  "ÐŁÐ¾Ð²": 11075,
  "ÑĸÐ½": 35532,
  "ĠÐľÐ¸ÑĦ": 25387,
  "ĠÐ¾ÑĤÐ¼ÐµÑĩÐ°Ð»": 10936,
  "ĠÑĦÐ°Ð½ÑĤÐ°ÑģÑĤÐ¸ÐºÐ°": 42359,
  "ĠÐ½Ð¾Ð²ÐµÐ»Ð»Ñĭ": 43443,
  "ĠÑĢÐ°Ð¹Ð¾": 29663,
  "ÐĲÐ¡": 8587,
  "ĠÐĹÐ°Ð¿Ð°Ð´Ð½Ð¾Ð¹": 6703,
  "Ġ1777": 31146,
  "ĠÐ½Ð°Ð·Ð½Ð°Ñĩ": 2051,
  "Ġ1768": 31549,
  "ĠÐ¾ÑĦÐ¾ÑĢÐ¼": 6547,
  "Ð¾Ð´Ð¸": 11471,
  "Ð¸Ð·Ð°ÑĨÐ¸Ñı": 2389,
  "ĠÑĤÐ¾ÑĢÐ¼Ð¾Ð¶ÐµÐ½Ð¸Ñı": 45186,
  "ÑĤÐ¸Ð²Ð½Ð°Ñı": 34179,
  "ĠÑģÑĤÑĢ": 6088,
  "Ð¡ÑĤÐ°ÑĢÑĭÐ¹": 35859,
  "ĠÐ¼Ð°ÑĤÐµÑĢÐ¸Ð½ÑģÐºÐ¾Ð¹": 25995,
  "ĠÐ¿ÑĢÐ¾ÑĪÐ»ÑĭÑħ": 46338,
  "ĠÑħÑĥÐ¶Ðµ": 23958,
  "ĠÐ¢Ð°Ð¸Ð»Ð°Ð½Ð´": 47177,
  "ĠÐ¿ÑĢÐ¾Ð´Ð¾Ð²Ð¾Ð»ÑĮ": 12125,
  "ĠÐ¿ÑĢÐ¸Ð´ÐµÑĢÐ¶Ð¸Ð²Ð°Ð»Ð¸ÑģÑĮ": 49386,
  "ĠÑĢÐµÐºÐ»Ð°Ð¼Ð°": 41641,
  "ĠÐ¿Ð¾Ð·Ð¸ÑĨÐ¸Ñİ": 11298,
  "ĠÑħÑĥÐ´Ð¾Ð¶ÐµÑģÑĤÐ²": 13482,
  "Ð¾Ð»Ð¾Ð³Ð¸ÑĩÐµÑģÐºÐ¸Ñħ": 5492,
  "ĠÐ±Ð¸Ð±Ð»Ð¸Ð¾ÑĤÐµÐº": 7461,
  "Ð¾ÑģÑĦÐµÑĢÑĭ": 31182,
  "ÐµÑīÐ°Ð½Ð¸Ðµ": 35248,
  "ĠÐ¡Ð°Ð½ÑĩÐ¾": 46336,
  "ĠÐ¿Ð¾ÑĤÐµÑĢÐ¿ÐµÐ»": 18996,
  "ĠÐļÐ°Ð»Ð¸ÑĦÐ¾ÑĢ": 9349,
  "ĠÑĪÐ²ÐµÐ´Ð¾Ð²": 37781,
  "ĠÐĴÑĢÐµÐ¼ÐµÐ½Ð½Ð¾Ðµ": 36185,
  "Ð·Ð¸Ð½": 15212,
  "ĠÐ¿Ð¾Ð²ÐµÑĢÑħÐ½Ð¾ÑģÑĤÑĮ": 10233,
  "ĠÐ°ÐºÑĤÐ¸Ð²Ð¸ÑģÑĤÐ¾Ð²": 36009,
  "ĠÐ¼ÑĭÑĪÐ¸": 25477,
  "ĠÐ±ÑĢÐ¾Ð½Ð·Ð¾Ð²": 46349,
  "ĠÐ¼Ð¾Ð»ÐµÐºÑĥ": 41706,
  "Ð¾Ð»Ð¾Ð³Ð¸Ñı": 2255,
  "ĠÐ¿ÐµÑĢÐ¸Ð¾Ð´Ð°": 4724,
  "ĠÑīÐ¸ÑĤÐµ": 28224,
  "ĠGa": 43376,
  "ĠÑĢÐ°ÑģÐ¿ÑĢÐ¾ÑģÑĤÑĢÐ°Ð½ÐµÐ½Ð¸Ð¸": 34642,
  "Ð°ÑĢÐ¸Ñī": 6984,
  "ĠÑĤÑĥÑĤ": 10410,
  "ĠÐºÐ¾Ð½ÐºÑĥÑĢÐµÐ½ÑĨÐ¸Ð¸": 26371,
  "Ð°ÑĢÑħÐ¸ÑĤÐµÐºÑĤÐ¾ÑĢ": 46058,
  "ĠBank": 24331,
  "ĠÐ¼Ð¸ÑģÑĤÐµÑĢ": 30868,
  "ĠÑĢÐµÐ²Ð¾Ð»ÑİÑĨÐ¸Ð¾Ð½Ð½ÑĭÐµ": 49299,
  "ĠÑĥÐ½Ð¸ÐºÐ°Ð»ÑĮÐ½ÑĭÐµ": 38107,
  "ĠÑĦÐ¸Ð»Ð¾Ð»Ð¾Ð³Ð¸ÑĩÐµÑģÐºÐ¸Ñħ": 39166,
  "ĠÐ¿Ð¾ÑĤÐ¾Ð¼": 3519,
  "ĠÑĦÐ¸Ð»ÑĮÐ¼Ð¾Ð¼": 13153,
  "ÑĢÐ°Ð³Ð¼ÐµÐ½ÑĤÑĭ": 49555,
  "Ġif": 41023,
  "ĠÐŁÐµÐ¿": 33682,
  "ĠÐ¼Ð¸Ð½Ð¾ÑĢ": 41094,
  "ĠÐ±Ð°ÑĢ": 4248,
  "ĠÐ¼ÐµÑĤÑĢÐ¾Ð¿Ð¾Ð»Ð¸ÑĤÐµÐ½": 28963,
  "ÐĵÐ°": 24476,
  "ĠÐļÑĢÐ°Ð²": 24923,
  "ÑİÐ·": 2447,
  "ĠÐ¿Ð¾Ð´Ð³ÑĢÑĥÐ¿Ð¿": 37654,
  "ĠRh": 33333,
  "ĠÐ±ÑĥÐ¼Ð°Ð¶": 17675,
  "ĠÐ¿ÑĢÐ¾ÑģÑĮÐ±Ñĥ": 35331,
  "ÐµÐ»Ð¸Ð¹": 13213,
  "ÐµÐ¼Ð¾Ðµ": 10925,
  "ĠÐ¿ÑĢÐ¾Ð´Ð°Ð¶Ð¸": 12551,
  "ĠÐ²ÐµÑī": 2289,
  "ĠÐµÐ³Ð¸Ð¿ÑĤ": 26646,
  "ĠDros": 18668,
  "ĠÐłÐ°Ð±Ð¾ÑĤÐ°": 21931,
  "ĠÐ´Ð¸ÑĦÑĦÐµÑĢÐµÐ½ÑĨÐ¸ÑĢÐ¾Ð²": 29542,
  "ĠÐ½Ð¾ÑĢÐ¼Ñĭ": 15431,
  "ĠÐ¼Ð¾Ð´ÐµÑĢÐ½Ð¸Ð·Ð°ÑĨÐ¸Ñİ": 43853,
  "ĠÐĲÐ³Ð°Ð¼": 46657,
  "Ð¾Ð²Ð°Ð½Ð¸Ñı": 1220,
  "Ð¸Ð½ÑĤÐµÑĢÐ½": 27124,
  "ĠÑĤÑĢÐ°Ð²": 5222,
  "ĠÑĦÐ¸Ð»ÑĮ": 952,
  "ĠÐ¼Ð¾Ð³Ð¸Ð»Ð°": 23977,
  "ÑĩÐ¸Ð²Ð¾ÑģÑĤÐ¸": 40023,
  "ĠÐ³ÑĢÐ°Ð¼Ð¼": 23020,
  "Ð¼Ð¾ÑģÐ°": 42443,
  "ĠÐ¿Ð¾ÑģÑĤÐ°Ð²Ð»ÐµÐ½Ñĭ": 30580,
  "ÐµÐ½Ð°": 707,
  "ÐµÐ½Ð¸Ð½ÑĭÐ¼": 48155,
  "ph": 4336,
  "ĠÑĥÐ´Ð¾ÑģÑĤÐ¾ÐµÐ½": 14722,
  "ĠÐĲÐŀ": 10947,
  "ĠÐ¡Ð¾ÑĦÑĮÑı": 27427,
  "ĠÐ²Ð´Ð²Ð¾Ðµ": 19957,
  "ĠÐ¸ÑģÐºÐ»ÑİÑĩÐµÐ½Ð¸Ñı": 20260,
  "ĠÐ²ÑĢÐ°ÑĤÐ°": 29826,
  "ĠÐļÑĢÐ°ÑģÐ½Ð¾": 7682,
  "ÑİÑīÐ°Ñı": 3534,
  "Ð¾Ð½": 345,
  "ĠÑĪÐ²ÐµÐ¹ÑĨ": 11880,
  "ĠÐ¼Ð¾ÑĩÐ¸": 44391,
  "ĠÐ¿ÑĢÐ¾Ð¶Ð¸Ð²Ð°ÑİÑīÐ¸Ñħ": 34212,
  "ĠÐºÐ¾Ð¼Ð¿Ð¾Ð·Ð¸ÑĨÐ¸Ñİ": 23813,
  "Ð¾Ð±Ð»Ð°ÑģÑĤ": 39849,
  "ĠÐ¯Ð´": 26881,
  "ĠÐ§ÐµÐ»ÑıÐ±Ð¸Ð½ÑģÐºÐ¾Ð¹": 30876,
  "ament": 33901,
  "ĠÑįÑĢÐ¾ÑĤ": 25234,
  "Ġ1878": 13436,
  "ĠÐ¶ÐµÐ»ÐµÐ·Ð¾Ð±ÐµÑĤÐ¾Ð½Ð½ÑĭÑħ": 38632,
  "ÐĲÐ»ÑĮ": 9389,
  "Ð¸ÑĤÐµÐ»Ð¸": 1729,
  "ĠÐ½Ð°ÑĩÐ¸Ð½": 2590,
  "ĠÐ¼Ð¸ÐºÑĢÐ¾Ñģ": 18922,
  "ĠÐĶÐµÐ²ÑĥÑĪÐºÐ°": 45917,
  "ĠMill": 41157,
  "ĠDev": 21000,
  "ĠÐ½Ð°ÑģÑĤÐ°Ð²Ð½Ð¸ÐºÐ¾Ð¼": 43476,
  "ĠÐ½ÐµÑĦÑĤÐµÐ¿ÐµÑĢ": 30294,
  "ĠAth": 43190,
  "ÐºÑĢÐ°ÐµÐ²ÐµÐ´ÑĩÐµÑģÐºÐ¸Ð¹": 34567,
  "ĠÐĴÐ°Ð»ÑĮ": 11074,
  "ĠÑĢÐ°Ð¿": 42112,
  "Ð½Ð°ÑģÑĤ": 6432,
  "ĠÐ¿ÑĢÐ¾ÑģÑĤÐ¾ÑĤÑĭ": 44740,
  "ĠÐ´ÐµÐ¿Ð¾ÑĢÑĤÐ°ÑĨÐ¸Ð¸": 41923,
  "Ð°ÑĢÐ½Ð¾Ðµ": 22754,
  "ĠÐ¾ÑĢÐ³Ð°Ð½Ð¸ÑĩÐµÑģÐºÐ¸Ñħ": 20419,
  "1835": 30362,
  "Ê": 142,
  "Ð¸ÑħÐ¸": 9699,
  "Ð¾Ð±Ð¾Ð´": 1641,
  "ÑĮÑģÑı": 15657,
  "ĠÐ¿Ð¾ÑĤÐ¾ÐºÐ¸": 31550,
  "ĠÑįÐºÐ·Ð°Ð¼": 18728,
  "ĠÐ¢ÑĢÐµÑĤÑĮÑı": 15810,
  "ĠÐ¤Ðµ": 13591,
  "ĠÐŁÐ°Ð¿Ñĭ": 42946,
  "ĠÑģÐ¿ÐµÑĨÐ¸": 6998,
  "ĠÐ¢ÐµÐ³ÐµÑĢÐ°Ð½": 30629,
  "ÑĢÑĥÑģÑģÐºÐ¾Ð¹": 24933,
  "ĠÐĴÐ¾ÑģÑĤÐ¾ÑĩÐ½Ð¾Ð³Ð¾": 19988,
  "ĠÐ¿ÑĢÐ¾ÑĤÐ¸Ð²Ð¾ÑĢÐµÑĩ": 6834,
  "ĠÐłÐ¾Ñĥ": 48140,
  "ÑıÐ½ÐºÐ°": 23945,
  "ĠÐ¾ÐºÐ°Ð·Ð°Ð»Ð¸ÑģÑĮ": 8544,
  "ĠÐ¼ÐµÐ¶Ð´Ñĥ": 1166,
  "ĠÐ½ÐµÐ¼ÐµÑĨÐºÐ¾Ð³Ð¾": 9158,
  "ĠÐŁÐ¾ÑģÑĤÐ°Ð½Ð¾Ð²ÐºÐ°": 34934,
  "ĠÐ¾Ð¿ÑĢÐµÐ´ÐµÐ»ÑĳÐ½Ð½ÑĭÐ¼": 22555,
  "ĠÐ¸Ð¼Ð¿ÐµÑĢÐ¸ÐµÐ¹": 19041,
  "ÑĩÐ¸ÑĤÐ°ÐµÑĤÑģÑı": 11876,
  "Ð°Ð½ÑģÐºÐ¾Ð¼Ñĥ": 27488,
  "Ð½ÐµÐ¹ÑĪÐµÐµ": 18543,
  "Ð°Ð¶Ð´": 9363,
  "ĠÑĤÐµÐ¼Ð¿ÐµÑĢÐ°ÑĤÑĥÑĢ": 10611,
  "ĠÐ°ÐºÑĤÐ°Ñħ": 43778,
  "ĠÑģÑĤÑĢÐ°ÑħÐ°": 23598,
  "ĠÐĶÐ¾Ð»Ð¸Ð½Ð°": 41112,
  "ÐµÐ´Ð°": 4433,
  "ĠÐ´Ð¸ÑģÑĤÑĢÐ¸Ð±": 21944,
  "Ġvon": 13854,
  "ĠÐĵÐµÑĢÐ°ÐºÐ»Ð°": 36539,
  "<s>": 1,
  "ĠÐľÐ¸Ð»Ð°Ð½Ðµ": 39680,
  "Ð³ÑĥÐ½": 11576,
  "ĠÐ§ÐµÑĩÐµÐ½ÑģÐºÐ¾Ð¹": 31906,
  "ÑİÑĢÑĭ": 18882,
  "Ð¡ÑĥÐ²Ð¾ÑĢ": 44052,
  "ĠÐ·Ð°ÐºÐ»ÑİÑĩÐ¸ÑĤÑĮ": 21235,
  "Ð°Ð²ÑĪ": 893,
  "Ð¡ÐĿ": 33943,
  "ĠÐ·ÐµÐ»": 31071,
  "ĠÐ¿Ð»Ð¾ÑģÐºÐ¾Ð¹": 45222,
  "ÑĪÐ¾Ñĥ": 22563,
  "ĠÐ²Ð·ÑĢÑĭÐ²Ð¾Ð²": 45571,
  "ĠÐ¶ÐµÐ»Ð°Ð½Ð¸Ðµ": 14748,
  "ĠÐĽÑĥÐ·": 40114,
  "ĠÐ¡Ð¾Ð²": 1321,
  "ĠÑĨÐ¸Ð°Ð½": 38387,
  "ĠÑģÑĤÑĢÐ¾Ð¸ÑĤÐµÐ»ÑĮÑģÑĤÐ²Ð¾": 4492,
  "ĠÐĵÑĢÐ¾Ð´Ð½Ð¾": 30969,
  "ĠÐĹÐ°Ð²Ð¾ÐµÐ²": 36851,
  "ĠÐ±ÐµÐ·Ð´ÐµÑĤ": 35960,
  "ĠÑģÑĤÐ°ÑĢÐ¸": 12881,
  "aw": 9470,
  "ÐµÐ²Ð¸Ð´ÐµÐ½Ð¸Ðµ": 29037,
  "ĠÐ½Ð°Ð»Ð°Ð´": 26622,
  "ĠÑįÑģÐºÐ°Ð´ÑĢÑĭ": 30899,
  "ĠÑĤÑĢÐ°Ð´": 6962,
  "ĠÐ¿ÑĢÐ¸ÑĩÐ¸Ð½": 3703,
  "ĠÑĤÐ°ÑĢÐ°": 39244,
  "ÐłÑĥÐ±Ð¸Ð½": 39784,
  "Ġ2014": 3005,
  "ĠÐºÐ¾Ð´Ð°": 12508,
  "ĠÐĵÐ°Ð²Ð°Ð¹": 31062,
  "ÑįÐ¹": 2538,
  "ĠÐ½ÐµÐ²Ð¾Ð·Ð¼Ð¾Ð¶Ð½Ð¾ÑģÑĤÑĮ": 33492,
  "ideo": 22774,
  "Ġ328": 46555,
  "ĠÐľÑĳÑĢ": 41440,
  "Ð°Ð³Ð½Ð¸ÑĤ": 8183,
  "ĠÐ¡Ð¼Ð¾Ð»ÐµÐ½ÑģÐº": 30761,
  "ĠÐ¸Ð½ÑĦÐ¸ÑĨÐ¸ÑĢÐ¾Ð²": 45326,
  "ĠÐĶÐ¾Ð´": 33749,
  "ĠÐ¼Ð¸ÑĦÐ¾Ð²": 25247,
  "ĠÐ²Ð°ÑĪ": 18131,
  "eph": 46903,
  "ĠÐ·Ð°Ð´Ð½Ð¸Ð¹": 42930,
  "ĠÐ±ÑĭÐ²ÑĪÐ°Ñı": 18943,
  "ÑĢÐ¸Ð¾ÑĤ": 32053,
  "ÐĴÑģÐµ": 6933,
  "ĠCorp": 41478,
  "ĠÑĤÐµÑħÐ½": 2075,
  "ÑħÐ¾Ð·Ð°": 22158,
  "ĠÐ¾Ð¿ÑĢÐµÐ´ÐµÐ»ÑıÐµÑĤÑģÑı": 8328,
  "ÑĨÐ¸Ð¾Ð½ÐµÑĢÐ¾Ð²": 16453,
  "ĠÐ¸ÑģÑĤÐ¾ÑĢÐ¸Ñı": 4699,
  "Ð²ÐµÑĢÑģÐ¸Ñı": 24012,
  "ÐĲÐºÑĤÑĳÑĢÑĭ": 42480,
  "ĠÐ¦ÐµÐ½ÑĤÑĢ": 8836,
  "OH": 19149,
  "ĠÑĥÑĩÐµÐ½Ð¸ÐºÐ°": 29955,
  "ĠÑģÐ¾Ð¾Ð±ÑīÐ°ÑİÑĤ": 28984,
  "ĠÐľÑĥÑĪ": 46115,
  "ĠÐĳÐ°": 6883,
  "ĠÐ¿ÑĢÐ¾Ð²ÐµÐ´ÑĳÐ½Ð½Ð¾Ð¹": 48725,
  "ĠÐ¡Ð£ÐĳÐĶ": 38343,
  "ĠÐľÐ¾Ð¸Ñģ": 27992,
  "ĠÐŁÐ»Ð°ÑĤÐ¾Ð½": 27209,
  "ĠÐĽÐ°Ð²ÐºÑĢÐ°": 28061,
  "ĠÐ¸Ð¼ÐµÑİÑīÐ¸Ðµ": 13361,
  "ĠÐļÐ°ÑĢÐ»Ñĥ": 34052,
  "ĠÐ¸Ð½ÑĦÐ¾ÑĢÐ¼Ð°": 2406,
  "ĠÑģÑĤÐµÐ¿Ð¸": 24928,
  "ĠÐĳÐ°Ð¶": 38940,
  "1819": 35319,
  "ĠÑģÐ¾Ð¿ÑĢÐ¾Ð²Ð¾Ð¶Ð´Ð°": 16644,
  "ĠÐ¿Ð»Ð°ÑĤÑĦÐ¾ÑĢÐ¼Ñĥ": 42695,
  "ĠÐ¿ÑĢÐ¸ÐµÐ·Ð¶Ð°Ð»": 46517,
  "ÑĩÐ°ÑĤÑĭÑħ": 17123,
  "Ð°ÐºÐ¸Ð½": 35379,
  "ĠÐºÐ°Ð¼ÐµÑĢÑĥ": 26760,
  "ĠÐŁÐ°ÑĢÑĤ": 9320,
  "ĠÐ¾Ð±ÑĭÐºÐ½Ð¾Ð²": 10618,
  "ĠÑĢÐ°Ð·Ð´ÐµÐ»Ñı": 8585,
  "ĠÐ¾Ð¿Ð¿Ð¾Ð·Ð¸ÑĨÐ¸Ñı": 35433,
  "ÑĳÐ»Ð°Ñı": 22808,
  "ĠÐ¼ÑĥÐ·ÑĭÐºÑĥ": 8662,
  "ĠÐ²Ð°Ð¼Ð¿": 19863,
  "ĠÐ¤ÑĢÐ°Ð½ÑĨÐ¸ÑģÐºÐ°": 33354,
  "ĠÐ²ÑĭÐ»ÐµÑĤÐ°": 39198,
  "ĠÐĺÑĩ": 44344,
  "ĠÐ´Ð»Ð¸ÑĤÐµÐ»ÑĮÐ½Ð¾Ð³Ð¾": 21792,
  "Ð½Ð¾Ð²ÑĭÑħ": 15332,
  "Ð¸Ð»Ñİ": 38352,
  "ĠÐļÐ¾ÑĢ": 1739,
  "ÑĢÐ°ÑĤÐµ": 29375,
  "ĠÐŁÐ¾Ñģ": 4757,
  "Ð¥ÑĢÐ¾Ð½Ð¸ÐºÐ°": 49116,
  "ÑįÑĪ": 12517,
  "Ð½ÐµÑĨÐºÐ¸Ð¹": 38518,
  "ĠÑĢÐ°ÑģÑģÑĥÐ´": 34949,
  "ĠÑıÐ²Ð¸Ð»Ð¸ÑģÑĮ": 36919,
  "ÑĥÑĢÑıÐ´": 33545,
  "ĠÑĢÐ°Ð·Ð¼Ð½Ð¾Ð¶": 13038,
  "ĠÐŁÑĢÐ¸Ð¼ÐµÑĩÐ°Ð½Ð¸Ñı": 36674,
  "ĠÑĢÐµÐ²Ð¾Ð»ÑİÑĨÐ¸Ð¾Ð½ÐµÑĢ": 25639,
  "ĠNature": 45969,
  "ĠÑĤÐµÐ»ÐµÑģÐµÑĢÐ¸Ð°Ð»Ð°": 30531,
  "ĠÐ¿ÑĢÐ¾Ð½Ð¸Ð·": 41754,
  "ÑĥÐµÐ¼Ð¾Ð¹": 34957,
  "Ð°Ð»Ð¸ÑĦÐ¸ÑĨÐ¸ÑĢÐ¾Ð²": 14905,
  "ĠÐ´ÐµÐ¿Ð°ÑĢÑĤ": 8405,
  "ÑĳÐ½ÐºÐ°": 28734,
  "1847": 30160,
  "ĠÐĴÐµÐ·": 37037,
  "ĠÐ²ÐµÑĤÐ¾": 49624,
  "ĠBattle": 38707,
  "ĠÑģÐ»ÐµÐ´ÑģÑĤÐ²Ð¸Ñı": 27088,
  "ÐļÐ¾Ð»Ð¸ÑĩÐµÑģÑĤÐ²Ð¾": 31060,
  "Ð¾Ð´Ð¸Ð¾Ð´": 33853,
  "ĠÐ·Ð²ÑĥÐºÐ¾ÑĢ": 36225,
  "ĠÑĥÑĩÐµÐ±Ð½ÑĭÐµ": 18923,
  "ĠÐŁÐ°ÑĢÑĤÐ¸Ð·": 45573,
  "ĠÐ½Ð°Ð±Ð»ÑİÐ´Ð°Ð»Ð¾ÑģÑĮ": 41284,
  "ÑĥÑİÑīÐ¸Ñħ": 3246,
  "ĠÐ¿ÐµÑĢÐµÐ¼Ð¸ÑĢÐ¸Ðµ": 28916,
  "ĠÐ¾ÑĤÐ½Ð¾ÑģÐ¸Ð»ÑģÑı": 20398,
  "ÑĢÐµÑī": 4229,
  "ĠÐ½ÐµÐºÐ¾ÑĤÐ¾ÑĢÐ¾Ð¼": 30193,
  "ĠÑħÐ°Ð·Ð°ÑĢ": 49909,
  "ĠÐĲÐ¿Ð¾ÑģÑĤ": 21365,
  "ĠÑģÐ¾Ð´ÐµÐ¹ÑģÑĤÐ²": 10545,
  "ÐľÑĥÐ·ÑĭÐºÐ°": 14920,
  "ĠÑĢÐ°Ð²Ð½Ð¾Ð²ÐµÑģÐ¸Ðµ": 34969,
  "Ð¾ÑĦÐ¾Ð½": 13392,
  "Ð°ÑĤÑĤ": 7472,
  "ĠÑĥÐ¼ÐµÑĢ": 2616,
  "ift": 37636,
  "ĠÑĥÐ½Ð°ÑģÐ»ÐµÐ´": 41485,
  "ĠÐķÐ³Ð¾ÑĢ": 17956,
  "ÐĴÐ¾ÑģÐ¿Ð¸ÑĤ": 46550,
  "ĠÐĵÐµÑĢÑĪÐµÐ»ÑĮ": 39331,
  "ĠÑģÐ²Ð¾Ð¸Ð¼": 3196,
  "ÑĢÐ¾ÑģÐ¸Ð»": 9664,
  "ĠÐºÐ¾Ð¼Ð¼ÐµÐ½ÑĤÐ°ÑĢÐ¸ÑıÐ¼Ð¸": 45445,
  "ĠÐ¿Ð¾ÑģÐ¾Ð»ÑĮ": 10987,
  "ĠÐķÐ²ÑģÐµÐ²": 36909,
  "Ð¿Ð°ÑĢÐº": 37232,
  "ĠÐ²Ð¾ÑģÐ¿Ð¸ÑĤÐ°Ð½Ð¸Ñı": 21391,
  "ĠÑĤÐ¾ÑĢÐ³Ð¾Ð²Ð»Ñı": 15416,
  "ĠÐ¿ÑĢÐ¸Ð½ÑĨÐ¸Ð¿": 3158,
  "ÑģÐºÐ°Ð·": 2532,
  "Ð»ÐµÑģÑĤ": 15625,
  "ĠÐ¼Ð°ÑģÑģÐ¾Ð²ÑĭÐ¼": 31260,
  "ĠEngine": 38159,
  "Ð¸ÑĤÑĥÐ°ÑĨÐ¸Ñı": 30253,
  "ĠÑĤÐºÐ°Ð½ÑĮ": 28119,
  "ĠÐ¿ÐµÑĢÐµÐ»": 9658,
  "ĠÐ»ÑİÐ±Ð»Ñİ": 33960,
  "Ð½Ð°Ñģ": 7610,
  "ĠÐ¼ÑĥÐ½Ð¸ÑĨÐ¸Ð¿Ð°Ð»ÑĮÐ½Ð¾Ð³Ð¾": 9483,
  "ĠÐĸ": 1139,
  "ĠÐ²Ð¾Ð»ÑĮÑĤ": 47855,
  "ĠÐ¿Ð¾ÑĢÑıÐ´ÐºÐ¾Ð¼": 36269,
  "ĠÐľÐ°Ð´Ð¾Ð½Ð½Ð°": 45507,
  "osm": 35574,
  "ĠÐ²Ð¾ÑģÐ¿Ð°Ð»": 17663,
  "ĠÐ§ÐµÑĢÐµÐ¼": 49304,
  "ĠÑĥÑģÐ¿ÐµÐ²": 28802,
  "Ð°Ð»ÑĮÑģÐºÐ¾Ð³Ð¾": 14704,
  "ĠÐ¡ÐºÑĥÐ»ÑĮÐ¿": 24245,
  "ĠÐºÐ°ÑĩÐµÑģÑĤÐ²Ð°Ð¼Ð¸": 43682,
  "ĠÐ¢ÑĢÐ°Ð½ÑģÑģ": 37677,
  "ĠÐĽÐ¸Ð³Ð°": 39045,
  "ĠÐ¾ÑĤÑģÑĤÐ°": 18931,
  "Ġ10": 1167,
  "ĠÑĦÐ¸Ð·Ð¸ÐºÐ¸": 8751,
  "ĠÐĵÐłÐŃÐ¡": 34551,
  "ĠÐ¾Ð±ÑīÐµÐ¶Ð¸ÑĤ": 48602,
  "ÐŁÑĢÐ°Ð²Ð´Ð°": 25029,
  "Ð¸ÑĦÐµÑģÑĤÐ°": 48235,
  "ĠÑĨÐ°ÑĢÐ¸": 10182,
  "ĠÐ¾ÑĤÐ²ÐµÑĢÑģÑĤÐ¸Ñı": 24432,
  "23": 2191,
  "issenschaft": 45508,
  "ĠÐ²Ð¾ÑģÑĤÐ¾ÑĩÐ½ÑĭÐµ": 26495,
  "ĠÐ²Ð¾ÐµÐ½Ð½Ð¾": 4767,
  "ĠÐ²Ð¾Ð·Ð¼Ð¾Ð¶Ð½Ð¾ÑģÑĤÑĮÑİ": 21113,
  "ĠMaster": 35455,
  "ĠÐ¤Ð¸Ð»Ð¸Ð¿Ð¿Ð¾Ð¼": 43727,
  "ĠÐ¼ÑĥÐ·ÑĭÐºÐ°Ð»ÑĮÐ½ÑĭÐµ": 16321,
  "Ð¸Ð¼Ð¾": 2620,
  "ĠÐ°Ð»ÑĮÐ±Ð¾Ð¼Ð¾Ð²": 12744,
  "Ð¤ÑĢÐ°Ð½ÑĨÐ¸Ñı": 12293,
  "ĠÐ¸Ð¼Ð¿Ð¾ÑĢÑĤ": 18819,
  "Ð¾Ð»Ð°": 1680,
  "ĠÐ¾ÑģÑĤÐ°ÑĤÐ¾Ðº": 33913,
  "ĠÐ´ÐµÑĤÑģÐºÐ¸Ñħ": 13904,
  "ĠÐ»ÑĳÑĤÑĩÐ¸Ðº": 14902,
  "ĠÐ¿ÑĢÐµÐ´Ð»Ð¾Ð¶Ð¸ÑĤÑĮ": 41574,
  "ĠÐĶÐµÑĤÑģÐºÐ¸Ð¹": 21885,
  "ĠÐŀÐ±Ð»Ð°ÑģÑĤÑĮ": 47135,
  "ĠÐ½Ð°ÑĢÑĥÑĪÐµÐ½Ð¸Ð¹": 25883,
  "ĠÐ²Ð¾ÑģÑĤÐ¾ÐºÐ°": 19025,
  "ÐļÐ¾ÑĢÐ°Ð±": 37509,
  "ĠÐĶÐ¾Ð¼Ð¸Ð½Ð¸Ðº": 42830,
  "ĠÐĺÑģÐºÑĥÑģÑģÑĤÐ²Ð¾": 21159,
  "ĠÐ¢ÑĢÐ¸Ð¿Ð¾Ð»Ð¸": 47748,
  "ĠServer": 21687,
  "ÐµÑĢÐµÐ²Ð¾Ð·": 47814,
  "ĠÑĥÑĤÐ²ÐµÑĢÐ¶Ð´Ð°Ñı": 31990,
  "Ð»ÑıÐ»Ð°ÑģÑĮ": 25862,
  "ĠViln": 38934,
  "ĠÑĤÐ°Ð±Ð»ÐµÑĤ": 39161,
  "eric": 10996,
  "ĠÐ¢Ð¸ÑħÐ¾Ð¼": 25609,
  "ĠÐ¢Ð¾Ð¼ÑģÐº": 30616,
  "Ġ1680": 42630,
  "ĠÑģÐ¿ÐµÑĨÐ¸Ð°Ð»ÑĮÐ½ÑĭÐ¹": 14660,
  "Ð²Ð°Ð»ÑĮ": 24195,
  "ÂłÂł": 44336,
  "ĠÑĤÐµÐ¾ÑĢÐ¸Ñı": 7495,
  "ĠÐ¸ÑģÐ¿ÑĢÐ°Ð²Ð¸ÑĤÑĮ": 44764,
  "ĠÐ²Ð¾Ð·": 651,
  "ĠÐ¾ÑĤÐºÐ°Ð·ÑĭÐ²Ð°Ð»Ð¸ÑģÑĮ": 49317,
  "ĠÐľÐŁ": 30601,
  "ĠÐĸÐ¸ÑĤÐµÐ»Ð¸": 30955,
  "Ð°ÐºÐ¾Ð²Ð¾": 28901,
  "Ð½Ð¾Ð´": 2583,
  "ĠÐļÐµÐ¼ÐµÑĢÐ¾Ð²": 17647,
  "ĠÑĦÑĥÐ½ÐºÑĨÐ¸Ð¾Ð½": 6454,
  "ĠÐŁÐ°Ñĩ": 39703,
  "ĠÑĢÐ°Ð·Ð½Ð¾Ð³Ð»Ð°Ñģ": 15578,
  "ĠÐ¿Ð¾ÐºÐ¾": 36599,
  "ĠÐĲÐ»ÐµÐºÑģÐµÐµÐ²ÐºÐ°": 47466,
  "ĠÐĲÐºÐ°Ð´ÐµÐ¼Ð¸Ñı": 21996,
  "ĠÐ´Ð¸Ð°Ð³Ð½Ð¾ÑģÑĤÐ¸ÑĢÐ¾Ð²": 45312,
  "ÑĥÑıÑģÑĮ": 44710,
  "ĠÐ½ÐµÐ¹": 2111,
  "ĠÐ²Ð¾ÑģÐ¿ÑĢÐ¸ÑıÑĤÐ¸Ðµ": 26440,
  "ers": 2845,
  "ĠÑħÐ¸Ð¼Ð¸ÐºÐ¾": 50137,
  "ĠÑİÐ³Ð¾": 4390,
  "ĠÐ¿ÑĢÐµÐ´ÑģÑĤÐ°Ð²Ð»ÐµÐ½Ð°": 9923,
  "ÑĨÐµÐ¿ÑĨÐ¸Ñı": 27072,
  "ĠÐĺÐ½ÑĤÐµÑĢÐ½ÐµÑĤ": 14911,
  "ĠÐĺÑĢÐ»Ð°Ð½Ð´Ð¸Ð¸": 10876,
  "Ð´ÐµÐºÐ°Ð±ÑĢÑĮ": 38253,
  "ÑĤÐ¾Ñĩ": 3451,
  "ĠÐ¾Ð±Ð¸ÑĤÐµÐ»Ð¸": 36632,
  "ĠÐ¾Ð±Ð¾Ð·Ð½Ð°ÑĩÐ°ÐµÑĤ": 17951,
  "Ð¸Ð¼Ð¾ÑģÑĤÑĮ": 4687,
  "ĠÑĢÐ°ÑģÐ¿Ð»Ð°Ð²": 31680,
  "ĠÐľÐµÐºÐ»ÐµÐ½": 35865,
  "ĠÐ¿ÐµÑģÐ½Ñı": 5522,
  "er": 645,
  "ĠÑģÐ¾Ð¾Ð±ÑīÐµÐ½Ð¸Ð¹": 17418,
  "Ġ430": 40365,
  "ĠÑģÑĢÐ¾ÐºÐ¾Ð¼": 19260,
  "ĠÑĢÑĥÑħ": 40420,
  "ĠÐ¾ÑģÐ²Ð¾Ð±Ð¾Ð¶Ð´ÐµÐ½Ð¸Ñİ": 40092,
  "ĠÐ»ÐµÑĩÐµÐ±Ð½ÑĭÑħ": 45116,
  "ĠÐ¾Ð±Ð»Ð°Ð´Ð°ÑĤÐµÐ»ÑĮ": 16314,
  "ĠÑģÐ¾ÑģÐ»Ð¾Ð²Ð¸Ð¹": 39479,
  "yd": 20770,
  "ÑĦÑĦÐ¾": 48715,
  "ÐĴÐ¾Ð¾ÑĢÑĥÐ¶": 29463,
  "ĠÑĤÐ¾ÑĩÐ½Ð¾ÑģÑĤÑĮÑİ": 20616,
  "ĠÐŃÐĴÐľ": 27254,
  "ĠÐ¾ÑĤÐºÑĢÑĭÑĤÑĭÐ¼Ð¸": 41572,
  "Ġ45": 5515,
  "ĠÐ²ÐµÑĢÑĤÐ¾Ð»ÑĳÑĤÐ¾Ð²": 35401,
  "ĠÐĸÐ°Ð½Ð½Ð°": 32042,
  "ĠÐ²ÑĭÐ´Ð²Ð¸Ð½ÑĥÑĤ": 27318,
  "ĠÐ²Ð¾Ð´Ð¾Ð¹": 8959,
  "ĠÐ½ÐµÑıÑģ": 18616,
  "Ð¸Ð²ÑĪÐ¸ÑħÑģÑı": 6837,
  "ĠÐºÐ¾Ð¼Ð°Ð½Ð´ÑĥÑİÑīÐ¸Ð¼": 25337,
  "ÑĥÐ¼Ð°Ð½Ð¸ÑĤÐ°ÑĢ": 34148,
  "ĠÑĩÐ°ÑĪ": 20856,
  "ĠÑĤÐ°ÐºÑģÐ¸": 18228,
  "Ð½Ð°Ð´ÑĨÐ°ÑĤÐ¸": 14595,
  "ĠÐŁÐ¾Ð²Ð¾Ð»Ð¶ÑĮÑı": 37359,
  "ĠÐĸÑĥÐºÐ¾Ð²Ð°": 41823,
  "ĠÐ¼ÑĥÐ·ÑĭÐºÐ°Ð»ÑĮÐ½Ð¾": 33593,
  "Ð»ÐµÐ³ÐºÐ°": 19955,
  "ĠÑĥÐ±ÐµÐ¶Ð¸ÑīÐ°": 47386,
  "Ð¸ÑĩÐµÑģÐºÐ¸Ð¹": 1075,
  "ĠÐºÐ°Ð½ÑĮ": 44742,
  "ĠÐ°Ð²ÑĤÐ¾ÑĢÐ°Ð¼Ð¸": 24838,
  "Ð°ÐºÐ¸Ð¸": 9472,
  "ĠÐ¿Ð¾ÑģÐ»ÐµÐ²Ð¾": 12918,
  "ÐķÐ»ÑĮ": 44949,
  "ĠÐĳÐ¾ÑĢÐ¸ÑģÐ¾Ð²": 30783,
  "Ð°ÑĢÐ½Ð¾Ð³Ð¾": 11273,
  "ĠÐ¿ÑĢÐ¾Ð²ÐµÐ´ÐµÐ½Ð°": 15073,
  "ĠÑĢÐ¾Ð´Ð¾Ð²": 10597,
  "ÐĹÐ²ÐµÐ·Ð´Ð°": 20131,
  "ĠÐ°ÑĢÑħÐ¸ÑĤÐµÐºÑĤÑĥÑĢÐ½ÑĭÐµ": 42305,
  "ĠÐ¤ÐµÐ»Ð¸ÐºÑģ": 25384,
  "ĠÐ²Ð¾Ð¸Ð½ÑģÐºÐ¾Ð¹": 21298,
  "ĠÐ·Ð°ÐºÐ»ÑİÑĩÑĳÐ½Ð½ÑĭÐ¹": 46063,
  "ĠÐ´ÐµÐ¼Ð¾ÐºÑĢÐ°ÑĤÐ¸Ð¸": 17323,
  "Ð¾Ð¼Ð¾ÑĢÑĦ": 13294,
  "ĠÑĦÐ»Ð°Ð½": 14328,
  "ĠÐ¿Ð¾ÑĩÑĤÐ¾Ð²ÑĭÐµ": 37596,
  "ĠÐ·Ð°Ð¿Ð°ÑģÐ°Ð¼Ð¸": 50222,
  "ĠÐ¤Ð¾ÑĢÑĤ": 18031,
  "ĠÐ²Ð·": 1342,
  "ĠÑĥÑĢÐ°Ð²Ð½ÐµÐ½Ð¸Ñı": 12636,
  "ĠÐ³ÐµÐ½": 4362,
  "ĠÐºÑĥÑģÐ¾Ðº": 44258,
  "ÑģÑĤÐ²Ð°Ð¼": 15725,
  "Ð¾ÑĩÐ½Ð¸Ðº": 11068,
  "ĠFa": 45760,
  "ĠÐ´Ð»Ð¸Ð½Ñĭ": 10603,
  "ĠÐ³Ð»ÑĥÐ±Ð¸Ð½Ñĥ": 23963,
  "ĠÐŀÐ¼Ð°ÑĢ": 48796,
  "ĠÐ¿ÑĪÐµÐ½Ð¸ÑĨÑĭ": 32259,
  "ĠÐºÐ°Ð´ÑĢ": 47300,
  "ĠÑģÑĥÐ´ÐµÐ¹": 22927,
  "ĠÐ·Ð°Ð»Ð¾Ð²": 34854,
  "ĠÑĢÐµÐºÐ»Ð°Ð¼Ñĥ": 49393,
  "ĠÐ¿ÑĢÐ¾Ð´Ð¾Ð»Ð¶Ð°Ð»Ð°ÑģÑĮ": 21651,
  "ĠÐ°ÐºÑĤÐ¸Ð²Ð½Ð¾Ð¹": 17390,
  "ĠÐĳÐ¾Ð¶Ð¸Ð¹": 41004,
  "ĠÐ¾ÑģÐ½Ð¾Ð²Ðµ": 3073,
  "iv": 2322,
  "OM": 36983,
  "ĠÐ´ÑĥÐ¼Ð°": 16583,
  "ĠÐ´Ð¸Ð°Ð»ÐµÐºÑĤÐ¾Ð²": 22659,
  "ĠÐ½Ð°Ð³ÑĢÑĥÐ·ÐºÐ¸": 19843,
  "ĠÑĤÐ¾ÑĢÐ¶ÐµÑģÑĤÐ²ÐµÐ½Ð½Ð¾": 21767,
  "ĠÐ¿Ð¾ÑģÐ»ÑĥÑĪ": 26326,
  "ĠÐ§ÑįÐ½ÑĮ": 40116,
  "ĠÐ²ÑĭÐ´Ð²Ð¸Ð½ÑĥÐ»": 22356,
  "ĠÐ½Ð°ÑħÐ¾Ð´ÑıÑī": 5839,
  "Ġnew": 36522,
  "ĠÐ¾ÑĤÐ¼ÐµÐ½Ð¸ÑĤÑĮ": 33876,
  "ĠÐ´Ð²ÐµÐ½Ð°Ð´ÑĨ": 11571,
  "ĠÐ¾ÐºÑĢÑĥÐ¶Ð°ÑİÑīÐµÐ³Ð¾": 41639,
  "ĠÐºÐ¾ÑģÑĤÑİÐ¼Ñĭ": 31460,
  "Ð°ÑİÑĤÑģÑı": 1427,
  "ĠÐ²Ð¾Ð·Ð´ÐµÐ¹ÑģÑĤÐ²Ð¸ÐµÐ¼": 20684,
  "Ð½ÐµÑĨÐºÐ¾Ð³Ð¾": 50109,
  "Ð¸ÑĩÐ½Ð°": 19682,
  "Ð»Ð°Ð½ÑĤ": 6782,
  "ÐĴÐ¾ÑģÐºÑĢÐµÑģ": 36636,
  "ĠÐĽÐµÐ¾Ð½Ð¸Ð´": 7875,
  "Ð¸Ð½ÐºÐ¸": 7394,
  "ĠÑĤÐ¾Ð¼Ð¾Ð²": 24707,
  "ĠÐ´Ð¸ÑģÐ»Ð¾ÑĨÐ¸ÑĢÐ¾Ð²": 38986,
  "ĠÑĢÐ°ÑģÑģÑĤÑĢÐµÐ»Ð°": 45918,
  "Ġpl": 23355,
  "ĠÐĶÑĢÑĥÐ³Ð¾Ð¹": 20115,
  "ÑĥÐ´Ð¸": 14424,
  "ĠÐ¿ÑĢÐ¸ÑĤÐ¾ÐºÐ¾Ð²": 35365,
  "ÐºÐ°Ð»": 8241,
  "ÑĨÐºÐ¾Ðµ": 44652,
  "ĠÑģÐ²ÑıÑīÐµÐ½Ð½Ð¸ÐºÐ¸": 34318,
  "ĠÐĳÑĢÐµÐ¼ÐµÐ½": 36249,
  "ĠÐ¾ÑģÐ¾Ð±ÐµÐ½Ð½Ð¾ÑģÑĤÐµÐ¹": 14457,
  "ĠÐ°ÑģÑĤÑĢÐ¾Ð½Ð¾Ð¼Ð¾Ð¼": 33452,
  "ĠÐ¾Ð±Ð·Ð¾ÑĢÐµ": 46377,
  "Ð¸ÑĢÐ¾Ð²Ð°Ð½Ð½Ð¾Ð¹": 8623,
  "Ð¢Ð°ÐºÐ¶Ðµ": 6327,
  "ĠÐŁÑĢÐµÐ·Ð¸Ð´ÐµÐ½ÑĤÐµ": 37957,
  "ĠÐ¿Ð¾Ð´Ð¾Ð¿": 40877,
  "ĠÐĳÐ°Ð»ÑĤ": 8941,
  "ĠÐĿÐ°Ð±ÐµÑĢÐµÐ¶": 37123,
  "ĠÐ¿ÑĢÐ¾ÑħÐ¾Ð´Ð¸Ð»Ð°": 17185,
  "ÑĩÐ¸Ðº": 2670,
  "Ð¡Ð»ÐµÐ´ÑĥÑİÑīÐ¸Ðµ": 40200,
  "ĠÐ¡ÑĤÐ°Ð»Ð¸Ð½Ñĥ": 41711,
  "ĊĠĊĠĊĠĊĠĊĠĊ": 49248,
  "ĠÐľÐ°Ð¹Ð½": 31523,
  "ĠÐ³Ð¾ÑĤ": 10214,
  "ĠÐºÐ¾Ð½ÑĨÐµÑĢÑĤÐµ": 24634,
  "Ð·Ñĥ": 10303,
  "sk": 6398,
  "ĠÐ¸ÑģÑħÐ¾Ð´Ð½ÑĭÑħ": 36889,
  "ãģ®": 48361,
  "Ġex": 18721,
  "Ð¶ÐµÐ½ÐµÑĢ": 19892,
  "ĠÐ·Ð½Ð°Ð¼Ñı": 30862,
  "ĠÑĦÐ¾Ð»ÑĮÐºÐ»Ð¾ÑĢÐ°": 30972,
  "ĠÐ´Ð¸Ð½Ð°ÑģÑĤÐ¸Ñı": 18864,
  "ÑĥÐ³Ð¾ÑĢ": 24960,
  "ĠÑĤÐ¾Ð²": 3692,
  "ĠÐ£ÑĩÐµÐ±": 16416,
  "ĠÐ½Ð°ÑĨÐ¸Ð¾Ð½Ð°Ð»ÑĮÐ½ÑĭÐ¼": 22759,
  "hn": 42968,
  "ÐĶÐµÐ¿ÑĥÑĤÐ°ÑĤÑĭ": 10834,
  "ĠÐ·Ð½Ð°ÑĩÐ¸ÑĤÐµÐ»ÑĮÐ½Ð¾": 4510,
  "Ð¡Ð°Ð±": 42501,
  "ĠÐ¾Ð´Ð½Ð¸Ð¼Ð¸": 26155,
  "ĠÑįÑĦÑĦÐµÐºÑĤÐ¾Ð²": 18644,
  "ĠÑįÑĤÐ¸Ð»": 44725,
  "ello": 32280,
  "ĠÐ¾Ð±ÑĬÐµÐ´Ð¸Ð½ÑĳÐ½Ð½ÑĭÑħ": 32656,
  "ĠÐ½Ð°Ð¿Ð¸ÑģÐ°Ð½Ð°": 14753,
  "ĠÐºÐ¸ÑģÑĤ": 19140,
  "1787": 48063,
  "Sc": 13751,
  "ĠÐ²ÐµÐ½ÑĤÐ¸Ð»ÑıÑĨÐ¸Ð¸": 47700,
  "ĠÐ°ÐºÐºÐ¾ÑĢ": 31740,
  "ÑĢÐ¾Ð²ÑģÐºÐ°Ñı": 29451,
  "Ð¼Ð°Ñħ": 7381,
  "Ġl": 3709,
  "ĠÐ·Ð°ÐºÐ°Ð½ÑĩÐ¸Ð²Ð°ÐµÑĤÑģÑı": 16636,
  "ĠMain": 42066,
  "ĠÑĥÑģÐ»Ð¾Ð¶": 22633,
  "ĠÐ¿ÐµÑĢÐµÐ´Ð°ÑĩÐ°": 17903,
  "ÑĤÐµÐ½Ð±ÐµÑĢÐ³": 38530,
  "ĠÐ´ÐµÐ»Ð°ÑİÑĤ": 14363,
  "ĠÐľÐ¾ÑĢÐ¾Ð·Ð¾Ð²": 24114,
  "ÑĦÑĥÐ½ÐºÑĨÐ¸Ñı": 49394,
  "Ð°Ð½Ð¾Ð²ÑĭÐ¼": 22854,
  "ĠÑĤÐµÐ¿Ð»Ð¾Ð²": 8123,
  "ĠÑĢÐ¾ÑĤÐ¾ÑĢ": 46628,
  "Ð®Ð¡Ð¨": 42081,
  "ÑģÑĤÐ¾ÑıÑĤÐµÐ»ÑĮ": 7104,
  "ĠÐ°ÑĤÑĢÐ¸Ð±": 13945,
  "ĠÑĢÐ°Ð±Ð¾ÑĤÐ°ÐµÑĤ": 6414,
  "ĠÐĿÐ°ÑĤÐ°Ð»Ð¸Ñı": 43110,
  "Ð½ÐµÐ½Ð¸Ñı": 9249,
  "ĠÐĴÐ¾ÑĤ": 15817,
  "ÐĲÐ²ÑĤÐ¾Ð¼": 17924,
  "ĠÐ¸ÑģÐºÐ»ÑİÑĩÑĳÐ½": 30227,
  "ÐłÐµÐ»": 10104,
  "ÐµÐ²ÑĭÐµ": 6768,
  "ĠÑĦÐ¸Ðº": 38995,
  "ĠÐ²Ð¾Ð´Ð½Ð¾Ð³Ð¾": 23514,
  "ĠÐłÑĥÐ±Ð¸Ð½": 29703,
  "ĠÐ¼Ð¸Ð½Ð¸ÑģÑĤÐµÑĢÑģÑĤÐ²Ð¾": 27078,
  "ĠÐ¸Ð·ÑĢÐ°Ð¸Ð»ÑĮÑģÐºÐ¾Ð¹": 43599,
  "Ð°ÑĢÐ¸Ð²Ð°ÑİÑĤ": 39856,
  "ĠÐ²Ð°ÑĢÐ¸Ð°Ð½ÑĤÐ¾Ð²": 13844,
  "ĠÐ¾ÑĤÐºÑĢÑĭÑĤÐ¾": 10144,
  "ĠÐ±Ð¾Ðµ": 10188,
  "ĠÐ½Ð°Ð¿Ð°Ð´Ð°ÑİÑĤ": 47062,
  "ÑıÑī": 965,
  "ĠÐ³Ð»Ð°Ð²Ð¾Ð¹": 12131,
  "ĠSA": 33717,
  "ĠÐ»ÐµÐ¹Ð±Ð»Ðµ": 32686,
  "ĠÑģÐ¾Ð»Ð½ÑĨÐ°": 16855,
  "ĠÐ£ÑįÑģÑĤ": 35200,
  "ĠÐ¾ÑĦÐ¸ÑĨÐ¸Ð°Ð»ÑĮÐ½ÑĭÐ¹": 14097,
  "ĠÐĿÐ°Ð½ÑģÐµÐ½": 50009,
  "ĠÐ±Ð°Ð½ÐºÐ¾Ð²": 12159,
  "ĠÐŁÐ¾Ð»Ð¸ÑĤÐ¸ÑĩÐµÑģÐºÐ°Ñı": 46360,
  "ĠÐ¿Ð¾ÑģÐµÑīÐ°Ð»Ð¸": 42538,
  "Ð¡ÐµÐ»ÑĮÑģÐºÐ¾Ðµ": 31586,
  "ĠÐµÐ´Ð¸Ð½Ð¸ÑĨÐ°": 10160,
  "ĠÐĶÐ¾Ð½ÐµÑĨÐºÐµ": 49830,
  "ĠÐºÐ°ÑĢÑĤÐ°": 20673,
  "ĠÐĴÐ°Ð¹Ð½": 30799,
  "ĠÑĤÐ¾ÑĩÐºÐ°": 9499,
  "ĠÐ±ÑĥÑĢÐ¶ÑĥÐ°Ð·Ð¸Ð¸": 42664,
  "ĠÑģÐ°ÐºÑģ": 18585,
  "Ð¾Ð³ÑĢÐ°ÑĦÐ¸ÑĩÐµÑģÐºÐ°Ñı": 14464,
  "ĠÑģÐ°Ð¼Ð¾Ð³Ð¾": 4112,
  "ÐºÑĥÐ±": 28755,
  "ĠÐ¾ÑĤÐ´ÐµÐ»ÐµÐ½Ð¸Ð¹": 27330,
  "ĠÑģÐµÐºÑģÑĥÐ°Ð»ÑĮÐ½ÑĭÑħ": 28775,
  "ĠÑģÐ¾ÐµÐ´Ð¸Ð½ÐµÐ½Ñĭ": 32306,
  "Ð·ÑĭÐºÐ¸": 16459,
  "aps": 43084,
  "ĠÐ¼Ð¾Ð»Ð¸ÑĤÐ²Ð°": 44976,
  "ĠÐ·Ð°ÑĢÐ¿Ð»Ð°ÑĤÑĭ": 45310,
  "ĠÑĦÐ°Ð»ÑĮÑĪÐ¸Ð²": 38252,
  "ĠÐºÐ°ÐºÐ¾Ð¼Ñĥ": 36300,
  "Ð½ÑģÐºÐ°Ñı": 42491,
  "ÑĢÐ¾Ð²ÑĭÐµ": 10592,
  "ĠÑĥÑĩÐµÐ½Ð¸ÐºÐ°Ð¼Ð¸": 31578,
  "ĠÑĤÑĭÐ»": 37951,
  "ÑħÐ°ÑĥÐ·": 44229,
  "Ð¾ÑĢÐ°Ð¼Ð°": 30699,
  "ĠÐ¾Ð±ÑĢÐ°Ð·": 788,
  "ÑĥÑİÑĤ": 1290,
  "ĠÐ·Ð°Ð²ÐµÑĢÑĪÐ¸Ð»Ð°ÑģÑĮ": 25762,
  "ÑĢÐ°Ð»": 1913,
  "XXI": 19133,
  "ĠÐ¿ÑĢÐ¾Ð´Ð¾Ð»Ð¶Ð¸ÑĤÐµÐ»ÑĮÐ½Ð¾ÑģÑĤÑĮÑİ": 38082,
  "ĠÑĥÐºÐ°Ð·Ð°ÑĤÑĮ": 33478,
  "Ġ1757": 40934,
  "ĠMas": 31863,
  "ĠÐ¿ÑĢÐ¾ÑĤÐ¸Ð²Ð¾ÑĢÐµÑĩÐ¸ÑĤ": 27904,
  "oj": 31851,
  "ĠÐ¡Ð¾Ð²ÑĢÐµÐ¼ÐµÐ½Ð½ÑĭÐµ": 22817,
  "ĠÐ°ÑĢÑĤÐ¸ÑģÑĤÐºÐ°": 14269,
  "ÑĥÐºÑĥ": 38350,
  "ĠÐ´ÑĢÐ°Ð³Ð¾ÑĨÐµÐ½Ð½ÑĭÑħ": 39389,
  "ĠÐ³Ð°Ð»": 2278,
  "ĠÐ¸Ð³ÑĢÑĥ": 8710,
  "ĠÑģÐ¾ÑİÐ·Ð½ÑĭÑħ": 22729,
  "Ð¾Ð¶Ð´ÐµÐ½Ð¸Ñı": 1897,
  "ÐµÑĤÐ¸ÑĩÐµÑģÐºÐ¸Ñħ": 32639,
  "ĠÐ±Ð°ÑĪÐºÐ¸ÑĢ": 20261,
  "ÑĢÐ°Ð³Ð¼Ð°ÑĤ": 36440,
  "ĠÐ»Ð¸Ñģ": 25090,
  "ĠÐ¿ÑĢÐ¸Ð·Ð²": 7036,
  "ĠÐ¿Ð°ÑĢÐ¾Ð²Ð¾Ð¹": 37519,
  "Ð¾ÑģÑĤÐµÑĢ": 19177,
  "Ð»Ð°Ð½ÐµÑĤ": 12324,
  "ĠÐ³Ð¾ÑĢÐ¾Ð´Ð¾Ðº": 19509,
  "ÐĵÐ¾ÑģÑĥÐ´Ð°ÑĢ": 18959,
  "ĠÑĥÐµÐ·Ð´Ð°": 6915,
  "Ð¡Ð²Ð¾Ð¹": 18240,
  "ĠÐ¸Ð½ÑĦÐ¾ÑĢÐ¼Ð°ÑĨÐ¸Ð¾Ð½Ð½Ð¾Ð³Ð¾": 41692,
  "ĠÑĨÐµÐ»Ð¾ÑģÑĤÐ½Ð¾ÑģÑĤÐ¸": 28415,
  "ĠÐ»Ð¾Ð´Ð¾Ðº": 21960,
  "ĠÑĢÑįÐ¿": 31229,
  "Ð¾ÑĪÐ»Ð°": 19528,
  "ĠÑĥÐ±Ð¸Ð¹": 3781,
  "ĠÐ¾Ð±ÑģÑĥÐ¶Ð´ÐµÐ½Ð¸Ðµ": 35082,
  "ÐļÐ¾ÑĢÐ¾Ð»ÐµÐ²": 18946,
  "ĠÐŀÑĨÐµÐ½": 31339,
  "ĠÐ²Ð¾Ð¸Ð½ÑģÐºÐ¾Ðµ": 44487,
  "ĠÑĢÐµÐ³Ð¸ÑģÑĤÑĢÐ°ÑĨÐ¸Ñı": 47368,
  "ĠÐ»Ñĳ": 29942,
  "ĠÐºÑĢÐµÑģÑĤÑĮÑıÐ½Ð°Ð¼": 42533,
  "ĠÐ¿ÐµÑĢÐ²ÑĭÐ¼Ð¸": 15972,
  "ÑĤÐ°ÑĨÐ¸ÐµÐ¹": 47489,
  "ĠÐ¾ÑĤÑģÑĥÑĤÑģÑĤÐ²Ð¸Ð¸": 16523,
  "ÑīÐµÐ½ÐºÐ¾": 17687,
  "Ð¸ÑģÑĤÑĭÐ¹": 14319,
  "ÐµÐ½Ð¸Ð¸": 766,
  "ĠÐ±Ð¸ÑĢÐ¶": 34777,
  "ÐĲÑĤÐ¾Ð¼": 44878,
  "ĠÐ¸ÑģÐºÐ°Ð¶": 13919,
  "ĠÐ¡ÑĤÐµÑĦÐ°Ð½": 16630,
  "ĠÐľÐµÑģÑĤÐ½ÑĭÐµ": 40045,
  "ks": 18266,
  "ĠÐĿÐµÐ¼Ð¸ÑĢÐ¾Ð²": 43666,
  "ĠÑģÐ»ÑĥÑĩÐ¸Ð»Ð¾ÑģÑĮ": 24893,
  "ĠÐ¿Ð¾Ð´Ð²ÐµÑĢÐ³": 4725,
  "ĠÑĨÐµÐ½ÑĤÑĢÐ°Ð»ÑĮÐ½ÑĭÐ¼": 28279,
  "ĠÐ¼Ð¸ÐºÑĢÐ¾Ð¾ÑĢÐ³Ð°Ð½": 24136,
  "Ð°Ð´Ð¼Ð¸ÑĢÐ°Ð»Ð°": 37691,
  "ĠÐ½Ð°ÑĨÐ¸Ð¸": 19720,
  "Ð½Ð¾Ð²": 535,
  "ĠÐ°Ð´Ð¼Ð¸Ð½Ð¸ÑģÑĤÑĢÐ°ÑĤÐ¸Ð²Ð½Ð¾Ð³Ð¾": 19830,
  "Ð¾Ð¿Ð¾Ð´Ð¾Ð±": 15241,
  "ĠÑģÐ¸Ð³Ð½Ð°Ð»Ð°": 14195,
  "ĠÐĶÐµÐ¿Ð°ÑĢÑĤ": 20018,
  "ÐĲÐ·ÐµÑĢÐ±Ð°Ð¹Ð´Ð¶": 39735,
  "ĠÑģÑĤÐ°Ð½Ð´Ð°ÑĢÑĤÐ½ÑĭÑħ": 27794,
  "ĠÐ¿Ð¾Ð´Ð²Ð¸Ð³Ð¸": 47629,
  "Ġ1808": 21584,
  "ÐľÐµÐ´Ð²ÐµÐ´": 35781,
  "ÑĮÐ¼": 44712,
  "ĠÐ²Ð¾ÑģÑģÑĤÐ°Ð½Ð¾Ð²Ð¸Ð»Ð¸": 46794,
  "ĠÐ¡ÑĤÑĢÐ°Ð½Ñĭ": 48058,
  "ĠÐ¡Ð¼Ð¸ÑĤ": 10792,
  "ĠÐ½Ð°Ð¸Ð±Ð¾Ð»ÑĮÑĪ": 7940,
  "ĠÐĴÐ¸ÑĤÑĤÐ¾ÑĢ": 50214,
  "Ð¸Ð·Ð½Ð¸": 42280,
  "ĠÑĢÐ°ÑģÑĤÐ²Ð¾ÑĢÐµ": 35773,
  "Ð¸Ð½ÑģÐºÐ¾Ð³Ð¾": 2495,
  "ĠÐ·Ð°Ð¿Ð°ÑħÐ°": 46850,
  "Ð°ÐµÐ¼ÑĭÑħ": 6107,
  "ĠÑģÐµÑĢÐ¸ÑıÑħ": 45540,
  "Ġ1849": 17297,
  "ĠÐŀÐ»Ð¸Ð¼Ð¿Ð¸Ð°Ð´Ð°": 38587,
  "ÑĥÑĢÑģÐºÐ¸Ð¹": 21329,
  "Ð¾Ð±Ð¾Ð¹": 16479,
  "ĠÐ¿Ð¾ÑĤÐµÐ½ÑĨÐ¸Ð°Ð»": 17317,
  "ĠÐ¿ÑĢÐ¾Ð²Ð¾Ð·Ð³Ð»Ð°ÑģÐ¸Ð»Ð¸": 41598,
  "ĠÐ¿Ð°ÑĢÑĤÐ½": 7900,
  "ĠÐŀÑĩÐµÐ²Ð¸Ð´Ð½Ð¾": 43025,
  "Ġ1883": 13317,
  "ĠÐĿÐ¸Ð´ÐµÑĢÐ»Ð°Ð½Ð´Ñĭ": 21887,
  "ĠClass": 22462,
  "ĠÐĶÐ°Ð»ÑĮÐ½Ð¸Ð¹": 42596,
  "ÑģÑĥ": 1715,
  "ÑĢÐ¾ÑģÐ¾Ð²ÐµÑģÑĤ": 23985,
  "Ð¾Ð°": 28262,
  "ĠÑįÐºÐ¾Ð½Ð¾Ð¼Ð¸ÑĩÐµÑģÐºÐ¾Ð³Ð¾": 9992,
  "ĠÐ¿Ð¾ÑģÐµÑī": 5978,
  "Ð³Ð¾Ð»Ð¾Ð²": 14485,
  "Ð·Ð´ÐµÑģÑĮ": 43671,
  "ĠÐ°Ð»Ð³ÐµÐ±ÑĢÐ°": 17459,
  "1944": 9330,
  "ĠYouTube": 26919,
  "Ð°Ð»Ð»Ð¸": 35629,
  "ĠÐ¢Ñĭ": 15844,
  "ĠÑĦÑĢÐ°ÐºÐ¸Ð¹": 39436,
  "ĠÐ¢ÑĥÐ»Ð°": 41904,
  "Ð½ÑĥÑĤ": 1240,
  "ÑĢÐ°Ð»ÑĮÐ½ÑĭÐµ": 21075,
  "ĠÐ¾Ð±ÐµÑģÐ¿ÐµÑĩÐ¸Ð²": 10384,
  "ÑĢÐ¾Ð³ÑĢÐ°Ð´": 34437,
  "ĠÑĤÑĢÑĥÐ´Ð¾Ð²Ð¾Ð³Ð¾": 46861,
  "ĠÐ¿Ð¾Ð»Ð½Ð°Ñı": 19195,
  "ĠÐŀÐ³": 9388,
  "Ð¾Ð¶Ð´ÐµÑģÑĤÐ²": 12765,
  "ĠÑĢÐ°ÑģÐ¿ÑĢÐµÐ´ÐµÐ»": 5612,
  "ĠÐ´Ð¾ÑĢÐ¾Ð¶ÐºÐ¸": 37165,
  "%,": 4596,
  "ĠÐŁÐ»Ð°ÑģÑĤ": 36248,
  "ĠÑĦÐµÐ´ÐµÑĢÐ°Ð»ÑĮÐ½ÑĭÐµ": 42598,
  "ĠÐ¾Ð´Ð¸Ð½Ð¾Ñĩ": 11964,
  "ĠÐ¿ÐµÑģÑĤ": 49012,
  "ÑĢÐ°Ð½ÐµÐµ": 9558,
  "ĠÐľÐ¸Ðĵ": 15883,
  "iae": 24979,
  "ĠÐ´ÑĢÑĥÐ³Ð¾Ð¼": 6279,
  "ĠÐ½Ð°Ð¼Ñĳ": 47524,
  "ĠÑĤÐ°Ð±Ð°ÐºÐ°": 43657,
  "ĠÐ¿ÐµÑĢÐ¸ÑĦÐµÑĢÐ¸Ð¹": 42317,
  "ĠÑĤÐµÑĢÑĢÐ¾ÑĢÐ¸ÑģÑĤÐ¸ÑĩÐµÑģÐºÐ¾Ð¹": 43535,
  "ĠÐ´Ð¸ÑģÑģ": 6404,
  "Ġ84": 16511,
  "Ã½": 30435,
  "ÐµÐ½Ð½ÑĥÑİ": 3951,
  "ĠÐ¾ÑģÐ²": 2489,
  "ĠÑģÐ½Ð¸Ð·Ð¸ÑĤÑĮ": 25001,
  "Ð»Ð°Ð½Ñĭ": 21934,
  "ĠĊ": 470,
  "ĠÐ£ÐºÑĢÐ°Ð¸Ð½ÑģÐºÐ¾Ð³Ð¾": 32242,
  "ĠÐ¢Ð¾Ð¼Ð°ÑģÐ¾Ð¼": 47538,
  "ÑĤÐ¸Ð½": 5907,
  "ÑĳÐ½ÑĭÑħ": 45806,
  "ĠÐ¾Ð±Ñī": 800,
  "Ð¸Ð½ÑĤÐµÑĢÐ½Ð°ÑĤ": 40214,
  "ĠÐĵÐ¾Ð½ÐºÐ¾Ð½Ð³Ð°": 36759,
  "ĠComm": 11329,
  "ĠÐ¿ÑĢÐµÐ·Ð¸Ð´ÐµÐ½ÑĤ": 2817,
  "Ð°Ð´Ñĭ": 2942,
  "Ð¿Ð¾Ð±ÑĢÐ°ÑĤ": 14676,
  "ĠÐļÐ»Ð°Ð²Ð´Ð¸Ñı": 29001,
  "ĠÐ°ÑĤÐ¾Ð¼Ð°": 22473,
  "Ð½ÑıÐ»Ð°": 39355,
  "Ð·Ð¼": 29077,
  "Ð¸ÑĢÐ°ÐµÑĤÑģÑı": 16699,
  "ĠÐºÐ¾Ð»ÑĮÑĨÐµ": 37875,
  "ĠÑĤÐ²Ð¾ÑĢÑĩÐµÑģÐºÐ¾Ð¹": 23419,
  "ĠÐ½ÐµÐ¼Ð½Ð¾Ð³Ð¾ÑĩÐ¸ÑģÐ»ÐµÐ½": 38626,
  "ĠÑĤÐ°Ð»Ð°Ð½ÑĤÐ°": 41299,
  "ÑģÑĤÐµÑĢ": 5644,
  "ĠÑģÐºÐ¾ÑĢÐ¾ÑģÑĤÐ½Ð¾Ð¹": 48108,
  "ĠÑģÐ¿Ð¾ÑģÐ¾Ð±Ð½Ð¾ÑģÑĤÐ¸": 10098,
  "ÑģÑĤÑĢÐ°": 4032,
  "ĠÐ¿Ð¾Ð»Ñı": 3472,
  "ĠÐ¿ÑĢÐ¸Ð·ÑĭÐ²Ð¾Ð¼": 39112,
  "ĠÐ²ÑĭÐ·Ð²Ð°ÑĤÑĮ": 17953,
  "ĠÑĤÐ¾Ð»ÑīÐ¸Ð½Ñĭ": 44826,
  "Ð³Ð´Ð°": 3437,
  "ÑĩÐµÐ¼": 15234,
  "ĠÐ¸ÑģÐ¿Ð¾Ð»Ð½ÑıÐ»": 21207,
  "ĠÐ¾Ð¶Ð¸Ð´Ð°Ð»": 47616,
  "ÑĢÐ¸ÑĤ": 807,
  "Ġ30": 1973,
  "ĠÐ¸ÑģÐºÐ»ÑİÑĩÐµÐ½Ð¸Ðµ": 29491,
  "ĠÐ¸ÑģÐ¿ÑĭÑĤÐ°Ð½Ð¸Ñı": 12960,
  "ĠÐ¸Ð·Ð±ÐµÐ¶Ð°Ð½Ð¸Ðµ": 32109,
  "ĠÑĨÐµÑĢÐµÐ¼Ð¾Ð½Ð¸Ñı": 24518,
  "ĠÐ°Ð·Ð¸Ð°ÑĤ": 18852,
  "ĠÐ´ÐµÐ¿ÑĥÑĤÐ°ÑĤÐ¾Ð¼": 20459,
  "Ð»ÑĮÑģÐºÐ¾Ð¹": 22629,
  "ĠÐļÐ°Ð½Ð°Ð´Ñĥ": 43960,
  "ÑĩÐµÑĢÐµÐ·": 24049,
  "ĠÐ¿Ð¾Ð»Ð¾Ð¶Ð¸ÑĤÑĮ": 40276,
  "ĠÐ°Ð»Ð³Ð¾ÑĢÐ¸ÑĤÐ¼Ð°": 25765,
  "ĠÐ´Ð»Ð¸Ð½Ð°": 9103,
  "ÑģÐºÐ°Ð¼Ð¸": 23007,
  "Ð»ÑıÐ½Ð´": 4878,
  "ĠÐĿÐŁ": 29766,
  "Ð¾Ð»Ñİ": 3491,
  "ÐµÑĢÑĢÐ¸": 18709,
  "ÑĢÑĥÐ³Ð¸Ðµ": 3926,
  "ĠÐ·Ð°ÑĩÐ°ÑĤ": 44661,
  "ĠÑĢÐ°ÑģÑĩ": 9985,
  "ĠÑĨÐµÑĢÐºÐ¾Ð²ÑĮÑİ": 14926,
  "ĠÐ¾Ð¿Ð¸ÑģÐ°Ð½Ð½ÑĭÐµ": 27141,
  "Ġu": 24486,
  "ĠÐ¿Ð¾Ð»Ð¾Ð¶Ð¸Ð»Ð¾": 47138,
  "ĠÐĶÐ¶ÐµÐ¹Ð½": 18433,
  "ĠÐ·Ð°ÐºÐ¾Ð½Ð°": 8194,
  "ĠÐ¿Ð¾Ð»Ð½ÑĭÑħ": 40359,
  "ĠÐ°Ð²Ð¸Ð°Ð±": 27473,
  "ĠÐ¼Ð°ÑĤÑĩÐµÐ¹": 10397,
  "ĠÑĢÐ¾Ð¶Ð´Ð°ÐµÐ¼Ð¾ÑģÑĤÑĮ": 49074,
  "ÑĦÐ°Ð½ÑĤÐ°ÑģÑĤÐ¸ÑĩÐµÑģÐºÐ¸Ð¹": 42264,
  "ÑĢÐ¾Ñī": 10713,
  "ĠÑģÐ¾Ð³Ð»Ð°ÑģÐ½Ð¾": 3714,
  "arb": 32767,
  "ĠÐĺÑĢÐ°": 11754,
  "Ð°ÑģÑĤÐ°": 44138,
  "ĠÐļÐ°ÑĢÑĤÐµÑĢ": 36411,
  "ĠÐ¿Ð¾Ð´Ð¿Ð¸ÑģÐµÐ¹": 47007,
  "Ð¸Ð½Ð¸Ð½Ð°": 32759,
  "Ð»ÐµÑĤÐ²Ð¾ÑĢ": 6810,
  "ĠÑĢÐµÑĩÐ¸": 7700,
  "idae": 11898,
  "ĠÐ½ÐµÑĥÐº": 25334,
  "ĠÑĢÐµÑĨÐµÐ¿ÑĤÐ¾ÑĢÐ¾Ð²": 34886,
  "ĠÑĪÑĳÐ»": 12432,
  "ĠÑĢÑıÐ±": 32614,
  "Ð°Ð¼ÐµÑĤ": 4957,
  "ĠÐ±Ð¾ÑıÑĢÐ¸Ð½": 35502,
  "Ð²ÑĭÑħÐ¾Ð´": 40482,
  "Ġ2": 427,
  "ĠÐĶÐµÑĢÐ±": 21043,
  "ĠÐ´Ð°Ð²Ð°ÑĤÑĮ": 20197,
  "ĠÐ¼Ð¾Ð»Ð¾Ð´ÐµÐ¶Ð¸": 39314,
  "Ð»Ð·": 19963,
  "Ð¸Ð»ÐµÐ½Ð°": 26896,
  "TA": 10023,
  "ĠÐ¿ÑĢÐ¸ÑģÑĤÑĥÐ¿Ð¸Ð»Ð¸": 33489,
  "ÐŁÑĢÐµÐ´Ð¿ÑĢÐ¸ÑıÑĤÐ¸Ñı": 31264,
  "Ð³Ð»Ð°Ð²Ð½ÑĭÐ¼": 37004,
  "ĠÐ·Ð°Ð²Ð¾Ð´Ðµ": 9769,
  "ĠÐ·Ð½Ð°ÑĩÐ¸ÑĤÐµÐ»ÑĮÐ½ÑĥÑİ": 13193,
  "Ð»ÐµÐ½Ð½ÑĭÐ¼": 11922,
  "ĠÑģÑĤÐ¾Ð»Ð¸ÑĨÑĥ": 12208,
  "ĠÑĨÐ°ÑĢÑı": 5125,
  "ĠÐºÑį": 43562,
  "ĠÐ¾Ð±ÑĪÐ¸ÑĢÐ½ÑĥÑİ": 46734,
  "Ð¾ÑĪÐºÐ°ÑĢ": 46559,
  "ĠAdv": 36230,
  "Ð¾Ð¼Ð±": 4137,
  "ĠÑįÐ½ÑĤÑĥÐ·Ð¸Ð°Ð·": 40101,
  "ĠÐĳÐµÐ»Ð»Ð°": 45030,
  "ÐŁÐĲ": 16134,
  "ĠÑħÐ¾ÑĢÐ¾ÑĪÑĥÑİ": 39614,
  "Ġ1891": 12387,
  "ÐŁÐ¾ÑģÐ»ÐµÐ´Ð½ÑıÑı": 34284,
  "ĠÐ´Ð¾ÑĩÐµÑĢÐ½": 28366,
  "ĠÐ¼Ð¾ÑĤÐ¾ÑĨÐ¸ÐºÐ»Ð¾Ð²": 47865,
  "ĠÐ²Ð¾ÑģÑĮÐ¼": 16280,
  "ĠÐ´ÐµÐ²ÑıÑĤ": 10115,
  "ĠÑģÐ¾ÑĤÑĢÑĥÐ´Ð½Ð¸ÑĩÐ°Ð»": 25531,
  "ĠÐ¾Ð±Ð¾Ð´": 39445,
  "ÑģÐ°Ð¼Ð¸": 15789,
  "ĠCor": 10187,
  "ĠÐ¼ÐµÐ´Ð»ÐµÐ½Ð½Ð¾": 15948,
  "ĠÐ½Ð°Ð»Ð¾Ð³Ð¸": 26305,
  "ĠÑĦÐ°Ð±ÑĢÐ¸ÐºÑĥ": 43098,
  "Ð°Ð»Ð¸ÑģÑĤÐ¾Ð²": 20037,
  "ĠÐ³ÑĢÐµÑĩÐµÑģÐºÐ¸Ñħ": 17316,
  "ĠÐ¾Ð¿ÑĢÐµÐ´ÐµÐ»ÑĳÐ½Ð½ÑĭÑħ": 13109,
  "ĠÐĴÐ½ÑĥÑĤÑĢÐµÐ½": 19250,
  "ĠÑĥÐ³Ð¾Ð»": 11350,
  "ames": 14520,
  "ĠÐ¿Ð¾Ð´Ð´ÐµÑĢÐ¶ÐºÐ°": 13337,
  "ĠÐ¿ÑĢÐ¾ÑĨÐµÑģÑģÐ¾ÑĢÑĭ": 30452,
  "ĠÐ¼ÑıÐ³ÐºÐ¾Ð¹": 32683,
  "ĠÑĩÑĳÑĢÐ½ÑĥÑİ": 49306,
  "ĠÐĶÐ°ÑĢÐ²Ð¸Ð½": 44115,
  "ĠÐ¼ÐµÐ¼Ð¾ÑĢÐ¸Ð°Ð»ÑĮÐ½ÑĭÐ¹": 39387,
  "Ð³": 321,
  "ĠÐ²Ð°Ð¶Ð½Ð¾": 19625,
  "ÐµÑĢÐ°Ñħ": 6656,
  "ĠÐ²Ð¸Ð´ÐµÐ½": 41450,
  "ĠÐ¾Ð±ÑĭÑĩÐ°ÐµÐ²": 46649,
  "Ð¿Ð¾Ñģ": 8621,
  "ĠÐ¿ÑĢÐ¾Ð²Ð¾Ð·": 5196,
  "ĠÐłÐ°Ð·Ð»Ð¸Ñĩ": 20675,
  "ĠÐľÐ½Ð¾Ð³Ð¾": 16546,
  "ĠÐŀÐ´ÐµÑģÑģÐºÐ¾Ð¹": 28612,
  "Ð»ÑıÐ¼Ð¸": 18319,
  "ĠÐĹÐµÐ²": 15547,
  "ĠÐ²Ð¾Ð·Ð´ÐµÐ¹ÑģÑĤÐ²": 5484,
  "ĠÐ¿ÐµÑĢÐ¿ÐµÐ½Ð´": 21050,
  "ÐĶÐ¾Ð»": 14907,
  "ĠÐµÐ¶ÐµÐ³Ð¾Ð´": 5713,
  "ĠÑĢÐ°Ð·Ð²Ð»ÐµÐº": 21789,
  "ĠÐ¿ÑĢÐ¾Ð²ÐµÐ´ÑĳÐ½Ð½ÑĭÑħ": 31256,
  "ĠÐºÐ°ÑĢÐ»Ð¸Ðº": 48890,
  "Ġ1300": 29033,
  "ĠÐ²ÑĭÐ½ÑĥÐ¶Ð´": 4384,
  "ĠÑģÐºÐ»": 21112,
  "ush": 23896,
  "ĠÑĤÐ°Ð½ÑĨ": 23406,
  "ĠSoc": 14238,
  "ÑĥÐ¼Ð±Ð°": 34336,
  "ĠÐĴÑģÐµÐ²": 9960,
  "ÑİÑģÑĤ": 18989,
  "ĠÐ¾Ð»Ð¸Ð¼Ð¿": 6476,
  "ĠÑģÐ²ÐµÑĤÑģÐºÐ¸Ñħ": 39467,
  "ĠÐ¾ÑĢÐ³Ð°Ð½Ð¸ÑĩÐµÑģÐºÐ¾Ð³Ð¾": 44081,
  "ÑĥÑĩÐ°Ñı": 31976,
  "ĠÑĢÑĥÐ±ÐµÐ¶Ð¾Ð¼": 15499,
  "Ð¾Ð¸Ð¼": 18517,
  "ĠÐŀÐ±ÑīÐµÑģÑĤÐ²ÐµÐ½Ð½Ð¾Ð¹": 46504,
  "ĠÐĿÐŀ": 39795,
  "ĠÐļÐ¾ÑĢÐ¾Ð»ÐµÐ²Ð°": 39576,
  "Ð¾Ð¿ÑĢÐ¾Ð¸Ð·Ð²Ð¾Ð´ÑģÑĤÐ²Ð°": 49169,
  "ĠÐ»ÐµÐ²ÑĭÐ¹": 17535,
  "ĠÐ²ÐµÑĢÐ½": 2553,
  "ĠÑĤÐ°ÑĢÐ¸ÑĦ": 36987,
  "ĠÑģÐ°Ð»Ð¾Ð½": 40856,
  "Ð¾Ð»ÐµÑı": 48383,
  "ĠÐ½Ð°Ð¿ÑĢÐ°Ð²Ð»ÐµÐ½Ð¸ÑıÐ¼": 26749,
  "Ð¸Ð¿Ð¿": 30858,
  "ĠÐĵÐ°Ð»": 3412,
  "ĠÐ¿Ð¾Ð´Ð´ÐµÑĢÐ¶Ð¸Ð²Ð°Ð»": 15709,
  "Ð¸ÐºÐ»": 2655,
  "ĠÐ¸ÐµÑĢÐ¾Ð³": 17989,
  "ĠÐ´ÑĥÐ±Ð°": 48342,
  "ĠÐļÐ°Ð»Ð¸Ð½Ð¸Ð½Ð°": 44974,
  "Ð°Ð´Ð¾Ð¹": 41935,
  "Ð½Ð°Ðº": 801,
  "ET": 14470,
  "over": 22861,
  "Ð¿ÑģÐµÐ²Ð´": 41308,
  "ĠÐ¿Ð¾Ð»Ð¾ÑĤÐ½Ð¾": 41312,
  "Ð»ÐµÐ½Ð¸Ñİ": 3542,
  "ĠÑģÐ¾Ð±Ð¾ÑĢ": 6265,
  "ĠÑĢÐµÐ°ÐºÑĤÐ¾ÑĢ": 24181,
  "ĠÑģÐµÑģÑĤÑĢÐ°": 10640,
  "Ð¸ÑĢÐ°Ðº": 33620,
  "ĠUK": 33241,
  "ĠÐ¼Ð»ÑĢÐ´": 11162,
  "ĠÐ½ÐµÐ·Ð½Ð°ÐºÐ¾Ð¼": 28985,
  "Ð¸ÐºÑĥ": 2158,
  "ĠÐ¼Ð¸ÑĦÐ°": 24711,
  "ĠÐ½Ð°ÑĨÐ¸Ð¾Ð½Ð°Ð»ÑĮÐ½Ð¾": 23725,
  "ÑįÑĤÐ¾ÑĤ": 40369,
  "ĠÐ¡ÑĥÐ¿ÐµÑĢÐºÑĥÐ±Ð¾Ðº": 45589,
  "ĠÐĴÑģÐµÑģÐ¾ÑİÐ·Ð½Ð¾Ð³Ð¾": 29593,
  "ĠÐ´Ð°Ð½Ð½ÑĥÑİ": 29351,
  "ĠÐ¼Ð½Ð¾Ð³Ð¾ÑĩÐ¸ÑģÐ»ÐµÐ½Ð½ÑĭÐµ": 7884,
  "Ð¸Ð»Ð¾Ð²ÑģÐºÐ¸Ð¹": 41253,
  "aur": 36189,
  "ĠÐ´ÑĥÑħÐ¾Ð²Ð½ÑĥÑİ": 27332,
  "ÑģÐºÐ°Ñħ": 33499,
  "ures": 11778,
  "ĠÑģÐ¾ÑĤ": 2236,
  "ĠÐµÐ²ÑĢÐµÐµÐ²": 7704,
  "ĠÐĶÑĢÐµÐ·": 23032,
  "ĠÐĵÑĢÐ°Ð±": 31725,
  "ĠÑĥÑĤÐ²ÐµÑĢÐ¶Ð´ÐµÐ½Ñĭ": 36608,
  "Ð±ÐµÑĢÐ¸": 27215,
  "site": 44265,
  "Ð²ÑĪÐ¸Ð¹": 10002,
  "ÐĴÑģ": 12524,
  "ĠÑģÐ¾Ð±ÑĢÐ°Ð½Ð½ÑĭÑħ": 44503,
  "ĠÐ²Ð»Ð¸Ñı": 2065,
  "ĠÐľÐµÐ´Ð²ÐµÐ´": 10136,
  "ÑĥÐ»ÑıÑĨÐ¸Ð¸": 11112,
  "ĠÑģÐ¾Ð²ÑĢÐµÐ¼ÐµÐ½Ð½Ð¾ÑģÑĤÑĮ": 41688,
  "ĠÐ¾Ð±ÑīÐµÑģÑĤÐ²ÐµÐ½Ð½ÑĭÑħ": 10133,
  "ĠÐ¿Ð½ÐµÐ²Ð¼Ð¾Ð½Ð¸Ð¸": 49325,
  "adem": 21720,
  "ĠÐ³ÐµÐ½ÐµÑĢÐ°Ð»Ñĭ": 36782,
  "ĠÐļÐ²Ð°Ð´": 47023,
  "ĠÐĵÐ°ÑĢÐ²Ð°ÑĢÐ´": 26497,
  "ĠÐķÑĦÑĢÐµÐ¼Ð¾Ð²Ð°": 44921,
  "ĠÐ°ÑĢÑħÐµÐ¾Ð»Ð¾Ð³Ð¸Ð¸": 20243,
  "ĠÑĦÑĥÐ½Ðº": 1898,
  "ĠÑħÑĢÐ¾Ð¼": 10444,
  "ĠÑģÐ¸ÑģÑĤÐµÐ¼": 999,
  "ĠÐ²Ð¸Ð½Ð¾Ð²": 12726,
  "ĠÐľÐ¸ÑħÐ°Ð¹Ð»Ð¾Ð²Ð¸Ñĩ": 7315,
  "ÐļÐ°ÑĢÑĤ": 22269,
  "ĠÐĳÐ¾Ð³Ñĥ": 20859,
  "ĠÑģÐ¾Ð¾ÑĤ": 1511,
  "ĠÐ¿ÑĢÐ¸Ð²ÑĭÐº": 36865,
  "Ð¸Ð½ÑĭÑħ": 32192,
  "Ð´ÑĮ": 21935,
  "ĠÐ¥Ñį": 22599,
  "ĠÑĤÑĢÐ°Ð½ÑģÐ¿Ð¾ÑĢÑĤ": 3574,
  "ĠÐŃÐ½ÑĨÐ¸ÐºÐ»Ð¾Ð¿ÐµÐ´Ð¸ÑĩÐµÑģÐºÐ¸Ð¹": 42554,
  "Ð¾ÑĨÐµÐ½Ð°": 48831,
  "ĠÐ½Ð°ÑģÑĤÐ¾Ð¹ÑĩÐ¸Ð²": 30012,
  "ĠVan": 41623,
  "ĠÐºÐ¸Ð¿ÐµÐ½Ð¸Ñı": 36020,
  "ĠÐ¿Ð¾Ð´Ð¿Ð¸ÑģÐ°ÑĤÑĮ": 32410,
  "Ð¾ÑģÐ¸Ð¿": 12653,
  "ĠÐĴÐ°Ñģ": 2223,
  "ÐĲÐ´Ð°": 49024,
  "ĠÐ°ÑĢÑħÐ¸ÑĤÐµÐºÑĤÑĥÑĢÐ½Ð¾": 50225,
  "ĠÐ¾ÑĪÐ¸Ð±ÐºÐ°": 29694,
  "ĠÐ°ÐºÑĤÑĢÐ¸ÑģÐµ": 35841,
  "Ġla": 7724,
  "Ð¿Ð»ÐµÐ¹": 44065,
  "ĠÑĢÐ°ÑģÑĤ": 2381,
  "ĠÐ²Ð¾Ð·ÑĢÐ°ÑģÑĤ": 2747,
  "ĠÐ¼Ð°ÑĦ": 33358,
  "ÐĴÐ¾Ð¹Ð½Ð°": 18002,
  "1797": 36740,
  "ÑĤÐµÑĢÐ½Ð°ÑĤÐ¸Ð²": 6619,
  "ÑĨÐ¸Ð¾Ð½Ð½ÑĭÐ¹": 3947,
  "Ġ2001": 3038,
  "ĠÑģÐ³": 25232,
  "ĠÐºÐ¾Ð¼Ð¸ÑģÑģ": 3687,
  "ĠÐ½Ð°ÑĳÐ¼Ð½Ð¸ÐºÐ¾Ð²": 36234,
  "ĠÐĳÑĢÑĥÑĤ": 49594,
  "ĠÐ¿ÑĢÐ¾Ð²Ð¾Ð´Ð¸ÑĤÑĮÑģÑı": 34459,
  "Ð»ÑıÑĨÐ¸Ñı": 22042,
  "ĠÐ¿Ð¾ÐºÐ°Ð·Ð°ÑĤÐµÐ»ÐµÐ¼": 30143,
  "ele": 25844,
  "ĠÐŁÐ¾Ð¼Ð¿Ðµ": 49547,
  "ĠÐ¾Ð³Ð»Ð°ÑĪ": 42516,
  "ĠÐ²Ð¾Ð»Ð½Ð¾Ð²": 41173,
  "ĠÐ½ÐµÐ²Ð¾Ð»Ðµ": 37777,
  "ĠÑĨÐ¸Ð½ÐºÐ°": 35673,
  "Ð¿ÐµÑĢÐµÐ´": 26198,
  "ĠÐ»Ð¸Ð³Ðµ": 18085,
  "ĠÐŁÐ°ÑĥÐ»Ð¸": 49374,
  "ĠÐ¾ÑĨÐµÐ½ÐºÐ°": 18354,
  "ĠÑģÐ¸ÑĤ": 27804,
  "ĠÑįÐºÑģÐºÑĥÑĢ": 41128,
  "ĠĊĠ": 4199,
  "ĠÐ¥ÑĢÐ°Ð½": 39600,
  "123": 41455,
  "ĠÐłÑĥÐ´Ð¾Ð»ÑĮÑĦ": 18712,
  "ĠÐ¿ÐµÐ´Ð°Ð³Ð¾Ð³Ð¸ÑĩÐµÑģÐºÐ¾Ð³Ð¾": 28252,
  "Ð¤Ð¾ÑĢÐ¼": 31981,
  "ĠÑĢÐ°Ð·Ð²Ð¸ÑĤÐ¸Ð¸": 8317,
  "ĠÑģÑĤÐ¾ÑıÑĤÑĮ": 41001,
  "ĠÑĤÑĢÐ°Ð´Ð¸ÑĨÐ¸Ð¾Ð½Ð½Ð¾": 11999,
  "Ġand": 2782,
  "Ð°Ð½Ð¾": 1401,
  "ÐłÐ°Ðº": 28330,
  "ĠÐ¿ÑĢÐµÑģÐ²Ð¸ÑĤÐµÑĢÐ¸": 38397,
  "Ð¾Ð²Ð°": 964,
  "ni": 27695,
  "ĠÑģÐ²Ð¾Ð±Ð¾Ð´Ð½ÑĭÐ¼": 29157,
  "ĠÐµÐ´Ð¸Ð½ÑģÑĤÐ²ÐµÐ½": 3206,
  "ĠÐ´ÐµÐ²Ð¾ÑĩÐºÑĥ": 45034,
  "1801": 30831,
  "ĠÐĹÐµÐ»Ð°Ð½Ð´Ð¸Ð¸": 17411,
  "ĠÐ±Ð¸Ð±Ð»Ð¸Ð¾ÑĤÐµÐºÐ¸": 9628,
  "ĠÐļÑĢÐ°ÑģÐ½Ð¾Ðµ": 29840,
  "ĠÐĶÐ¶ÑĥÐ½": 42185,
  "ĠÐ¼Ð¾Ð½ÑģÑĤ": 32917,
  "ĠÐ¾ÑĨÐµÐ½Ð¸ÑĤÑĮ": 27900,
  "ĠÐ®ÑĢÑĮÐµÐ²Ð¸Ñĩ": 20725,
  "ĠÐ¼Ð¾Ð½Ð°ÑĢÑħÐ¸Ð¸": 18613,
  "ĠÐ¿ÑĢÑĥÐ¶": 25348,
  "ĠÐ±ÐµÐ´": 5431,
  "ĠÐ²ÑĭÑĤÑıÐ½ÑĥÑĤ": 23345,
  "ÑĩÐ¸ÐºÑĥ": 26678,
  "Ð¾Ð¾Ð±ÑĢÐ°Ð·Ð¾Ð²Ð°Ð½Ð¸Ñı": 34843,
  "ÑĪÐ¾Ð²Ð°": 46316,
  "Ð³Ð°ÑĨÐ¸Ð¸": 24445,
  "ĠÐµÐ´Ð¸Ð½Ð°Ñı": 48556,
  "ĠÐ´Ð¾ÐºÐ°Ð·Ð°Ð»": 28345,
  "ĠÐ²Ð¾ÑģÐ¿Ð¾Ð¼Ð¸Ð½Ð°Ð½Ð¸Ñı": 17497,
  "Ð¤Ð¡Ðł": 3750,
  "ĠÐļÐ°Ð¿": 4871,
  "ĠÐºÐ¾Ð½Ð´ÐµÐ½": 13984,
  "ĠÑĩÑĥÐ²": 3787,
  "ĠÑħÐ¾ÑĤÐµÐ»Ð¸": 17769,
  "ĠÐ¿ÑĢÐµÐ´ÑĭÐ´ÑĥÑīÐ¸Ð¹": 42887,
  "Ð¸Ð·Ð½": 11030,
  "ÐĹÐŀ": 34903,
  "ĠÑģÐµÑĢÑĮÑĳÐ·": 4918,
  "ĠÐ²ÑģÑĤÑĢÐµÑĩÐ¸": 10334,
  "Ð¢Ðł": 10396,
  "ĠÐºÐ°ÑĩÐµÑģÑĤÐ²Ñĥ": 34830,
  ",": 21,
  "Ð¼ÐµÐ½Ð¸Ð¹": 43131,
  "ÑĢÑĥÑģÑģÐºÐ¸Ð¹": 23497,
  "ĠÐ¸Ð´ÐµÐ°Ð»ÑĮÐ½Ð¾Ð³Ð¾": 39313,
  "1866": 25241,
  "ĠÐ¸Ð¿Ð¾ÑģÑĤ": 44863,
  "ĠÐ¤ÑĢÐ°Ð½Ðº": 9217,
  "ĠÐ³Ð¾ÑģÑĥÐ´Ð°ÑĢÑĮ": 46269,
  "ÐµÐ»ÑĮÐ½Ð¸ÐºÐ¾Ð²": 25503,
  "ÐŁÑĢÐ¾Ð¸Ð·Ð²ÐµÐ´ÐµÐ½Ð¸Ñı": 26526,
  "Ð¡ÑĤÑĢÑĥÐºÑĤÑĥÑĢÐ°": 19649,
  "ÑĭÐ»ÐºÐ¸": 15756,
  "1627": 41512,
  "Ð°Ð²ÑĪÐµÐ¹ÑģÑı": 11854,
  "ĠÐ°ÑĢÑĤÐµÑĢÐ¸Ð¸": 41017,
  "ĠÐ¸ÑģÐ¿Ð¾Ð»Ð½ÑıÐ»Ð¸": 40668,
  "ĠÐ´Ð¾Ð¿ÑĥÑī": 23441,
  "ÐĵÐ»ÑĥÐ±": 44669,
  "ĠÑĤÑıÐ½": 22993,
  "ĠJul": 33023,
  "ÐºÐ¾Ð¼Ð¿": 9525,
  "ĠÐĴÐĺÐ§": 22345,
  "Ġ%,": 35025,
  "ĠÐµÑĢÐµÑģÐ¸": 43614,
  "Ð°Ð»Ð°Ð½Ñģ": 43689,
  "ĠÐ³Ð»Ð°Ð²Ð½ÑĭÐ¹": 5894,
  "ĠÐ¿Ð¾ÐºÑĥÑĪÐµÐ½Ð¸Ñı": 37622,
  "ĠÐ¸ÑģÐ¿Ð¾Ð»Ð½Ð¸ÑĤÐµÐ»ÑĮÐ½ÑĭÐ¼": 50200,
  "Ð³Ð¸Ð½": 6226,
  "ĠÐ¿Ð»Ð°ÑģÑĤÐ¸ÐºÐ°": 48902,
  "ĠÑģÐ¾Ð±ÑĭÑĤÐ¸ÐµÐ¼": 25374,
  "ĠÐ¿Ð»Ð°Ð½ÐµÑĤÐµ": 23599,
  "Ð»Ð¸Ð·": 1347,
  "ĠÐ±ÑĢÐµÐ½Ð´Ð¾Ð¼": 44639,
  "ÐłÐµÑĪÐµÐ½Ð¸Ðµ": 39286,
  "ĠÐ¿ÑĢÐ¾ÑģÑĤÑĭÑħ": 14170,
  "ÐĺÑģÑģ": 12089,
  "ĠÐ¾ÑĤÑģÑĤÑĥÐ¿Ð»ÐµÐ½Ð¸Ðµ": 41187,
  "ĠÑĥÑģÐ¸Ð»Ð¸ÑıÐ¼": 47698,
  "ĠÐ¢ÑĢÐ¾Ð¿": 37905,
  "ĠÐ¿ÑĢÐ¸Ð²ÑĭÑĩ": 14352,
  "ÉĻ": 31967,
  "ĠÐ¸ÑģÐ¿Ð¾Ð»Ð½Ð¸Ð»Ð¾ÑģÑĮ": 32032,
  "ĠÐ¿Ð¾Ð·Ð²Ð¾Ð»ÑıÐ»Ð¾": 21723,
  "ĠÐ¼Ð¾Ð´ÐµÐ»": 15840,
  "ĠÐ±ÐµÑĢÑĳ": 35646,
  "ĠÐ²ÑģÑĤÑĢÐµÑĤÐ¸Ð»Ð°": 47924,
  "ĠÐ¿ÑĢÐ¾ÑģÑĤÑĭÐ¼Ð¸": 43255,
  "ĠÐľÑįÐ¹": 17039,
  "ĠÐ¸Ð·Ð¼ÐµÐ½ÑıÐµÑĤÑģÑı": 21968,
  "ÑĤÐ¸ÑĢÑĥÐµÑĤ": 29745,
  "Ð¾Ð»Ñĭ": 10258,
  "ÑħÐ¾Ð¶Ð´ÐµÐ½Ð¸Ðµ": 6763,
  "ĠÐĲÐ½Ð½Ð¾Ð¹": 41561,
  "ĠÐĴÐŁÐŁ": 40970,
  "ĠÐ¿Ð¾ÐºÐ°Ð·Ð°Ð½Ð°": 28055,
  "Ð¸Ð´Ð½Ð¾Ð³Ð¾": 39085,
  "ÐµÑħÐ½Ð¸ÐºÐ°": 16849,
  "âĢ¦Â».": 16184,
  "ĠÑģÐ¾Ð·Ð½Ð°Ð½Ð¸Ð¸": 28748,
  "ĠÐ¿ÑĢÐ¾Ð±ÑĥÐ¶Ð´": 37384,
  "ĠÐ¶ÑĥÑĢÐ½Ð°Ð»Ð¸ÑģÑĤÐ¾Ð²": 20124,
  "Ð»Ð¾ÑĪ": 14541,
  "ĠÑĢÐµÐ¹ÑħÐ°": 45284,
  "Ð³Ð°Ð¼Ð¸": 21230,
  "ĠÑĦÐ¸Ð½Ð°Ð½ÑģÐ¾Ð²": 4221,
  "Ð¼ÐµÐ»Ð¾Ð´ÑĢÐ°Ð¼Ñĭ": 27803,
  "ĠÐ±ÐµÐ»ÑĮÐ³": 17887,
  "ĠÑĸ": 18227,
  "ĠÐ¶Ð°Ð»": 8843,
  "ĠÐ¸Ð½ÑĤÐµÑĢÐ½ÐµÑĤ": 10070,
  "ĠÐ¡ÑĤÐ¾Ð»ÑĭÐ¿": 34511,
  "ÑģÑĤÐ²Ð¾Ð²Ð°Ð»Ð¾": 36312,
  "ĠÑģÐµÐºÑĨÐ¸Ð¹": 40373,
  "ĠÐ²Ð½ÑĥÑĤÑĢÑĮ": 16795,
  "ĠÐĲÐ¼ÐµÑĢÐ¸ÐºÐ°Ð½ÑģÐºÐ°Ñı": 41115,
  "ĠÐºÐ¸ÑĢÐ¸Ð»Ð»Ð¸": 24426,
  "ÐµÐ±ÐµÐº": 23437,
  "ĠÐļÐ¾Ð¼Ð¼ÐµÑĢ": 43897,
  "ĠÐ¼ÐµÐ´Ð°Ð»ÑĮÑİ": 12956,
  "ÑĨÐ¾": 5811,
  "ĠÑģÑĤÐ¾Ð»ÐºÐ½ÑĥÐ»ÑģÑı": 28378,
  "ĠÐ¿ÑĢÐµÐ´Ð»Ð°Ð³Ð°Ð»": 21426,
  "ĠÐ¸ÑģÐ¿Ð¾Ð»ÑĮÐ·Ð¾Ð²Ð°Ð»Ð°ÑģÑĮ": 12865,
  "Ġfor": 7016,
  "ĠÐ¾ÑģÑĥÑīÐµÑģÑĤÐ²Ð»ÑıÑĤÑĮ": 20827,
  "Ð¸Ð¼Ð¾Ð¹": 6799,
  "ÑĢÐ¸ÑģÐ´Ð¸Ðº": 19158,
  "ÑĦÐ¾ÑĤ": 46187,
  "ĠÐ¸Ð³ÑĢÐ°ÑĤÑĮ": 9049,
  "Ð°ÑĢÐ¼Ð°Ðº": 15540,
  "ÑĥÐºÐ¾Ð²Ð°": 39077,
  "pt": 7642,
  "ĠÐ½Ð¾Ð²Ð¾Ð¼Ñĥ": 14959,
  "ĠÐ²Ð¾ÑģÑħÐ²Ð°Ð»": 42959,
  "9": 34,
  "ĠÐ¿ÑĢÐ¸Ð¼ÐµÐ½ÑıÐµÑĤÑģÑı": 8159,
  "ÑĨÐµÑĦ": 25965,
  "ĠÐ¾ÑĤÐ´Ð°Ð»Ð¸": 41568,
  "ĠÐ²ÐµÐºÐ¾Ð¼": 33554,
  "ĠÐ´ÑĢÐµÐ²Ð½ÑıÑı": 40371,
  "ÐĹÐµÐ½": 43504,
  "ĠÐ°ÑģÑĤÑĢ": 29386,
  "ĠÐ¿Ð¾ÑıÐ²Ð»ÐµÐ½Ð¸Ñİ": 20962,
  "ĠÐºÑĢÐ°ÑģÐ½Ð¾Ð¹": 21469,
  "ÑģÐ¾Ð½Ð°": 2544,
  "ĠÑģÑĤÐ°ÑĢÑĭÑħ": 12325,
  "ĠÐ·Ð°Ð¿Ð°Ð´Ð½Ð¾Ð¹": 8507,
  "Ð¾Ð½Ð³": 9783,
  "ĠÑģÑĤÐµÐ¿ÑıÑħ": 48070,
  "ĠÐ½Ð°Ð·Ð²Ð°Ð½Ð¸Ñİ": 22459,
  "ver": 7845,
  "ĠÐ´Ð¾Ð¼ÐµÐ½Ð°": 31572,
  "Ð½Ð¾Ð·Ð°": 29103,
  "ĠÐ³Ð¾Ð´Ñĭ": 1666,
  "ĠRobert": 28570,
  "ÑĢÑĭÐ²Ð°ÐµÑĤÑģÑı": 13220,
  "ĠGame": 17524,
  "ĠÑģÐ¾Ð¾Ð±ÑīÐµÐ½Ð¸Ñİ": 28278,
  "ĠÑĤÑĢÐµÐ±ÑĥÑı": 39917,
  "ĠÐĿÐ¾Ð²Ð¾ÐºÑĥÐ·Ð½ÐµÑĨ": 33982,
  "ĠÐĺÐ½Ð¾ÑģÑĤÑĢÐ°Ð½": 32674,
  "ĠÐ°ÑĢÑĤÐ¸Ð»Ð»ÐµÑĢÐ¸Ð¹ÑģÐºÐ¸Ðµ": 43331,
  "Ð¾Ð¼Ð°": 7808,
  "ÐµÑĢÑĭÐ²Ð°": 26582,
  "ĠÐĿÐµÑĢÐ¾Ð½Ð°": 47951,
  "ĠÐ°Ð½Ð°Ð»Ð¾Ð³Ð¸ÑĩÐ½ÑĭÐµ": 28126,
  "ĠÐ¾Ð±ÐµÑģÐ¿ÐµÑĩÐµÐ½Ð¸Ð¸": 32990,
  "ĠÐ¡ÑĤÑİ": 10634,
  "ĠÐĳÐ»ÐµÐ¹": 24991,
  "icy": 49282,
  "ĠÐĲÐºÐ¸Ð¼": 30951,
  "Ð»ÑĳÑĤ": 11866,
  "Ð¡Ð¾ÑİÐ·Ð°": 45384,
  "ĠÑĤÐµÐ°ÑĤÑĢÐ¾Ð²": 21801,
  "ĠÐ´Ð°Ð»ÑĮÐ½ÐµÐ¹ÑĪÐµÐ³Ð¾": 18204,
  "ĠBar": 18598,
  "ĠÐ¿ÑĢÐ¸Ð³": 44413,
  "Ð¸Ð»Ð»": 3423,
  "ĠÐłÐ°ÑĤ": 20374,
  "ĠISO": 16752,
  "ĠÑĥÐ·Ð½Ð°ÑİÑĤ": 45058,
  "ĠÐļÐ¾Ð¼Ð¸ÑģÑģ": 10929,
  "ÐĳÐµÐ½": 21591,
  "ĠÐ²ÑĥÐ»ÐºÐ°Ð½Ð°": 31039,
  "Ð°ÑĤÑĥÑĢÑĭ": 19043,
  "ĠÐ¾Ð³Ð½ÑĳÐ¼": 18900,
  "ĠÑģÑĳ": 14394,
  "Ð³Ð»Ð°Ð²Ð½ÑĭÐ¹": 49956,
  "ĠÑĥÐ±Ð¸Ð¹ÑĨ": 42466,
  "Ð¸Ð¾Ð½ÐµÑĢÐ¾Ð²": 16851,
  "ÐĲÐ»Ð°Ð¼": 48950,
  "ĠÐ¼Ð¾Ð½": 1232,
  "ĠÑĥÐ´Ð°Ð»Ð¸ÑĤÑĮ": 44106,
  "ĠÑĩÑĤÐµÐ½Ð¸Ðµ": 21594,
  "\":": 46834,
  "ÐĴÐ°ÑĪÐ¸Ð½Ð³ÑĤÐ¾Ð½": 44263,
  "ĠÑĢÑĭÐ½ÐºÐµ": 10440,
  "ĠÐŁÑĤÐ¾Ð»ÐµÐ¼ÐµÑı": 22920,
  "ĠÐ·Ð°Ð¼ÐµÐ½Ñĭ": 18826,
  "ĠÐ´Ð¸ÑĦÑĤÐ¾Ð½": 48984,
  "ĠÑĩÐµÐ»Ð¾Ð²ÐµÑĩÐµÑģÐºÐ¾Ð³Ð¾": 13933,
  "ĠÐŃÐł": 30382,
  "ĠÐ¾ÑĤÐ²ÐµÑĩ": 6811,
  "ĠÐ¿ÑĢÐ¸Ð½ÑıÑĤÐ¸Ñı": 10844,
  "âĢ": 354,
  "ĠÐ¥Ð»Ð¾Ð´": 40979,
  "eschicht": 20884,
  "106": 34528,
  "ĠÐŁÐµÑĢÑģÐ¾Ð½": 44532,
  "ĠÐļÑįÑĢ": 25256,
  "ĠÐ¿ÑĢÐ¾ÑĤÐ¸Ð²Ð¾Ð¿Ð¾Ð»Ð¾Ð¶Ð½Ð¾ÑģÑĤÑĮ": 26851,
  "ÐºÐ¸": 484,
  "ÑģÑĤÐ¾ÑĢÐ¾Ð¶": 14684,
  "ÑĢÐ°Ð»Ð¾": 47562,
  "ĠÐ¾Ð±ÑīÐµÑģÑĤÐ²ÐµÐ½Ð½Ð¾Ð³Ð¾": 9214,
  "ĠÑĢÐ°Ð·Ð²Ð¸Ð²Ð°ÑĤÑĮ": 27918,
  "ĠÐ°Ð´Ð°": 8455,
  "ÑĢÐ¾Ð½ÑĤ": 25952,
  "ĠÑĪÐ¾ÑģÑģÐµ": 10221,
  "ĠÑĤÑĢÐ¸Ð»Ð»ÐµÑĢ": 35218,
  "ĠÐ±Ð¸ÑĤÐ°": 47973,
  "ĠÐ¿Ð¾ÑĢÑıÐ´ÐºÑĥ": 36652,
  "ĠÐ¿ÑĢÐ¸Ð¼ÐµÑĢÐµ": 22984,
  "ĠÐµÐ´": 7449,
  "ĠÐ½Ð°ÑĢÐ¸Ñģ": 43492,
  "ĠÑģÐ¾Ð»Ð´Ð°ÑĤ": 5132,
  "Ð¾ÑĢÑĤÑĭ": 25356,
  "ĠÐļÐĵÐĳ": 13589,
  "ĠÑĦÐ°Ð·": 9429,
  "ĠÑĪÐ°ÑĢ": 14492,
  "ĠÑĤÐµÐºÑĥÑīÐµÐ¹": 38334,
  "ĠÐ¼Ð¸Ð»Ð»Ð¸Ð¾Ð½Ð¾Ð²": 5447,
  "ÐĴÐ½ÐµÑĪ": 15233,
  "ĠÐ¿Ð¸ÑģÐ°ÑĤÐµÐ»Ñİ": 40941,
  "145": 44680,
  "Ð¼ÑĥÑĢÑĤ": 23735,
  "ĠÐ¡Ð¾Ð»": 8578,
  "Ð¾Ð½Ð¾Ñģ": 4043,
  "ĠÐ¼Ð¾ÑģÐºÐ¾Ð²ÑģÐºÐ¸Ñħ": 19842,
  "ÑģÑĤÐ²ÐµÐ½Ð½Ð¾ÑģÑĤÑĮ": 17271,
  "ĠÐ¿Ð¾Ð·Ð²Ð¾Ð»ÑıÐ»Ð°": 29979,
  "ÐĿÐĺ": 14355,
  "ĠÐ¾ÑģÐºÐ¾ÑĢ": 15565,
  "ĠMich": 30516,
  "ĠÐĵÐµÑĢÑĪ": 13726,
  "ĠÐŁÐ°Ð²Ð»Ð¾Ð²Ð¸ÑĩÐ°": 43101,
  "Ð»ÑıÐµÑĤÑģÑı": 3236,
  "ĠÐ²Ð¾Ð¾ÑĢÑĥÐ¶ÑĳÐ½Ð½Ð¾Ð¹": 42587,
  "ÐľÐ°Ð½Ñģ": 27524,
  "ĠÐ³Ð¾Ð²Ð¾ÑĢÐ¸ÑĤ": 5917,
  "Ð¸ÑĩÐ½Ð¾Ð¼": 16966,
  "lib": 21897,
  "ĠÐ²ÑĭÐ³Ð¾Ð´Ð½Ð¾": 49072,
  "Ð°ÑĤÐºÐ°": 42621,
  "ĠÐĽÑİÑģÐ¸": 41949,
  "ham": 31335,
  "ĠÐ¾Ð»Ð¸Ð¼Ð¿Ð¸Ð¹ÑģÐºÐ¾Ð¹": 49061,
  "ĠÐ°Ð´Ð¼Ð¸Ð½Ð¸ÑģÑĤÑĢÐ°ÑĤÐ¸Ð²Ð½ÑĭÐµ": 27441,
  "ĠÐ¼ÐµÑħÐ°Ð½Ð¸Ð·Ð¼": 11634,
  "ÑİÐ´Ð°": 7111,
  "Ð¼Ñĥ": 871,
  "ÑĥÑĪÐºÐµ": 22061,
  "ĠÑģÐµÐ³Ð¾": 35992,
  "Ð±ÑĭÑĩÐ½Ð¾": 9505,
  "ĠÑħÐ°ÑĢÐ°ÐºÑĤÐµÑĢÐ½ÑĭÐµ": 21762,
  "Ð¼Ð¾ÑĤÑĢÑı": 2666,
  "ĠÑĥÐ´Ð¸Ð²": 11877,
  "ĠÐĶÐµÐ¹": 17504,
  "ĠÐ¿ÑĢÐ¸Ð½ÑĨÐ¸Ð¿Ð°Ñħ": 28223,
  "ĠÐ¿ÑĢÐµÐ¾Ð±ÑĢÐ°Ð·Ð¾Ð²Ð°Ð½": 16832,
  "ĠÑĢÐµÐ¿ÑĤ": 35327,
  "ÐłÐ¾Ð´Ð¸Ð»ÑģÑı": 7924,
  "ÑĢÐ°Ð¶ÐµÐ½Ð¸Ðµ": 15142,
  "ĠÐ¿Ð¾Ð·Ð²Ð¾Ð»Ð¸Ð»Ð°": 22086,
  "ĠÑģÐ¾Ð±": 746,
  "ĠÐ¯Ð½Ð°": 17120,
  "ĠÑĢÐ°Ð·Ð»Ð°Ð³": 44537,
  "ĠÐºÐ¾Ð¼Ð°Ð½Ð´Ðµ": 11301,
  "ĠÐ¿Ð¾Ð»Ð¸ÑĦ": 46626,
  "ĠÑĢÐ°ÑģÑģÑĤÑĢÐ¾Ð¹ÑģÑĤÐ²": 30812,
  "ĠÐºÐ¾Ð½ÑĨÑĥ": 6198,
  "ĠÐºÐ°Ð½ÑĤ": 11461,
  "ÑĬÐµÐ·Ð´Ð°": 23476,
  "ÐµÑģÐºÐ¾Ð²": 47200,
  "ĠÐŁÑĢÐµÐ¾Ð±ÑĢÐ°Ð¶": 23356,
  "ĠÐŁÑģÑĭ": 48472,
  "ĠÑģÐ¾Ð±ÑģÑĤÐ²ÐµÐ½Ð½ÑĭÐ¼": 16020,
  "Ð¾Ð·ÑĢÐµÐ²": 40973,
  "ĠÐŁÐµÑħ": 40926,
  "ÐµÑħÑĤÐ¾Ð²": 47583,
  "ÐµÐ»Ñĳ": 4729,
  "ĠÐ·Ð°Ñħ": 2438,
  "1794": 39462,
  "ÐĲÑĢÑĤÑĥÑĢ": 49958,
  "ĠÑģÐ¿Ð¸Ð½Ð¾Ð¹": 41344,
  "ĠÐ°Ð´ÑĢÐµÑģ": 9005,
  "ĠÐ¿ÑĢÐ¾ÑĤÐ¸Ð²Ð¾ÑģÑĤ": 9802,
  "ĠÑĤÐµÑĢÐ¼Ð¸Ð½": 3399,
  "ĠÐ¼ÑĥÑģ": 4986,
  "ĠÐºÐ¾Ð¾ÑĢÐ´Ð¸Ð½": 7218,
  "ĠÐ´Ð¾ÐºÑĥÐ¼ÐµÐ½ÑĤÑĭ": 10978,
  "ÐµÐ½ÐµÑĢÐ°": 1384,
  "ĠÑĥÐ»Ð¸Ñĩ": 16418,
  "ĠÐ¿ÑĢÐ°Ð²Ð¾Ð²ÑĭÐµ": 43060,
  "ĠÐ¿Ð¾Ð»ÑĥÑĩÐµÐ½Ð°": 42627,
  "ÑĤÑİÑĢÐº": 48612,
  "27": 2914,
  "ĠÑĪÐ°Ð³Ð¾Ð¼": 24565,
  "ĠÐ¾Ð±ÑĢÐ°Ð·Ðµ": 20128,
  "ĠÐ±Ð¾Ð»ÑĮ": 3266,
  "Ð¾Ð·Ð·": 16726,
  "ĠÑĩÐ°ÑģÑĤÐ¸": 1607,
  "ĠÐ³Ð¾Ð²Ð¾ÑĢÑıÑīÐ¸Ñħ": 40485,
  "ĠÐĲÐ²ÑĤÐ¾ÑĢ": 8031,
  "ÑĢÐ¾Ð¿Ð°": 24070,
  "ĠÐ·Ð°Ð¿ÑĢÐ¾ÑģÐ°": 46634,
  "ĠÐ¼Ð¾Ð½Ð¾Ðº": 45898,
  "BC": 10581,
  "ĠÐĴÐµÐ½ÐµÑģÑĥÑį": 24137,
  "ĠÐ²Ð¾Ð¿ÑĢÐ¾Ñģ": 2157,
  "Ð°Ð»Ð°ÑĤ": 18547,
  "Ð°ÑĢÐ´Ñĭ": 22813,
  "ĠÐ·Ð°ÑĤÑĭ": 39442,
  "ĠÑĥÐ²Ð¾Ð»ÑĮ": 19642,
  "ĠÐºÐ¸ÑĢÐ¸": 15701,
  "ĠÐ°Ð»ÑİÐ¼Ð¸Ð½Ð¸Ñı": 26444,
  "ÑĢÐµÐ´ÐµÐ»ÐµÐ½Ð¸Ðµ": 13549,
  "ĠÐŁÐ¾Ð»ÑĮÑģÐºÐ¾Ð³Ð¾": 25196,
  "ĠÐ¿Ð¾Ð»Ð¾Ð²Ð¾Ð¹": 26953,
  "ĠÐĲÐ²ÑģÑĤÑĢÐ¸Ð¸": 7816,
  "ĠÐļÑĥÑĤ": 12092,
  "ÐŁÑĢÐ¾Ð²": 19738,
  "ĠÐĳÐ¾ÑĢÐ¸ÑģÐ¾Ð¼": 36098,
  "ĠÑģÑĨÐµÐ½Ð°ÑĢÐ¸Ð¹": 9274,
  "Ġ270": 26909,
  "ĠÑĢÐ°Ð·Ð´ÐµÐ»ÑıÐµÑĤ": 37309,
  "ĠÐ§ÑĥÐ»": 44671,
  "ĠÐ±ÑĢÐ°ÐºÐ¾Ð¼": 32926,
  "ĠÐ½ÐµÐ´Ð¾": 20658,
  "ĠÐ£ÑĦÐµ": 44205,
  "ĠÐ¿Ð¾Ð´Ð²Ð¾Ð´Ð½Ð¾Ð¹": 28315,
  "ĠÐ»Ð¸ÑĨÐµÑı": 36480,
  "Ð¾ÑħÐµ": 49427,
  "ĠÐ»Ð¾Ð³Ð°ÑĢÐ¸ÑĦ": 26786,
  "ĠÐ¤ÐµÐ¾Ð´Ð¾ÑĢ": 44912,
  "ĠÐĲÑĢÐµ": 32177,
  "ĠÐ½Ð¸Ð¶Ð½ÐµÐ³Ð¾": 22559,
  "ĠÑĤÐ¾ÑģÐº": 38123,
  "ĠÐ¿ÐµÑĢÑģÐ¾Ð½Ð°Ð»ÑĮÐ½ÑĭÑħ": 33667,
  "ÑįÑĢÐ¸": 32265,
  "ĠÑģÐ¾Ð²ÐµÑīÐ°Ð½Ð¸Ð¸": 36142,
  "ĠÐŀÐŀÐĿ": 7207,
  "ĠÐ¿Ð¾ÑģÑĳÐ»ÐºÐ¾Ð¼": 42757,
  "enc": 33617,
  "ĠÐ¿ÑĢÐµÑĤÐµÐ½Ð´ÐµÐ½ÑĤ": 49238,
  "ĠÐ¡ÑĢÐµÐ´Ð¸Ð·ÐµÐ¼Ð½Ð¾Ð¼Ð¾ÑĢÑĮÐµ": 48930,
  "ÐĸÐ¸Ð²": 13120,
  "ĠÑıÑĩÐµÐµÐº": 47556,
  "ĠÐ²ÑĢÐµÐ¼ÐµÐ½Ð½Ð¾Ðµ": 30613,
  "ĠÐ³ÑĢÐ°ÑĦÐ¸Ðº": 23667,
  "ĠÑĢÐ°ÑĤÐ¸ÑĦÐ¸ÑĨÐ¸ÑĢÐ¾Ð²": 34518,
  "Ð¾ÑģÐ¿": 2216,
  "ĠÐ°Ð¹": 15943,
  "Ġ1764": 31250,
  "ĠÐ¿ÐµÑĢÐµÐ³Ð¾Ð²Ð¾ÑĢÑĭ": 9291,
  "ĠÑĤÐµÐ»ÐµÐ³ÑĢÐ°ÑĦ": 19275,
  "Ð¾ÑĤÑĮ": 28417,
  "ĠÑģÐ½ÑıÐ»ÑģÑı": 21984,
  "ĠÐļÐ°ÑĢÐ°Ð±Ð°ÑħÐ°": 41317,
  "Ġcons": 48822,
  "ĠÐ°Ð»ÑĮÐ¿": 38959,
  "×ķ": 34073,
  "ĠÑģÑģÑĭÐ»": 9313,
  "Ð¼ÐµÐ½Ð½Ð°Ñı": 39046,
  "ĠÑĥÐ»Ð¸": 2150,
  "ĠÐ´Ð¾ÐºÑĤÐ¾ÑĢÐ°": 6178,
  "ĠÑĦÐ»Ð¾ÑĤ": 3422,
  "ĠÐ²ÑĭÐ±ÑĢÐ°ÑĤÑĮ": 21138,
  "ĠÐĴÐ°ÑĢÐ¸": 26506,
  "ĠÐ¤Ð¾ÑĤÐ¾": 42330,
  "ĠÐĺÐ²Ð°Ð½Ñĥ": 31712,
  "ĠÐºÐ¾Ð½Ñĩ": 17984,
  "ĠÐ¾Ð±ÑĭÑĩÐ½ÑĭÐ¹": 27437,
  "ĠÐºÐ¾ÑģÐ¼Ð¾ÑģÐ°": 24980,
  "uit": 31502,
  "ĠÐ¼ÑĭÑģÐ°": 28470,
  "ĠÐ¿Ð¾Ð´Ð¿": 6246,
  "ĠÑĢÐ°Ð·ÑĢÐµÐ¶": 49190,
  "ÐµÐ¾Ð»Ð¾Ð³Ð¸Ñı": 41385,
  "ÑĥÑĢÐµ": 1910,
  "Ð¸Ð·Ð¾ÑĦ": 19460,
  "ÐŁÑĢÐ¾Ð³ÑĢÐ°Ð¼Ð¼Ð½Ð¾Ðµ": 32354,
  "ĠÐĵÐµÐ¾ÑĢ": 3642,
  "ĠÐ±Ð¾Ð»ÑĮÐ½Ð¸ÑĨÑĥ": 23244,
  "ĠÐ´Ð°ÑĤÐ¸ÑĢÑĥÑİÑĤÑģÑı": 33170,
  "ĠÑģÐ¾ÑģÑĤÐ¾ÑıÑĤ": 15236,
  "ĠÑģÐ¾Ð·": 1907,
  "ĠÐ¿ÑĢÐ¸Ð¼ÐµÐ½ÑıÐ²": 41045,
  "ĠÐķÐ»Ð¸Ð·Ð°Ð²": 7928,
  "ĠÐ½Ð°ÑĢÑĥÑĪÐµÐ½Ð¸Ñı": 12445,
  "ĠÑĥÐ¿Ð¾ÑĢ": 13360,
  "ĠÑĤÑĢÐµÐ±Ð¾Ð²Ð°Ð»": 23860,
  "ĠÐ¼Ð°ÑĢÑĤÐ°": 1902,
  "1983": 12049,
  "ĠÐ¼Ð¸ÑĢÐ¾Ð²Ð¾Ð³Ð¾": 12786,
  "=\"#": 41423,
  "ĠÐ²Ð¸Ð½Ñĥ": 28264,
  "ĠÐ·ÐµÐ»ÑĳÐ½Ð¾Ð³Ð¾": 34181,
  "Ġsur": 21903,
  "ĠÐ¿ÑĢÐµÐ´ÑģÐºÐ°Ð·Ð°Ð½Ð¸Ñı": 48919,
  "ĠÐ³ÑĢÑĥÐ¿Ð¿Ð°Ð¼": 34018,
  "ĠÐ·Ð°ÐºÑĢÐµÐ¿": 6584,
  "ÑĪÐºÐ¸": 17451,
  "ĠÐ²Ð¾Ð·Ð½Ð¸ÐºÐ½Ð¾Ð²ÐµÐ½Ð¸Ðµ": 23358,
  "ĠÐ´Ð¾Ð±Ð°Ð²Ð»ÐµÐ½Ð°": 38661,
  "ĠÐ¿ÐµÑĢÐµÐ¼ÐµÐ½Ð½ÑĭÑħ": 20283,
  "ĠÑĢÐµÐ·ÑĥÐ»ÑĮÑĤ": 1409,
  "ĠÑĢÐ°ÑģÑģÑĤÑĢÐ¾Ð¹ÑģÑĤÐ²Ð¾": 29701,
  "ĠÑĪÐºÐ¾Ð»Ðµ": 6192,
  "ĠÑĢÐ¸ÑĤÐ¾ÑĢ": 20143,
  "ĠÐ½ÐµÐºÐ¾ÑĤÐ¾ÑĢÐ¾Ðµ": 6658,
  "ĠÐļÐ¾ÑĢÐ¾Ð»": 19775,
  "ĠÐ¿ÑĢÐ°Ð·Ð´Ð½Ð¸ÐºÐ¾Ð²": 27855,
  "Ð¾Ð³ÑĢÐ°ÑĦÐ¸Ñİ": 20655,
  "ste": 41272,
  "ĠÑģÐ¼ÑĭÑģÐ»Ð°": 20446,
  "Ð¡ÑĢÐµÐ´Ð½ÐµÐ²ÐµÐº": 38812,
  "ĠÐ¿Ð¾Ð»ÑıÐºÐ¸": 29387,
  "Al": 16051,
  "ÑĦÐ°Ð¹": 31793,
  "ĠÑİÐ¶Ð½Ð°Ñı": 26383,
  "Ð°Ð»ÑĮÐ´ÐµÐ³": 35850,
  "ĠÑĢÐ°ÑģÐ¿Ð¾Ð»Ð°Ð³Ð°ÐµÑĤ": 35844,
  "ĠÐ¿Ð°ÑĢÐ°Ð»Ð»ÐµÐ»ÑĮ": 25548,
  "ĠÑĥÐ¶Ð°ÑģÐ¾Ð²": 10721,
  "ĠÐ¿Ð¾Ð»ÐºÐ¾Ð²Ð½Ð¸ÐºÐ¾Ð¼": 46583,
  "ĠÐĴÑĢÐµÐ¼ÐµÐ½Ð½Ð¾Ð³Ð¾": 24550,
  "ĠÐ´Ð¸Ð°Ð³ÑĢÐ°Ð¼": 23328,
  "ĠÑĪÐºÐ¾Ð»ÑĮÐ½Ð¾Ð¹": 43731,
  "ĠÑģÐµÑĢÐ²ÐµÑĢ": 28060,
  "Ð°Ð»Ð¸ÐµÐ¹": 26183,
  "ÑģÑĤÐ¾Ð½Ð°": 27961,
  "Ġ2023": 6272,
  "Ð³Ð¾ÑĢÐ¸ÑĤÐ¼": 27652,
  "ĠÐ²Ð¾Ð·Ð´ÑĥÑħÐ°": 6358,
  "ĠÐĶÑĥÐ½": 32982,
  "ĠÐ¿ÑĢÐµÐ¿Ð°ÑĢÐ°ÑĤÐ¾Ð²": 15968,
  "ĠÐ±Ð°Ð·Ð¾Ð¹": 24022,
  "ĠÐĴÐµÑĢÑģ": 26184,
  "Ð´ÐµÑĢÐµÐ²Ð½Ñı": 35750,
  "burg": 23224,
  "ĠÑĢÐ°Ð±Ð¾ÑĤÐ½Ð¸ÐºÐ¾Ð²": 11527,
  "ĠÐ´Ð²ÑĥÐº": 16030,
  "Ð°Ð¹": 543,
  "ĠÑģÐ±Ð¾ÑĢÐ½Ð°Ñı": 13869,
  "ĠÐ¼Ð°Ð»ÐµÐ½ÑĮÐºÐ¸Ðµ": 28671,
  "ĠÑĢÐ°ÑģÐ¿ÑĢÐ¾ÑģÑĤÑĢÐ°Ð½ÑĳÐ½Ð½ÑĭÑħ": 25264,
  "ÑĢÐµÐ¶Ð´Ðµ": 17607,
  "ĠÐĵÐ»Ð°Ð²": 3701,
  "ĠÑĤÐµÑĢÐ¼Ð¾Ð´Ð¸Ð½Ð°Ð¼Ð¸ÐºÐ¸": 39942,
  "ĠÐ¸Ð·Ð±Ð¸ÑĢÐ°ÑĤÐµÐ»ÑĮÐ½Ð¾Ð¹": 37671,
  "ĠÐ¿ÐµÑĢÐ²ÐµÐ½ÑģÑĤÐ²Ð°": 30138,
  "ĠÑħÑĥ": 34900,
  "ĠÑįÑĤÐ°Ð¶ÐµÐ¹": 44293,
  "Ð¾Ð´Ðµ": 10903,
  "ĠÐĹÐ°ÐºÐ¾Ð½Ð¾Ð´": 21367,
  "ĠÑģÑĤÐµÑĢÐµÐ¾ÑĤÐ¸Ð¿": 26023,
  "Ð¸Ð»ÐµÐ¼": 14697,
  "ĠÑĥÑģÑĥÐ³ÑĥÐ±": 28300,
  "ĠÐ½Ð°ÑĥÑĩÐ½Ð¾Ð³Ð¾": 12526,
  "ĠÐ¼Ð¸Ð½Ð¸ÑģÑĤ": 2766,
  "ĠÐ²ÑĭÑĢÐ°Ð¶ÐµÐ½Ð½Ð¾Ð¹": 39419,
  "amb": 11632,
  "ĠÐļÐµÐ¹": 12893,
  "ĠÑģÐ¾ÑĩÐµÑĤ": 6089,
  "ĠÑĩÐµÐ»Ð¾Ð²ÐµÑĩÐµÑģÐºÐ¾Ðµ": 42884,
  "ÑģÐ¾Ð½Ñĥ": 37864,
  "ĠÐ¿ÑĢÐ¸ÑĢÐ¾Ð´Ð¾Ð¹": 33200,
  "Ð¾Ð·Ð²ÑĥÑĩ": 25361,
  "ĠÐ¾ÑĢÐºÐµÑģÑĤÑĢÐ¾Ð¼": 22354,
  "ĠÐ²ÑĭÐ·Ð²Ð°Ð½Ð½Ð¾Ð³Ð¾": 44029,
  "ĠÐļÐ°Ð¶Ð´": 8231,
  "ĠÐ»Ð°Ð²ÑĢÑĭ": 28086,
  "ÑģÑĥÑĢ": 4969,
  "ST": 28571,
  "ĠÐĴÐ°Ð»ÐµÑĢ": 42197,
  "ĠÐĴÑĭ": 3331,
  "ĠÑıÐ·Ð²": 26202,
  "ĠÐ¿Ð¾ÐºÑĢÐ¾Ð²Ð¸ÑĤÐµÐ»ÑĮÑģÑĤÐ²Ð¾": 47935,
  "ĠÑģÐ´Ð°ÑĩÐ¸": 36498,
  "ĠÑĢÐ¾Ð´Ð¾Ð¼": 19884,
  "ĠÑģÐµÑĢÐ±ÑģÐºÐ¾Ð³Ð¾": 49563,
  "Ð¸ÑģÑģÐºÐ¸Ð¹": 47413,
  "ĠÐ¸ÐµÑĢÐ¾Ð¼Ð¾Ð½Ð°Ñħ": 42667,
  "ĠÑħÐ°ÑĢÐ°ÐºÑĤÐµÑĢÐ½Ð°": 24056,
  "ĠÑħÑĢÐ°Ð½Ð¸Ð»Ð¸ÑģÑĮ": 47607,
  "ĠÐ¿ÑĢÐ¸Ð³Ð¾Ð´": 16275,
  "ĠÐĶÐµÐ¼Ð¾ÐºÑĢÐ°ÑĤ": 14388,
  "ÑĦÐ°Ð½ÑĤÐ°ÑģÑĤÑĭ": 49333,
  "ÑĥÑģÑĤÐ¸Ð½": 42916,
  "ĠÑĤÑĥÐ½Ð´": 28235,
  "Ð¸ÑģÑĤÐ¸ÑĩÐµÑģÐºÐ¸Ðµ": 21066,
  "ĠÑĥÑģÑĤÑĥÐ¿ÐºÐ¸": 39107,
  "ĠÐ¸ÑģÑģÐ»ÐµÐ´Ð¾Ð²Ð°Ð½Ð¸ÑıÑħ": 18781,
  "ĠÑĩÐ¸ÑĤÐ°ÑĤÐµÐ»ÑĮ": 40952,
  "ĠÐ¡ÑĤ": 869,
  "Ð¾Ð»Ð¾Ð³Ð¸Ñİ": 10076,
  "ĠÐ¶ÐµÐ½ÑīÐ¸Ð½": 4982,
  "1868": 23574,
  "ÑĥÑİÑīÐµÐµ": 9123,
  "ĠÑĦÐ¸Ð·Ð¸ÑĩÐµÑģÐºÐ¸Ð¹": 37243,
  "Ð·Ð°Ð¼": 12548,
  "ĠÐ¿ÑĢÐµÐ´ÑģÑĤÐ°Ð²Ð»ÑıÑİÑīÐ°Ñı": 42583,
  "Ð¡Ð¿Ð¸ÑĢÐ°Ð»ÑĮÐ½ÑĭÐµ": 17385,
  "ÐµÑģÐºÐ¸": 18235,
  "ĠÐĳÑĮÑİ": 38355,
  "ĠÐ¾Ð»Ð¸Ð¼Ð¿Ð¸Ð¹ÑģÐºÐ°Ñı": 28225,
  "ĠÐ¾ÑģÑĤÐ°Ð½": 16086,
  "ÑĥÑģÐº": 1297,
  "ĠÐ¼Ð»Ð°Ð´ÑĪÐ¸Ñħ": 32415,
  "ĠÑĦÑĢÐ°Ð½ÑĨÑĥÐ·Ð°Ð¼Ð¸": 36265,
  "ÐłÐ°ÑģÑģÐºÐ°Ð·Ñĭ": 45293,
  "ĠÐĳÐµÐ½Ð´Ð¶Ð°Ð¼Ð¸Ð½": 47473,
  "ĠÐ¾Ð±Ð¾ÑĢÑĥÐ´Ð¾Ð²Ð°Ð½Ð¸Ðµ": 11235,
  "ĠÑĩÐ°ÑģÑĤÐ½Ð¾Ð³Ð¾": 26613,
  "ĠÐ¿Ð¾Ð¿ÑĥÐ»ÑıÑĨÐ¸Ð¸": 20093,
  "ĠÑįÐ»ÐµÐºÑĤÑĢÐ¸ÑĩÐµÑģÐºÐ¸Ñħ": 23327,
  "ĠÑģÐ»Ð°Ð²Ñĭ": 10056,
  "ĠÐŃÐ½Ð´Ð¸": 24151,
  "ĠÑįÐºÐ¸Ð¿Ð°Ð¶ÐµÐ¼": 45230,
  "ĠÐ±Ð¾Ð»ÑĮÑĪÐ¸Ð½": 2520,
  "ĠÐ£Ñħ": 27808,
  "ĠÐ¿Ð¾Ð¿ÑĥÐ»Ñı": 7352,
  "ĠÐĵÑĢÐ¸Ð±": 46769,
  "ĠÐľÐ°ÑĢÐ¸Ð½": 33242,
  "ĠÐ¶Ð¸Ð´ÐºÐ¾Ð¹": 46082,
  "ĠÑĤÐ°ÐºÐ¸Ð¼": 3842,
  "Ð¸Ð·Ñĭ": 11765,
  "ĠÐ²Ð¾ÑģÑģÑĤÐ°Ð½Ð¾Ð²Ð»ÐµÐ½Ð¾": 39974,
  "ĠÐ¿Ð¾Ð¾Ñī": 17431,
  "Ð¿Ð¾Ð²": 8074,
  "ĠÐ°Ð½ÑĤÐ¸": 12598,
  "ĠÐ´ÐµÐ»ÑıÑĤ": 35643,
  "ĠÐ²Ð¿ÑĢÐ°Ð²Ð¾": 39142,
  "Ð¸ÑģÑģÐ»ÐµÐ´Ð¾Ð²Ð°ÑĤÐµÐ»ÑĮÑģÐºÐ¸Ñħ": 40291,
  "ĠÐ¿Ð¾Ð³Ð¸Ð±ÑĪÐµÐ³Ð¾": 34609,
  "Ð½Ð¸ÑĨÐºÐ¸Ð¹": 15520,
  "ĠÐĺÐ·Ð´Ð°ÑĤÐµÐ»ÑĮÑģÑĤÐ²Ð¾": 14077,
  "ĠÐ²ÑģÐµÐ¾Ð±Ñī": 9092,
  "ĠÐ°Ð²ÑĤÐ¾Ð±": 21882,
  "1798": 40539,
  "ĠÐļÐ²ÐµÐ±ÐµÐº": 50158,
  "ĠÐ¿ÑĢÐ¾Ð´Ð¾Ð»Ð¶Ð¸Ð»Ð°": 36362,
  "ĠÐ·ÐµÑĢÐ½Ð¾": 30290,
  "ĠÐ¿ÑĢÐ¸Ð¼ÐµÐ½ÑıÐ»Ð¸": 37775,
  "ĠÐ·Ð°Ð¼ÐµÑģÑĤ": 5084,
  "ĠÐĿÐ°ÑĨÐ¸Ð¾Ð½Ð°Ð»ÑĮÐ½ÑĭÐ¼": 47741,
  "ĠÑģÑĤÑĢÐµÐ¼Ñı": 22617,
  "ĠÐ¿ÑĢÐ°Ð²Ð¸ÑĤÐµÐ»ÑĮÑģÑĤÐ²ÐµÐ½Ð½ÑĭÑħ": 29283,
  "ĠÐ¿ÑĢÐµÐ´Ð¾ÑģÑĤÐ°Ð²Ð»ÑıÐµÑĤÑģÑı": 43527,
  "ĠÐ¤ÑĢÐµÐ´Ð´Ð¸": 30813,
  "ĠÐĶÐ¾Ð»Ð³": 28062,
  "ÐµÐ¹Ð·Ð°": 12379,
  "Ġsc": 23271,
  "ĠÐ¶ÐµÐ»Ð°Ð½Ð¸Ñı": 23948,
  "Ð¸ÑĩÐ½Ð¾Ð¼Ñĥ": 35410,
  "ĠÐ·Ð°ÑģÑĤÑĢÐ¾Ð¹ÐºÐ¸": 22661,
  "ĠSpect": 39825,
  "ĠÐļÐ¾ÑĢÑģ": 21825,
  "ĠHell": 27197,
  "ĠÑĢÐµÑĩ": 4147,
  "ĠÐ½Ð°ÑģÑĤ": 1515,
  "ĠÐ¿ÑĢÑĥÑģ": 15044,
  "ĠÐºÐ½ÑıÐ¶ÐµÑģÑĤÐ²": 27050,
  "ĠÐ·Ð°": 467,
  "Ð¸Ð·Ð°ÑĨÐ¸Ð¸": 1416,
  "ÑīÐ¸ÐºÐ¾Ð²Ð°": 47916,
  "ĠÐĶÐ¾Ð¼Ðµ": 35578,
  "ĠÐĺÐ³Ð¾ÑĢÑĮ": 7587,
  "ÑĥÐ·Ðµ": 25218,
  "ĠÐĽÑİÐºÑģÐµÐ¼Ð±ÑĥÑĢÐ³": 26180,
  "ĠÐļÑĥÐ·Ð½ÐµÑĨÐ¾Ð²Ð°": 31615,
  "ĠÐļÐ¾Ð½ÑģÑĤÐ°Ð½ÑĤÐ¸Ð½Ð¾Ð¿Ð¾Ð»ÑĮ": 11748,
  "ĠÐ´ÐµÑĢÐµÐ²": 1672,
  "ÐŀÐºÐ¾Ð½Ñĩ": 15634,
  "Ð¾ÑģÐ»Ð¾Ð²Ð½Ð¾": 27553,
  "ĠÐ³Ð¾ÑĢÐ¾Ð´Ñĥ": 9944,
  "ĠÐ¸ÑĢÐ°Ðº": 19248,
  "ĠÐĵÐ¾Ð¼": 8370,
  "ĠÐ¾ÑĤÑĢÑĭÐ²ÐºÐ¸": 42315,
  "ĠÑĥÐ¿Ð¾Ð¼ÑıÐ½ÑĥÑĤÑĭÑħ": 50074,
  "ĠÐļÐ¾ÑĢÐ¾Ð»ÐµÐ²ÑģÑĤÐ²Ð¾": 26441,
  "ĠÐ½Ð°ÑĥÑĩÐ½Ð¾Ð¼": 35388,
  "ĠÑĤÐ°Ñħ": 37849,
  "ĠÐ´ÐµÑĢÐµÐ²Ð°": 12014,
  "ÐŀÑĢÐ³Ð°Ð½Ð¸Ð·Ð°ÑĨÐ¸Ð¸": 34006,
  "ĠÑĢÐ°ÑģÐºÑĢÑĭ": 19382,
  "ĠÐľÐµÑĤÐ¾Ð´": 20964,
  "ĠÐ·Ð°Ð²ÐµÐ´Ð¾Ð¼Ð¾": 46081,
  "ĠÐĲÐºÑĥ": 43824,
  "Ġb": 3141,
  "ĠÐ¥Ð¥": 44416,
  "ĠÐ¿ÑĢÐ¸Ð±Ð»Ð¸Ð¶ÐµÐ½Ð¸Ð¸": 33456,
  "ĠÑĤÐµÑĢÑĢÐ¾ÑĢ": 7303,
  "ÑĥÐ³Ð¾Ð»ÑĮÐ½Ð¸ÐºÐ°": 31809,
  "ĠÐľÐµÐ½Ñı": 49312,
  "ĠÐľÐµÐ¶Ð´ÑĥÐ½Ð°ÑĢÐ¾Ð´Ð½Ð¾Ð¼": 31660,
  "ĠBur": 32588,
  "ĠLost": 46129,
  "ĠÐĽÑĮÑİÐ¸Ñģ": 22933,
  "ĠÐ¢Ð¾ÑĢÐ¶": 30396,
  "ĠÑĢÐµÐ±ÑĳÐ½": 6132,
  "ĠÐ³ÑĥÑģÐµÐ½": 25397,
  "Ð¢Ðĳ": 25694,
  "ĠÐ¿Ð¸ÐºÐ°": 33261,
  "ĠÑģÐ¼ÐµÐ¶Ð½ÑĭÑħ": 47779,
  "ĠÐ³ÑĢÑı": 20192,
  "ĠÑģÐ»ÐµÐ´ÑĥÑİÑīÐ¸Ðµ": 4949,
  "ĠÑĢÐ°Ð´Ð°": 45809,
  "Ð¾Ð³Ð¾Ð½ÑīÐ¸Ðº": 32189,
  "Ð¾ÑģÑģÐ¾Ð²ÐµÑĤÐ°": 34782,
  "ĠÐ¿Ð¾Ð»ÑĮÑģÐºÐ¸Ñħ": 16388,
  "Ð¤Ð¸Ð»Ð¸Ð¿Ð¿": 35789,
  "ĠÑģÐ»Ð¸Ð·Ð¸ÑģÑĤÐ¾Ð¹": 41827,
  "Ð¸Ð»Ð¸Ñı": 2844,
  "Ð¸Ñĩ": 384,
  "ÐĺÐ¼Ñı": 18937,
  "ĠÐ¶Ð¸Ð²Ð¾Ð¿Ð¸ÑģÑĮ": 20533,
  "Ф": 240,
  "Ð·Ð°ÑīÐ¸ÑĤ": 39122,
  "ĠÑĤÑĢÐ¸Ð´ÑĨ": 14018,
  "ĠÐ½ÐµÐ½Ð°Ð´Ð¾Ð»Ð³Ð¾": 34767,
  "ĠÐ¿Ð»ÐµÑĩÐ¾": 48998,
  "ĠÐ£ÑĩÐµÐ½Ð¸Ðµ": 48008,
  "ĠÐĺÐ±Ð½": 20058,
  "ĠÑģÐµÐ»ÑĮÑģÐºÐ¾Ð³Ð¾": 8448,
  "Ð²Ð¸Ð¶ÐµÐ½Ð¸Ðµ": 10394,
  "ĠÐ°ÑĢÐ³ÑĥÐ¼ÐµÐ½ÑĤÑĭ": 39390,
  "ÑĥÐ½Ñĭ": 18256,
  "ĠÑĢÐ°ÑģÐºÐ»Ð°Ð´": 37711,
  "ĠÑĩÐ¸ÑģÐµÐ»": 7537,
  "Ġ1887": 13258,
  "ĠÐ»ÐµÑĤÐ¾Ð¼": 7298,
  "ÐºÐ°Ð·ÑĭÐ²Ð°ÐµÑĤ": 26605,
  "ĠÐ½Ð°ÑħÐ¾Ð´Ð¸ÑĤÑĮÑģÑı": 16923,
  "ÐµÐ¹Ð½Ð°": 5197,
  "ĠÑģÐ»ÑĥÑĩÐ°Ð¸": 13226,
  "ĠÐļÐ¸ÐµÐ²ÑģÐºÐ¾Ð¹": 15570,
  "ĠÐ½ÐµÑģÑĥÑīÐµÑģÑĤÐ²": 40278,
  "Ð¾ÑĢÐµÐ¼Ð¾Ð½ÑĤ": 27697,
  "ĠÐ¿Ð¾Ð»ÑĥÑĩÐ°Ð»Ð¸": 16191,
  "ĠÐľÐļ": 19442,
  "Ð¾Ð½Ð¾Ð²ÑģÐºÐ¾Ð¹": 30991,
  "ĠÐĳÐµ": 15667,
  "ĠÐŁÐ¾ÑģÑĤÑĢÐ¾ÐµÐ½": 45524,
  "Ð±Ð¾ÐµÐ²": 19499,
  "ĠÐ¿ÑĢÐ¸ÑĥÑĢÐ¾Ñĩ": 20842,
  "ĠÐ½Ð°Ð¿ÑĢÐ°Ð²Ð»ÐµÐ½Ð¸ÑıÑħ": 22443,
  "ĠÐºÐ¾Ð¶ÐµÐ²": 37876,
  "ĠÐ¦Ð¸ÑĢ": 44280,
  "ĠÐ½Ð°ÑĩÐ°ÑĤ": 28156,
  "ĠÐ½ÐµÑģÐ¾Ð³Ð»Ð°Ñģ": 27643,
  "ĠÑĢÐµÐ·ÐµÑĢÐ²Ñĥ": 35199,
  "ional": 29839,
  "ĠÐ¿Ð¾ÑģÑĤÑĢÐ¾ÐµÐ½Ð°": 8532,
  "ĠÑģÐ½ÐµÐ³Ð°": 26873,
  "ÐłÐ°Ð¼": 35246,
  "ĠÐ¼Ð¾Ð»ÐµÐºÑĥÐ»": 16563,
  "ĠÐ¦ÐµÐ½ÑĤÑĢÐ°Ð»ÑĮÐ½Ð¾Ð¹": 9168,
  "ĠÐ¤Ð¾Ð½Ð´": 20718,
  "ÐµÐ´ÐµÑģÑĤ": 44131,
  "ĠÐ²ÑĭÐ¿Ð°Ð´Ð°ÐµÑĤ": 20497,
  "ĠÐ½ÐµÐ»Ð¸Ð½ÐµÐ¹": 28752,
  "ĠÐĲÐŃÐ¡": 15033,
  "ÑĤÐ¾Ð½Ð°": 8750,
  "ĠÐ¾Ð¿ÐµÑĢÐ°ÑĨÐ¸Ñı": 13841,
  "ĠÐ»ÑĳÐ³ÐºÐ¸Ð¼": 44032,
  "ĠÐ¶ÑĥÑĢÐ½Ð°Ð»Ð°Ñħ": 21338,
  "Ð¾Ð»ÐµÐ·": 24436,
  "Ð¡ÑĤÐ°ÑĤ": 26343,
  "ĠÐ·ÑĳÑĢ": 33359,
  "ÐŁÐ¾Ð¶": 37903,
  "Ð¸ÑĩÐµÑģÐºÐ¾Ð¹": 971,
  "ĠÐ¿Ð¾Ð¿ÑĥÐ»ÑıÑĢÐ½Ð¾Ð¹": 14756,
  "ÐºÐ¸Ð¹": 1375,
  "ĠÐ¿ÑĢÐµÐ´ÑĥÑģÐ¼Ð°ÑĤÑĢÐ¸Ð²Ð°ÐµÑĤ": 28726,
  "ĠÐ·Ð½Ð°Ð¼ÐµÐ½Ð¸ÑĤÑĭÑħ": 22153,
  "ĠÑĥÑĤÐµÑĪ": 41404,
  "ĠÑĪÐµÑģÑĤÑĮ": 6797,
  "Ð¸Ð²Ð°ÑİÑīÐµÐ³Ð¾": 43876,
  "Ð»Ð¸Ð²Ð°Ñı": 33899,
  "ÐĶÐ²Ð¾ÑĢ": 16038,
  "ĠÑĥÐ½ÑĤÐµÑĢ": 37144,
  "ĠÐºÐ¾ÑĢÐ¾Ð»": 7302,
  "ĠÐ´ÑĢÐµÐ²Ð½ÐµÐ³Ð¾": 13897,
  "ĠÑĦÐ¸Ð»Ð¸Ð°Ð»Ñĭ": 40191,
  "ĠÐ¾Ð±ÑĭÑĩÐ½ÑĭÐµ": 25315,
  "ĠÐ½ÐµÐ¾ÑĤÑĬÐµÐ¼Ð»ÐµÐ¼": 27450,
  "Ð¸ÐºÐ°Ð³Ð¾": 14834,
  "ĠVV": 50033,
  "ĠÑģÐ°Ð¼ÑĭÐ¼": 3798,
  "ĠÐ¿ÑĢÑıÑĤ": 45075,
  "Ð¾Ð»ÑĮÐ½ÑĭÐ¼Ð¸": 36467,
  "ĠÐĺÐ½Ð´Ð¸": 24614,
  "ĠÐĵÑĥÐ³": 49094,
  "ÐµÐ½Ð½Ð¾ÑģÐ»ÑĥÐ¶": 20991,
  "ĠÑģÐ¾ÑĨÐ¸Ð°Ð»Ð¸ÑģÑĤÐ¸ÑĩÐµÑģÐºÐ¾Ð³Ð¾": 33251,
  "ĠÐ¿ÐµÐ½Ð°Ð»ÑĮÑĤÐ¸": 23988,
  "ĠÑĨÐµÐ»ÑĭÐ¼": 42290,
  "Ð¾ÑģÐ¸ÑģÑĤÐµÐ¼Ñĭ": 49180,
  "ÑĤÐµÐ¿ÐµÑĢÑĮ": 47470,
  "ĠÐ°ÑĤÐ°Ð¼Ð°Ð½Ð°": 46758,
  "ĠÐ¿Ð¾Ð²Ð»Ð¸Ñı": 10569,
  "ĠÑĨÐ¸ÑĤ": 6893,
  "ÑĨÐ¸Ð¾Ð½Ð°Ð»ÑĮ": 1248,
  "ĠÐ´Ð°ÑĤÑĩÐ°Ð½": 45348,
  "ĠÐ¿Ð¾Ð¶Ð°ÑĢÐ¾Ð²": 40664,
  "ĠÐºÑĢÐ¸ÑģÑĤ": 7115,
  "Ð¾ÑħÐ°Ð½": 20796,
  "ĠÐ¿ÐµÑĢÐµÐ²Ð¾Ð·": 6579,
  "ĠÐłÑĥÑģÑģÐºÐ¸Ðµ": 20013,
  "ĠÑįÑĦ": 8422,
  "Ð²ÐµÑĤ": 843,
  "ÐµÑĢÐ°ÑĤ": 30907,
  "ĠÐ¾ÑĤÐ¿ÑĢÐ°Ð²Ð»ÑıÑİÑĤÑģÑı": 23979,
  "ÐµÑģÑĮ": 1526,
  "Ð»Ð¸Ð²Ð¾Ðµ": 43066,
  "ÐŃÐºÑģÐ¿": 13878,
  "ÑħÐ¾ÑĢ": 13334,
  "ĠÐ¿Ð¾Ð´Ð°Ð²Ð»ÐµÐ½Ð¸Ñı": 20076,
  "ĠÐºÑĢÑĥÐ¿": 1523,
  "ÑĢÐµÐ»Ð¾": 27489,
  "ĠÐ»Ð¸ÑĪÐ¸ÑĤÑĮ": 49942,
  "Ð²Ð»Ñı": 714,
  "ĠÑĤÑĢÑĥÐ¿Ð¿": 44654,
  "ĠÐ¿Ð°Ð²Ð¸Ð»ÑĮ": 17529,
  "ĠÐĿÐ¾ÑĢÐ´": 45321,
  "Ġclass": 29203,
  "ĠÑĦÐ»Ð°Ð³": 6349,
  "ĠÐļÐ°Ð¶Ð´ÑĭÐ¹": 12848,
  "ĠÐ¡Ð°Ð²Ð¾Ð¹": 29388,
  "ĠÑĤÐ°Ð¹Ð½Ñĭ": 31778,
  "ÑħÐ°ÑĪ": 45316,
  "ĠÑĢÐ°ÐºÐµÑĤÐ°Ð¼Ð¸": 38763,
  "ÐµÐ²ÑĢÐ¾Ð¿ÐµÐ¹": 12630,
  "ÑıÑĤÐµÐ»Ð¸": 37904,
  "ĠÐľÐ°ÐºÑģÐ°": 29257,
  "Ð½Ð°ÑĥÐ³ÑĥÑĢÐ°": 49593,
  "ĠÐ»ÐµÐ³ÐµÐ½Ð´Ñĭ": 18911,
  "Ð»ÐµÐ±Ð°": 16189,
  "ĠÐ½Ð°ÑħÐ¾Ð´Ð¸Ð»ÑģÑı": 5420,
  "ĠÐ·Ð°ÐºÑĢÑĭÑĤÐ¾Ð³Ð¾": 41418,
  "ÐµÑħÐ°Ð»": 7337,
  "Ġ''": 46363,
  "ĠÑĩÐµÑĤÐ²ÑĳÑĢÑĤÐ°Ñı": 39730,
  "ĠÐ½ÐµÐ¿Ð¾Ð½": 24252,
  "ĠÑģÐµÑĢÐµÐ±ÑĢÑı": 6665,
  "Ð°Ð±Ð¸Ð»": 11444,
  "ĠÐ±Ð°Ð½ÐºÐ½Ð¾ÑĤ": 38433,
  "ĠÐĺÐµÑĢÑĥÑģÐ°Ð»Ð¸Ð¼Ð°": 20948,
  "Ð¸ÑĢÑĥÑİÑĤ": 6593,
  "ÑģÑĤÐ¾ÑıÐ½Ð¸Ðµ": 18703,
  "ĠÐĵÑĥÐ¼Ð±": 34255,
  "ĠÐŁÐ¾ÐºÑĢÐ¾Ð²": 18169,
  "ĠMathemat": 47775,
  "ĠÐ¾Ð¿ÑĭÑĤÐ½ÑĭÐ¹": 27204,
  "ĠÐ²Ð¾Ð·Ð½Ð¸ÐºÐ½Ð¾Ð²ÐµÐ½Ð¸Ñİ": 32892,
  "Ġ2025": 48300,
  "ĠÑģÑĤÐ¸ÑħÐ¸": 7803,
  "ĠÑĤÑĢÐ°Ð¿": 24364,
  "ĠÑħÐ°ÑĢÐ´": 25310,
  "Ð³ÐµÐ½Ð¾Ð²": 24371,
  "ĠÐŁÑĢÐ¾ÑĦÐµÑģÑģÐ¸Ð¾Ð½": 42060,
  "ĠÐ°Ð±Ð±ÑĢÐµÐ²Ð¸Ð°ÑĤÑĥÑĢÐ°": 36287,
  "ĠÑģÐ»Ð¾Ð¶Ð¸Ð»Ð¾ÑģÑĮ": 37341,
  "ĠÐºÑĥÐ¿ÑĨÑĭ": 31178,
  "Ð´Ð°ÑĩÐ°": 47053,
  "Ġ1880": 10711,
  "ÐĽÑĥÑĩÑĪÐ¸Ð¹": 14921,
  "ĠÐłÐµÐ³": 9377,
  "ĠÐŁÐ°Ð²Ð»Ð¾Ð²Ð½Ð°": 38622,
  "Ð¾Ð½ÑĤÐ°": 18506,
  "ĠGerman": 39463,
  "Ð¸Ð½ÑģÐºÐ¾Ð¼Ñĥ": 25212,
  "ĠÑģÐ¾Ð·Ð´Ð°ÑĤÐµÐ»Ð¸": 38470,
  "ÐŀÐ±ÑīÐµÑģÑĤÐ²ÐµÐ½Ð½ÑĭÐµ": 41294,
  "ĠÐ¿Ð¾Ð´Ð°ÑĢ": 12830,
  "ĠÑģÐ²ÑıÑī": 3928,
  "Ð¸Ð½ÑĮÑģÐºÐ¸Ð¹": 46507,
  "Ð»Ð°Ð´Ðµ": 8292,
  "ÐµÑģÑĤÐ²ÐµÐ½Ð½ÑĭÑħ": 9543,
  "ĠÑĥÐ½Ð¸Ð²ÐµÑĢÑģÐ¸ÑĤÐµÑĤÐ°": 2369,
  "ĠÐĿÐµÑĦ": 16947,
  "Ð¡ÑĤÐ°Ð½ÑĨÐ¸Ñı": 25665,
  "ĠÑģÐ¿Ð¾ÑģÐ¾Ð±Ð½Ð¾Ð³Ð¾": 45479,
  "ÑĥÑĢÐ¾Ð²": 7823,
  "ĠÐ»ÑİÑĤÐµÑĢÐ°Ð½": 18410,
  "ÐľÐ¸Ðº": 18666,
  "ĠÑħÑĢÐ°Ð¼Ðµ": 14513,
  "ĠÑĢÐµÐ·ÑĮ": 33623,
  "ĠÐ¼Ð°Ð³Ð½Ð¸ÑĤÐ½Ð¾Ð³Ð¾": 21141,
  "ÑĦÐµÑĢÐµÐ½ÑĨÐ¸Ð¸": 6901,
  "ĠÐĴÐ°Ð»ÐµÐ½ÑĤÐ¸Ð½Ð°": 16924,
  "ĠÐ¸Ð·Ð±Ð¸ÑĢÐ°": 9779,
  "ĠÑģÑĢÐ°Ð²Ð½Ð¸ÑĤÐµÐ»ÑĮÐ½Ð¾Ð¹": 45091,
  "ĠÐ¿ÑĢÐ¸Ð¾Ð±ÑĢÐµÑĤ": 6195,
  "Ġ140": 16512,
  "ĠÐºÐ½ÑıÐ¶ÐµÑģÑĤÐ²Ðµ": 37118,
  "ĠÐ§ÐµÑĢÑĤ": 26075,
  "ĠÐ´ÑĥÐ±Ð»Ñı": 29050,
  "ĠÐ½Ð°ÑģÐµÐ»": 1294,
  "ĠÐºÐ¾Ð¶Ñĥ": 24652,
  "Ð¸ÑıÐ¶": 49498,
  "ĠÐ´Ð²Ð¸Ð³Ð°ÑĤÐµÐ»Ð¸": 17760,
  "ĠÐ°Ð²ÑĤÐ¾Ð´Ð¾ÑĢÐ¾Ð³": 25722,
  "Ð¤Ðļ": 26457,
  "ĠÑĤÐ¾ÑĢÐ³Ð¾Ð²": 2401,
  "Ð°Ð·Ð°": 5003,
  "ĠÐĵÑĢÐ¸Ð³Ð¾ÑĢÑĮ": 9149,
  "ĠÐ½ÐµÑģÐ¾Ð²Ð¼ÐµÑģÑĤ": 28450,
  "ĠÐĵÐ¾Ð»Ð¾Ð²": 13440,
  "ÑĢÐ¸ÑģÑĭ": 36986,
  "ÑĢÐµÐ¶Ð´ÐµÐ½Ð¸Ðµ": 39816,
  "unes": 49528,
  "Ġ194": 1019,
  "Ð£Ð¿ÑĢÐ°Ð·Ð´Ð½ÑĳÐ½Ð½ÑĭÐµ": 46168,
  "ĠÑĩÐ°ÑģÑĤÑıÐ¼Ð¸": 16779,
  "ÑģÐ²ÑıÐ·": 43849,
  "Ð¡Ðĺ": 25831,
  "ĠÐ¡Ð¿Ð¸ÑĢÐ¸": 34055,
  "oyota": 26765,
  "ĠÐ¼Ð¾Ð½Ð°ÑģÑĤÑĭÑĢÐµ": 13245,
  "ĠÐ²Ð¾ÐµÐ½Ð°ÑĩÐ°Ð»ÑĮÐ½Ð¸ÐºÐ°": 42040,
  "ĠÐ±Ð»Ð¸Ð·Ð»ÐµÐ¶Ð°ÑīÐ¸Ñħ": 41437,
  "ork": 6038,
  "ÐµÑģÐºÐ¸Ð¹": 16735,
  "Ð¾ÐºÐ°Ð¼": 34895,
  "ĠÐĲÐ¼Ð¸Ð½": 29857,
  "ĠÑĪÐµÑģÑĤÑĮÑİ": 36136,
  "ÑĢÑıÑħ": 41739,
  "Ã©d": 30502,
  "Ð¦ÐµÐ½ÑĤÑĢÐ°Ð»ÑĮÐ½Ð°Ñı": 44574,
  "ĠÑģÐµÑĢÑĤÐ¸ÑĦÐ¸ÐºÐ°ÑĤ": 50247,
  "ĠÐļÐ°ÑĢÐµÐ½": 25599,
  "ĠÐ·Ð°Ð¸Ð¼ÑģÑĤÐ²Ð¾Ð²Ð°Ð½Ð¸Ñı": 25365,
  "ĠÐ½Ð°Ð¿Ð¸ÑģÐ°Ð²": 48156,
  "ĠÐ¿ÑĢÐ¾ÑĦÐµÑģÑģÐ¸Ð¹": 45838,
  "ĠÐ¿ÑĢÐ¸Ð½Ð¸Ð¼Ð°Ð»Ð°": 25510,
  "ĠÑģÐ¾ÑģÐ»Ð¾Ð²": 11838,
  "ÑģÐ¸ÑĢ": 43869,
  "ĠÐ²ÐµÑĢÐ±": 18777,
  "ĠÑĥÐ»ÑĥÑĩÑĪÐµÐ½Ð¸Ñİ": 40188,
  "ÑīÐµÐ¿": 20296,
  "ĠÐ§ÐµÐ¼Ð±ÐµÑĢ": 41301,
  "ÐĴÐ½ÐµÑĪÐ½ÑıÑı": 31719,
  "ĠÑģÐ²ÐµÑĢ": 25409,
  "102": 31865,
  "ĠÐ½ÐµÐºÑĢÐ¾Ð¿": 47132,
  "ĠÐ»ÑĮÐ³Ð¾ÑĤ": 31455,
  "ÑĢÐ¾ÑĩÐ½Ð¾": 18965,
  "Ñı": 301,
  "ĠÐ¡Ð°ÑĢÐ´Ð¸Ð½": 27996,
  "ĠÐ¶ÐµÐ½Ñĭ": 8256,
  "ĠÐºÐ½ÑıÐ³Ð¸Ð½Ð¸": 31641,
  "ĠÐ´Ð¸ÑģÐºÐ¾Ð²": 24290,
  "ĠÑĥÐ±Ð¸ÑĤÐ¾": 31840,
  "ÐĵÐ¸Ð´ÑĢ": 32793,
  "ĠÐ³ÑĢÐ°Ð²ÑİÑĢÑĭ": 49310,
  "ĠÐ½ÐµÐ´Ð¾ÑģÑĤÐ°ÑĤ": 8847,
  "ĠÑģÐ¸Ð½Ð´": 12298,
  "ÐŀÑģÑĤÑĢÐ¾Ð²ÑģÐºÐ¾Ð³Ð¾": 41117,
  "Ð½Ð¸ÑĩÐ½Ð°Ñı": 46932,
  "ĠÑĥÐ½Ð¸Ð²ÐµÑĢÑģ": 9737,
  "ĠÐ´Ð¾Ð²Ð¾": 27783,
  "ĠÐĿÐ°Ð³ÑĢÐ°Ð¶Ð´ÑĳÐ½": 45875,
  "ĠÐĴÐµÐ½ÑĤ": 39040,
  "ĠÐ°Ð½Ð´": 22293,
  "ÑĦÐ¸ÐºÑģ": 8702,
  "И": 228,
  "ÐĲÐ½Ð´Ð¶ÐµÐ»ÐµÑģÐ°": 37080,
  "ĠÐ¸Ð¼Ñı": 2686,
  "ĠÐĲÐ¿Ð¿": 21577,
  "ÑĥÑģÑĤÑı": 4463,
  "ĠÐ³Ð»ÑĥÐ±Ð¾ÐºÐ¾Ðµ": 35581,
  "ĠÐ½Ð°Ð¿ÑĢÐ°Ð²Ð»ÐµÐ½Ð¸Ð¸": 7322,
  "ĠÑģÐµÐ²ÐµÑĢÐ½Ð¾Ð³Ð¾": 19648,
  "ĠÐ¾ÑĢÐ´Ñĭ": 38134,
  "ĠÐ°ÑģÑģÐ¾": 14544,
  "eb": 4831,
  "ÑĥÐ½ÑģÐºÐ¸Ð¹": 30304,
  "ĠÐ³ÑĢÐ¾Ð¼Ð°Ð´": 28047,
  "ĠÐľÐµÐºÑģÐ¸ÐºÐµ": 25707,
  "ĠÐ¼ÑĥÐ½Ð¸ÑĨÐ¸Ð¿": 3363,
  "Ð¤Ð¸Ð·": 9474,
  "ĠÐ±Ð°": 39296,
  "ĠBi": 23765,
  "ĠÑĦÐµÐ²ÑĢÐ°Ð»Ñı": 2178,
  "ÑĢÐ¸ÑĢÐ¾Ð²": 2606,
  "Â».": 582,
  "ĠÐ·ÐµÐ¼Ð½Ð¾Ð¹": 15415,
  "1792": 40820,
  "ÐķÑĦ": 43378,
  "ĠÐĽÐµÐ¾Ð½Ð°ÑĢÐ´Ð¾": 25992,
  "ĠÐĲÐ»Ð»Ð°ÑħÐ°": 34935,
  "ĠÑĦÑĢÐ°Ð½ÑĨÐ¸": 39262,
  "ĠPerl": 50241,
  "ĠÐĵÐ°Ð»Ð°ÐºÑĤ": 48564,
  "ĠÐ¼Ð°ÑģÑĤÐµÑĢÐ¾Ð¼": 29385,
  "Ð¡ÐµÑĢÐ³": 14632,
  "Ð¾ÐºÐµ": 8254,
  "ĠÑħÐ°Ð·": 20727,
  "ĠÐ²Ð¾ÐµÐ²Ð°ÑĤÑĮ": 39982,
  "ÐµÑĪÐµÐ½": 24403,
  "ĠÐŁÐ»Ð¾ÑĤ": 18203,
  "ĠÐĴÐ¸Ð»ÑĮÑıÐ¼": 44626,
  "ĠÐºÐ¸ÑĢÐ¸Ð»Ð»Ð¸ÑĨÑĭ": 38882,
  "ĠÐ°Ð½Ð°ÑĤÐ¾Ð¼": 15189,
  "Ð¸ÑģÐ¸Ñı": 42728,
  "ĠÐ½Ð°ÑĢÐ¾Ð´Ñĭ": 14203,
  "ĠÑģÐ°Ð½ÐºÑĨÐ¸Ð¾Ð½Ð½ÑĭÐ¹": 42710,
  "ÐµÑĤ": 340,
  "ĠÐ¾ÑħÐ²": 22635,
  "ÐºÐ¾Ð²ÑģÐºÐ¾Ð¼": 17284,
  "Ð¾Ð²Ð°Ð½Ð½ÑĭÑħ": 7912,
  "ÑģÑĤ": 305,
  "ĠÐ²ÑĭÐ¿Ð»Ð°Ð²": 45393,
  "ĠÐ²ÑĭÑģÐµÑĩ": 41846,
  "ĠÑĩÐ¸Ð½Ð¾Ð²Ð½Ð¸Ðº": 35196,
  "ĠÐ¿ÑĥÑģÑĤÑĭÐ½": 21982,
  "ĠÐ½ÐµÑģÐ¾ÑģÑĤÐ¾ÑıÑĤÐµÐ»ÑĮ": 41693,
  "ĠÐ¿ÐµÑĢÐµÐ·Ð°Ð¿": 32024,
  "ÑĦÐ°Ð½ÑĤÐ°ÑģÑĤÐ¸ÑĩÐµÑģÐºÐ¸Ðµ": 41191,
  "ĠÐĵÐµÑĢÑĤ": 46624,
  "ĠÐĵÐ»Ð°Ð²Ð½ÑĭÐ¹": 12632,
  "UL": 47264,
  "ĠUr": 38801,
  "ÑĢÐµÐ²Ð¸Ð°ÑĤ": 20000,
  "Ð¾Ð´Ð¸Ð½Ð°Ð¼": 12424,
  "ĠÐĴÐ°Ð»Ð°Ñħ": 36650,
  "ĠÐĴÑģÐµÐ»ÐµÐ½": 33560,
  "ĠÐ¿Ð¾Ð»ÑĥÑĩÐ¸Ð²ÑĪÐ¸Ñħ": 34088,
  "ÐĲÐ²ÑĤÐ¾Ð±ÑĥÑģ": 39066,
  "å¤": 44472,
  "ĠÐ¾Ð´Ð½Ð¾Ð¼": 4222,
  "Ð»ÑĥÑħ": 48208,
  "ÑĢÐ¾ÑģÐ°": 8914,
  "ian": 4553,
  "ĠÑģÑĢÐµÐ´Ðµ": 8478,
  "ĠÐ¾ÑĤÐºÐ»ÑİÑĩ": 20034,
  "ĠÐ°ÑįÑĢÐ¾Ð¿Ð¾ÑĢÑĤÐ¾Ð¼": 50226,
  "ĠÐ¾Ð±ÑĬÐµÐ´Ð¸Ð½ÑıÑİÑĤÑģÑı": 41573,
  "ĠÐłÑĭ": 5724,
  "ĠÐ³Ð¾ÑģÑĤÐ¸Ð½Ð¸ÑĨÐµ": 44175,
  "ĠÐ½Ð°ÑĢÐ¾Ð´Ð°": 5245,
  "ĠÐłÐ¾Ð±ÐµÑĢÑĤÐ¾Ð¼": 30395,
  "ÐĵÐ°ÑĢÑĢÐ¸": 42831,
  "ĠÐĳÐ¸Ð»Ð»": 20118,
  "ĠÐ²ÐµÑĢÑĪÐ¸Ð½Ð¾Ð¹": 46147,
  "ĠÑģÐ¾Ð´ÐµÑĢÐ¶Ð°ÑĤÑģÑı": 23279,
  "ÐĶÐµÐ»": 40879,
  "ĠÐĳÐ¸Ð±": 9006,
  "Ð¾Ð´ÑĢÑĥÐ¶": 16370,
  "ĠÐĴÑĭÑģÐ¾ÑĨÐºÐ¸Ð¹": 40636,
  "ĠÐ¾ÑĢÐ¸Ð³Ð¸Ð½Ð°Ð»ÑĮÐ½Ð°Ñı": 49132,
  "ĠÑģÐ²Ð¾Ð¹ÑģÑĤÐ²Ð¾Ð¼": 33825,
  "urch": 34342,
  "ĠÐ·Ð°ÐºÑĢÑĭÑĤÐ¸Ðµ": 46290,
  "ĠÐ»Ð°Ð±Ð¾ÑĢÐ°ÑĤÐ¾ÑĢÐ¸Ñİ": 37398,
  "Ð¸Ð¼Ð¸ÑĢÑıÐ·": 35418,
  "Ð¸Ð½ÑĦ": 13081,
  "Ð¼Ð¾Ñī": 48131,
  "ĠÐ¾ÑĤÐ¼ÐµÑĩÐ°Ñı": 36169,
  "ĠÐ²ÐµÑĢÐ¾": 16320,
  "ĠÐ¿ÐµÐ²ÐµÑĨ": 9120,
  "Ġ1826": 18957,
  "ĠÐ¾ÑĤÐºÐ°Ð·Ðµ": 35965,
  "Ð°Ð¹ÑĢ": 50022,
  "ÑĥÐºÐ¾Ð¼": 19494,
  "ĠÐŁÑĥÑĤÐ¸Ð½": 18232,
  "ÐµÐ½Ð½ÑĭÐ¼Ð¸": 4627,
  "ĠÐ±ÑİÐ»Ð»ÐµÑĤ": 33696,
  "ÑĦÑĢÐµÐ´": 10723,
  "ĠÐ¼ÐµÑĢÑĤÐ²": 24398,
  "ÐĳÐĲ": 17184,
  "ĠâĢĭ": 39761,
  "Ð°Ð½Ð°Ð»Ð¸Ð·": 22627,
  "ĠWal": 40173,
  "ĠÐ±ÑĥÑĢÐ³": 22546,
  "ÑĥÐ¹": 3868,
  "ĠÐ°Ð¼Ð¼Ð¸Ð°ÐºÐ°": 42833,
  "ĠÑģÑĤÐ°Ð±": 6391,
  "ÐĿÐ°ÑĨÐ¸Ð¾Ð½Ð°Ð»ÑĮÐ½ÑĭÐµ": 26728,
  "Ð´ÐµÑģ": 21355,
  "ĠÑģÐ¼": 1552,
  "ĠÑģÐ¾Ð¾ÑĤÐ½Ð¾ÑĪÐµÐ½Ð¸ÐµÐ¼": 41380,
  "ĠÐĴÐ»Ð°Ð´Ð¸ÑģÐ»Ð°Ð²": 15507,
  "ĠÐ´ÑĥÑħÐ¾Ð²ÐµÐ½": 42641,
  "ĠÐ¡Ð±Ð¾ÑĢÐ½Ð¸Ðº": 16450,
  "ĠÐ¾ÑģÑĤÐ°Ð»ÑĮÐ½ÑĭÐµ": 8211,
  "ĠÐ¿ÑĢÐ¾Ð³ÑĢÐ°Ð¼Ð¼Ð¾Ð¹": 25730,
  "ĠÐ»Ð¾ÐºÐ¾Ð¼Ð¾ÑĤÐ¸Ð²": 22867,
  "ĠÐĲÐ½Ð´ÑĢÐ¾Ð¿": 43146,
  "ĠÐ²ÑĢÐµÐ¼ÐµÐ½Ð¸": 1630,
  "a": 74,
  "Ð±Ð¾ÑĢÐ¾": 28981,
  "Ð¼Ð¾Ð½ÑĤ": 23402,
  "ÐļÐ°Ð²ÐºÐ°Ð·": 17765,
  "ĠÑĦÐ°ÐºÑĤÐ¾ÑĢ": 16641,
  "ĠÐĽÑĥÐ½": 16143,
  "ĠÐķÐ¿Ð°ÑĢÑħ": 42399,
  "ĠÐ¿ÑĢÐ¾ÑĤÐ¸Ð²Ð¾Ð¿Ð¾Ð»Ð¾Ð¶Ð½Ð¾Ð¹": 45510,
  "ĠÑģÑĤÐ¸ÑħÐ¾Ð²": 12195,
  "ĠÑĢÐ¾Ð¶Ð´ÐµÐ½Ð¸Ñı": 5124,
  "ĠÐļÐ¸Ð·": 24557,
  "ĠÐĴÐµÑĢÑħÐ½ÐµÐ¹": 28339,
  "ÐĴÐ»Ð¸ÑıÐ½Ð¸Ðµ": 23018,
  "ĠÑģÐ²Ð¾Ð¹ÑģÑĤÐ²ÐµÐ½": 31710,
  "ĠÑģÐ»Ð¸ÑĪÐºÐ¾Ð¼": 6439,
  "ĠÐ¾Ð±Ð¾Ð·Ð½Ð°ÑĩÐµÐ½Ð¸Ðµ": 11398,
  "ĠÐĿÐ¸ÐºÑĤÐ¾": 40541,
  "ÐłÐ¾ÑģÑģÐ¸Ð¹ÑģÐºÐ°Ñı": 16631,
  "ÑģÑĤÐ²ÑĥÑı": 22557,
  "ĠÐ»Ð¸Ð½ÐµÐ¹Ð½ÑĭÐ¹": 38384,
  "ĠÐŁÐĴÐŀ": 19027,
  "ÐºÑĥÐ·": 31478,
  "ĠÐµÐ´Ð¸Ð½Ð¾Ð´ÑĥÑĪ": 47436,
  "ĠÐ±Ð¾Ð»ÐµÐ»ÑĮÑīÐ¸ÐºÐ¾Ð²": 28699,
  "ĠÐ²Ð¿Ð°Ð´Ð°ÐµÑĤ": 20139,
  "ĠÐ¶Ð°Ð»Ð¾Ð²Ð°Ð½": 34543,
  "Ð°Ð´ÑĨÐ°ÑĤÑĮ": 23311,
  "ĠÐ¾ÑĢÐ¸ÐµÐ½ÑĤ": 8299,
  "Ð¡Ð¾ÑĢ": 25690,
  "ĠÐ¡Ñı": 29967,
  "Ð½Ð¾Ð³Ð¾": 449,
  "ĠÐŁÐ¾Ð»Ñĥ": 43201,
  "ĠÐ¾Ð¿ÑĮÑıÐ½": 49933,
  "ĠÐ¿Ð¾Ð»ÑĮÐ·Ð¾Ð²Ð°ÑĤÐµÐ»Ð¸": 39667,
  "ĠÐļÐ°ÑĢÐ¿ÐµÐ½ÑĤ": 34067,
  "ĠÐ¿Ð¾Ð´ÑħÐ¾Ð´Ð¸ÑĤ": 21835,
  "ÑħÐ²Ð¾ÑģÑĤ": 29938,
  "Ð¸ÑģÑĤÐ¾Ð³Ð¾": 22030,
  "Ð¸Ð²ÑĪÐµÐ¼ÑģÑı": 28137,
  "Ġ1916": 8732,
  "Ð¾Ð¶Ð¸Ðµ": 46256,
  "ĠÐ¾Ð±ÑīÐµÐ½Ð¸Ñı": 16586,
  "ĠÐ¿ÑĢÐµÐ´Ð¿Ð¾ÑĩÑĤÐµÐ½Ð¸Ðµ": 28185,
  "Ð²ÐµÐ´ÐµÐ½Ð¸Ðµ": 10359,
  "ĠJames": 36561,
  "ĠÐ·Ð½": 2860,
  "Ð¸Ð½Ð³Ð°": 7925,
  "ĠÐ·Ð½Ð°ÑĩÐ¸ÑĤÐµÐ»ÑĮÐ½ÑĭÐ¼": 19213,
  "Ð°ÑĢÐ½ÑĭÐ¼Ð¸": 36245,
  "ĠÐ½Ð°Ð´ÐµÐ¶Ð´Ðµ": 33735,
  "ÑĤÑĢÐ¸Ð»Ð»ÐµÑĢÑĭ": 26066,
  "ĠÑħÐ°ÑĢÐ°ÐºÑĤÐµÑĢÐ¸ÑģÑĤ": 4669,
  "Ð¾Ð½Ð½Ð¸ÐºÐ¸": 30328,
  "ĠÐ¾Ð´Ð½Ð¾Ð·Ð½Ð°ÑĩÐ½Ð¾": 25463,
  "SO": 6988,
  "ĠÐ¿ÐµÑĢÐ²Ð¾Ð¼": 5221,
  "ĠÐ¾ÐºÑĤÑıÐ±ÑĢÑĮ": 15729,
  "Ð¾ÑħÐ½Ð¾Ð²": 9617,
  "ĠÐļÐĿ": 17307,
  "ĠÐºÑĢÑĥÐ¿Ð½ÑĭÐ¼Ð¸": 17923,
  "ĠÑĪÑĤ": 2319,
  "Ð½Ð¾Ð²ÐµÑĪ": 37137,
  "ĠÑĢÐµÑģÑĥÑĢÑģÑĭ": 14778,
  "Ð¸ÑģÑĥ": 18724,
  "ÑĦÐµÐ²ÑĢÐ°Ð»ÑĮ": 44999,
  "ĠÐ½ÐµÐ¿ÑĢÐµ": 48404,
  "ĠÐ¾Ð±ÑĬÐµÐ´Ð¸Ð½ÑĳÐ½Ð½Ð¾Ð¹": 41461,
  "ĠÐ¿ÑĢÐµÐ¸Ð¼ÑĥÑīÐµÑģÑĤÐ²Ð¾Ð¼": 42352,
  "ĠÐ´Ð»Ñı": 557,
  "ĠÐ±ÐµÑģÐ¿": 3497,
  "ĠÐ½Ð°Ð¼ÐµÑĩ": 22879,
  "ĠÐĴÐ°Ð½": 7177,
  "ĠÐ£Ðļ": 20276,
  "ĠÐ¿Ð»Ð¾ÑĤÐ¸Ð½Ð°": 40284,
  "ĠÐ²Ð·ÑıÑĤÐ¸Ðµ": 32338,
  "ĠÐ¿ÑĢÐ¸ÑģÑĥÑĤÑģÑĤÐ²Ð¾Ð²Ð°Ð»": 23011,
  "Ð¸Ð½Ð½ÑĭÐµ": 33325,
  "ĠÐŀÑĤÑģÑĥÑĤÑģÑĤÐ²Ð¸Ðµ": 35589,
  "ĠÐ¶ÐµÐ½Ñĥ": 16111,
  "inux": 41783,
  "ĠÑģÐ»ÐµÐ´ÑģÑĤÐ²Ð¸ÐµÐ¼": 18482,
  "ĠÐºÐ°Ð½": 1839,
  "ĠÐ¾Ð±ÑīÐµÑģÑĤÐ²ÐµÐ½Ð½ÑĭÐ¹": 10003,
  "ĠÑĢÐ¸Ð¼ÑģÐºÐ¾": 42585,
  "field": 39076,
  "ĠÐļÐ¾Ð¼Ð¸ÑģÑģÐ¸Ð¸": 22528,
  "ÐµÐ½ÑĤÐ½ÑĭÑħ": 30602,
  "ÐĿÐµÑģÐºÐ¾Ð»ÑĮÐºÐ¾": 31340,
  "ĠÐ¶ÑĥÑĢÐ°Ð²": 41340,
  "ĠÐ´ÐµÐ¹ÑģÑĤÐ²ÑĥÐµÑĤ": 8040,
  "ĠÑĪÐµÑĢÑģÑĤÑĮ": 41872,
  "ĠÐ¾ÑĤÐ´ÐµÐ»ÐµÐ½Ð¸Ñı": 8117,
  "ĠÐ±ÑĢÐ°Ð·Ð¸Ð»ÑĮ": 15460,
  "ĠÐºÐ¾Ð½ÑĨÐµ": 2071,
  "Ð¼Ð¸Ð¹": 43123,
  "ĠÑĢÐµÐ³Ð¸Ð¾Ð½Ð°Ð»ÑĮÐ½ÑĭÐµ": 29492,
  "ÐºÑĥÐ»ÑĮ": 29346,
  "ĠÐľÐ¾Ð½ÑĦÐµÑĢ": 46797,
  "ĠÐ¿ÑĥÑĤÐµÑĪÐµÑģÑĤÐ²Ð¸Ðµ": 14462,
  "ĠÑģÐ»ÐµÐ´ÑĥÐµÑĤ": 4402,
  "iew": 13812,
  "ĠÑģÐ¾Ð³Ð»Ð°ÑĪÐµÐ½Ð¸Ðµ": 9690,
  "ĠÐŀÐ»ÑĮÐ³ÐµÑĢ": 43279,
  "ÑģÑĤÐ²ÐµÐ½Ð½Ð¾": 2618,
  "ĠÐ´Ð¾Ð½Ð¾Ñģ": 31069,
  "ĠÑĤÑĢÐ°Ð¼Ð²Ð°Ñı": 23521,
  "ĠÐ·Ð°Ð´": 2691,
  "ÑĢÐ°ÐºÑĢÐ°Ñģ": 22397,
  "ĠÑģÐ¿ÑĢÐ°Ð²Ð¸ÑĤÑĮÑģÑı": 34869,
  "ĠÐŁÐ¾ÑģÑĤÐ°Ð½Ð¾Ð²Ð»ÐµÐ½Ð¸Ðµ": 34216,
  "ÐŀÐ¼": 31918,
  "Ð¡ÐµÐ·Ð°ÑĢ": 43878,
  "Ġ28": 2709,
  "ĠÐ´Ð°Ð½Ð°": 37895,
  "Ð»ÑıÑİÑīÐ°Ñı": 47719,
  "ĠÑĤÐ¾ÑĢÐ³Ð¾Ð²Ð¾Ð¹": 22485,
  "Ð½Ð°Ð´Ð»ÐµÐ¶": 2542,
  "ĠÐ¡ÑĮÑİ": 20772,
  "ÑĢÐ¸Ð·Ð°ÑĨÐ¸Ð¸": 23171,
  "ĠÐ½Ð°ÑħÐ¾Ð´Ð¾Ðº": 37143,
  "ÑĥÑĩÐ¸Ðº": 39751,
  "ĠÑĤÐ¾ÑĩÐ½Ð¾Ð³Ð¾": 35255,
  "ĠÐ°ÑĢÐ°Ð±ÑģÐºÐ¾Ð³Ð¾": 19432,
  "ĠÐļÐ°Ð·Ð¸Ð¼Ð¸ÑĢÐ°": 40988,
  "ĠÐ¿Ð¾ÑįÑĤÐ°": 7992,
  "ĠÐĶÑĥÐ½Ð°Ñı": 26427,
  "ĠÐ±Ð¾ÑĤÐ°Ð½Ð¸Ðº": 32113,
  "ĠÐºÐ¾Ð½ÐºÑĢÐµÑĤÐ½Ð¾Ð³Ð¾": 23028,
  "ÐºÐ¾ÐºÐ°": 47638,
  "ĠÐ½Ð°ÑĥÑĩÐ½ÑĭÐ¼": 19650,
  "ÑħÑį": 22198,
  "ÑģÐ»ÐµÐ´": 35557,
  "ÐµÑģÑĤ": 463,
  "ÐĲÐ¼ÐµÑĢ": 43244,
  "ĠÐ¸Ð·Ð¼ÐµÐ½": 1709,
  "ĠÑĦÐ¸ÑĢÐ¼Ð¾Ð¹": 24562,
  "ÑĢÐ¾Ð²": 448,
  "Ð´ÐµÐ¼Ð¾ÐºÑĢÐ°ÑĤ": 9110,
  "Ð»ÐµÐ²Ð°": 46108,
  "ĠÐļÑĢÐ¾Ð¼": 25830,
  "ĠÑĤÐ¾Ð»ÑģÑĤÐ¾Ð¹": 47954,
  "Ð¾ÑģÑĤÑĮ": 1198,
  "ĠÐ¼Ð¸ÑĦÐ¾Ð»Ð¾Ð³Ð¸Ð¸": 9072,
  "ÐĴÐµÑĢÐ½ÑĥÐ²ÑĪÐ¸ÑģÑĮ": 45590,
  "ĠÐĿÐ¸ÐºÐ°": 45750,
  "ĠÐ²ÑĭÐ±ÑĢÐ°Ð½Ð°": 43388,
  "Ð½ÑĥÐ»Ð°": 14049,
  "ÐµÑģÑģÐ°Ð½Ñģ": 31647,
  "ĠÐºÐ°Ð·Ð°ÑĢÐ¼Ñĭ": 49537,
  "ĠÑĤÐ²Ð¾ÑĢÑĩÐµÑģÐºÐ¸Ñħ": 33868,
  "ĠÐ¶ÐµÐ»Ð°ÑİÑīÐ¸Ñħ": 40983,
  "ĠÐ¾Ð±ÐµÑģÐ¿ÐµÑĩÐ¸Ð²Ð°ÐµÑĤ": 10509,
  "Ð´ÐµÐ±ÑĥÑĢÐ³": 36188,
  "ÑĦÑĥÑĤÐ±Ð¾Ð»ÑĮÐ½ÑĭÐ¹": 48456,
  "ĠÑĥÑħ": 8234,
  "ĠÑĢÐ¾Ð´Ð½Ð¾Ð¹": 17244,
  "ĠĊĊĠ": 14989,
  "ĠTre": 34201,
  "ĠÑģÑĤÑĢÐ¾Ðº": 8922,
  "ĠÐ¿Ð¾Ð´Ð°Ð»": 16619,
  "Ð¦ÐµÑĢÐºÐ¾Ð²": 17965,
  "ĠÐ¼ÐµÑĢÐ¸Ð´": 32070,
  "ĠÐ¾ÑĤÐºÑĥÐ¿": 49339,
  "ĠÐ§ÐµÑĢÐ½Ð¾Ð±Ñĭ": 35701,
  "ĠÑĨÐµÐ½Ð½ÑĭÐµ": 31915,
  "ĠÐ¿ÐµÑģÐº": 14023,
  "ÑĢÐ°Ð±Ð°ÑĤ": 5719,
  "Ð¸ÑĦÐ¸ÐºÐ°ÑĨÐ¸Ð¸": 5303,
  "ĠÐ½Ð°Ð¿ÑĢÑıÐ¶ÑĳÐ½Ð½Ð¾ÑģÑĤÑĮ": 48511,
  "ĠÐ»ÑĥÑĩÑĪÐµÐ¹": 20617,
  "ÐµÐ»ÐµÐ½Ð¸Ðµ": 17916,
  "ĠÐŀÑĤÑĤ": 34668,
  "ĠÐŁÑĢÐ°Ð·Ð´Ð½Ð¸Ðº": 44926,
  "ÑĪÐµ": 1540,
  "Ð¾ÑĤÐ»Ð°Ð½Ð´": 4061,
  "ĠÐ²Ð¾Ð¹ÑģÐº": 2276,
  "ĠÑģÐ¿ÐµÐºÑĤÐ°ÐºÐ»ÑĮ": 20583,
  "ĠÑĦÐ°Ð¼Ð¸Ð»Ð¸Ñı": 8533,
  "Ð§ÐµÑĤ": 26320,
  "ĠÐľÐ¾Ð³Ð¸Ð»Ð°": 42150,
  "ÐºÐ°Ð²": 48290,
  "ĠÐºÐ»Ð°Ð½": 29550,
  "ĠÑĥÐºÐ°Ð·Ð°Ð½Ð½ÑĭÐµ": 45485,
  "ÑıÐ½Ð¾ÑģÑĤ": 47042,
  "ĠÐ±ÑĢÐ¸ÑĤÐ°Ð½ÑģÐºÐ¸Ñħ": 16977,
  "ÑĤÑĢÐµÑĤÑĮ": 27938,
  "ĠÐ·Ð°Ð¿Ð°Ð´Ð½ÑĭÐ¼Ð¸": 46933,
  "Ð¸Ð»ÑĮÐ¼Ñĭ": 16381,
  "ĠÐ¾ÑĤÐ¿ÑĢÐ°Ð²Ð»ÑıÐµÑĤÑģÑı": 14909,
  "ĠÐ²Ð¿ÑĢÐ°Ð²Ðµ": 40981,
  "Ð²Ð°ÑĢÑĤÐ¸ÑĢ": 43863,
  "ĠÐ²ÑĢÐµÐ¼ÐµÐ½Ð½Ð¾Ð¹": 26585,
  "ĠÐ¾ÑĤÑĢÐµÐ¼Ð¾Ð½ÑĤ": 34168,
  "ĠÐ¼Ð°Ð³Ð°Ð·Ð¸Ð½Ð°Ñħ": 45913,
  "ĠÑģÑĤÐ¾ÑĢÐ¾Ð¶": 22250,
  "ĠÐŀÐºÐ¾Ð½ÑĩÐ¸Ð»": 24156,
  "ĠÐ´ÑĥÐ¼Ð°ÐµÑĤ": 40854,
  "Ð²": 300,
  "1849": 26151,
  "ÑģÑĤÐ²Ðµ": 1473,
  "ĠÑģÑĢÐ°Ð¶Ð°Ð»ÑģÑı": 37391,
  "Ð°Ð½ÑĤÐ¾Ð²Ð°Ñı": 38077,
  "ĠÐ»ÐµÐ¹Ð±": 10286,
  "ÑĢÐ¾Ð·Ð¸Ð¸": 29951,
  "ĠÐ¿ÑģÐ¸ÑħÐ¾Ð°Ð½": 22113,
  "Ð¾Ð¼Ð¸Ð½Ð°Ð½Ð¸Ðµ": 39052,
  "ĠÐ¡ÐµÐ»": 11029,
  "Ġ41": 11139,
  "ĠÐ¾Ð±Ð¾ÑĪ": 38209,
  "ĠÑĢÐµÑģÐ¿ÑĥÐ±Ð»Ð¸ÐºÑĥ": 35224,
  "ÑĩÐ¸": 2344,
  "Ĥ": 187,
  "ĠÐ¼Ð½": 890,
  "ĠDirect": 32771,
  "ĠÑĢÐ°ÑģÑĤÐµÐ½Ð¸ÑıÐ¼Ð¸": 44688,
  "ÐŀÐ±Ñĭ": 36356,
  "ÑĪÐµÐ»": 21728,
  "ĠÑģÐ²ÐµÐ´ÐµÐ½Ð¸Ð¹": 14961,
  "Ð°ÑĨÐºÐ¸Ð¹": 42353,
  "ĠÑĨÐµÐ»ÑĮ": 3075,
  "ĠÐŀÑĤ": 1308,
  "ÐĵÐµÑĢÐ¼Ð°Ð½Ð¸Ñı": 16581,
  "ĠÐµÐ²ÑĢÐ¾Ð¿ÐµÐ¹ÑģÐºÐ¸Ñħ": 8418,
  "ĠNa": 23821,
  "ĠText": 48230,
  "ĠÐºÐ¸ÑĪÐºÐ¸": 26019,
  "ÐľÐ¾Ð½": 7647,
  "ĠÑģÐ¾Ð¿ÑĢÐ¾Ð²Ð¾Ð¶Ð´ÐµÐ½Ð¸Ðµ": 39671,
  "ĠÐºÐ°Ð·Ð½Ð¸": 12283,
  "ĠÐ²Ð¸ÑĨÐµ": 7453,
  "ÐµÑĢÐ¾Ð½": 29401,
  "Ð°ÑĢÑģÐºÐ¾Ð³Ð¾": 7244,
  "Ð°ÑĢÑĤÐ°Ñħ": 26697,
  "ĠÑĤÐ¾ÑĩÐ½ÑĭÐ¹": 49868,
  "83": 7046,
  "ĠÐ¿ÑĢÐµÐ´Ð¼ÐµÑĤÐ¾Ð¼": 15250,
  "ÐŁÑĢÐ¸ÑĤÐ¾ÐºÐ¸": 27166,
  "ĠÑģÑĤÐ°Ð²ÑĪÐ¸Ñħ": 48787,
  "ĠÐºÐ¾ÑĢÐ¾Ð±": 13937,
  "ĠÐ¿ÐµÑĢÐ¸Ð¼ÐµÑĤÑĢÑĥ": 48373,
  "ĠÐ¾ÑģÑĤÐ°Ð½ÐºÐ¾Ð²": 39069,
  "ĠÑģÐ²Ð¸Ð´ÐµÑĤÐµÐ»ÐµÐ¼": 32863,
  "ĠÐ¾Ð±ÑĬÑıÐ²Ð»ÐµÐ½Ð°": 30673,
  "ĠÐ¾ÑģÐ½Ð¾Ð²Ð½ÑĭÐ¼Ð¸": 15826,
  "ÑĦÐ¸Ð¼": 12721,
  "ÐĺÑģÑĤÐ¾ÑĢÐ¸ÑĩÐµÑģÐºÐ°Ñı": 42701,
  "ÐľÐµÐ´Ð¸ÑĨ": 28999,
  "ĠÐ°Ð¼ÐµÑĢÐ¸ÐºÐ°Ð½ÑģÐºÐ¾Ð¹": 9534,
  "ÐµÐ½Ð¾Ðº": 38457,
  "ÐŁÑģ": 42976,
  "ĠÑģÐ¾ÑģÑĤÐ¾ÑıÑīÐ¸Ñħ": 42147,
  "ĠÐ³Ð¾ÑĢ": 1459,
  "CL": 24802,
  "ĠÑģÐºÐ¾ÑĤ": 20371,
  "ĠElect": 16530,
  "apt": 43903,
  "ĠÐĵÑĢÐ¸Ð³": 3883,
  "ĠÐ°ÑģÑĤÑĢÐ¾Ð½Ð¾Ð¼": 5733,
  "ÐµÐ¹Ñı": 48470,
  "ĠÐ¶Ð°Ð½Ð´Ð°ÑĢÐ¼": 36542,
  "ĠÐ¼Ð»Ð°Ð´ÑĪÐ¸Ð¹": 13879,
  "ĠÐ¿ÑĢÐ¸Ð½ÑıÑĤÑĭÑħ": 37199,
  "ĠÑģÑĤÐ°Ð½Ð´Ð°ÑĢÑĤÐ¸Ð·Ð°ÑĨÐ¸Ð¸": 39569,
  "ĠÐ°ÑĦÑĢÐ¸ÐºÐ°Ð½": 12544,
  "ĠÐ²ÑĭÑĪÐµÐ´ÑĪÐ°Ñı": 46155,
  "ÐµÐ¹ÑĪÐ¸Ñħ": 37419,
  "ĠÐ²Ð¾Ð¿ÑĢÐ¾ÑģÐ°Ð¼Ð¸": 26584,
  "ĠÐ½Ð°ÑĢÑĥÑĪ": 3800,
  "Ð¸ÐºÐ°Ð¼Ð¸": 5087,
  "ĠÐĶÐ¶Ð¾Ð±Ñģ": 47709,
  "ĠÐŀÑĤÐµÑĩÐµÑģÑĤÐ²Ð°": 34954,
  "ĠÐ°ÑĥÐ´Ð¸ÑĤÐ¾ÑĢÐ¸Ñİ": 35442,
  "ĠÑĢÐµÐºÐ¾Ð½ÑģÑĤÑĢÑĥÐºÑĨÐ¸Ð¸": 12234,
  "Ð²Ð°ÑĢÐ´Ð¸Ð¸": 19893,
  "Ð¸ÑĩÐ½Ð¾": 3737,
  "ĠÐ·Ð°Ð¿Ð°Ð´Ð½ÑĭÐµ": 22413,
  "ĠÐ´Ð¾Ð»Ð¸Ð½Ñĭ": 16016,
  "ĠÐ´Ñı": 20979,
  "ĠÑĢÐ°ÑģÐ¿ÑĢÐ°Ð²": 20288,
  "Ð¾ÑĤÐµÐ°ÑĤ": 8730,
  "ĠÐºÐ°ÑĢÑĮÐµÑĢÐµ": 13915,
  "ohann": 46667,
  "ĠÐ²Ð¾Ð·Ð±": 44207,
  "Ġa": 3426,
  "ĠCambridge": 26256,
  "ĠÐ°Ð»ÑĤ": 19461,
  "ÑĢÑĥÐ´": 1081,
  "ĠÐ£Ð¶": 28620,
  "Ð¾Ð»Ð¸Ð½ÐµÐ¹": 41494,
  "ĠÐ¾Ð±ÑĢÐ°Ð·Ð¾Ð²Ð°Ð½Ð½ÑĭÑħ": 39767,
  "ĠÑĢÑĭÑĨÐ°": 23322,
  "Ð¶ÐµÐ»ÐµÐ·": 28732,
  "ĠÑģÑĢÐµÐ´Ð½ÐµÐ²ÐµÐºÐ¾Ð²ÑĭÐµ": 47156,
  "ĠÐ¾ÑĤÐºÑĢÑĭÐ»Ð¸": 19448,
  "ĠNPM": 38410,
  "ĠÐ½Ð°ÑĩÐ°Ð»Ñĥ": 8771,
  "ĠÑįÐºÐ¾Ð½Ð¾Ð¼Ð¸ÑĩÐµÑģÐºÐ¾Ð¼": 35494,
  "ĠÐļÐ¸Ð½Ð¾": 33941,
  "ĠÐ²ÐµÑĢÐ¾ÑıÑĤ": 3886,
  "ĠÐ´Ð¾Ð¿Ð¾Ð»Ð½Ð¸ÑĤÐµÐ»ÑĮÐ½Ð°Ñı": 46141,
  "ĠÐ²Ð¾Ð·Ð½Ð¸ÐºÐ½Ð¾Ð²ÐµÐ½Ð¸Ð¸": 42539,
  "ĠÐĽÐµÐ±ÐµÐ´ÐµÐ²Ð°": 36385,
  "ĠVI": 5306,
  "ĠÑģÐºÐ»Ð¾Ð½Ð½Ð¾ÑģÑĤÑĮ": 36323,
  "ĠÑĢÑĥÐºÐ¾Ð¿": 5975,
  "yp": 27521,
  "ÑĤÐµÑħÐ½": 7054,
  "ĠÐĿÑĥÐ±": 42392,
  "Ð»Ð¸Ð½Ñĭ": 6291,
  "Ð¢Ñĥ": 17097,
  "ĠÐ¿ÑĢÐµÐ·Ð¸Ð´ÐµÐ½ÑĤÑĭ": 24287,
  "Ġhistory": 45247,
  "ĠÑģÐ¾ÑģÑĤÐ°Ð²Ðµ": 2610,
  "ĠÑģÐ»ÑĥÑĪÐ°Ð»": 46879,
  "ĠÐĵÐ°Ð»Ð»": 18857,
  "ĠÐ´Ð°ÑĢÐ¾Ð²": 33643,
  "ĠÐ¡Ð°ÑĢÐ°ÑĤÐ¾Ð²Ðµ": 44254,
  "ÑģÐ¿ÐµÐºÑĤÐ°ÐºÐ»ÑĮ": 42849,
  "Ð¼Ð¾ÑĤÑĢÐµÑĤÑĮ": 19053,
  "ĠÐ¿Ð¾Ð¼ÐµÑĩ": 47590,
  "ing": 1776,
  "Ð°ÑīÐ¸Ñħ": 6162,
  "ĠÐ´ÑĥÑħÐ¸": 48493,
  "ĠÐ¼ÑıÐ³ÐºÐ¸Ð¹": 34505,
  "ĠÐ±Ð¸ÑĤÐ²Ñĥ": 41367,
  "Ġph": 21653,
  "Ð¾ÑıÑģ": 41505,
  "ĠÐ¸ÑģÐºÐ¾Ð¿": 11834,
  "Ġ~": 21601,
  "ÑģÐµÑĢÐ´": 38010,
  "ĠÐĵÐ¾Ð½Ñģ": 35874,
  "ĠÑģÑĢÐµÐ´ÑģÑĤÐ²Ð°Ð¼Ð¸": 14733,
  "ĠÑĢÐ°Ð·Ð½": 11000,
  "ĠÐ·Ð°ÑħÐ¾ÑĢÐ¾Ð½ÐµÐ½Ð¸Ñı": 22505,
  "Ð£ÐŁ": 30885,
  "ĠÐ¿Ð¾Ð²ÑĭÑĪÐµÐ½Ð¸Ð¸": 39872,
  "ĠÑħÑĥÐ´Ð¾Ð¶": 1650,
  "ĠÐķÑĦÐ¸Ð¼Ð¾Ð²Ð¸Ñĩ": 41137,
  "ĠÐŁÐµÑĢÐµÑıÑģÐ»Ð°Ð²": 32352,
  "ĠÐ¿ÐµÐ²Ð¸ÑĨÑĭ": 20188,
  "Ð³Ð¸ÑĤ": 8891,
  "ĠÑĥÐ½Ð¸Ð¶": 34166,
  "ĠÐ´ÑĥÑħÐ¾Ð²Ð½Ð¾Ð³Ð¾": 19941,
  "ĠÑıÑī": 24926,
  "ĠÐĺÐ½Ð´Ð¸Ð¹ÑģÐºÐ¾Ð³Ð¾": 45157,
  "ĠÑģÐ¸ÑģÑĤÐµÐ¼Ð½Ð¾Ð³Ð¾": 46484,
  "ĠÐ»Ð°Ð³ÐµÑĢÐµÐ¹": 27720,
  "ĠÑĢÐ°ÑģÑĨÐµÐ½": 23653,
  "ĠÐ¾Ð»Ð¸Ð¼Ð¿Ð¸Ð¹ÑģÐºÐ¸Ñħ": 45914,
  "ĠÐºÐ¾ÑĪÐµÐº": 32505,
  "ĠÐ¼Ð¾ÑģÐºÐ¾Ð²ÑģÐºÐ¸Ð¼": 34097,
  "ĠÐ½Ð¾Ð²ÑĭÐ¹": 3609,
  "ĠÐ¸Ð·ÑĥÑĩÐµÐ½Ð¸Ðµ": 12644,
  "ĠÐ¿ÑĢÐ¸ÑĢÐ¾ÑģÑĤ": 20830,
  "ĠÑĢÐ°Ð´Ð¸ÐºÐ°Ð»ÑĮÐ½ÑĭÑħ": 45110,
  "ĠÐ½Ð°Ð¿ÑĢÐ°Ð²Ð¸Ð»": 17858,
  "ĠÐ¼ÐµÐ±ÐµÐ»ÑĮ": 40509,
  "ĠÐŃÐºÑĢÐ°Ð½Ð¸Ð·Ð°ÑĨÐ¸Ñı": 39643,
  "ÐľÐ°Ð»Ð°Ñı": 46880,
  "ĠX": 813,
  "ĠÐ¿ÑĢÐ¾Ð¼ÑĭÑĪÐ»ÐµÐ½Ð½Ð¾Ð³Ð¾": 17028,
  "ĠÐ°Ð´Ð°Ð¿ÑĤ": 18243,
  "ÐµÐ½ÑĤÐ¾Ð¼": 4178,
  "ÑĤÐ°ÑĨÐ¸Ð¸": 8734,
  "ĠÐ²Ð¾ÑģÑĤÐ¾ÑĩÐ½Ð¾Ð¼": 22470,
  "ÙĦ": 42171,
  "e": 78,
  "ĠÑģÐ¸Ð»ÑĮÐ½ÑĭÐ¹": 18333,
  "Ð°ÑĢÐ¸Ð¸": 3513,
  "ÐĵÑĢÑĥÐ¿Ð¿Ð°": 18368,
  "ĠÐ³ÐµÑĢÐ¼Ð°Ð½ÑģÐºÐ¸Ð¼Ð¸": 48170,
  "Ð¼Ð°ÑĤÑĭ": 22898,
  "ĠÑĢÐµÐ°Ð»ÑĮÐ½Ð¾Ð¹": 20108,
  "ÑĩÐ°ÑĤÐ¾Ð¹": 35533,
  "ĠÑĥÑģÑĤÐ°Ð½Ð¾Ð²Ð¸Ð»Ð¸": 16705,
  "Ð°Ð¼ÐµÑĢÐ¸ÐºÐ°Ð½": 6729,
  "ĠÐºÐ¾Ð½ÑĦ": 2874,
  "ĠÑĢÐ°Ð½Ð½Ð¸Ðµ": 15296,
  "ÑĥÑĢÐ½ÑĭÑħ": 39406,
  "ĠÐ½Ð°Ð±Ð»ÑİÐ´Ð°Ð»": 30455,
  "Ð¸Ð¼Ð¾Ðµ": 12415,
  "ĠIMDb": 46533,
  "ĠÐ·Ð°ÑĩÐ¸ÑģÐ»ÐµÐ½": 26110,
  "Ð°ÑĢÑĥÑģ": 7319,
  "ĠÐ·Ð½Ð°ÐºÐ¾Ð¼": 4905,
  "Ð´Ð°ÑİÑĤÑģÑı": 10201,
  "ĠÐľÑįÐ´": 27775,
  "ĠCar": 11712,
  "ĠÐ´ÐµÐ¹ÑģÑĤÐ²Ð¾Ð²Ð°Ð»Ð¸": 14553,
  "ĠÐ´Ð¾Ð¼ÐµÐ½": 26399,
  "ĠÐ²ÑĭÑħ": 35713,
  "ĠÐ°ÑĢÑħÐ¸ÑĤÐµÐºÑĤÑĥÑĢÐ°": 22747,
  "Ð¡ÐĶ": 18239,
  "ĠÑģÑĤÐ¸Ð»ÑĮ": 8466,
  "ĠÐľÐ¾Ð³": 7955,
  "ĠÐĲÑĦÑĢÐ¸ÐºÐµ": 11071,
  "Ð¡ÑĬÑĳÐ¼": 12546,
  "ĠÐ¿ÐµÑĢÐµÐºÑĢÑĳÑģÑĤ": 28722,
  "ÑĢÐ°Ð¼Ð°ÑĤ": 17423,
  "ÐµÑĢÑĥ": 3375,
  "ĠÐ¡Ð²Ð¾Ñİ": 44682,
  "ĠÐ¼Ð°Ð½ÐµÐ²": 26913,
  "ography": 27430,
  "ĠÐ¾ÑĤÐ²Ð°": 36727,
  "ÑĢÐ¸ÑĤÑĮ": 11502,
  "ĠÐ½Ð°Ð¿ÑĢÐ°Ð²Ð¸Ð»Ð¸": 42998,
  "Ð°Ð¼Ð¿": 4442,
  "Ð¿ÑĢÐµÐ´ÑģÐµÐ´Ð°ÑĤÐµÐ»ÑĮ": 42837,
  "ĠÐ¿Ð¾ÑħÐ¸ÑĤ": 26842,
  "ĠÐŁÐ¾Ð±ÐµÐ´Ð¾Ð½Ð¾Ñģ": 36664,
  "ĠÑģÐºÐ°Ð»": 19660,
  "ÑĥÐ¼Ð¾Ð¼": 26338,
  "ĠÐ¾Ð±ÐµÐ¸Ñħ": 12160,
  "ĠÐĵÐ°Ð»Ð°ÐºÑĤÐ¸ÐºÐ¸": 49051,
  "ĠÐ¿ÑĢÐµÑģÑģÑĭ": 22961,
  "x": 97,
  "Ð¡Ð¾Ñģ": 40873,
  "cc": 26181,
  "ÐĳÐ¾Ð»ÑĮÑĪÐ°Ñı": 16041,
  "ĠÑģÐ¾Ñģ": 2584,
  "ĠÐ¾ÑĤÑĩÑĳÑĤÐµ": 49820,
  "ĠÐ½ÐµÑģÐºÐ¾Ð»ÑĮÐºÐ¸Ð¼": 28764,
  "ĠÑįÐ³Ð¸Ð´Ð¾Ð¹": 30631,
  "ĠÑĩÐ°ÑĢÑĤÐµ": 33269,
  "BO": 40963,
  "ĠÑģÐ¾ÐºÑĢÐ¾Ð²Ð¸Ñī": 24469,
  "ĠÐ¿ÑĢÑıÐ¼Ð¾Ð¹": 9838,
  "ĠÐĿÐ°ÑĤ": 10799,
  "ÑĢÐ°Ð³": 2839,
  "ÑĥÐ»Ð¸ÑĢÐ¾Ð²": 14577,
  "ĠÐŁÐ°Ð»Ðµ": 21786,
  "ĠÐ¼Ð¸ÑģÑģÐ¸Ñı": 30286,
  "Ð²Ð¾ÑģÑĤÐ¾ÑĩÐ½Ð¾Ð¼": 39987,
  "ĠÐ§ÑĥÐºÐ¾ÑĤ": 30910,
  "Ð¸ÑģÐ¿Ð¾Ð»": 17755,
  "ĠÐ¾ÑĤÐµÑĩÐµÑģÑĤÐ²ÐµÐ½Ð½Ð¾Ð³Ð¾": 19413,
  "ÑĪÐºÐ¾Ð²": 46184,
  "ĠÐ¾ÑĤÑĢÐ¾ÑģÑĤ": 39132,
  "ĠÐ¼Ð¾Ð»": 1435,
  "ĠÐ¿Ð¾Ð»ÐºÑĥ": 18597,
  "ĠÐºÐ¾Ð½ÑĨÐµÐ¿ÑĨÐ¸Ñı": 16170,
  "ĠÐ²ÑĢÐ°": 4549,
  "ĠÐ´Ð¾Ð±ÑĭÑĩÑĥ": 22886,
  "п": 267,
  "ĠÐŀÐ±Ð½Ð°ÑĢÑĥÐ¶": 40705,
  "ĠÑĢÐ°Ð·ÑĢÐµÑĪÐµÐ½Ð¸ÐµÐ¼": 40558,
  "Ð¾Ð·ÑıÐ¹": 2257,
  "ĠÐ¼Ð¾Ð½Ð³Ð¾Ð»Ð¾Ð²": 29185,
  "ĠÐ³Ð½ÑĳÐ·": 43979,
  "Ð°Ð·Ñĭ": 6059,
  "ĠÐĿÐ¾Ð²Ð°Ñı": 9924,
  "ĠÐ½ÑĥÐ¶ÐµÐ½": 29164,
  "ĠÐŁÑĢÐ°Ð²Ð¸ÑĤÐµÐ»ÑĮÑģÑĤÐ²Ð°": 11432,
  "Ð°Ð¿": 679,
  "ĠÐ·Ð°Ð¿ÑĢÐ¾ÑģÑĭ": 45755,
  "Ð±ÑĥÐ½": 12871,
  "ĠÑģÑĤÐ°ÑĢÐ°Ð»ÑģÑı": 25662,
  "ĠÑĦÐ¾Ð»Ðº": 34739,
  "ĠÐ¿ÑĢÐ¾Ð¸Ñģ": 1481,
  "ĠÐĵÐ²Ð¸Ð´": 44723,
  "Ð¾Ð³Ð¾ÑģÑĤ": 21746,
  "ĠÑĢÐµÐ°Ð»ÑĮÐ½Ð¾ÑģÑĤÐ¸": 12878,
  "Ð¿ÐµÑĢÐ²": 7076,
  "ĠÑģÐ¼Ð¾Ð»": 30111,
  "ĠÑĦÑĥÐ½ÐºÑĨÐ¸Ð¸": 4347,
  "Ð¸Ð²ÐºÐ¸": 39081,
  "ÐĵÐ°Ð¼": 30496,
  "ÑĥÑĤÑĮ": 2704,
  "ĠÐ¿ÑĢÐ°ÐºÑĤÐ¸ÑĩÐµÑģÐºÐ¾Ð³Ð¾": 39365,
  "Ð¡Ð¾Ð±Ð¾ÑĢ": 48743,
  "Ð°ÑĤÐµÐ»ÑĮ": 652,
  "ÐĵÐ¾ÑģÑĥÐ´Ð°ÑĢÑģÑĤÐ²ÐµÐ½Ð½ÑĭÐµ": 23281,
  "Ð½ÐµÑĨÑĭ": 32394,
  "ĠÐ°Ð½ÑĤÐ¸ÑĩÐ½Ð¾ÑģÑĤÐ¸": 23040,
  "Ð¾Ð±Ð»Ð¾Ðº": 26071,
  "ĠÐ¿ÑĢÐ¾Ð½Ð¸ÐºÐ°": 31841,
  "ÐľÐ°Ð»ÑĮ": 30218,
  "ĠÑĢÐ¾Ð²": 14255,
  "ĊĊĊ": 47663,
  "20": 854,
  "ĠÐ¸Ð¼Ð¼Ð¸Ð³ÑĢÐ°": 29995,
  "Ð´Ð°ÐµÑĤÑģÑı": 4326,
  "ĠÐ¿Ð°Ð´ÐµÐ¶Ðµ": 49840,
  "U": 62,
  "Ð°Ð½Ð½Ðµ": 48942,
  "ĠÐ´Ð¾Ð»Ð¸Ð½Ðµ": 14080,
  "ĠOf": 18241,
  "ris": 17764,
  "ĠÐµÑģÑĤ": 4175,
  "ĠÐ¢ÑĢ": 33362,
  "ĠÐ§ÐµÑĢÐ½ÑĭÑĪ": 28111,
  "ĠÐ¼Ð°Ð½Ð´": 13525,
  "ĠÐ³ÐµÐ¾Ð³ÑĢÐ°ÑĦÐ¸Ð¸": 19800,
  "ĠÐ»ÐµÐ±": 28782,
  "ĠÐ¶Ð¸Ð²Ð¾ÑĤÐ½Ð¾Ðµ": 24692,
  "ÑģÐº": 323,
  "ĠÐ²ÐµÑīÑĮ": 36786,
  "ÑĥÑĢÐ¸ÑģÑĤ": 14611,
  "Ġ1815": 18742,
  "ĠÐºÐ°ÑĢÐ´Ð¸Ð½Ð°Ð»ÑĮÐ½Ð¾": 47614,
  "ĠÐ¿Ð¾Ð´Ð³Ð¾ÑĤÐ¾Ð²Ð¸Ð»": 31556,
  "Ð½Ð°ÑĨÐ¸Ð¾Ð½": 27546,
  "ĠÐ±ÑĢÐ°ÐºÐ¾Ð²": 31238,
  "ĠÐ¾ÑĤÑĢÐµÑĩÐµÐ½Ð¸Ñı": 49663,
  "ĠÑĢÐ°Ð·Ð±Ð¸ÑĤÑĮ": 39160,
  "ĠÐ¿ÑĢÐ¾Ð²ÐµÐ´ÐµÐ½Ð¸Ñİ": 33164,
  "ĠÐ½ÐµÑģÐ¿ÑĢÐ°Ð²ÐµÐ´Ð»Ð¸Ð²": 26630,
  "ĠÐ®ÑĢ": 22553,
  "ĠÑĤÐµÐ»ÐµÐ²ÐµÐ´": 17169,
  "Ð²ÑĭÑģ": 13961,
  "ĠÐ¿ÑĢÐ¾Ð¿Ð°Ð³Ð°Ð½Ð´Ð°": 42363,
  "ĠÐ³Ð¾Ð²Ð¾ÑĢÐ¸ÑĤÑĮ": 11083,
  "ÐĶÐ¾ÑģÑĤÐ¾Ð¿ÑĢÐ¸Ð¼ÐµÑĩÐ°ÑĤÐµÐ»ÑĮÐ½Ð¾ÑģÑĤÐ¸": 10685,
  "ĠÐ°ÑĢÐ¼ÐµÐ¹ÑģÐºÐ¸Ð¹": 46285,
  "ited": 14576,
  "ĠÐ¼Ð°Ð»Ð¾Ð¼": 31447,
  "ĠHTML": 27958,
  "ĠÐ½Ð°Ð·Ð°Ð´": 5589,
  "ĠÐ¸Ð·ÑĥÑĩÐµÐ½Ð¸Ñı": 8193,
  "ĠÐľÐ¡": 28873,
  "ĠÐ¼ÐµÐ¶Ð´ÑĥÐ³Ð¾ÑĢÐ¾Ð´": 27946,
  "ĠÐ¿ÑĢÐµÐ´Ð¼ÐµÑģÑĤ": 40164,
  "ĠÑħÐ¾Ð»": 4930,
  "Ġ1711": 44543,
  "ĠÐ¿Ð¾ÑģÑĤÑĥÐ¿Ð°ÐµÑĤ": 20778,
  "ÐµÐ»ÑĮÑĦ": 8673,
  "ĠÐ¡Ð¼Ð¾Ð»": 7005,
  "Ð¾Ð¿ÑĢÐ¾Ð²Ð¾Ð´": 12680,
  "ĠÐ²Ð¾ÐµÐ½Ð½ÑĭÐµ": 7836,
  "ĠÐĶÐ¼Ð¸ÑĤÑĢÐ¸ÐµÐ²": 33033,
  "ĠÐ½Ð°ÑģÑĤÐ¸Ð³": 42574,
  "ĠÐ½ÑĥÐ»ÐµÐ²Ð¾Ð¹": 36112,
  "ÐºÐ¾Ð½": 1720,
  "ĠÑģÐ¿Ð¾ÑĢÐ°": 40470,
  "ĠÐ¿ÑĢÐ¸Ð½ÐµÑģÐ»Ð°": 23361,
  "Ð¡Ð¸Ð»": 40112,
  "ĠÐ½ÐµÐ²ÐµÑģÑĤÐ°": 36647,
  "ĠÐ¿ÑĢÐµÐ¼Ð¸ÐµÐ¹": 31605,
  "ÑĬÐµÐ·Ð´": 9791,
  "ĠÐ¿Ð¾Ð²ÑĭÑĪÐ°ÐµÑĤ": 26285,
  "ĠÐĶÑĢÑĥÐ³Ð¸Ð¼": 34929,
  "ĠÑģÐµÐ·Ð¾Ð½Ñĭ": 43779,
  "ĠÐºÐ°Ð¼ÐµÐ½": 24497,
  "Ð¾ÑĢÐ½Ð¾Ð³Ð¾": 21029,
  "ĠÐ¿Ð¾Ð¿ÑĥÐ»ÑıÑĢÐ¸Ð·": 29295,
  "1908": 16446,
  "ĠÐŁÑĢÑĥÐ´": 43358,
  "ÐµÑİ": 14688,
  "ÑĤÐ²ÐµÑĢÐ¶Ð´": 42841,
  "ĠEncyclopedia": 35091,
  "Ð°": 290,
  "ĠÐ¿ÐµÑĢÐ²Ð¾Ð¹": 2672,
  "ĠÑĢÐµÐ°Ð»ÑĮÐ½Ð¾ÑģÑĤÑĮÑİ": 48871,
  "ĠÐ·Ð°ÑĢÐ°Ð¶ÐµÐ½Ð¸Ñı": 37508,
  "ĠÐ·Ð¾Ð½Ð´": 37182,
  "ĠÑĢÐµÐ°ÐºÑĤÐ¾ÑĢÐ¾Ð²": 39102,
  "Ð½ÑĥÑĤÑĢÐµÐ½": 11464,
  "ĠÐĵÐµÐ»ÑĮ": 20937,
  "ĠÐ¸Ð½Ð²Ð°ÑĢÐ¸Ð°Ð½ÑĤ": 41398,
  "ĠÑĦÐ¾ÑĢÐ¼Ð¸ÑĢÑĥÑİÑĤ": 34927,
  "ĠÐ½Ð°ÑĩÐ°Ð»Ð¸": 4755,
  "ĠÐ¸Ð³ÑĢÐ¾Ð²ÑĭÑħ": 20269,
  "ÑıÐ½ÐºÐ¸": 37377,
  "ĠÐ³ÐµÐ½ÐµÐ°Ð»Ð¾Ð³": 30658,
  "ÐķÐ¤ÐĲ": 13609,
  "ĠÐ¿ÑĪÐµÐ½": 17626,
  "ĠÐ·Ð²ÐµÑĢ": 10890,
  "ĠÐ¡Ð°ÑĢÑĤ": 42676,
  "ĠÐºÐ°ÑĢÑĤÐ¸Ð½Ñĥ": 12906,
  "ÑıÑı": 8907,
  "ĠÐĲÐ´Ð°": 24611,
  "ĠÐ´ÐµÐ¼Ð¾Ð½ÑģÑĤÑĢÐ¸ÑĢÑĥÑİÑĤ": 40097,
  "ÑĤÐµÐº": 11859,
  "ĠÐ¡Ð¾ÑĨÐ¸Ð°Ð»": 35947,
  "ĠÐ»Ð°Ð³ÐµÑĢ": 25973,
  "ĠÐ´Ð°Ð²Ð°Ð»Ð°": 34605,
  "ĠÐ¿ÐµÑĢÐ²Ð¾Ð±ÑĭÑĤ": 26188,
  "ÑĢÐ¾Ð±Ð½ÐµÐµ": 49042,
  "ÐµÐºÑĤÐ¾ÑĢÐ¾Ð¼": 30241,
  "ĠÑĤÐ¸Ð¿Ð¸ÑĩÐ½ÑĭÑħ": 48817,
  "ĠÐ¢Ð¾Ð»ÑĮÑıÑĤÑĤÐ¸": 36251,
  "ĠÑĤÑĢÐµÐ½Ð¸Ñı": 30212,
  "ĠÐ½Ð°ÑħÐ¾Ð´Ð¸Ð»Ð¸": 40170,
  "\"|": 17152,
  "ĠÐ¸Ð³ÑĢ": 4446,
  "ĠÐ¡ÐµÐ²ÐµÑĢÐ°": 16953,
  "ĠÐľÐ¸Ð½Ð½ÐµÑģ": 35688,
  "ĠÐ¾Ð±Ð¾Ð·Ð½Ð°ÑĩÐ°ÑİÑĤÑģÑı": 41462,
  "ĠÐ¾ÑģÐ½Ð¾Ð²Ð½Ð¾Ð¹": 5710,
  "Ð¸ÐºÐ»Ð¸Ð½": 15613,
  "ÐĶÐµÐ»ÐµÐ³Ð°ÑĤÑĭ": 17815,
  "Ð½ÑĥÑĤÑĮÑģÑı": 24099,
  "ĠÐ°Ð½Ð³Ð»Ð¾ÑģÐ°ÐºÑģ": 32988,
  "Ð¾ÑģÐ¿Ð¸ÑĤ": 7382,
  "ĠÑĤÑİÑĢÐº": 9932,
  "ĠSta": 49364,
  "Ð¾ÑģÑĤÐ¾Ñĩ": 1689,
  "ÐĲÐ¿Ð¾Ð»": 23365,
  "ÑħÐ¾Ð´Ð¸ÑĤ": 1289,
  "ĠÐ¡ÑĤÐ°ÑĢÑĪÐ¸Ð¹": 19404,
  "ĠÐ·Ð°Ð¿ÑĥÑĤ": 30912,
  "ĠÑĩÐµÐ»Ð¾Ð²ÐµÑĩÐµÑģÑĤÐ²Ð°": 13398,
  "ĠÑĤÐ°Ð½ÐºÐ¾Ð²Ð°Ñı": 33567,
  "ÑĥÑģÑĤÑĢÐ¾Ð¹ÑģÑĤÐ²Ð¾": 33178,
  "ĠÐ²Ð¾ÑģÑĮÐ¼Ð¸": 10962,
  "ĠÐ¿Ð¾ÑģÐ²ÑıÑī": 3112,
  "Ð¸Ð´Ð¶": 13187,
  "ĠÑĤÑıÐ¶": 2917,
  "ĠÐ±Ð¾ÐµÐ²Ð¸Ðº": 44153,
  "ĠÐ²Ð½ÐµÐ·Ð°Ð¿Ð½Ð¾": 20107,
  "ĠÐļÐ°ÑĢÐµÐ»Ð¸Ñı": 31004,
  "ĠÐ¼Ð°ÑĤÐµÐ¼Ð°ÑĤÐ¸ÑĩÐµÑģÐºÐ¾Ðµ": 48249,
  "ĠÑīÐµÐ´": 29583,
  "ĠÑĥÐ±Ð¸Ð²Ð°ÑİÑĤ": 32617,
  "ĠÐ¿ÑĢÐ¸ÑģÐ²Ð°": 17617,
  "ĠÐ´Ð¾Ð±ÑĢÐ¾Ð´": 18905,
  "ĠÐĽÐ¸Ð·Ð°": 26927,
  "ĠÐ´Ð¸Ðº": 6180,
  "Ð±Ð¾Ð¼": 36294,
  "ĠÐŁÐ»ÐµÐ½": 35757,
  "ĠÐľÑĥÑģÑģÐ¾Ð»Ð¸Ð½Ð¸": 33216,
  "ĠÑĥÑģÐ»Ð¾Ð²Ð¸ÑıÐ¼Ð¸": 24288,
  "ĠÐ¾ÑĢÐ³Ð°Ð½Ð¸Ð·Ð°ÑĨÐ¸Ð¹": 6785,
  "ĠÐ·Ð°ÑĤÐ¾Ð½": 37913,
  "ĠÑĪÐ°Ð½Ñģ": 25841,
  "ĠÑģÐºÐµÐ»ÐµÑĤ": 28175,
  "Ð°Ð»ÑĮÑģÐºÐ¸Ð¹": 12145,
  "ĠÐºÐ¾Ð½Ð³ÑĢÐµÑģÑģÐµ": 31591,
  "ÐĶÐ¾ÑģÑĤÐ¾ÐµÐ²": 34723,
  "Ð¾ÑģÐ¾Ð¼": 7356,
  "ÐĹÐ°Ð»": 22084,
  "ĠÐłÐ°Ð¹Ðº": 45637,
  "ĠÐĺÑģÐ¿Ð°Ð½Ð¸Ð¸": 4988,
  "ĠÐ¼Ð¾Ð»ÐµÐºÑĥÐ»ÑıÑĢÐ½Ð¾Ð¹": 35305,
  "ĠÐ½Ð°ÑĢÐ¾Ð´Ð½Ð¾": 49038,
  "Ġant": 45254,
  "ĠÐĲÐºÐº": 44835,
  "ĠÑģÐ¾Ð»Ð¸Ð´Ð°ÑĢÐ½Ð¾ÑģÑĤÐ¸": 49005,
  "ÐµÐ·Ð¸Ð¸": 11459,
  "ÑĢÐ°Ð´": 3613,
  "ĠÐ¤ÐµÐ¾ÑĦ": 21888,
  "ĠÑħÑĢÐ°Ð½Ð¸ÑĤÑģÑı": 19317,
  "ĠÑĩÐ°ÑģÑĤÑıÑħ": 11278,
  "ĠÐ±Ð¾ÐºÐ¾Ð²": 34252,
  "ĠÐļÐ°Ð²Ð°Ð»": 19349,
  "ĠÐ¢ÑĥÑĢÑĨÐ¸ÐµÐ¹": 32468,
  "Ð°ÑĤÐ¸Ð²Ð°": 43148,
  "ĠÐĲÐ´ÐµÐ»Ð°": 50105,
  "Ð²Ð¾Ð»ÑĮ": 33812,
  "ĠÑģÐ°Ð¼Ð°": 8885,
  "ÐµÐ¹ÐºÐ°": 24859,
  "ĠÑģÑĭÑĢÑĮ": 22571,
  "ĠÐĿÐ°ÑħÐ¾Ð´Ð¸ÑĤÑģÑı": 27934,
  "ĠÐłÐ°ÑĦÐ°ÑįÐ»ÑĮ": 36621,
  "ĠÐ¿Ð¾ÐºÑĢÑĭÑĤÐ¸ÐµÐ¼": 28837,
  "ĠÑĥÐ²Ð¸Ð´": 5609,
  "ĠÐ¥Ð¾Ñħ": 39601,
  "Ð¼Ð¾Ð»ÑĮ": 39535,
  "ĠÐŁÐ°ÑĤÑĢÐ¸Ð°ÑĢÑħÐ°": 38682,
  "ÑĩÐ¸Ð½Ðµ": 37726,
  "ĠÐĹÐ°ÑģÐ»ÑĥÐ¶ÐµÐ½Ð½ÑĭÐ¹": 12979,
  "ĠÐ¡ÑĥÑīÐµÑģÑĤÐ²ÑĥÐµÑĤ": 11738,
  "ĠÐ¸Ð½ÑĤÐµÐ»Ð»ÐµÐºÑĤÑĥ": 11116,
  "ĠÐ¢Ð°Ð¸Ð»Ð°Ð½Ð´Ð°": 48765,
  "ĠÐ¿Ð¾Ð»Ð½Ð¾ÑĨÐµÐ½": 14469,
  "ĠÑĤÑĢÑĥÐ´Ð¾Ð¼": 15932,
  "ĠÐ¼Ð°Ð³Ð½Ð¸ÑĤÐ½ÑĭÑħ": 32222,
  "ĠÐĿÐ¸ÐºÐ¾Ð»Ð¾": 44613,
  "ĠÐ½Ð°ÑĩÐ°Ð»Ðµ": 2081,
  "ĠÐ¿ÑĥÑģÐº": 12750,
  "ĠÑĨÐµÐ»ÐµÑģÐ¾Ð¾Ð±ÑĢÐ°Ð·": 27048,
  "ĠÐ»Ð°ÑĤÐ¸Ð½Ð¾": 34206,
  "ĠÐ²ÑĢÐ°ÑĩÐ¾Ð¼": 25059,
  "ĠÐ¿ÑĥÐ»ÐµÐ¼": 12007,
  "ĠÑĦÑĢÐ°ÐºÑĨÐ¸Ñı": 43289,
  "ĠÐĵ": 459,
  "ĠÐļÑĢ": 19898,
  "ĠÐŃÐ²": 10387,
  "ĠÐĶÐ¸Ð»Ð°Ð½": 48533,
  "ĠÐ´Ð²ÐµÐ½": 11555,
  "Ð¸Ð½Ð°Ð²": 9984,
  "ĠÐ»ÑİÐ±Ð¸ÑĤÐµÐ»ÑĮ": 16067,
  "ĠÐĽÑĥ": 2292,
  "ĠÐ¿Ð°Ð²Ð¾Ð´": 40524,
  "ĠÐŁÐ¾Ð½": 11821,
  "ĠÑģÐµÐ»ÑĮÑģÐºÐ¸Ð¼": 37862,
  "ĠÐ¿ÑĢÐ¸Ð±ÑĭÐ»Ð¸": 11504,
  "ĠÐ°Ð²ÑĤÐ¾Ð´Ð¾ÑĢÐ¾Ð³Ð°": 41482,
  "Ð¸Ð½ÑģÐºÐ¾Ð¼": 5661,
  "ĠÐĳÐ¾Ð»Ð³Ð°ÑĢÐ¸Ð¸": 12913,
  "ĠÐĲÐ»ÐµÐºÑģÐ¸Ñı": 42236,
  "ĠÐ²Ð¾ÐºÐ°Ð»Ð¸ÑģÑĤ": 13450,
  "ĠÐ¤ÑĥÐ»ÑĮ": 31378,
  "Ð°ÑīÐµ": 4888,
  "ĠÐ¿ÑĢÐ¸Ð½ÑĨÐµÑģÑģÑĭ": 31961,
  "ĠÐ´Ð¾Ð³Ð¾Ð²Ð¾ÑĢÑĳÐ½Ð½Ð¾ÑģÑĤÐ¸": 42761,
  "ÐļÐ°Ð·Ð°Ñħ": 15831,
  "ĠÐ±ÑĢÐ¾ÑģÐ¸Ð»": 27723,
  "ĠÐ²ÑħÐ¾Ð´Ð½ÑĭÑħ": 49360,
  "Ð°ÑĪ": 881,
  "ĠÐ°Ð²ÑĤÐ¾Ð¼": 2169,
  "Ð±Ð¸Ð»": 9489,
  "ĠÐ³Ð½ÐµÐ²Ð°": 42111,
  "ÐµÐ½Ð¸ÑĤÐ¾": 50138,
  "ÑĥÑģÐºÐ¾Ð½Ð¸": 44546,
  "å": 169,
  "ĠÐ½Ð°ÑĩÐ°Ð»ÑĮÐ½Ð¾Ð³Ð¾": 32299,
  "ĠÐľÐ°ÐºÑģÐ¸Ð¼Ð¾Ð²Ð¸Ñĩ": 48171,
  "ĠÑģÐ²ÑıÐ·ÑĭÐ²Ð°Ð»Ð¸": 42153,
  "ĠÐŁÑįÐº": 49020,
  "ĠÑĦÑĢÐ°Ð½ÑĨÑĥÐ·Ð¾Ð²": 19503,
  "ĠÑĢÐµÐ´Ð°ÐºÑĨÐ¸Ð¸": 5289,
  "ÑĢÐ¸ÑģÑĤÐ¾Ð²": 23781,
  "ĠÑģÐ¸Ð±Ð¸ÑĢÑģÐºÐ¸Ñħ": 47320,
  "ĠÐ·Ð°Ð¿ÑĢÐ¾ÑģÐ¾Ð²": 42008,
  "ÐºÐ°ÑĢÑĤ": 27454,
  "ĠÐ³ÐµÑĢÐ¾Ð¹": 7518,
  "ĠÐ¨Ð°ÑĢÐ»ÑĮ": 22736,
  "ĠÑģÐ¸Ð½ÑĥÑģ": 41221,
  "ach": 6679,
  "ĠÐ²ÑĭÐ·ÑĭÐ²Ð°ÑĤÑĮ": 22918,
  "ĠÐ½ÐµÐ´Ð¾Ð»Ð³Ð¾": 25753,
  "ÑĢÐµÑĨÐµÐ´": 40634,
  "ĠÐĵÐ°Ð±": 10407,
  "ĠÐ¿Ð¾Ð²ÑģÐµÐ´Ð½ÐµÐ²Ð½Ð¾Ð¹": 32577,
  "ĠÐļÑĥÐ·ÑĮÐ¼Ð¸Ð½": 27372,
  "ĠÐ¤": 549,
  "Ð¶ÑĳÐ»ÑĤ": 25194,
  "Ð½Ð¾Ð²ÑĢÐµÐ¼ÐµÐ½Ð½Ð¾": 3681,
  "ĠÐ¡Ð¸Ð²": 33986,
  "ĠÑĢÐ°": 393,
  "ĠÑĢÐµÐ¼Ð¾Ð½ÑĤÐ°": 20804,
  "ÐĺÐ·Ð±ÑĢÐ°Ð½": 23309,
  "ĠÐ´Ð²ÑĥÑħÑįÑĤÐ°Ð¶": 25632,
  "Ð²ÑĪÐµÐ³Ð¾": 34552,
  "ĠÐľÐ¾ÑģÐºÐ²Ð¾Ð¹": 21422,
  "ĠÐ²ÑĭÑħÐ¾Ð´": 2309,
  "ĠÐ¾Ð±ÐµÐ·": 9928,
  "ĠNight": 18687,
  "ĠÐ³ÑĢÐ°ÑĦÐ¸Ð½Ð¸": 49361,
  "ĠÐ¿Ð»ÑĥÑĤÐ¾Ð½Ð¸Ñı": 42666,
  "ĠÐ¿ÑĢÐµÐ¼": 2739,
  "ĠÑģÐ¾ÐºÑĢÐ¾Ð²Ð¸ÑīÐ°": 42432,
  "ĠÐ³ÑĢÐ°Ð¶Ð´Ð°Ð½ÑģÐºÐ°Ñı": 29558,
  "ĠFox": 30607,
  "ĠÐķÐºÐ°ÑĤÐµÑĢÐ¸Ð½Ð±ÑĥÑĢÐ³Ð°": 38673,
  "ĠÐ¿ÑĢÐ¾ÑģÐ»Ð°Ð²Ð¸Ð»ÑģÑı": 48442,
  "ĠÐĿÐ¸ÐºÐ¾Ð»ÑĮÑģÐºÐ¸Ð¹": 43642,
  "ĠÐ°Ð¼Ð±": 23422,
  "Ġ67": 14351,
  "Ð¼Ð°ÑĤÐµÐ¼Ð°ÑĤÐ¸ÑĩÐµÑģÐºÐ¸Ñħ": 36380,
  "ĠÑģÐ¾ÑģÑĤÐ¾ÑıÐ»Ð°": 14092,
  "ĠÑĩÐ°ÑģÑĤÐ¸ÑĨ": 8381,
  "ĠÐ¾ÑĢÑĤÐ¾Ð´Ð¾ÐºÑģ": 31639,
  "Ð»ÑıÐµÐ¼ÑĭÐµ": 42176,
  "ĠÑĨÐµÐ½Ð°Ñħ": 47517,
  "ĠÑĤÑİÑĢÑĮÐ¼Ðµ": 15156,
  "ĠÐºÑĥÑħÐ½Ñı": 24853,
  "Ð°Ð½Ð½Ð¾ÑģÑĤÐ¸": 21144,
  "ÑģÑĭÐ»": 1275,
  "ĠÐ¿Ð¾ÑĤÑĢÑıÑģ": 25539,
  "ĠÑĨÐ²ÐµÑĤÑĭ": 33028,
  "ĠÐ½Ð°ÑĥÐºÐ¸": 4589,
  "ĠÑıÐ·ÑĭÐºÐ°Ð¼Ð¸": 17756,
  "Ð¾Ð²Ð¸Ñĩ": 2547,
  "36": 3929,
  "Ð¸Ð»Ñı": 2872,
  "ĠDVD": 10960,
  "</": 24429,
  "ĠÐ²Ð¾Ð·ÑĢÐ°ÑģÑĤÐ¾Ð¼": 23340,
  "ĠÑĦÐ¸ÑĢÐ¼Ð°": 19710,
  "ĠÑģÐ¾ÑģÑĢÐµÐ´Ð¾ÑĤÐ¾ÑĩÐµÐ½Ð°": 45863,
  "ĠÐ¿ÑĢÐµÐ´Ð¿Ð¾Ð»Ð¾Ð¶Ð¸ÑĤÑĮ": 24620,
  "ÐµÐ´Ð¸Ð½": 970,
  "ĠÐ¿Ð¾Ð´Ð²Ð¾Ð´Ð½Ð°Ñı": 38106,
  "ÐºÐ°Ñģ": 8738,
  "ĠÐ½Ð°ÑĢÐ¾Ð´Ð½ÑĭÐ¼": 27876,
  "Ġ1748": 49518,
  "ĠÐ¿ÑĢÐ¾Ð·Ð°Ð¸Ðº": 21876,
  "ĠÐ·Ð°ÐºÑĢÑĭÑĤÑĭÐµ": 48510,
  "ĠMan": 10143,
  "1820": 31594,
  "ĠÐ¡ÑĥÐ´ÑĮÐ±Ð°": 45357,
  "ner": 10728,
  "ĠWeek": 41983,
  "ĠÐĲÐ»ÐµÐºÑģÐµÐµÐ²Ð°": 33383,
  "ĠÑįÑģÐ¿": 21924,
  "ĠÐ³ÐµÑĤ": 8064,
  "ÐµÐ¼ÑĩÑĥÐ¶": 24640,
  "ĠÑĤÐ°Ð¹Ð½ÑĭÐµ": 41962,
  "ÑĢÐµÑģÑĤ": 1468,
  "ĠÑĦÐ¸ÑĢÐ¼Ñĭ": 11163,
  "Ð¸ÑĩÐ½ÑĭÑħ": 5722,
  "ÐĶÐµÐ²Ð°": 36357,
  "ÑģÐ¾Ð²ÐµÑĢÑĪ": 8636,
  "ĠÑįÐºÑģÐºÐ»ÑİÐ·": 37171,
  "Ð¸Ð²ÑĪÐµÐ¼ÑĥÑģÑı": 40295,
  "ĠÐĲÐ·Ð¾Ð²ÑģÐºÐ¾Ð³Ð¾": 48970,
  "ĠÐĴÐ°Ð¶": 13969,
  "ĠÐ»Ð¸ÑĨÐ¾": 9174,
  "ander": 23107,
  "ÐŁÑĢÐµÑģ": 47052,
  "ĠÐ¶Ð°Ð»Ð¾Ð±": 26591,
  "ĠÐĴÐ¼ÐµÑģÑĤÐµ": 8086,
  "ĠÐ¿Ð¾Ð½Ð¸Ð¼Ð°Ð»Ð¸": 44827,
  "unt": 9577,
  "ĠÐŁÐµÐ´Ð°Ð³Ð¾Ð³": 38166,
  "ĠÐĲÑĪÑĪ": 38928,
  "ĠÐ³Ð¾Ð»Ð»Ð°Ð½Ð´": 11134,
  "ÐµÐ»ÑĮÐ½Ð¾Ð³Ð¾": 10280,
  "ĠÐłÐ°Ð´Ð¾Ð½": 31661,
  "ĠÐ§Ð°Ð¿Ð»Ð¸Ð½": 43296,
  "Ð¸Ð»Ð¸Ðµ": 19555,
  "Ð§ÑĳÑĢÐ½Ð¾": 32507,
  "ĠÐ²ÐµÑīÐµÑģÑĤÐ²Ð°Ð¼Ð¸": 31997,
  "ĠÐ½Ð°Ð´ÐµÐ¶": 24653,
  "ĠÐ¼ÐµÑģÑĤÐ½Ð¾ÑģÑĤÐ¸": 8493,
  "ful": 43122,
  "alth": 43951,
  "ÐļÐ¾ÑĪ": 26163,
  "000": 1840,
  "ran": 4430,
  "Ð°ÑīÑĥÑİ": 44016,
  "ĠÐŁÑĢÐ¾ÐºÐ¾ÑĦÑĮÐµÐ²": 47778,
  "ĠÐ¿ÐµÑĢÐµÑģÐµÐºÐ°ÑİÑĤÑģÑı": 45065,
  "ÑĥÐ»ÐµÐ¼": 8606,
  "ĠÐ¿ÐµÑĢÐ¸ÑĦÐµÑĢ": 30079,
  "ĠÐ¿ÑĢÐ¾ÑĢÐ¾Ðº": 39018,
  "ĠÐ¿Ð¾Ð»ÑĮÐ·Ð¾Ð²": 3641,
  "ĠÐ½Ð°ÑĨÐ¸Ð¹": 25172,
  "Ð»ÑıÐ»Ð¾ÑģÑĮ": 36989,
  "ĠÐ²Ð·Ð°Ð¸Ð¼Ð¾Ð¾ÑĤÐ½Ð¾ÑĪÐµÐ½Ð¸Ð¹": 33979,
  "ĠÐ¶ÐµÐ½ÑīÐ¸Ð½Ð¾Ð¹": 22180,
  "Ġ1820": 17797,
  "ĠÑįÐ»ÐµÐºÑĤÑĢÐ¾Ð½Ð¾Ð²": 17488,
  "ÑĢÐµÐ¿ÑıÑĤ": 25523,
  "Ð¤Ð°Ð½ÑĤÐ°ÑģÑĤ": 22148,
  "Ð»ÐµÑĤÐ½ÑıÑı": 32212,
  "ĠÐ´Ð¾Ð½ÐµÑģ": 36281,
  "ĠÐ¿ÑĢÐ¾Ð½Ð¸ÐºÐ°ÑİÑĤ": 43813,
  "ĠÐ±Ð¸Ð»ÐµÑĤÐ¾Ð²": 38022,
  "ĠSw": 22125,
  "ĠEconomic": 35474,
  "Ð¾ÑģÑĤÐ°": 14475,
  "ĠDragon": 45526,
  "ĠÑĥÑģÐ¿ÐµÑħ": 3489,
  "ĠÐļÐ¸Ð½Ð³": 15071,
  "ĠCam": 33588,
  "Ð¸ÑĤÐµÐ»ÑıÐ¼Ð¸": 4287,
  "ĠÐĺÐ·Ð°Ð±ÐµÐ»Ð»Ð°": 33806,
  "ĠÐľÐ¾Ð»ÑĮ": 32805,
  "ĠÐ²Ð¸Ð·Ð¸ÑĤ": 23518,
  "ĠÐ°Ð¼ÑĦ": 20412,
  "ĠÐ±": 356,
  "Ð»ÐµÐ½Ð¾": 3012,
  "ĠÐŀÑģÐ¼Ð°Ð½": 9557,
  "Ð¿Ð¸Ñģ": 1548,
  "ĠÐ¾Ð±ÑģÑĤÐ¾ÑıÑĤÐµÐ»ÑĮÑģÑĤÐ²Ð°Ñħ": 22951,
  "ĠÐĿÐ°ÑĩÐ°Ð»Ð°ÑģÑĮ": 48090,
  "ĠÐµÐ¿Ð°ÑĢÑħÐ¸": 30349,
  "ĠÑģÑĥÑīÐµÑģÑĤÐ²Ð¸ÑĤÐµÐ»ÑĮÐ½ÑĭÑħ": 34905,
  "ĠÑħÐ¾ÑĢÐ¾ÑĪÐ¾": 4580,
  "ÑģÐ°Ð½": 12188,
  "ĠDie": 15208,
  "ota": 18298,
  "ĠÐŁÑĢÐ¸Ð½": 9475,
  "Ð½Ð¾ÑĤÑĭ": 18807,
  "ĠÐ½Ð°Ð²ÑĭÐºÐ¸": 30180,
  "ĠÐºÐ¾Ð½ÐµÑĩÐ½Ð¾Ð¹": 25564,
  "ĠÐ¾ÑģÐ²Ð¾": 9339,
  "ĠÐºÐ¾ÑģÐ¼Ð¸ÑĩÐµÑģÐºÐ¸Ðµ": 38757,
  "ĠÐ¾Ð±ÐµÑĢ": 18816,
  "ĠÐĴÐµÐ´ÑĮ": 34442,
  "ĠÐ²Ð¾Ð»ÐµÐ¹Ð±Ð¾Ð»": 37085,
  "ĠÑĥÐ±Ð¸ÑĤÑĭÑħ": 23581,
  "ole": 19768,
  "ĠÑģÑħÐ¾Ð»": 34350,
  "ĠÐĺÑģÑģÐ»ÐµÐ´Ð¾Ð²Ð°ÑĤÐµÐ»ÑĮ": 41064,
  "ĠÐĴÐ¾Ð¿ÑĢÐ¾Ñģ": 31845,
  "ĠÐ¿ÑĢÐ¾ÑĪÐ»ÑĭÐ¼": 48327,
  "Ð³ÑĢÑĥÐ¿Ð¿Ñĭ": 9615,
  "Ġ170": 21774,
  "ĠÐĴÐµÐ»Ð¸ÐºÐ¾Ð¹": 3948,
  "ĠÑĤÐµÑħÐ½Ð¸ÑĩÐµÑģÐºÐ¸Ñħ": 12219,
  "ĠÐĳÐ¾Ð´": 15412,
  "ĠMach": 25866,
  "ĠÐºÐ°ÑĢÑĤÐ¸Ð½Ðµ": 14066,
  "ĠÐ¿Ð¾Ð´ÐºÑĥÐ¿": 32364,
  "Ð¸ÑĤÐµ": 5352,
  "ÐĳÐ£": 34823,
  "ĠÑįÐ½ÐµÑĢÐ³Ð¾": 42074,
  "ĠÐłÐ¸Ñĩ": 5361,
  "ĠÑģÐ¿ÑĢÐ°ÑĪÐ¸Ð²Ð°ÐµÑĤ": 44185,
  "ÐĴÐµÑĢÑģÐ¸Ñı": 48142,
  "ÐĵÐ¾Ð³": 37139,
  "ĠÐ´ÐµÐºÐ¾ÑĢ": 39002,
  "ĠÐºÑĢÑĭ": 3140,
  "ĠÐŀÐºÑĤÑıÐ±ÑĢÑĮÑģÐºÐ¾Ð¹": 12876,
  "ĠÐ¢ÐµÑĢÑĢÐ¸": 27097,
  "ĠÐ·Ð°ÑĤÐ¾Ð¿": 16786,
  "ĠÑģÐµÐºÑĢÐµÑĤÐ°": 33996,
  "ÑĳÐ½Ð½ÑĥÑİ": 7681,
  "ĠÑģÑĤÑĢÐ°ÑĤ": 34483,
  "ÑĥÑĢÐ½Ð°": 27218,
  "ÑįÑĢÐ°": 12510,
  "ĠÐ¯ÑĢÐ¾ÑģÐ»Ð°Ð²Ð°": 24575,
  "ĠÐ§ÐµÐ»Ñı": 11734,
  "ĠÑĢÐ°Ð·Ð²ÐµÐ´": 5071,
  "ĠÐ¼Ð¾Ð»Ð¸ÑĤÐ²Ñĭ": 21079,
  "ground": 24761,
  "ĠÐ½ÐµÐ¿ÑĢÐµÑĢÑĭÐ²": 8089,
  "ÐĳÐµÐ»ÑĮÐ³": 48874,
  "ĠÐ¾Ð±ÑĬÑıÐ²Ð»ÐµÐ½Ñĭ": 40901,
  "ÑĤÑĥÑĢÐ¾Ð²": 12899,
  "ou": 4392,
  "ĠÐŀÑĤÑģ": 14262,
  "ÐµÑĢÐ¾": 3529,
  "ĠÐ¾ÑĤÐ¼ÐµÑĩÐ°Ð»Ð°": 42525,
  "Ð¾Ð»ÑĮÐ½Ð¾Ð³Ð¾": 8727,
  "ĠÐ¼ÐµÑģÑĤÐµÑĩÐºÐµ": 36146,
  "ĠÑģÐµÐ·Ð¾Ð½Ðµ": 7014,
  "ÑĬÑı": 38997,
  "ĠÑĢÐµÐ³ÐµÐ½ÑĤÐ°": 49289,
  "ĠÐ¾ÑĤÐ½Ð¾ÑĪ": 1609,
  "ĠÑĥÑģÐ¿ÐµÐ»Ð¸": 29886,
  "ĠÐ¾ÑĦÐ¾ÑĢÐ¼Ð»ÐµÐ½Ð¸Ðµ": 22977,
  "ĠÐ·Ð°ÑīÐ¸ÑĤÐ½Ð¸ÐºÐ¾Ð¼": 47454,
  "ĠÐ¿ÑģÐµÐ²Ð´Ð¾Ð½Ð¸Ð¼Ð¾Ð¼": 15942,
  "ĠÐļÐ°ÑĢÐ¾Ð»": 14427,
  "ĠIns": 32962,
  "ĠÐ¿Ð¾Ð´Ð°Ð²": 5033,
  "ĠÐ¼Ð¸ÑģÑģÐ¸Ñİ": 36848,
  "ÐĴÐµÑĩ": 21239,
  "ĠÐ±Ð°Ð½ÐºÐ°": 11457,
  "ĠÑĤÐ¾ÑĢÐ¼Ð¾Ð¶": 25756,
  "ĠÐ°Ð²ÑĤÐ¾Ð¼Ð¾Ð±Ð¸Ð»ÑıÑħ": 44990,
  "ĠÐ¾ÑģÑĤÐ¾ÑĢÐ¾Ð¶": 17648,
  "199": 1583,
  "ÑħÐ¾Ð»": 11203,
  "ÐĴÐ·": 19312,
  "ÑĥÐ¿": 605,
  "ĠÑĩÐ°ÑģÑĤÐ½Ð¾ÑģÑĤÐ¸": 2640,
  "ĠÐ°ÐºÑĤÑĥ": 13503,
  "Ð¸Ð²ÑĪÐ¸Ñħ": 6193,
  "ĠÑĩÐµÑĩ": 13652,
  "ĠÐ²Ð¾Ð·ÑĢÐ¾Ð¶Ð´ÐµÐ½Ð¸Ðµ": 29251,
  "ĠÐĿÑĭÐ½Ðµ": 28188,
  "Con": 36420,
  "ĠÐ¶ÑĥÑĢÐ½Ð°Ð»Ð¸ÑģÑĤÐ¸ÐºÐ¸": 33102,
  "ĠÐĲÐ¼Ð±": 38862,
  "ĠSun": 18607,
  "ĠÑģÐ¼ÐµÑģÑĮ": 17145,
  "Ð½Ð°ÑģÑĤÐ¾ÑıÑīÐµÐµ": 34587,
  "ÐŁÑĢÐ¾Ñĩ": 18596,
  "ĠÐ·Ð°Ð²ÐµÑĢÑĪÐµÐ½Ð°": 25391,
  "ĠÐ¸ÑģÐ¿Ð¾Ð»ÑĮÐ·Ð¾Ð²Ð°Ð»Ð°": 25281,
  "ĠÐĽÐµÐ±ÐµÐ´ÐµÐ²": 25909,
  "ĠÑĢÐ°Ð·ÑĢÐ°Ð±Ð¾ÑĤÐ°Ð½Ð°": 19164,
  "ÑĭÐ¼Ð¸": 1369,
  "ÐµÐ¹Ð½Ð¾Ðµ": 49672,
  "ÐµÐ²ÑĪÐµÐ³Ð¾": 31338,
  "ĠÑģÐµÑĩÐµÐ½Ð¸Ñı": 29105,
  "ĠÐ²ÐºÐ»ÑİÑĩÐ°ÑĤÑĮ": 24662,
  "ĠÑĢÐµÑģÐ¿ÑĥÐ±Ð»Ð¸ÐºÐ°": 13950,
  "Ð°ÑĢÐ¾Ð²ÑģÐºÐ¾Ð³Ð¾": 47287,
  "ĠÐ¿Ð¾ÑģÐµÐ»ÐºÐ°": 42581,
  "ĠÐ¾ÑĤÑĤÐµÐ½ÐºÐ¾Ð¼": 47771,
  "ÐĵÐµÐ¾Ð³ÑĢÐ°ÑĦÐ¸ÑĩÐµÑģÐºÐ¾Ðµ": 27243,
  "ĠÐ½Ð°Ð¿ÑĢÐ°Ð²": 1673,
  "ÐºÐ¾Ð»Ñĭ": 18400,
  "ÐµÑģÑĤÐ²ÐµÐ½Ð½Ð¾ÑģÑĤÐ¸": 46411,
  "Ð¾Ð±Ð¾ÑĢÐ¾ÑĤ": 9895,
  "ĠÐ¸Ð½ÑģÑĤÐ¸ÑĤÑĥÑĤÐ¾Ð²": 20083,
  "Ð»ÑĥÐ´": 40924,
  "ell": 4216,
  "Ð²ÐµÑĩ": 25979,
  "ĠApple": 17395,
  "ĠÑĢÐµÐ»Ð¸Ð³Ð¸Ð¾Ð·Ð½ÑĥÑİ": 40778,
  "ĠÐŁÐ¾Ð²Ð¾Ð»Ð¶ÑĮÐµ": 41245,
  "Ð¾ÑĦÐ¾Ð±": 26061,
  "ÐĵÐ¸Ð´": 14290,
  "ĠÑģÑĤÑĢÐµÐ¼Ð»ÐµÐ½Ð¸Ð¸": 40666,
  "ÑĥÐ»ÑĮÑĦ": 9369,
  "ĠÐ¦Ð°ÑĢÐ¸": 22782,
  "ĠÐ³ÑĢ": 29318,
  "ĠÑĢÐ°Ð·ÑĥÐ¼": 11561,
  "ory": 6315,
  "ĠÐ¿ÑĢÐ¸ÑģÐ¾ÐµÐ´Ð¸Ð½ÐµÐ½Ð¸Ðµ": 32930,
  "ÐĳÐµÑĢÐ½": 40421,
  "ĠÑįÐ»ÐµÐºÑĤÑĢÐ¸ÑĩÐµÑģÐºÐ¾Ðµ": 46585,
  "ÑĥÑĤÑģÑı": 10374,
  "ĠÐ½Ð°Ð²Ñĭ": 14751,
  "ÐµÐ½Ñı": 39342,
  "ĠEconom": 18599,
  "ÐŁÐµÑĢÐ²Ð¾Ðµ": 14567,
  "ĠÐ²ÐºÐ»ÑİÑĩÐ°ÐµÑĤ": 5314,
  "ĠÐ½Ð°Ð¹Ð´ÐµÐ½Ð¾": 24101,
  "Ð°Ð¼ÐµÑĢÐ¸ÐºÐ°Ð½ÑģÐºÐ¸Ðµ": 45505,
  "ĠCard": 42451,
  "ĠÐĽÐ¸ÑĤÐ¾Ð²ÑģÐºÐ¾Ð¹": 25836,
  "ĠÐĸÐµÐ»": 22422,
  "ĠÐŀÑĢÐµÐ³": 46770,
  "ÐłÑĥÐ±": 23251,
  "ĠÑģÑĩÐ¸ÑĤ": 1355,
  "ĠÑĢÐµÐ¹ÑħÑģÑĤ": 37794,
  "ÑģÑĤÐ°Ð»ÑĮ": 38596,
  "ÐµÐ¹ÑģÐºÐ¾Ð¼": 18665,
  "ĠÐ¼ÐµÑĤÐ°Ð»Ð»Ð°": 15068,
  "Ð¸ÑĤÐµÐ»ÑĮÐ½Ð¾Ð¹": 3397,
  "ĠÐ¤ÑĢÐ°Ð½ÑĨÐ¸Ð¸": 2460,
  "Les": 33395,
  "ĠStudies": 32895,
  "ĠÑĢÐ°Ð·Ð½Ð¾Ð²Ð¸Ð´Ð½Ð¾ÑģÑĤÐµÐ¹": 28724,
  "ĠÑģÑĤÑĢÐ¾ÐµÐ½Ð¸Ðµ": 17525,
  "ÑģÐµÐ»Ð¾": 40743,
  "ĠÐ²ÐµÑĢÑħÐ¾Ð²Ð½ÑĭÐ¼": 42603,
  "ĠÐ²Ð¾Ð·Ð¼Ð¾Ð¶Ð½Ð¾Ð³Ð¾": 27837,
  "ĠÐ¢Ñĳ": 45815,
  "ĠÐŁÑĥÑįÑĢÑĤÐ¾": 43875,
  "ĠÐ´Ð²ÐµÑĢÐ¸": 19925,
  "ĠÐ³Ð´Ðµ": 1130,
  "ĠÐ¡Ð°Ð»ÑĮ": 12470,
  "ÐłÐ°Ð·Ð»Ð¸ÑĩÐ°ÑİÑĤ": 43613,
  "Ð»Ð¾ÑīÐ°Ð´ÑĮ": 7154,
  "ĠÐ¾ÑĤÐ½Ð¾ÑģÐ¸Ð»Ð¾ÑģÑĮ": 48643,
  "ÑİÐ½Ñħ": 10329,
  "ĠÐ²ÐµÑĢÐ¸Ð»Ð¸": 48820,
  "ĠÐ®Ð»Ð¸": 16486,
  "ĠÑĢÐ°Ð²Ð½Ð¾Ð´ÑĥÑĪ": 44586,
  "ĠÐ¢Ð¾ÐºÐ°": 37731,
  "Ð°ÑĤÐµÐ»ÑĮÐ½ÑĭÐ¼Ð¸": 15988,
  "ĠÐ²Ð¾Ð²ÑģÐµ": 13273,
  "ÐµÐ´Ð¸ÐµÐ¹": 47196,
  "ĠÑģÐºÐ°Ð·Ð°Ð»": 6539,
  "ĠÐ¿ÐµÑĢÐ²Ð¾Ð³Ð¾": 3324,
  "ĠÑĢÐ°Ð·Ð´Ð°": 38075,
  "ĠÑģÑĬÑĳÐ¼Ð¾ÑĩÐ½Ð¾Ð¹": 30117,
  "ĠÑģÑĥÑīÐµÑģÑĤÐ²Ð¾Ð²Ð°Ð½Ð¸Ð¸": 18054,
  "ĠÑĥÐ²ÐµÐ»Ð¸ÑĩÐ¸Ð»Ð¾ÑģÑĮ": 24515,
  "ĠÐ¿ÐµÑĢÐµÐ¼ÐµÑĪ": 40553,
  "ĠÐ¸Ð½Ð´Ð¸Ð²Ð¸Ð´Ñĥ": 6614,
  "ĠÐ¿ÐµÑĢÐµÐ¿Ð¸Ñģ": 15829,
  "ÑĢÐ°Ð½ÑĤÐ¾Ð²": 27784,
  "ĠÐ°Ð²ÑĤÐ¾Ð¼Ð¾Ð±Ð¸Ð»ÑĮÐ½Ð¾Ð³Ð¾": 37302,
  "ĠÐ¿ÑĢÐ°ÐºÑĤÐ¸ÑĩÐµÑģÐºÐ¾Ð¹": 27468,
  "ĠÐ¿Ð¾Ð¼ÐµÑīÐµÐ½Ð¸ÑıÑħ": 32279,
  "Ð¿Ð¾Ð¿": 12701,
  "ĠÐ¯ÐºÐ¾Ð±Ð¸": 47749,
  "Ð»ÑĮÐ½Ð¾Ð¹": 10546,
  "ĠÐ²Ð»Ð°Ð´ÐµÐµÑĤ": 23940,
  "Ð¼Ð°Ð½Ð°": 5082,
  "ĠÐĹÐ¾Ð»Ð¾ÑĤÐ¾Ð¹": 13173,
  "Ð°ÑĤÐ¸Ð²": 2106,
  "ĠÑĪÐ¾ÑĤÐ»Ð°Ð½Ð´ÑģÐºÐ¸Ð¹": 23693,
  "ĠÑĢÐ°ÑģÑĤÐ²Ð¾ÑĢÐ°": 19723,
  "Ð¸Ð²Ð½ÑĭÐµ": 10946,
  "ÐµÑĤÐºÐ¸": 32456,
  "ĠÐ¾ÑĤÑĢÑıÐ´Ð°Ð¼Ð¸": 31996,
  "ĠÐ±Ð¾Ð»ÐµÐ·Ð½ÑĮ": 16063,
  "Ġder": 7415,
  "Ġsub": 33373,
  "ĠÑĤÐ¾ÑĩÐ½Ð¾": 9550,
  "ĠÐ»ÐµÐ¾Ð¿": 43745,
  "Â³": 8138,
  "ĠÑģÐ¼ÐµÐ»": 20644,
  "ĠÐ²Ð¾ÑģÑģÑĤÐ°Ð½Ð¸Ðµ": 7998,
  "ĠÐ¸Ð·Ð³Ð½Ð°Ð½Ð¸Ð¸": 27182,
  "ĠÐ¿ÑĥÐ»ÐµÐ¼ÑĳÑĤÐ°": 39734,
  "ĠÐ½Ð°ÑħÐ¾Ð´ÑıÑīÐ¸ÑħÑģÑı": 17730,
  "ĠÐŀÑĢÐ»Ð¾Ð²": 11022,
  "ĠÐĲÑģÐº": 18565,
  "Ð¾ÑĪ": 1009,
  "ĠÐĲÑĢÐ°Ðº": 32197,
  "ĠÐ²Ð¾Ð´Ð°Ñħ": 25493,
  "ÐŀÐ±ÑĬÐµÐºÑĤÑĭ": 23470,
  "ĠÐĳÑĢÑİÑģÑģ": 21208,
  "Ð½Ð¸ÐºÐµ": 4209,
  "Ð¡Ð°": 11881,
  "ĠÐĲÐ±Ð´ÑĥÐ»": 15649,
  "ĠMind": 44278,
  "Ð¸ÑĤÑĭ": 2177,
  "ĠÑĥÐ½Ð¸ÑĩÑĤÐ¾Ð¶ÐµÐ½Ð¸Ðµ": 21618,
  "Ð½Ð°Ð³ÑĢÐ°": 19752,
  "ÐŁÑĢÐµÑģÑģ": 33464,
  "ÐµÐ½ÑĨ": 32455,
  "Ð¸Ð¼Ð°": 2282,
  "Ð¼ÐµÐ¹ÑģÑĤÐµÑĢ": 16833,
  "ĠÐ²ÑĭÐ·ÑĭÐ²Ð°": 16805,
  "ĠÐ½Ð°Ð·ÐµÐ¼": 11830,
  "ĠÑ": 34163,
  "ĠÐºÐ¾ÑĤÐ¾ÑĢÐ°Ñı": 1669,
  "ĠÐ¿ÑĢÐ¸Ð½ÑĨÐ¸Ð¿Ð¸": 12761,
  "Ð¸ÐºÐ¾Ð¼": 4303,
  "ĠÑģÐµÐ¼": 1217,
  "ĠÑĩÐµÑĤÐ²ÐµÑĢÐ³": 39925,
  "ĠÐ°Ð½Ð½ÐµÐºÑģ": 19620,
  "ĠÐ°Ð»Ð¼Ð°Ð·": 21901,
  "ĠÑĩÐ»ÐµÐ½Ð°": 13380,
  "ĠÑĢÐµÑĪÐ°ÐµÑĤ": 12039,
  "ĠÑĢÐ°ÑģÑģÑĤÐ¾ÑıÐ½Ð¸Ð¸": 10165,
  "ĠRotten": 37283,
  "Ð°ÑĢÐ½ÑĭÐµ": 9591,
  "ĠÐ¸Ð½Ð¾ÑģÑĤÑĢÐ°Ð½Ð½Ð¾Ð³Ð¾": 34464,
  "ĠÐ²ÑĭÑħÐ¾Ð´Ñĥ": 36517,
  "Ġbl": 44300,
  "ĠÑįÐºÑģÐ¿Ð¾ÑĢÑĤÐ°": 21918,
  "ĠÐ°ÑģÐ¿Ð¸ÑĢÐ°Ð½": 18621,
  "ĠÐ¸Ð·Ð²ÐµÑģÑĤÐ½Ð°": 10926,
  "ÑĤÑĭÐ½": 49357,
  "ĠÐ¿ÑĢÐ¾Ð³Ð½Ð¾Ð·": 15719,
  "ĠÐºÑĢÐ¸ÑĤ": 2220,
  "Ð½Ð¾ÑıÐ±ÑĢÑĮ": 39539,
  "Ġaus": 42249,
  "ĠÑĩÐµÑĢÐºÐµÑģ": 42907,
  "ĠÐ¼ÐµÑĤÐ¾Ð´": 2453,
  "ĠÐ±Ð¾ÐµÐ²Ð¾Ð¹": 11899,
  "ĠÐ¿ÑĢÐ¾ÑħÐ¾Ð´Ð¸ÑĤ": 5821,
  "PM": 26047,
  "ĠÐ¾ÐºÑĢÐµÑģÑĤÐ½Ð¾ÑģÑĤÐ¸": 21447,
  "ĠÐ¿ÑĢÐ¸ÑģÐ¾ÐµÐ´Ð¸Ð½ÐµÐ½Ð¸Ñı": 18356,
  "ĠÑģÐ¸ÑģÑĤÐµÐ¼Ð¾Ð¹": 9163,
  "ÐĴÐ¾ÑĢÐ¾Ð½ÐµÐ¶": 47257,
  "ĠÐ»Ð¸Ð½Ð¸ÐµÐ¹": 24347,
  "ĠÑĥÐ½Ð¸Ð²ÐµÑĢÑģÐ¸ÑĤÐµÑĤÐ¾Ð¼": 33694,
  "ĠÐ²ÑĭÐ»ÐµÑĤÐµÐ»": 48676,
  "ĠÐ¶ÐµÐ»ÑĳÐ·": 48319,
  "ĠÐ¾ÑģÐ°Ð´Ð¸Ð»Ð¸": 44755,
  "ĠÐ¿ÑĢÐ°Ð²Ð¸ÑĤÐµÐ»ÑĮÑģÑĤÐ²ÐµÐ½Ð½ÑĭÐµ": 39964,
  "ĠÑĪÐ¾Ðº": 27660,
  "ĠÐ¿Ð¾Ð¶Ð°ÑĢÐ½Ð¾Ð¹": 50048,
  "ĠÐ£ÐķÐ¤ÐĲ": 13884,
  "ĠÐºÑĥÐ»ÑĮÑĤÑĥÑĢÐ¾Ð¹": 25442,
  "Ð±Ð°Ð±": 26855,
  "Ð¿ÑĢÐµÐ»ÑĮ": 30588,
  "Ð½Ð°ÑĢÐ¾Ð´": 13544,
  "ĠÐ¡ÐµÑĢÐ³Ð¸ÐµÐ²": 31174,
  "ĠÐºÐ»Ð¸ÑĩÐºÐµ": 50176,
  "ĠÑĦÐ¸Ð»Ð¾ÑģÐ¾ÑĦÐ¸ÐµÐ¹": 40430,
  "ĠÐ¸Ð½Ð´Ð¸Ð¹ÑģÐºÐ¸Ð¹": 34270,
  "ÑıÐ»Ð¾": 18753,
  "ÑĥÐµÐ¼ÑĭÐ¼": 46577,
  "Ð»ÑĮÐµÑĦ": 28214,
  "ĠÐľÐ¸ÑĢÐ½ÑĭÐ¹": 45635,
  "ĠÐ²Ð°ÑĢÑĮÐ¸ÑĢÑĥÐµÑĤÑģÑı": 37407,
  "ÑĭÐ²Ð°Ð½Ð¸Ñı": 11180,
  "ĠÐļÐ¾Ð¹": 31971,
  "ĠÐ¿ÐµÑĢÐµÐ´Ð¾Ð·": 41743,
  "ĠÐºÐµÐ»ÑĮ": 29618,
  "ĠÐłÐ¾ÑģÑģÐ¸Ð¹ÑģÐºÐ¸Ð¹": 21952,
  "ÐµÑĢÐ½Ð¾Ð¼": 40461,
  "ĠÐ½Ð°Ð·Ð½Ð°ÑĩÐµÐ½Ð¸Ð¸": 28647,
  "ĠÐ¿Ð¾Ð»Ð½Ð¾Ð¼Ð¾ÑĩÐ¸Ð¹": 14188,
  "ĠÑĦÐµÐ´ÐµÑĢÐ°Ð»ÑĮÐ½Ð°Ñı": 47018,
  "ĠÐ¿ÑĢÐµÐ´Ð½Ð°Ð·Ð½Ð°ÑĩÐµÐ½Ð½ÑĭÐ¹": 25732,
  "ĠÐ´ÐµÐ»ÑĮ": 12581,
  "ĠÐ¶Ð¸Ð»Ð°": 16876,
  "ĠÐ¤ÐĳÐł": 28947,
  "ÐµÑĨÐº": 26076,
  "Ġ1723": 49425,
  "ÐºÑĢÐ¸ÑĤ": 37939,
  "ĠÑĥÐ´Ð°Ð»ÐµÐ½Ð¸Ñı": 24797,
  "Ð¾Ð²ÐµÑĨ": 28380,
  "Ð¡ÐļÐĲ": 14738,
  "ĠÐ¾Ð±ÑĢÐ°ÑĤÐ½Ð¾Ð¼": 26518,
  "Ð¼ÐµÑĤÐ°Ð»Ð»": 44499,
  "ĠÐĶÐ¾Ð½": 3583,
  "110": 18822,
  "ĠÐļÐ¾ÑĢÐµÐ¸": 14629,
  "ÑģÐ¾ÑĨÐ¸": 37130,
  "ĠÐ¥Ð¾Ð»Ð¾Ðº": 26175,
  "ĠÑĦÐ¾Ð½Ð´Ð¾Ð²": 33803,
  "ĠÐ´Ð¸ÐºÑĤÐ°ÑĤÐ¾ÑĢ": 39778,
  "ĠÐĳÑĢÐ¸Ð´Ð¶": 40876,
  "ĠÑģÐ¾Ð±Ð¸ÑĢÐ°ÑİÑĤ": 43016,
  "ĠÐ¿ÑĢÐ¸Ð¾Ð±ÑĢÐµÐ»Ð¾": 41704,
  "ĠÐ¾ÑĤÐ²ÐµÑĢÑģÑĤ": 11005,
  "Ð¾Ð·Ð²Ð¾Ð½": 24631,
  "ĠÐĶÑĢÐ°ÐºÐ¾Ð½": 45866,
  "ÐŀÑģÐ½Ð¾Ð²Ð½Ð¾Ð¹": 21034,
  "ÑĨÐ¸Ð¾Ð½Ð½ÑĭÐ¼": 9105,
  "ĠÐĳÐ¾ÑĤ": 19075,
  "1900": 16452,
  "ÐĿÐ°Ð·Ð²": 33713,
  "ĠÑģÐµÐ¼ÑĮÐµ": 4681,
  "ĠÐ¿ÑĢÐ¸Ð¼ÐµÐ½Ð¸ÑĤÑĮ": 35493,
  "ĠÐ¿ÑĢÐµÐ²ÑĢÐ°ÑīÐ°ÑİÑĤÑģÑı": 40787,
  "ĠÐŁÑĢÐ¸Ð¼ÐµÑĩÐ°ÑĤÐµÐ»ÑĮÐ½Ð¾": 43811,
  "ĠÐºÐ¾Ð¼Ð°Ð½Ð´Ð¸ÑĢÑĭ": 46644,
  "ÑİÑīÐµÐµ": 4890,
  "ĠÐ¿ÑĢÐ°Ð²Ð¾ÑģÐ»Ð°Ð²": 3318,
  "ĠÐ£ÐŁÐ¦": 41558,
  "ĠÑħÑĢÐµÐ±ÐµÑĤ": 26918,
  "ĠÐľÐµÐ¼": 20079,
  "ot": 2293,
  "ĠÑģÐ¿Ð¾ÑģÐ¾Ð±Ð¾Ð¼": 11115,
  "ÑįÑĢ": 4856,
  "ÐµÐ½ÑĪ": 35405,
  "ÐĵÐ¾ÑģÐ¿Ð¾Ð´": 35137,
  "ĠÐ¿ÑĢÐ¾ÑıÐ²Ð»ÑıÐ»": 41970,
  "ĠÑĦÐ¸Ð·Ð¸ÑĩÐµÑģÐºÐ¾Ð¹": 11044,
  "ĠÐ¶Ð¸Ð·Ð½Ð¸": 1621,
  "ĠÐ´Ð¸ÑģÑĨÐ¸Ð¿Ð»Ð¸Ð½": 13301,
  "ĠÐ¿Ð¾ÑĪÑĳÐ»": 17588,
  "ĠÐ¾ÑģÐ½Ð¾Ð²Ð°ÑĤÐµÐ»Ñı": 22346,
  "ĠÐĶÐ¼Ð¸ÑĤÑĢÐ¾Ð²": 40902,
  "ĠÑģÐ¼ÐµÑĢÑĤÐ½Ð¾ÑģÑĤÐ¸": 23326,
  "ĠÐĴÐµÐ»Ð¸ÑĩÐµÑģÑĤÐ²Ð°": 29299,
  "ĠÐ¿ÑĢÐ¾ÑĨÐµÐ½ÑĤ": 15754,
  "Ð¸Ð½Ð¾Ð¹": 3009,
  "ĠÐ²ÑĭÐ·ÑĭÐ²": 8513,
  "ĠÐ»Ð¸ÑĪÐµÐ½Ð¸Ñı": 23089,
  "Ð¾Ð±ÑĢÐ°Ð·Ð¾Ð²": 8902,
  "ĠÐ¼Ð¸Ð»Ð¸ÑĨÐ¸Ð¸": 15615,
  "ĠÐĿÐµÐ¼ÐµÑĨÐºÐ¸Ð¹": 34151,
  "ÐºÐ¸Ð½Ñĥ": 23672,
  "ĠÐ¿ÑĢÐµÐºÑĢÐ°ÑīÐµÐ½Ð¸Ð¸": 21090,
  "Ð¥Ð°ÑĢÑĮ": 36477,
  "ĠÐ¸Ð·Ð³Ð½Ð°Ð½Ð¸Ðµ": 34542,
  "ĠÑģÐ¾Ð¿ÑĢÐµÐ´": 33022,
  "ĠÐ´ÑĭÑĢ": 48849,
  "An": 13264,
  "ĠÐľÐ¾Ð½Ð°ÑģÑĤÑĭÑĢÑĮ": 49750,
  "Ð¼Ð¾Ð¶": 1157,
  "Ð¶ÑĳÑĢ": 35630,
  "ÑıÐ·Ð¸": 17889,
  "Ð²Ð°ÑĢÐµ": 4516,
  "ĠÐ¿ÑĢÐµÐ´Ð»Ð¾Ð¶ÐµÐ½Ð¸Ð¹": 28109,
  "ĠÐ¾ÐºÑĢÑĥÐ³Ð¾Ð²": 13242,
  "ÐºÐ¾Ð»ÑĮ": 4612,
  "ĠÑĥÐºÐ¾ÑĢÐ¾Ñĩ": 33843,
  "ÐľÐĺ": 6623,
  "ĠÐĴÐµÐ³": 48544,
  "ĠÐ²ÑĥÐ·Ð°": 37611,
  "ĠÐĽÐµÑģÐ»Ð¸": 33546,
  "1858": 28162,
  "ĠÐ¿ÐµÑĢÐµÑĩÐ¸ÑģÐ»ÐµÐ½Ð½ÑĭÑħ": 6340,
  "ĠÐ¿ÑĢÐ¾Ð³ÑĢÐ°Ð¼Ð¼Ð¸ÑĢÐ¾Ð²": 8072,
  "ĠÐ´ÐµÐ²Ð¸ÑĩÐµÑģÑĤÐ²Ðµ": 46105,
  "ĠÐĳÑĢÐ¸ÑĤÐ°Ð½ÑģÐºÐ°Ñı": 40195,
  "ĠÐ¿Ð¾Ð²ÐµÑģ": 39805,
  "ĠÑģÐºÐ°Ð·ÑĭÐ²Ð°ÐµÑĤÑģÑı": 47640,
  "700": 29146,
  "ĠÑģÐµÐºÑĥÐ½Ð´Ñĥ": 25344,
  "ĠÑĥÐ²ÐµÑĢÐµÐ½": 27887,
  "ĠÐ¼Ð¾Ð·Ð¶": 42297,
  "ĠÐĵÐ°Ð»Ð¸Ð»Ðµ": 43393,
  "ab": 3847,
  "Ð¼ÐµÑģÑĤÐµ": 5967,
  "ĠÐ¿ÑĢÐ¾Ð´Ð¾Ð»Ð¶Ð°Ð»Ð¾ÑģÑĮ": 21798,
  "ĠÐ¼Ð¸Ð½Ð¸": 13700,
  "ĠÑģÐºÐ¾Ð»ÑĮ": 31116,
  "ĠÐ¸ÑģÑħÐ¾Ð´Ð½ÑĭÐ¼": 40783,
  "ĠÑģÐ¿ÐµÑĨÐ¸Ð°Ð»Ð¸Ð·Ð¸ÑĢÐ¾Ð²Ð°Ð½Ð½ÑĭÐµ": 34104,
  "ĠÑģÐ°Ð½ÐºÑĨÐ¸Ð¾Ð½": 47310,
  "ĠÐ³ÐµÑĢÐ¼Ð°Ð½ÑģÐºÐ¸Ðµ": 32163,
  "ĠÑģÑĤÐµÐ¿": 2006,
  "ĠÐ·Ð°ÐºÐ¾Ð½Ð°Ñħ": 49790,
  "ĠÐºÐ²Ð°ÑĢÑĤÐ¸ÑĢÐ°": 31526,
  "Ð°Ð»Ð°ÑģÑĮ": 1212,
  "ĠÐ»ÐµÐ³Ð¸Ð¾Ð½": 24500,
  "ÑĥÑįÑĢÐ°": 30145,
  "ĠÐ²ÑĭÑģÐ¾ÐºÐ¸Ð¹": 11969,
  "ĠÐ¡Ð²ÑıÑīÐµÐ½Ð½Ð¾Ð¹": 15974,
  "Ð¡Ð°Ð¼Ð¾Ð»ÑĳÑĤ": 36049,
  "ĠÑģÐ¾ÑģÑĢÐµÐ´Ð¾ÑĤÐ¾Ñĩ": 8449,
  "ĠÐĳÐµÐ½ÐµÐ´Ð¸ÐºÑĤ": 31614,
  "ÑĳÑģÑĤÑĢÑĭ": 29929,
  "ĠÐĳÑĢÐ°ÑĤÑĮÑı": 34582,
  "ĠÐłÐŁÐ¦ÐĹ": 41828,
  "ĠÐ³Ð»Ð°Ð´": 12527,
  "ĠÐ¸Ð½Ð¾": 38886,
  "ĠÐ²Ð¾Ð´Ñĭ": 3495,
  "ÐĶÑĢÐµÐ²Ð½ÐµÐ³ÑĢÐµ": 46158,
  "ÑĳÐº": 7918,
  "ĠÐ¸Ð½Ð´Ð¸": 36819,
  "ĠÐºÐ°ÑĩÐµÑģÑĤÐ²": 19566,
  "ĠÐ¸ÑģÐºÑĥÑģÑģÑĤÐ²ÐµÐ½Ð½Ð¾": 31869,
  "Ð¤ÑĥÐ½Ðº": 20940,
  "ĠÑĥÑģÐ¿ÐµÑĪÐ½Ð¾": 7869,
  "ĠÐĽÐ°ÑĦ": 31440,
  "ĠÑĥÐ²ÐµÐ»Ð¸ÑĩÐµÐ½Ð¸Ð¸": 28338,
  "ĠÐºÐ¾ÑĢ": 764,
  "ĠÐ¾ÐºÐ¾Ð½ÑĩÐ°ÑĤÐµÐ»ÑĮÐ½Ð¾Ð³Ð¾": 32406,
  "Ð°ÑīÐ¸Ðµ": 10610,
  "ĠÐ¾Ð»ÐµÐ½": 13949,
  "ĠÐľÐĲÐĹ": 39298,
  "ĠÐ¿ÑĢÐ¾ÑıÐ²Ð»ÑıÑİÑĤÑģÑı": 42944,
  "nik": 36764,
  "ĠÑįÐ½ÑĤÑĥÐ·Ð¸": 22385,
  "ĠÑĤÑĢÐ°Ð½ÑģÐ¿Ð¾ÑĢÑĤÐ½ÑĭÑħ": 18053,
  "ĠÐ´ÐµÐ²ÑĥÑĪÐºÑĥ": 24082,
  "ĠÐ¢Ð¾Ð²": 21344,
  "ĠÐŁÐµÑĤÐµÑĢÐ±ÑĥÑĢÐ³ÑģÐºÐ¾Ð³Ð¾": 27498,
  "ĠÑĩÐµÑĢÐ²ÐµÐ¹": 44392,
  "ĠÐ·Ð°ÐºÐ¾Ð½Ñĥ": 16797,
  "ĠÐĲÐºÑģ": 13283,
  "Ð·ÑĭÐ²Ð°ÑİÑĤÑģÑı": 11314,
  "ÐĽÐµÐ½Ð¸Ð½": 29827,
  "ĠÐ¿ÑĢÐ¾Ð¸ÑģÑħ": 3120,
  "ĠÑģÑĤÐ°": 5573,
  "Ð¸Ð½Ð³Ð¾Ð²": 10245,
  "ĠÐ¿ÑĢÐ¾Ð´": 887,
  "ĠÐ¾ÑĤÐºÐ°": 25555,
  "ÑĢÐµÐ½ÐºÐ¾": 42187,
  "ĠÐ¡Ð¾Ð²ÐµÑĤÑģÐºÐ¾Ð³Ð¾": 4876,
  "ÑģÐ°Ð¶": 21693,
  "Ð¾ÑĢÐ°Ñı": 1632,
  "ĠÐ¸ÑģÐºÐ¾Ð¿Ð°ÐµÐ¼ÑĭÑħ": 19490,
  "ĠÑĤÑĢÐ¸Ð»Ð¾Ð³Ð¸Ð¸": 22888,
  "ĠÐĴÐ»Ð°Ñģ": 25929,
  "ĠÐ¾ÑĢÐ¸Ð³Ð¸Ð½Ð°Ð»ÑĮÐ½ÑĭÑħ": 29415,
  "ĠÐ¤ÐłÐĵ": 14509,
  "uter": 23671,
  "Ð°ÑĤÐµÐ»ÑıÐ¼": 11173,
  "ĠÐ·Ð°ÑĢÐµÐ³Ð¸ÑģÑĤÑĢÐ¸ÑĢÐ¾Ð²Ð°Ð½Ñĭ": 42035,
  "ĠÐ»ÑİÐ±Ð¸Ð¼ÑĭÑħ": 38412,
  "ĠÐ·Ð°Ð¼ÐºÐµ": 18869,
  "++": 16610,
  "Ð¸ÐºÐµ": 1338,
  "ĠÐºÐ°Ð·Ð°Ñħ": 10573,
  "ĠÐ»ÑİÐ±Ð²Ð¸": 7410,
  "Ð¡Ð¨ÐĲ": 8993,
  "ĠÐ¾ÑģÐ¾Ð±Ð°Ñı": 31802,
  "ĠÐ¡ÐµÑĢÐ°ÑĦÐ¸Ð¼Ð°": 39184,
  "ĠÐ¿Ð¾ÑģÐ»Ðµ": 902,
  "ĠÐ¿Ð¾Ð»Ð¸ÑĤÐ¸Ðº": 9148,
  "ago": 27620,
  "ĠÐĴÐ°Ð²Ð¸Ð»Ð¾Ð½": 41315,
  "ĠÐ¡ÑĤÐ°ÑĢÐ¾Ð¹": 39821,
  "ĠÑģÑĦÐµÑĢÑĥ": 26141,
  "ĠÐ¸ÑĤÐ°Ð»ÑĮÑıÐ½ÑģÐºÐ°Ñı": 29137,
  "ĠÐ¤Ð¾ÐºÑģ": 39798,
  "ĠÐ¼Ð¾Ð¶ÐµÐ¼": 27136,
  "ĠÐ¾Ð±ÑīÐµÑģÑĤÐ²Ð°Ñħ": 43247,
  "ĠÐ£Ð»ÑĮÑı": 11088,
  "lic": 24380,
  "ÑħÑĥÐ°": 42903,
  "ĠÐ½ÐµÐ¾Ð±ÑĭÑĩÐ°Ð¹": 27293,
  "pa": 42787,
  "1890": 19858,
  "Ð²Ð¾Ð»Ð°": 21899,
  "ĠÐĲÐ±Ð´": 9954,
  "Ð³ÑĢÐ°ÑĢ": 14844,
  "Ð¾Ð¹Ð´Ñı": 43820,
  "ĠÑģÐ¾Ð¾Ð±ÑīÐµÑģÑĤÐ²Ð¾Ð¼": 39264,
  "Ġ1620": 39859,
  "ĠÐ±Ð»ÑįÐº": 41298,
  "ĠÐ½Ð°Ð»Ð¸Ñĩ": 3982,
  "Ġ1708": 33957,
  "ĠÐľÐ¾Ð½Ð°ÐºÐ¾": 38001,
  "ĠÐ´ÐµÐ¹ÑģÑĤÐ²Ð¾Ð²Ð°Ð»Ð°": 26834,
  "ĠÐ¼ÐµÑĢÐ°Ñħ": 37557,
  "Ð°ÑĢÐ¸ÑĤÐµÐ»ÑĮ": 30735,
  "alk": 16830,
  "Äĵ": 36943,
  "ĠÐ¸Ð½Ð´Ð¸Ðº": 26420,
  "ĠÐŃÑĢÐ´": 40418,
  "ĠÐŀÑģÐ¼Ð°Ð½ÑģÐºÐ¾Ð¹": 12725,
  "ĠÐ¢ÑĥÐ¼Ð°Ð½": 47056,
  "ĠÐ¶ÐµÐ½ÑģÐºÐ¸Ðµ": 28302,
  "ĠÐ¿Ð»Ð°Ð½ÐµÑĤÑĥ": 34023,
  "ĠÐ´Ð¸ÑģÑĤÐ°Ð½ÑĨÐ¸Ð¸": 20063,
  "ĠÑĨÐ¸ÑĦÑĢÐ¾Ð²Ð¾Ð¹": 19412,
  "ĠÐĶÑįÐ½": 16338,
  "Ð»ÑĥÐ³Ð°": 27347,
  "ĠÑģÐµÐ»ÐµÐ½Ð¸Ð¹": 43911,
  "ĠÑĢÐµÐ»Ð¸Ð³Ð¸Ñı": 22261,
  "ĠÐ¾ÑĢÐ³Ð°Ð½Ð¸ÑĩÐµÑģÐºÐ¾Ð¹": 43705,
  "ÐµÐ½ÑĤÑĥ": 12763,
  "ĠÐºÑĢÐµÑī": 13353,
  "ĠÑĢÐ°Ð·Ð½ÑĭÐµ": 6955,
  "ĠÐ²Ð¾ÐµÐ²Ð¾Ð´Ñĭ": 35153,
  "ĠÐ°ÑĤÐ¼Ð¾ÑģÑĦÐµÑĢÑĭ": 15682,
  "ĠÐŁÐ¾Ñĩ": 6974,
  "ME": 23921,
  "Ð¾Ð»ÐµÐºÑĥÐ»ÑıÑĢ": 46682,
  "Ð»Ð¸ÑĤÐµÑĢÐ°ÑĤÑĥÑĢ": 34324,
  "ĠÐ²Ð½ÐµÑĪÐ½Ðµ": 15872,
  "ĠÐ¿ÑĢÐµÐ´ÑĭÐ´ÑĥÑīÐµÐ¼": 43280,
  "ĠÐľÐ¸Ð½Ð°": 39245,
  "ÐĽÐ¾Ð³": 26412,
  "ĠÐ²Ð¾ÑģÑģÑĤÐ°Ð½Ð¸Ñı": 7068,
  "ĠÑģÑĨÐµÐ½Ð°ÑĢÐ¸ÐµÐ¼": 49541,
  "ÐļÐ½ÑıÐ·ÑĮ": 30626,
  "ĠÐ¿Ð¾Ð·Ð½Ð°ÐºÐ¾Ð¼Ð¸Ð»ÑģÑı": 11912,
  "ĠÐ¯ÐºÐ¾Ð²Ð»ÐµÐ²Ð°": 44703,
  "ĠÐ¼ÐµÑĤÐ¾Ð´Ð°Ð¼Ð¸": 19558,
  "ĠÐ²ÑĢÐµÐ¼ÐµÐ½Ð½Ð¾Ð³Ð¾": 27924,
  "ĠÐºÐ¾Ð»Ð¾ÐºÐ¾Ð»": 40117,
  "ĠÐ¾Ð±ÑĬÐµÐ´Ð¸Ð½": 2331,
  "ĠÐŁÐ°ÐºÐ¸ÑģÑĤÐ°Ð½Ð°": 30292,
  "ĠÐ³ÐµÑĤÐµÑĢÐ¾ÑģÐµÐºÑģÑĥ": 40151,
  "ĠÐ¼Ð¾ÑĩÐµ": 39941,
  "ĠÑįÐ²Ð¾Ð»ÑİÑĨÐ¸Ð¾Ð½": 36573,
  "ĠÐĶÐ¸Ð¾Ð½Ð¸Ñģ": 22197,
  "ÑĥÑĢÐ³Ð¾Ð²": 20165,
  "PO": 45592,
  "boy": 47967,
  "ÐľÐ¾Ð»Ð¾Ð´": 12124,
  "ĠÐ¤ÑĢÐ¾Ð½ÑĤ": 47491,
  "ĠÐ°ÑĢÑĤÐ¸Ð»Ð»ÐµÑĢÐ¸ÐµÐ¹": 42597,
  "ĠÐ¿Ð¾ÐºÐ¸Ð½ÑĥÐ»": 9637,
  "ĠÐ²ÑĤ": 26048,
  "ĠÐ¿ÑĢÐ¸Ð±": 2611,
  "ĠÑģÑĤÐ°Ð½Ð´Ð°ÑĢÑĤ": 3878,
  "ĠÑĢÐµÐ³ÑĥÐ»Ð¸ÑĢÑĥ": 22132,
  "ĠÐ»ÑĮÐ´Ñĥ": 29640,
  "ĠÐ·Ð°ÑħÐ²Ð°ÑĩÐµÐ½Ñĭ": 41761,
  "ĠÐŀÑģÐ½Ð¾Ð²Ð½Ð¾Ðµ": 31902,
  "Ġ46": 10599,
  "ĠÑĤÐ¸ÑĢÐ°Ð½Ð½Ð¾Ð·": 41766,
  "ĠÐºÐ°ÑĢÑģÑĤ": 46568,
  "ĠÐ¿Ð¾Ð½Ð¸Ð¼Ð°Ð»": 28058,
  "ĠÐ¾ÑĨÐµÐ½ÐºÐ°Ð¼": 14407,
  "ĠÑĩÐµÐ»Ð¾Ð²ÐµÑĩ": 3723,
  "ĠÐ»Ð¸Ð½Ð·": 20720,
  "ĠÐ¼ÑĥÑħ": 28821,
  "ĠÐĶÐ°Ð´": 34520,
  "ÐµÑģÐ¸": 9614,
  "ĠÑĢÐ°ÑģÑģÐ²ÐµÑĤ": 34230,
  "ouv": 37009,
  "Ð»Ð°ÑģÑĤ": 694,
  "ĠÐĽÐµÐ¹": 6696,
  "ĠÑģÐ¾Ð³Ð»Ð°ÑģÐ½ÑĭÐ¹": 48330,
  "ĠÐĲÐ»ÑĮÐ±ÑĢÐµÑħÑĤ": 34386,
  "ĠÑģÑĤÐ¾Ð»ÑĮ": 7630,
  "ĠÑĢÐ°ÑĥÐ½Ð´Ð°": 30965,
  "ĠÑħÐ²Ð¾ÑģÑĤ": 9522,
  "ĠÐĽÐ¸ÑĤÐ¾Ð²": 9238,
  "ĠÐĴÐľ": 10971,
  "ÐµÐ¹ÑģÐºÐ¾Ð¹": 7687,
  "ĠÑĤÐµÐ¾ÑĢÐµÑĤÐ¸Ðº": 26355,
  "Ð°Ð´Ð¾Ðº": 11997,
  "ÑħÐµÑĢ": 21541,
  "ĠÐ¿Ð°ÑĢÑĦÑİÐ¼ÐµÑĢ": 47259,
  "ĠÑĢÐ°Ð·Ð´ÐµÐ»ÐµÐ½Ð°": 19165,
  "Ġdem": 34797,
  "Ð»Ð°Ð²ÑģÐºÐ¸Ð¹": 44345,
  "Ð°ÑĤÐ¸Ð²Ð½Ð¾Ð³Ð¾": 30451,
  "ĠÑģÑĭÐ³ÑĢÐ°Ð»Ð°": 13938,
  "Ð°ÑĢÐ½Ð¾Ð¹": 9553,
  "Ð»ÑıÑī": 37899,
  "ĠÐļÐ¸Ð½Ð³Ð°": 36974,
  "ĠÑĢÐ¾Ð¼Ð°Ð½Ð¾Ð¼": 37390,
  "Ð»Ð¸Ð·Ð°ÑĨÐ¸Ð¸": 22334,
  "ĠÐ»ÐµÐ³ÐµÐ½Ð´Ð°": 16522,
  "Ð¾Ð´Ð½Ð°ÐºÐ¾": 46396,
  "ĠÐ½Ð°Ð·Ð²Ð°Ð½Ð¸Ð¹": 16858,
  "ĠÐŁÑĢÐ¾ÑĤÐ¸Ð²": 15079,
  "apan": 30203,
  "ĠÐ²Ð¾Ð·Ð²ÑĢÐ°ÑīÐ°ÐµÑĤÑģÑı": 11429,
  "ĠÑĨÐ¸ÑĤÐ°ÑĤÑĭ": 49309,
  "ĠÐ¾ÑĤÐ¿ÑĢÐ°Ð²Ð»ÐµÐ½Ð°": 45480,
  "ĠÐ¸Ð³ÑĢÑĥÑĪÐºÐ¸": 43343,
  "ĠÐ¿Ð¾Ð»ÑĳÑĤÑĭ": 29213,
  "ĠÑģÑĤÑĢÐ¾Ð¸ÑĤÐµÐ»ÑĮÑģÑĤÐ²Ð°": 5100,
  "ĠÐ½Ð°ÑħÐ¾Ð´ÑıÑīÐµÐ¹ÑģÑı": 35264,
  "ĠÐ¿ÐµÑĢÐµÐ¼ÑĭÑĩ": 14500,
  "ĠÐ²Ð°ÑĢÑĮÐ¸ÑĢÑĥÐµÑĤ": 48195,
  "ÑĢÐ°Ð½Ð°": 4186,
  "ĠÐ½Ð°ÑģÑĤÐ¾ÑıÑīÐµÐ¼": 33025,
  "Ð°Ð´ÑĳÐ¶": 35519,
  "ĠÑĦÐ¾ÑĢÐ¼ÑĥÐ»Ð°": 21025,
  "ĠÑĢÐµÐ°Ð»ÑĮÐ½Ð¾ÑģÑĤÑĮ": 20923,
  "ÐŁÐ¾Ð·Ð´Ð½ÐµÐµ": 30131,
  "ĠÐ¾ÑĤÐ´": 1615,
  "ĠÑĢÑĥÐ±ÐµÐ¶Ðµ": 16517,
  "ĠÐ°Ð¼ÐµÑĢÐ¸ÐºÐ°Ð½ÑģÐºÐ¾Ð¼": 23187,
  "ĠÐ³Ð»Ð°Ð·": 5579,
  "ĠÑĢÐ¾ÑīÐ°": 48682,
  "ÐºÐ¾Ð²Ð¾": 8641,
  "ĠÐ¿ÐµÑĢÐµÐ¿Ð»ÐµÑĤ": 37248,
  "ĠÑĤÐ°ÐºÐ°Ñı": 10596,
  "ĠÐ·": 373,
  "ĠÐ¦Ðļ": 5098,
  "1828": 29662,
  "ĠÐŁÐ»Ð°Ð½": 9735,
  "ĠÑĥÐ»ÑĥÑĩÑĪÐ¸ÑĤÑĮ": 28835,
  "ÐŀÑĢÐ¸Ð³Ð¸Ð½": 38566,
  "ĠÑģÑĩÐ¸ÑĤÐ°Ð»Ð¸ÑģÑĮ": 19675,
  "ĠÐ¿ÑĢÐµÐ¼ÑĮÐµÑĢÐ°": 12328,
  "ÐľÐ°Ð½": 11265,
  "ĠÐŀÐ¿Ð°Ñģ": 38149,
  "ĠÐ¿ÑĢÐ¾Ð¸ÑģÑħÐ¾Ð´ÑıÑīÐµÐµ": 42590,
  "ĠÐ¾ÑģÑĤÐ°Ð²Ð¸ÑĤÑĮ": 15491,
  "ĠÐ¡ÐµÐ½Ð°": 49764,
  "ĠÑģÑĥÑĤÑĮ": 21384,
  "ĠÑģÑĤÐ¾Ð»Ðµ": 42866,
  "ĠÐĲÐ»ÐµÐºÑģÐ°Ð½Ð´ÑĢÑĥ": 18640,
  "Ð¸Ð·Ð¸ÑĢÐ¾Ð²Ð°Ð½Ð°": 41613,
  "ĠÐ²ÑĭÑģÑĤÑĥÐ¿Ð°Ñı": 25634,
  "ĠÐ±ÑĥÐ¼Ð°Ð³Ðµ": 34872,
  "ĠÐ¼ÐµÑħÐ°Ð½Ð¸Ð·Ð¼Ð°": 20378,
  "ÑĢÑįÐ¼Ð¼Ð¸": 21312,
  "ĠÐ¿ÑĢÐ¾Ð¸Ð·Ð²ÐµÐ´ÐµÐ½Ð¸Ðµ": 9837,
  "'s": 18216,
  "ÑĪ": 344,
  "ÐĺÐĿ": 47655,
  "ĠÐ°ÑĢÑħÐ¸ÑĤÐµÐºÑĤÑĥÑĢÐµ": 19208,
  "ĠÐ·Ð°ÐºÑĢÑĭÑĤÐ¸Ñı": 19972,
  "Ð¡Ð¾ÐºÐ¾Ð»": 34519,
  "Ð¾Ð½Ð¸Ñİ": 20502,
  "ĠÐ¸Ð·Ð¾Ð±ÑĢÐ°Ð¶ÐµÐ½Ñĭ": 17392,
  "ĠÐ¾Ð¿Ð°ÑģÐ½ÑĭÑħ": 28603,
  "ĠLimited": 34249,
  "ain": 5621,
  "Ð°Ð½ÑĤÐ¸": 26717,
  "ĠÑģÑĥÐ²ÐµÑĢÐµÐ½Ð¸ÑĤ": 17913,
  "ÐĶÐ¢": 25325,
  "ĠÑĦÑĥÑĤÐ±Ð¾Ð»ÑĮÐ½Ð¾Ð¹": 31953,
  "ĠÐ´Ð¾ÑģÑĤÑĥÐ¿Ð½Ð¾ÑģÑĤÐ¸": 46945,
  "ĠÐ²Ð¸Ð´Ð¸Ð¼": 43063,
  "ĠÐ¾Ð³ÑĢÐ°Ð½Ð¸ÑĩÐµÐ½Ð½ÑĭÐ¼Ð¸": 49448,
  "ĠÐłÑĥÑģÑģÐºÐ¾Ð³Ð¾": 11935,
  "ĠÐ¾Ð¿ÐµÑĢÐ°ÑĤÐ¾ÑĢÐ¾Ð²": 24374,
  "ĠÐ¸Ð½Ð¸ÑĨÐ¸Ð¸ÑĢÐ¾Ð²": 23026,
  "ÐµÐ¼ÑģÑı": 10939,
  "ÑģÑĤÑĢÑĥÐ¼ÐµÐ½ÑĤ": 4057,
  "ĠÐ¿Ð¾Ð·Ð´": 2741,
  "ĠÐĲÐ²ÑģÑĤÑĢÐ¸Ð¹ÑģÐºÐ¾Ð¹": 30536,
  "ÑĤÑĭÑģÑıÑĩ": 16625,
  "ĠÐĽÑĭÑģÐµÐ½ÐºÐ¾": 36810,
  "Ð¾Ð»Ð¸ÑĤ": 2604,
  "ĠÐ¿ÑĢÐ°Ð²Ð¾ÑģÐ»Ð°Ð²Ð¸Ð¸": 47681,
  "ĠColumbia": 36805,
  "Ð£Ð¼ÐµÑĢ": 6332,
  "ĠÐ¿ÐµÑī": 9498,
  "ÐļÐ¾ÑĢÐ¾Ð»ÐµÐ²ÑģÑĤÐ²Ð¾": 46524,
  "ĠÐ¿Ð¾Ð´ÑĢÐ°Ð·Ð´ÐµÐ»Ñı": 17032,
  "ĠÑģÐ¼Ð¾Ð³ÑĥÑĤ": 31488,
  "Ð¸Ð²Ð°": 3643,
  "ĠÑĦÐ¾ÑĢÐ¼Ð¸": 8567,
  "ĠÐ¾ÑģÐ½Ð¾Ð²Ð°Ð½Ð¸Ð¹": 22436,
  "ĠÐ¿ÑĢÐµÐ·Ð¸Ð´ÐµÐ½ÑĤÐ¾Ð¼": 7445,
  "Ġ15": 1128,
  "ĠÐ´ÐµÑĢÐ¶": 4440,
  "ĠÐ³Ð¾Ð´Ð¾Ð²ÑīÐ¸Ð½Ñĭ": 44554,
  "ĠÐ¾Ð±ÑģÐ»ÑĥÐ¶Ð¸Ð²Ð°ÐµÑĤ": 36924,
  "Ġc": 2394,
  "ĠÑģÑĤÐ°ÑĢÑĤÐ¾Ð²Ð°Ð»": 34618,
  "Ð°Ð½Ð¾Ð²ÑģÐºÐ¸Ð¹": 17428,
  "ÐŁÑĢÐ¸ÑĢÐ¾Ð´Ð°": 38317,
  "ĠÐ²ÑģÑı": 4266,
  "ĠÐ·Ð°Ð³ÑĢÑıÐ·Ð½ÐµÐ½Ð¸Ñı": 26482,
  "ĠCo": 9085,
  "ÐºÐ»Ð°ÑģÑģ": 10731,
  "ĠÐ¾ÑģÐ²Ð¾Ð±": 3992,
  "Ð¸ÑīÐµ": 3029,
  "ÐľÐ¾ÑģÐºÐ¾Ð²": 14782,
  "ĠÑĢÐ°ÑģÑģÑĩÐ¸ÑĤ": 7585,
  "icus": 30251,
  "ĠÐ³ÑĢÑĥÐ½": 10958,
  "ĠÐŀÐ³Ð°Ð¹Ð¾": 32448,
  "ĠÐĵÑĢÐ°Ð´": 35245,
  "ĠÐľÑĥÑĤ": 32947,
  "ĠPress": 9297,
  "ĠÐŁÐµÑĢÐ¼ÑģÐºÐ¾Ð³Ð¾": 27294,
  "ĠÐºÐ¾Ð³": 12584,
  "ĠÐ¿ÑĢÐµÐ´Ð¿ÑĢÐ¸ÑıÑĤÐ¸ÐµÐ¼": 27210,
  "ÑĩÑĥÐ³": 32869,
  "ĠÐĵÑĥÑģÑĤ": 42062,
  "ĠĊĊĠĊĠĊĠĊ": 43833,
  "ĠÑĢÐ°Ð·Ð²Ð¸Ð²Ð°ÐµÑĤÑģÑı": 14257,
  "ĠÑĦÐ°Ð±ÑĢÐ¸ÐºÐµ": 35938,
  "Ð·Ð²ÐµÑģÑĤ": 3876,
  "ĠÐĹÐ¾Ð»": 40597,
  "ĠÐ¸ÑģÐ¿Ð¾Ð»ÑĮÐ·Ð¾Ð²Ð°Ð½": 18188,
  "ĠÑĢÐ¸ÑģÐ¾Ð²": 14193,
  "ĠÐ¼Ð¸ÑĢÐ¾ÑĤÐ²Ð¾ÑĢ": 30805,
  "Ð¤ÐµÐ½": 42855,
  "ĠÐ»Ð°Ð³ÐµÑĢÐµ": 20975,
  "1812": 28402,
  "ĠÐ¡": 386,
  "ĠÐľÐ°Ð¾": 27576,
  "ĠÑĢÐ°Ð·Ð¼ÐµÑĢÐ°Ð¼": 27817,
  "Ð¾Ð»Ð¸Ð·Ð°": 47046,
  "Ð·Ð¾ÑĤÐµÑĢ": 32015,
  "ĠÑĢÐ°Ð·Ð½Ð¸ÑĨÐ°": 24253,
  "ÐĲÐ¿Ð¾Ð»Ð»Ð¾Ð½": 34478,
  "ĠÐĲÐºÐ°Ð´ÐµÐ¼": 4123,
  "ĠÑĦÐ¸Ð·": 1981,
  "ĠÐ»Ð¸ÐºÐ²Ð¸Ð´Ð¸ÑĢÐ¾Ð²Ð°Ð½": 35118,
  "ĠÐ¾ÑĤÑĢÐµÐ·": 10868,
  "ÐµÐ»Ð¾Ð²ÐµÐº": 8096,
  "ĠÐ¨Ð²ÐµÐ¹ÑĨÐ°ÑĢÐ¸Ñİ": 43730,
  "ĠÐ´ÐµÐ²ÑĥÑĪÐµÐº": 23904,
  "ĠÐŀÐ²ÐµÑĢ": 46119,
  "ĠÐ¡Ð¸Ð³Ð¸Ð·Ð¼ÑĥÐ½Ð´": 32756,
  "ĠÐĳÑĢÐ¸ÑĤÐ°Ð½Ð¸Ñı": 48439,
  "ĠÐ¾ÑģÐµÐ½Ð¸": 18715,
  "ĠÐ¤Ð°ÑĢ": 11913,
  "ĠÑĦÐ°Ð½ÑĤÐ°": 19611,
  "Ð°Ð´Ð°Ð¿": 42126,
  "ĠÐľÐµÑģÐ¾Ð¿Ð¾ÑĤÐ°Ð¼": 23282,
  "ĠÐ±Ð¾Ð´": 25133,
  "ĠÐ¾ÑĤÐºÑĢÑĭÑĤÐ¾Ðµ": 24892,
  "ĠÑıÐ¿Ð¾Ð½ÑģÐºÐ¸Ðµ": 28789,
  "ĠÐ½Ð°ÑĤÑĥÑĢÐ°Ð»ÑĮÐ½Ð¾Ð³Ð¾": 45052,
  "ĠÐ¶Ð°Ð»Ð¾Ð±Ñĭ": 39113,
  "ĠÑĪÐ¾ÑĤÐ»Ð°Ð½Ð´ÑģÐºÐ¾Ð¹": 45919,
  "ĠÐ¿ÐµÑģÐ½ÑĮ": 45333,
  "ÐŁÑĢÐ¸Ð¼ÐµÐ½ÐµÐ½Ð¸Ðµ": 14823,
  "ĠÐ±Ð»ÑİÐ´Ð¾": 33980,
  "ĠÐ·Ð°Ð¿Ð¾Ð²ÐµÐ´Ð½Ð¸ÐºÐ°": 32539,
  "ĠÐ±Ð¾Ð³Ð°ÑĤÐ¾Ð³Ð¾": 36176,
  "Ð¿Ð°ÑĢÐ°ÑĤ": 3109,
  "ĠÐ¿Ð¾Ð¼ÐµÑīÐµÐ½Ñĭ": 41862,
  "ĠÑģÐ¼Ð°Ð·": 33093,
  "ĠÐ¿Ð¾Ð´Ð²": 8559,
  "ĠÐŁÑĢÐµÐ·Ð¸Ð´Ð¸ÑĥÐ¼": 30038,
  "ĠÑģÐºÑĥÐ´": 33821,
  "ĠÑĢÐ°Ð²Ð½Ñı": 41100,
  "ĠÑģÐ¸ÑĤÑĥ": 3997,
  "Ġ146": 36033,
  "Ð¤Ð¸Ð½Ð»ÑıÐ½Ð´": 47856,
  "Ð¾Ð¹ÑĩÐ¸Ð²": 5324,
  "ĠÑħÐ°ÑĢÐ°ÐºÑĤÐµÑĢ": 1742,
  "Ġw": 4467,
  "ĠÑģÐºÐ°Ð·Ð¾Ðº": 26248,
  "ÐŁÐµÑĢÐ¸Ð¾Ð´": 21578,
  "Ð½Ð°Ð´ÑĨÐ°ÑĤÐ¸Ð»ÐµÑĤ": 28568,
  "ĠÐĴÐµÑĢÑħÐ½ÐµÐ³Ð¾": 40433,
  "ĠÐ²Ð¾Ð²": 7942,
  "46": 6115,
  "ĠLove": 15132,
  "ĠÐ²ÐµÑĤÐµÑĢÐ°Ð½Ð¾Ð²": 25209,
  "ĠÐ²Ð¾Ð·Ð²ÑĢÐ°ÑĤÐ°": 44377,
  "ĠÐ¤ÐµÐ´ÐµÑĢÐ°ÑĨÐ¸ÐµÐ¹": 42407,
  "ĠÐ´ÐµÐºÐ¾ÑĢÐ°": 18220,
  "ĠÐ¤ÑĢÐ°Ð½ÑĨÑĥÐ·ÑģÐºÐ¾Ð¹": 15705,
  "ĠÐ½Ð°ÑģÑĤÐ°Ð²Ð½Ð¸ÐºÐ°": 48850,
  "45": 4219,
  "Ð°ÑĢÐ¸": 644,
  "Ð»ÑĥÐº": 39699,
  "eng": 21266,
  "ĠÑĤÐ¾Ð²Ð°ÑĢÐ¾Ð²": 10337,
  "ĠDav": 26092,
  "ĠÐ¾Ð³ÑĢÐ°Ð½Ð¸ÑĩÐ¸Ð²Ð°ÐµÑĤ": 44892,
  "ĠÑĢÐ°Ð±Ð¾ÑĤÐ°Ð¼Ð¸": 20824,
  "Ġ1913": 8300,
  "ĠÐ²Ð¾Ð·Ð´ÐµÐ¹ÑģÑĤÐ²Ð¸Ñİ": 36179,
  "ÐµÐ³Ð¾": 728,
  "ĠÑĢÐ¾ÑģÐ»Ð¾": 41597,
  "ĠÐĳÐ¾Ð»Ð¾Ð½": 33561,
  "ÑģÐ°Ðº": 40460,
  "ĠÑĨÐµÐ½ÑĤÑĢÐ°Ð»ÑĮÐ½Ð¾": 50208,
  "ĠÐºÐ¾Ð¼Ð¿Ð»ÐµÐºÑģÐ°": 8244,
  "ĠÑģÑĥÐµÐ²ÐµÑĢ": 41583,
  "Ð°ÑĢÐ½ÑĭÐ¹": 8995,
  "Ð°Ð»ÑĮÐ½ÑĭÐ¹": 1667,
  "ĠÐ¸Ð½ÑģÑĤÑĢÑĥÐ¼ÐµÐ½ÑĤÐ°Ð¼Ð¸": 47518,
  "ĠÐ®ÑĢÐ³": 38044,
  "Ð¿ÑģÐ¸Ñħ": 16081,
  "ĠÐ¼Ð¾Ð´ÑĥÐ»Ð¸": 36830,
  "ĠÐ±ÑĥÐºÐ²": 6161,
  "ĠÐ¾Ð¿Ð¸ÑģÐ°Ð½": 23961,
  "ĠÐ¾ÑĤÐ»Ð¸ÑĩÐ¸Ñı": 14799,
  "Ð¾Ð¼Ñĥ": 816,
  "ÑĢÐ¾ÐµÐºÑĤ": 11264,
  "ĠÐ¿Ð¾Ð»ÑĥÑĩÐ¸Ð»Ð¾": 11908,
  "ĠÐ¸Ð·Ð¼ÐµÐ½Ðµ": 33725,
  "ĠÐ´ÐµÐ¼Ð¾ÐºÑĢÐ°ÑĤÐ¸ÑĩÐµÑģÐºÐ¾Ð¹": 36661,
  "ÐµÐ´ÐµÐ½Ð¸Ðµ": 18926,
  "¹": 127,
  "ĠÐĵÐ¾ÑĢÐ¾Ð´ÑģÐºÐ°Ñı": 36046,
  "ĠÐ»Ð¸Ð±ÑĢÐµÑĤÑĤÐ¾": 30311,
  "ÑĬÑİÑĤ": 16390,
  "ĠÐ¼Ð¾Ð³ÑĥÑīÐµÑģÑĤÐ²Ð°": 37599,
  "ĠÐ¿ÑĢÐ¾Ð¶Ð¸Ð»": 24596,
  "ÑĢÐ¸Ð¹ÑģÐºÐ¾Ð³Ð¾": 39363,
  "ÑĤÐµÑĢÑĢÐ¸ÑĤÐ¾ÑĢÐ¸": 7473,
  "ĠÑģÑĤÐ°ÑĢÐµÐ¹ÑĪÐ¸Ð¹": 50232,
  "ĠÑĤÑİÐ»ÐµÐ½": 44567,
  "Ð¾ÑģÑĮ": 732,
  "ĠÑĢÐ°Ð¹Ð¾Ð½Ñĭ": 7721,
  "ĠÐĶÐµÐ½Ð½Ð¸Ñģ": 45530,
  "ĠBa": 41563,
  "ÐľÑĥÐ½Ð¸ÑĨÐ¸Ð¿Ð°Ð»ÑĮÐ½ÑĭÐµ": 32722,
  "ÑĢÐµÐ´ÐµÐ»": 1307,
  "ĠÐ¾Ð´Ð½Ð¾Ð¼Ð°Ð½Ð´Ð°ÑĤ": 38617,
  "ÐĴÐ¸Ð´": 23888,
  "ĠÐ£ÑĩÑĢÐµÐ´Ð¸ÑĤÐµÐ»ÑĮÐ½Ð¾Ð³Ð¾": 45525,
  "ĠÐŀÐ±Ð¸": 31083,
  "ĠÑģÑĤÐ°Ð½ÑĨÐ¸Ñı": 4537,
  "ĠÑĦÐ¸ÐºÑģÐ°ÑĨÐ¸Ð¸": 47711,
  "ĠÑįÐºÑģÑĨÐµÐ½ÑĤ": 31463,
  "ĠÐ´Ð¾ÑģÑĤÑĥÐ¿Ð½Ð°": 30345,
  "ĠÐ¶ÐµÐ»ÐµÐ·Ð½ÑĭÐµ": 23823,
  "ĠÑĦÑĢÐ°Ð½ÑĨÑĥÐ·ÑģÐºÐ¸Ñħ": 13007,
  "ĠÑģÑĤÑĢÐ°ÑĤÐµÐ³": 5834,
  "ĠÐºÐ¾Ð½ÑĨÐµÑĢÑĤÐ°Ñħ": 24139,
  "ĠÐ¡ÑįÐ¹Ñİ": 39532,
  "ĠÑģÐ¾Ð·Ð´Ð°Ð»Ð¸": 14033,
  "ĠÐ¡ÐµÐ±": 16337,
  "ĠÐ½ÐµÐ¼ÐµÐ´": 10208,
  "ĠÑĩÐµÐ»Ñİ": 20840,
  "...": 15443,
  "ĠÑĪÐµÑģÑĤÐ¾Ð¹": 24026,
  "ĠÐļÐ¾Ð»Ð»ÐµÐ´Ð¶": 45150,
  "Ð°Ð·Ð¸": 23778,
  "ÐºÐ¾ÑĢÐ¸ÑĩÐ½ÐµÐ²": 27367,
  "ouch": 48979,
  "ĠÐľÐ°ÑĢÐºÑģÐ°": 20598,
  "ĠÐ¿ÐµÑĢÑģÐ¸Ð´": 9787,
  "ĠÐ¼Ð¾ÑĢÑıÐºÐ¾Ð²": 32681,
  "ÑĬÑİÐ½": 22704,
  "ĠÐ²ÐµÐ»Ð¸ÐºÐ¾ÐºÐ½ÑıÐ¶": 47825,
  "AN": 14022,
  "ĠÐºÐ¾Ð¼Ð¸ÑģÑģÐ¸Ñı": 12730,
  "ez": 42839,
  "Ð¾ÑĤÑģÑİÐ´Ð°": 44783,
  "ÑĤÑĢÐ°Ð½": 38072,
  "ĠÑģÐ¾Ð·Ð´Ð°Ð½Ð½ÑĭÐ¹": 14639,
  "ĠÐ¡ÑĥÐ´Ð°": 30153,
  "ĠÑıÑĢÑĥ": 30273,
  "ÐµÐ½ÑĨÐµÐ²": 8025,
  "ĠÐ°Ð²ÑĤÐ¾ÑĢÑģÐºÐ¸Ñħ": 33056,
  "ĠÑĦÐ¸Ð»ÑĮÐ¼Ñĭ": 4670,
  "ĠÐ²ÑĭÑģÑĤÑĢÐµÐ»Ð°": 35056,
  "ĠÐ´Ð¾ÑģÑĤÐ°Ð²Ð¸Ð»Ð¸": 47458,
  "ĠÑĩÑĢÐµÐ·Ð²ÑĭÑĩÐ°Ð¹Ð½Ð¾Ð³Ð¾": 49731,
  "ĠÑĨÐ¸ÑĤÐ¾Ð¿Ð»Ð°Ð·": 39024,
  "ĠÐ¿Ð»Ð°Ð²Ð°Ð½Ð¸Ñı": 24636,
  "ÐĿÐ°ÑģÐ»ÐµÐ´": 25513,
  "ÑıÐ½ÑĭÐµ": 26484,
  "ÑĩÐ°Ð½Ðµ": 37321,
  "ÑıÑĤÐµÐ¶": 8488,
  "ĠÑģÑĥÐ»ÑĤÐ°Ð½": 15439,
  "ĠÑģÐ¾ÑģÑĤÐ¾ÑıÐ²": 12810,
  "ĠÐ³Ð»Ð¾Ð±Ð°Ð»ÑĮÐ½Ð¾Ð³Ð¾": 44043,
  "ÑĢÐ¾ÑĪÐµÐ½Ð½ÑĭÑħ": 43790,
  "ĠÑĥÐ±Ð¸Ð¹ÑģÑĤÐ²": 28627,
  "ĠÐĶÐ°Ð½": 6657,
  "ĠÑĤÐ¸Ð¿Ð¾Ð³ÑĢÐ°ÑĦÐ¸Ð¸": 31050,
  "Ð¢ÑĢÑĥÐ´": 14065,
  "ÑĢÐ¾Ð²ÑĭÐ¼": 15812,
  "Ð±Ð¾ÐµÐ²Ð¸ÐºÐ¸": 28547,
  "ĠÑįÐºÐ·Ð°Ð¼ÐµÐ½Ñĭ": 37264,
  "ĠÐŁÐ¾Ð·Ð´": 26610,
  "Þ": 162,
  "ĠÐ¿ÐµÑĢÐµÐ²Ð¾Ð´": 2464,
  "ÑĢÐ°Ð¼Ð°": 11381,
  "ĠÐ·Ð°ÐºÐ»ÑİÑĩÐµÐ½Ð¾": 33197,
  "ĠÐ¿ÑĢÐ¸Ð±ÑĭÐ»Ð¾": 44159,
  "ĠÑģÑĢÐµÐ´Ð½ÑıÑı": 11125,
  "ĠÐļÐ°ÑĤÐ°": 34894,
  "ĠÐĶÐ½ÐµÑģÑĤÑĢÐ°": 47963,
  "ĠÐ½Ð°ÑģÑĤÑĥÐ¿Ð»ÐµÐ½Ð¸Ðµ": 11049,
  "ĠÐ¯ÑĢ": 13953,
  "ĠÐ¾Ð¿ÑĤÐ¸ÑĩÐµÑģÐºÐ¾Ð³Ð¾": 41234,
  "ĠÐ¿ÑĢÐµÐ´Ð¿ÑĢÐ¸ÑıÑĤÐ¸Ñı": 5096,
  "ĠÐ·Ð°Ð¿Ð¸ÑģÐ°Ð»Ð°": 31353,
  "ĠÐļÐ°ÑĢÑĤÐ¸Ð½Ð°": 29443,
  "ĠÐĻÐ¾": 44749,
  "ĠÐ¼Ð°ÑģÑģÐ¸Ð²Ð°": 24164,
  "Ð°Ð»Ð¾Ð½": 15884,
  "ĠÑģÐ¾Ð±Ð¸ÑĢÐ°Ð»ÑģÑı": 24773,
  "ĠÐ¡ÐµÐ»ÐµÐ²ÐºÐ¸": 46677,
  "Ð¸Ð½ÑĤ": 9447,
  "ĠÐ½Ð°ÑĢÑĥÑĪÐ°ÐµÑĤ": 44435,
  "ĠÐ¿Ð¾Ð´ÑĩÑĳÑĢÐºÐ¸Ð²Ð°Ð»": 37404,
  "ĠÐ½Ð°Ð·ÑĭÐ²Ð°ÐµÐ¼ÑĭÐ¼": 38486,
  "ĠÐ·Ð°ÑħÐ²Ð°ÑĤÑĩÐ¸ÐºÐ¾Ð²": 37250,
  "Ð°Ð½Ð½": 6410,
  "Ð°Ð¼Ð¸ÑĢ": 40163,
  "Ð³ÑĢÐ°Ð±": 11875,
  "ĠÐ³Ð¾Ð²Ð¾ÑĢÐ¾Ð²": 41790,
  "ĠÑĥÐºÐ°Ð·ÑĭÐ²Ð°ÐµÑĤÑģÑı": 23620,
  "ÐłÐĸÐĶ": 49098,
  "ÑĨÐ°ÑĢÑĮ": 28867,
  "ÐĴ": 461,
  "ĠPol": 12305,
  "ĠÐĳÑįÐ¹": 29527,
  "ĠÐºÐ»ÐµÑĤÐºÑĥ": 42251,
  "ĠÐ¿Ð¾Ð»ÑĥÑĢÐ°": 39906,
  "ĠÐ¨ÑĤÐµÑĦ": 48224,
  "ĠÐ¸ÑģÐ¿Ð¾Ð»ÑĮÐ·Ð¾Ð²Ð°Ð½Ð¸Ðµ": 5402,
  "Ð±Ð°": 1566,
  "ĠÑĩÑĥÐ²ÑģÑĤÐ²Ð¸ÑĤÐµÐ»ÑĮÐ½Ð¾ÑģÑĤÑĮ": 34035,
  "Ð°ÑĤÐ¾ÑĢÐ¸Ð¹": 25359,
  "ĠÐ¶Ð¸Ð·Ð½Ðµ": 22365,
  "ÐµÐ»Ð¸Ðº": 1053,
  "Ð°ÑĤ": 353,
  "ĠÐ·Ð°Ð²ÐµÐ´": 5108,
  "ĠÑĥÑģÑĤÑĥÐ¿Ð¸ÑĤÑĮ": 41753,
  "ĠÐĳÐµÑĢÐºÐ»Ð¸": 29776,
  "ĠÐ¨Ð¼Ð¸Ð´ÑĤ": 35274,
  "ok": 4555,
  "ÑĢÐ¾ÐºÐ¸": 5454,
  "ĠÐĵÐ¾Ð³Ð¾Ð»Ñı": 34515,
  "ĠOver": 35766,
  "ĠÐ¨ÑĥÑĤ": 42065,
  "ĠÑĤÐ°ÐºÑĤÐ¸ÐºÑĥ": 41972,
  "ÑĢÐ°ÑģÑģÐµ": 21256,
  "ĠÐ²Ð»Ð°Ð´ÐµÐ»Ð¸": 30995,
  "ĠÐ¿ÑĢÐ¾Ð²Ð¸Ð½ÑĨÐ¸ÐµÐ¹": 35690,
  "Ð´Ñĥ": 1675,
  "ĠÑĤÑĢÑĥÐ´Ð¾Ð²": 14204,
  "ĠÐ²Ð¸ÐºÐ¸": 48777,
  "ĠÐ±Ð¸ÑĤÐ²Ð°": 14206,
  "ÑĥÐ½ÐºÑĤ": 2829,
  "ÑĢÐ¾ÑĩÐµÐ¼": 7995,
  "ĠÑĩÑĥÐ¶Ð¸Ñħ": 49471,
  "ĠÐ¸Ð½ÑģÑĤÐ¸ÑĤÑĥÑĤÑĭ": 25104,
  "ĠÑĥÐ²Ð»ÐµÐº": 15298,
  "ÐµÑĪÐ¾Ñĥ": 45894,
  "ĠÐ¿Ð¾ÑģÐµÑĤÐ¸ÑĤÐµÐ»ÐµÐ¹": 22245,
  "ĠÐ§ÑĥÑħ": 45534,
  "ÑĢÐµÐ½Ð°": 14826,
  "ÑĳÑĢÑģÑĤ": 19445,
  "ĠÐ¿Ð¾ÑĤÐµÑĢÐµÐ¹": 39926,
  "ĠÐ¿ÑĢÐ¸Ð¼ÐµÑĢÐ¾Ð²": 25701,
  "ĠÐĳÐ°Ð´ÐµÐ½": 33915,
  "Ð¨Ð°Ñħ": 18927,
  "ĠÐ¿Ð¾ÑģÐ»Ð°": 23208,
  "ĠÐ¿Ð¾ÑģÑĤÑĥÐ¿": 3165,
  "ĠÐķÐ²": 1203,
  "ĠÑĤÐ¸ÑĤÑĢÐ¾Ð²": 50050,
  "Ġ100": 2720,
  "ĠÐ¸ÑģÑĤÐ¾ÑĢÐ¸ÑĩÐµÑģÐºÐ¾Ð¹": 10421,
  "ĠÐķÐ½": 16465,
  "Ġ802": 48903,
  "ĠÐĵÐ¾ÑĢÑĮ": 8546,
  "ĠÐĲÐºÐ¼": 36345,
  "ĠÐµÐ³Ð¸Ð¿ÐµÑĤÑģÐºÐ¾Ð¹": 38547,
  "ĠFl": 10657,
  "ĠÑĢÑĥÐºÐ¾Ð²Ð¾Ð´ÑģÑĤÐ²Ñĥ": 27950,
  "ĠÑĢÐµÑģÑĤÐ¾ÑĢÐ°Ð½": 27957,
  "ĠÐ¿Ð¾Ð¼ÐµÑīÐµÐ½Ð°": 46801,
  "Ð¿Ð¸": 5139,
  "ÑĪÑĤÑĥÑĢÐ¼": 47114,
  "ĠÐ½ÐµÐ´Ð¾ÑģÑĤÐ°ÑĤÐºÐ¾Ð²": 29100,
  "ĠÐ·Ð°Ð¿Ð¸ÑģÐ°Ð»": 19431,
  "ĠÐ¿ÑĢÐ°Ð²Ð»ÐµÐ½Ð¸Ñı": 4529,
  "ĠÐłÐ¾ÑĤ": 13082,
  "ĠÐ°ÑĥÑĤÐµÐ½ÑĤ": 27233,
  "Ð·ÑĭÐ²": 914,
  "ĠÐºÑĢÑĭÐ»Ð°": 14422,
  "Ð»Ð¾Ñī": 1604,
  "ĠÑĨÐµÐ»Ð¸": 7496,
  "ĠÐľÐ¸Ð½": 2273,
  "ÐŀÐ¡": 21705,
  "ĠÑĤÐ¸Ð¿Ð°Ð¼Ð¸": 41356,
  "ĠÑĢÐ¾Ð»ÑĮÑİ": 36478,
  "ÑĥÐ»Ð¾": 31336,
  "ĠÑĢÐ°Ð½Ð½Ð¸Ð¼": 31446,
  "ĠÐ¾Ð±Ð¾Ð·ÑĢÐµÐ½Ð¸Ðµ": 23830,
  "ĠÐ¿ÑģÐ¸ÑħÐ¸Ð°ÑĤÑĢ": 49829,
  "ĠÐ²Ð»Ð°Ð¶Ð½ÑĭÐ¹": 45295,
  "ĠÑĥÑĢÐ°": 28524,
  "ĠÐ¾Ð´Ð½Ð°": 3202,
  "ĠÑıÐ²Ð½Ð¾": 13157,
  "Ð°ÑĢÐ´Ð¸": 22797,
  "ĠÑĥÐ´Ð¾Ð²Ð¾Ð»ÑĮÑģÑĤÐ²Ð¸Ñı": 41544,
  "re": 1570,
  "ĠÐ¨ÐµÑĢ": 16408,
  "ĠÐ²ÐµÑĢÐ¼Ð°Ñħ": 21251,
  "ĠÑģÑĤÐ°ÑĤÑĥÑİ": 42868,
  "ĠÐĵÐ»Ð°Ð´": 26218,
  "ĠÐ¢ÑĢÐ°Ð¼": 28508,
  "ÑĩÐµÐº": 39078,
  "ĠÐ¿Ð¾Ð²ÑĭÑĪÐµÐ½Ð¸ÐµÐ¼": 38963,
  "ĠSociety": 26999,
  "ĠÑģÑĩÐ¸ÑĤÐ°ÑĤÑĮÑģÑı": 20891,
  "ĠÐ¿Ð¾Ð»ÑĮÑģÐºÐ¾Ð¹": 16643,
  "180": 27219,
  "\",": 10931,
  "ĠÑĢÐ°Ð²Ð½Ð¾Ð²ÐµÑģ": 12769,
  "ÐľÐ°ÑĤÑĢÐ¸": 47278,
  "Ð§Ð»ÐµÐ½Ñĭ": 4984,
  "ĠÐ½Ð¸Ð·Ð¼ÐµÐ½Ð½Ð¾ÑģÑĤÐ¸": 33257,
  "ĠÐ´Ð¾ÑģÑĤÐ¸Ð³Ð½ÑĥÑĤÐ¾": 38320,
  "row": 11317,
  "ÑįÑĦÑĦ": 11221,
  "Ð°ÑĤÐ¾Ð½": 24885,
  "ÐµÐºÑĤÐ¾ÑĢÐ°": 20392,
  "ĠÐ³Ð°Ð»Ð°ÐºÑĤ": 3178,
  "ĠÑĤÐ¾ÑĩÐºÐ¾Ð¹": 17208,
  "ĠÐĵÐ¾Ð»ÑĮÐ´": 34043,
  "ĠÐ°Ð»ÑİÐ¼Ð¸Ð½": 13124,
  "Ð¾ÑĩÐµÑĤ": 6618,
  "ÑĥÑĪÐ¸": 23797,
  "ĠÐ¿ÑĥÐ±Ð»": 3486,
  "ĠÐŀÐ´Ð¸Ð½": 6511,
  "ĠÐ±ÑĢÐ°Ñħ": 34517,
  "ÑıÑīÐµÐ¼Ñĥ": 39092,
  "Ð¾Ð±ÑĬÐµÐ´Ð¸Ð½": 38939,
  "ĠÐ¼Ð°ÑģÑģÐ¸Ð²Ñĭ": 38583,
  "Ð¸Ð½ÐµÑĨ": 24970,
  "ĠÑĢÑĥÑĩ": 7776,
  "ĠÐ¾Ð·ÐµÑĢÐµ": 20994,
  "ĠÑĢÐ°Ð·Ð²Ð¸ÑĤÐ¸Ðµ": 3624,
  "ÑħÑĢÐ¾Ð¼": 22292,
  "ĠÐ¿ÑĢÐ¸Ð½Ð¸Ð¼Ð°Ð»": 8763,
  "ĠÐºÑĢÐ°ÑģÐ½Ð¾Ð²": 48722,
  "ĠÑįÑĦÑĦÐµÐºÑĤÐ¾Ð¼": 35151,
  "Ð»ÑĮÐ´Ð°": 49189,
  "ĠÐ²Ð¾ÑģÐ¿Ð»Ð°Ð¼ÐµÐ½": 39918,
  "ĠÐĿÐµÐºÑĢÐ°Ñģ": 21844,
  "Ð°Ð²ÑĪÐµÐ¼": 24560,
  "ÑĢÐ¾ÑģÐºÐ¸": 39455,
  "Ð°ÑĤÐ¸Ñı": 13774,
  "ĠÐĲÐ½Ð°ÑģÑĤÐ°ÑģÐ¸Ñı": 24355,
  "ĠÐĵÑįÐ½Ð´": 42794,
  "ĠÐĲÐ³Ð°ÑĦ": 28442,
  "ĠÑĤÑĢÐ°ÐµÐºÑĤÐ¾ÑĢÐ¸Ð¸": 28092,
  "ÐµÐºÑĤÐ¾ÑĢ": 4382,
  "ĠÐ½Ð°Ð´Ð»ÐµÐ¶": 27505,
  "ĠSn": 34988,
  "ÑĢÐ¾Ð¹ÐºÐ¸": 5629,
  "ĠÐĵÐµÐ¹": 9603,
  "ĠÐ´ÐµÐºÐ¾ÑĢÐ°ÑĨÐ¸Ð¸": 39283,
  "ĠÐľÐ°Ðº": 2437,
  "XIII": 18895,
  "Ð¿ÑĢÐ¾Ñģ": 19750,
  "ĠÐ²Ð¸Ð»": 15128,
  "ĠÐ¿Ð¾Ð±ÐµÐ³Ð°": 44614,
  "ud": 3816,
  "Ð¸Ð½Ð³ÑĤÐ¾Ð½": 24496,
  "ĠÐ¸ÑģÑħÐ¾Ð´": 4683,
  "ĠÐ¿ÑĢÐ¸ÑĢÐ¾Ð´Ñĥ": 19030,
  "Ġ184": 3411,
  "ÐĸÑĥÐºÐ¾Ð²": 30419,
  "ĠÑĤÑıÐ³Ð¾ÑĤ": 25962,
  "ĠÐ»Ð¸Ð´ÐµÑĢÐ¾Ð¼": 14714,
  "ÑīÐµ": 6275,
  "ĠÑģÐ¾Ð²ÑĢÐµÐ¼ÐµÐ½Ð½Ð¾ÑģÑĤÐ¸": 30141,
  "ÐľÐ¾ÑģÑĤ": 25438,
  "ĠSilent": 44705,
  "¯": 117,
  "ĠÑĢÐµÐºÐ»Ð°Ð¼": 12696,
  "ĠÐĵÐ°Ð¹Ð´Ð°ÑĢ": 46755,
  "Ð¾Ð·Ð°Ð¿Ð¸ÑģÑĮ": 44579,
  "ĠÐ¿ÑĢÐµÑĦ": 30245,
  "ĠPsych": 35915,
  "Ar": 15688,
  "ĠÐ½Ð°ÑĢÑĥÑĪÐµÐ½Ð¸ÐµÐ¼": 29537,
  "Lib": 46901,
  "ĠÐŀÐ´Ð¾ÐµÐ²": 47990,
  "ĠÐ¿Ð¾ÑĤÐ¾Ð¼ÐºÐ¸": 18811,
  "ĠÑħÐ°Ð½ÑģÑĤÐ²Ð°": 20403,
  "ĠÐ·Ð°ÑīÐ¸ÑĤÑĥ": 10455,
  "ÐĹÐ°Ð¼Ð¾Ðº": 48446,
  "ĠÐ°Ð±ÑģÐ¾Ð»ÑİÑĤÐ½Ð¾Ð³Ð¾": 42357,
  "ĠÐĵÐ»Ð°Ð²Ñĭ": 41285,
  "ĠÐ±ÑĭÐ»Ð¾": 758,
  "ĠÐ´ÐµÑĢÐ¶Ð°Ð»": 36276,
  "ĠÐĵÑĢÑĥÐ¿Ð¿Ñĭ": 36775,
  "ĠÑĢÐ¾Ð¶Ð´": 11036,
  "ĠÑģÐ¾ÑģÑĤÐ¾ÑıÑī": 5977,
  "ĠÐ»Ð¸ÑĤÐµÑĢÐ°ÑĤÑĥÑĢÐ½Ð¾Ð³Ð¾": 14821,
  "ĠÐ¡ÑĢÐµÐ´Ð¸Ð·ÐµÐ¼": 10675,
  "Ð²Ð¾ÑģÑĤÐ¾ÑĩÐ½ÑĭÐ¹": 49643,
  "ĠÐ¢ÐµÑħÐ°Ñģ": 27018,
  "ÑĥÐ·ÐµÑĢ": 50191,
  "ĠÐĺÑģÑĤÐ¾ÑĢÐ¸Ðº": 31999,
  "ĠÐ¾Ð²ÑĢÐ°Ð³": 44968,
  "ĠÐ´ÑĢÑĥÐ¶Ð¸Ð½Ñĭ": 46809,
  "ĠÐ¿ÐµÑĤÐµÑĢÐ±ÑĥÑĢÐ³": 16463,
  "ĠÑĥÑĩÐ¸ÑĤÑĭ": 32366,
  "ĠÐĵÐĶÐł": 15336,
  "ĠÐ½Ð°Ð¿Ð¸ÑģÐ°Ð½Ð½Ð°Ñı": 21388,
  "ĠProduction": 30865,
  "ĠÐ³Ð¾ÑģÐ¿": 33225,
  "Ðļ": 530,
  "ĠÐĺÑĨ": 39704,
  "Ŀ": 214,
  "Ð¾Ð¿Ð°ÑĢ": 46193,
  "ĠL": 1137,
  "ĠÐļÐ°Ð¼Ð±": 15654,
  "Ð°ÑĤÐ¸ÑĩÐµÑģÐºÐ¸Ðµ": 24971,
  "ĠÐ¿Ð°Ð¹": 41386,
  "ĠÐ½Ð°Ð±": 1811,
  "ÐŁÑĢÐ°Ð·Ð´Ð½Ð¸ÐºÐ¸": 25619,
  "ĠÐ¿ÑĢÐµÐ´ÐºÐ°": 44003,
  "ĠÐ²Ð°Ðº": 13465,
  "ĠÐ½Ð°ÑĢÐº": 8416,
  "ĠÐłÐ°ÑģÐ¿Ð¾Ð»Ð¾Ð¶": 29048,
  "ÑĭÐ½ÐµÑĪ": 45595,
  "ĠÐŀÐ±ÑĭÑĩÐ½Ð¾": 11690,
  "Ð¿Ð¸ÑģÑĮ": 8207,
  "ĠWi": 42805,
  "Ġ18": 631,
  "ĠÐĿÐ°ÑĥÐºÐ°": 8840,
  "21": 2043,
  "ĠÐ±Ð¾ÑĢÐ¾Ð»Ð¸ÑģÑĮ": 48766,
  "ĠÑĥÑĩÐ¸ÑĤÐµÐ»ÐµÐ¹": 20031,
  "ĠÐ¾ÑĤÑĢÐ°Ð¶ÐµÐ½Ð¸Ðµ": 16627,
  "Ð·Ð²": 748,
  "ĠÐĴÑĭÑģÐ¾ÑĨÐºÐ¾Ð³Ð¾": 37844,
  "ĠÐ¸Ð´": 2759,
  "ĠÐĳÐµÐ¹ÑĤ": 50107,
  "ĠMus": 8474,
  "ÐµÐ½ÑģÐ°": 9428,
  "Ð°Ð½Ð¾Ð²Ð¾": 11366,
  "ĠâĨĴ": 12365,
  "Ð¿ÑĢÐ¾ÑĨÐµÑģÑģ": 25618,
  "ĠÐ¾ÑĤÐºÑĢÑĭ": 1260,
  "ĠÐ¾ÑĤÑģÑĥÑĤÑģÑĤÐ²Ð¸ÐµÐ¼": 17472,
  "ĠÑĪÐ¸ÑĢÐ¾ÐºÐ¸Ðµ": 24269,
  "ĠÑĨÐµÑĢÐµÐ¼Ð¾Ð½": 14452,
  "ĠÐºÐ°Ð´ÑĢÐµ": 45101,
  "ĠÐ²Ð²": 8563,
  "ĠÐļÐ°ÑĢÐ»Ð¾Ñģ": 30092,
  "ĠÐĴÐµÑĢÑĤ": 23489,
  "ĠÑįÐ»ÐµÐºÑĤÑĢÐ¾Ð¼ÐµÑħÐ°Ð½": 40911,
  "**": 27342,
  "ĠÐļÐ»ÑĥÐ±": 18653,
  "ĠÐ±ÑĢÐ¾Ð½Ð·Ñĭ": 29041,
  "ĠÐµÐ³Ð¸Ð¿ÑĤÑıÐ½": 28964,
  "ĠÐ¿ÑĢÐµÐ¶Ð´": 37693,
  "ĠÐ¿ÑĢÐ¸ÑħÐ¾Ð´Ð°": 14561,
  "ĠÐ°Ð½ÑĤÐ¸Ð²": 42077,
  "ĠÐ½Ð°Ð¿Ð°Ð»": 28029,
  "Ð°Ð¶Ð¸": 30220,
  "ĠÐºÐ¸Ð½ÐµÐ¼Ð°ÑĤÐ¾Ð³ÑĢÐ°ÑĦÐ¸ÑĩÐµÑģÐºÐ¸Ñħ": 47533,
  "ĠÐ»Ð¸Ð´ÐµÑĢÐ¾Ð²": 12136,
  "ĠÐ¦ÐµÐ½ÑĤÑĢÐ°Ð»ÑĮÐ½ÑĭÐ¹": 15059,
  "ĠÐ¶Ð¸Ð·Ð½ÑĮÑİ": 16476,
  "ĠÐ³Ð¾Ð´Ð¾Ð²": 1866,
  "ĠÑģÐµÐ¼Ð¸Ð½": 32337,
  "ĠÐ´ÑĢÑĥÐ¶": 5777,
  "Ð½Ð¸ÑĩÐ½ÑĭÐ¹": 49125,
  "ĠÐ°Ð¼ÐµÑĢÐ¸ÐºÐ°Ð½ÑģÐºÐ¾Ð³Ð¾": 9866,
  "ĠÐ¯ÐºÐ¾Ð²": 6400,
  "Ð½ÑģÐºÐ¸Ð¹": 10497,
  "ĠÑģÑĨÐµÐ½Ð°ÑĢÐ¸Ñı": 10719,
  "ĠÐ¾Ð±Ð¼Ð¾ÑĤ": 27126,
  "ĠÐ¿Ð¾Ð´Ð²Ð¾ÑĢ": 36954,
  "ÐĴÐµÐ½Ð³ÑĢÐ¸Ñı": 32902,
  "ĠÐĳÑĢÑıÐ½ÑģÐºÐ¾Ð¹": 32144,
  "ĠÐºÐ¸Ð½Ð¾ÑĤÐµÐ°ÑĤÑĢ": 21225,
  "ĠÑģÐµÑĢÐ¾ÑĤÐ¾Ð½": 38364,
  "ĠÐ¿Ð»Ð¾ÑīÐ°Ð´Ð¾Ðº": 41276,
  "ĠÑĥÐ´Ð°ÑģÑĤÑģÑı": 47151,
  "ĠÐĿÐ¾ÑĢÑĤ": 19574,
  "atal": 31597,
  "atch": 23513,
  "ta": 17914,
  "Ð²Ð¾Ð´Ð½ÑĭÐµ": 42569,
  "Ġ2500": 25329,
  "ĠÐºÐ¾Ð»Ð»ÐµÐºÑĤÐ¸Ð²": 4513,
  "ism": 12522,
  "ĠÐ¸Ð½Ð¶ÐµÐ½ÐµÑĢ": 5781,
  "ĠÑħÐ¾Ð±": 27737,
  "ĠÑģÐ¿Ð°ÑģÑĤÐ¸": 16919,
  "ĠÐ³Ð°ÑĢÐ´": 45743,
  "ĠÐ¢ÑĢÐ¾ÑĨÐºÐ¾Ð³Ð¾": 37830,
  "ÑīÐ¸ÐºÐ¾Ð¼": 13748,
  "ĠÐ³ÑĢÐ°Ð¶Ð´Ð°Ð½ÑģÑĤÐ²Ð¾": 24058,
  "ĠÐ¸Ð¼ÐµÐ»": 3537,
  "Ð¼ÐµÑĪ": 7004,
  "ĠÐłÑĥÐ¼ÑĭÐ½Ð¸Ð¸": 12996,
  "ÐµÐ½Ð½Ð°": 18785,
  "ÐļÐ¾ÑģÐ¼Ð¾Ñģ": 37222,
  "ĠÐ¼ÐµÐ½ÑıÑĤÑĮÑģÑı": 38604,
  "ĠÐ¿ÑĢÐ¸Ð±Ð¾ÑĢÑĭ": 24212,
  "ĠÐ¸ÑģÐºÑĢÐµÐ½": 20973,
  "ÐµÐ³Ð°ÐµÑĤ": 18361,
  "ÑĢÐ°Ð²ÐµÐ´Ð»Ð¸Ð²": 23957,
  "ĠÑģÐ»ÑĥÑĩÐ°Ð¹": 4399,
  "Ð´Ð°": 464,
  "ÐĺÐ¾ÑģÐ¸ÑĦ": 37373,
  "ĠÑģÐ»ÑĥÑħ": 16920,
  "117": 23662,
  "ĠÐ²ÑģÑĤÑĢÐµÑĩÐ°ÑİÑĤÑģÑı": 6920,
  "ĠÑģÐ¶Ð°ÑĤÐ¸Ñı": 25228,
  "ÑĥÑįÐ»Ñı": 50139,
  "Ð±ÑĢÐ¾Ð½": 41608,
  "Ð¿ÐµÐ´": 11805,
  "ĠAm": 5884,
  "ĠÐ°ÐºÐ°Ð´ÐµÐ¼Ð¸Ñı": 14041,
  "ĠÐºÐ»Ð¸Ð½": 5919,
  "ĠÐºÐ°Ð·Ð°ÑħÑģÑĤÐ°Ð½": 30759,
  "ĠÐºÐ»ÐµÐ²": 33501,
  "Ġre": 9535,
  "ĠÐļÐ°Ñģ": 12552,
  "ĠÐ¼Ð¸Ð½Ð¸Ð¼Ð°Ð»ÑĮÐ½Ð¾Ð¹": 39877,
  "Ð¾Ð±Ð°ÐºÑĤ": 46911,
  "ĠÐ²ÑĢÑıÐ´": 35628,
  "ĠÐ°Ð±Ð±ÑĢÐµÐ²Ð¸Ð°ÑĤ": 23636,
  "ĠÐļÐ¾Ð½ÑģÑĤÐ°Ð½": 22255,
  "ĠÐ½Ð°Ð¼ÐµÐº": 46584,
  "ĠÐłÐµÑĤ": 40591,
  "ĠÑĩÐµÐ¼Ð¿Ð¸Ð¾Ð½Ð°ÑĤÐµ": 7665,
  "ÐµÐ´ÑĮ": 7255,
  "Ġ340": 34448,
  "ÐĶÐµÐ¼": 12927,
  "ĠÐ¸ÑģÑĤÐ¸Ð½Ð½Ð¾Ð¹": 43165,
  "Ð£Ð»ÑĮÑı": 42918,
  "ĠÑĤÑĢÐ¸Ð±ÑĥÐ½Ñĭ": 39839,
  "ĠÐ¿Ð¾Ð»Ð½Ð¾Ðµ": 11332,
  "Ð½Ð¸ÑĩÐµÐ½ÐºÐ¾": 41407,
  "ĠÐĨ": 17789,
  "ĠÑĩÐ°ÑīÐµ": 5949,
  "ĠÐºÐ¾Ð½ÑģÑĥ": 45200,
  "Ð¾Ð¿Ð»Ð°ÑģÑĤ": 24871,
  "ÑĤÑĭÑģ": 7006,
  "ĠÑģÑĤÐ¾Ð»Ð¸ÑĨÑĭ": 9053,
  "ĠÐ°Ð²ÑĤÐ¾ÑĤÑĢÐ°Ð½ÑģÐ¿Ð¾ÑĢÑĤ": 38593,
  "up": 5074,
  "ĠÐĵÐ¸Ð»ÑĮÐ´Ð¸Ð¸": 30662,
  "ĠÑĤÑĢÐµÐ±Ð¾Ð²Ð°Ð½Ð¸Ñı": 7184,
  "ĠÐºÐ¾ÑĢÑĢÐµÑģÐ¿Ð¾Ð½Ð´": 17008,
  "ĠÐ·Ð°Ð¿Ð¸ÑģÑĭÐ²Ð°ÐµÑĤ": 47998,
  "ĠÐ¿ÑĢÐ¸Ð¼ÐµÐ½ÐµÐ½Ð¸Ñİ": 28363,
  "ĠÑĤÐµÐ»ÑĮ": 49922,
  "ĠÑĤÑĢÐ°Ð´Ð¸ÑĨÐ¸Ð¾Ð½Ð½Ð¾Ð¼": 45700,
  "ĠÐ·Ð°ÑģÐ»ÑĥÐ³Ð¸": 6403,
  "ÑįÐ»ÐµÐ¼": 22720,
  "ĠÐ¿ÑĢÐ¾Ð´Ð¾Ð»Ð¶Ð°ÐµÑĤÑģÑı": 16837,
  "ĠÐĵÐ¸Ð»ÑĮ": 16680,
  "ĠÐ¡ÑĤÐ°Ð»Ð¸Ð½ÑģÐºÐ¾Ð¹": 36227,
  "ĠÐ¿Ð¾ÑģÐ¾Ð±Ð¸Ñı": 39030,
  "ĠÐĵÐ¾Ð»Ð¾Ð²Ð°": 42934,
  "ĠÐ±Ð¸Ð±Ð»ÐµÐ¹": 15425,
  "eed": 33111,
  "ÑĥÑħÐ¸Ð½": 23231,
  "Ð¡Ð¾ÑİÐ·": 9061,
  "ĠÑĦÑĢÐ°Ð½ÑĨÑĥÐ·ÑģÐºÐ¾Ðµ": 39007,
  "ĠÐĸÑĳÐ»ÑĤ": 40235,
  "ĠÑĥÐ¿Ð¾ÑĢÐ½Ð¾": 46826,
  "ÑĭÐ²Ð°Ð»Ð°": 12650,
  "ĠÐ½Ð°ÑĩÐ¸Ð½Ð°Ð»Ð¸": 44559,
  "ĠÐºÐ¾ÑĢÑĭ": 18528,
  "ĠÐ¾ÑĤÐºÑĢÑĭÐ»ÑģÑı": 15568,
  "ĠÐ³Ð¾Ð²Ð¾ÑĢÑıÑĤ": 9882,
  "ĠÐ¿ÑĢÐ¸Ð½Ð°Ð´Ð»ÐµÐ¶Ð°Ð»Ð¸": 21003,
  "ĠÐĺÑĢÐ°Ðº": 15168,
  "US": 24014,
  "ĠÐ®Ð¶": 2902,
  "1": 26,
  "ĠÐĳÐµÐ½ÑĥÐ°": 41647,
  "ĠÐ¿ÑĢÐµÐ´ÑĬÑıÐ²Ð»Ñı": 28215,
  "Ð»Ð°Ð¿": 34594,
  "э": 281,
  "ĠÐ¿ÑıÑĤÑĭÐ¹": 23783,
  "ĠÐĹÐ°Ð²": 6379,
  "ĠÐļÑĳÑĢÑĤ": 37688,
  "ĠÑĪÐ¾ÑĦ": 46989,
  "ĠÐ½ÐµÐ´Ð¾Ð²": 31652,
  "ĠÐ¿Ð¾Ð·Ð²Ð¾Ð»ÑıÑİÑīÐ°Ñı": 41868,
  "ĠÐķÐ³Ð¸Ð¿": 4461,
  "ĠÐºÐ°Ð½Ð´Ð¸Ð´": 4239,
  "ĠÐ¸Ð·Ð²ÐµÑģÑĤÐ½Ð¾ÑģÑĤÑĮ": 10118,
  "ĠÐºÐ²Ð°ÑĢÑĤÐ¸ÑĢÑĥ": 22343,
  "Ð¾Ð·Ð´Ð½ÐµÐµ": 7098,
  "ĠÐĺÐ»": 8808,
  "ĠÐ·Ð²Ð°Ð½Ð¸Ð¹": 32589,
  "ĠÑĢÐ°Ð·Ð²Ð¾ÑĢÐ°ÑĩÐ¸Ð²Ð°ÐµÑĤÑģÑı": 30377,
  "Ð»ÐµÐ¿": 6308,
  "ĠÐ½ÐµÐ½": 6071,
  "ĠÑĥÐ´ÐµÑĢÐ¶": 8463,
  "ĠÐ¼Ð°ÑĪÐ¸Ð½Ðµ": 21816,
  "ĠÑĦÐµÐ½Ð¾Ð¼": 13151,
  "ÐĳÐ°Ð»": 9933,
  "ÐµÑĩÐ½ÑĭÐ¼": 30772,
  "ĠÐ¾ÑĤÑģÐµÐºÐ°": 45901,
  "ÑħÐ¾ÑĤÑı": 15213,
  "ĠÐ¾ÑģÐº": 16979,
  "ĠÑĢÑĳÐ±ÐµÑĢ": 42380,
  "Ġ1755": 39910,
  "ĠÐ¼Ð¾Ð´ÐµÐ»Ð¸ÑĢÐ¾Ð²Ð°Ð½Ð¸Ðµ": 38114,
  "ĠÑįÑĦÑĦ": 2660,
  "ĠÐ³Ð¾ÑĢÑĨÐµÐ²": 47816,
  "ĠÑĢÐ¸Ð¼ÑģÐºÐ¸Ñħ": 17515,
  "ĠÐ¿Ð»Ð°Ð½Ð¸ÑĢÐ¾Ð²": 8964,
  "ĠÐ¨Ð°ÑĢÐ»Ñı": 38150,
  "ĠÑĦÐ¸Ð»ÑĮÑĤÑĢ": 44494,
  "ÐºÐ»Ð°Ð´": 2931,
  "ĠXbox": 34601,
  "ĠÐ¼ÐµÐ½ÑıÑİÑĤÑģÑı": 38473,
  "ĠÑģÑĢÐµÐ´Ð½Ðµ": 20515,
  "ĠÐ°ÑĢÑģÐµÐ½": 40697,
  "ĠÐ»ÑĳÐ³Ð¾Ñĩ": 48458,
  "ĠÐ½ÐµÑĢÐ°Ð²Ð½Ð¾Ð¼ÐµÑĢ": 29101,
  "ĠÐ±Ð¸ÑĤÐ²Ñĭ": 9390,
  "ÐŁÐµÑĢÐµÑģ": 47160,
  "ĠSte": 21103,
  "Ð¼ÐµÑĤÑĢÐ¸Ñĩ": 22467,
  "ĠÑģÐ¾Ð²Ð¼ÐµÑģÑĤÐ½Ð¾Ð¼": 41860,
  "ĠÐ¼Ð°ÑĤÐµÑĢÐ¸Ð°Ð»ÑĮÐ½Ð¾Ð³Ð¾": 38085,
  "ÐµÐ»ÑĮÐ½Ð¾Ð¼": 38031,
  "ĠÐ½Ð°ÑĩÐ°ÑĤÑĭ": 39307,
  "ĠDC": 30058,
  "ĠÑģÑĭÑĢÑĮÑı": 17250,
  "ĠÑĥÐ´Ð¾ÑģÑĤÐ¾Ð²ÐµÑĢ": 26297,
  "ĠÐ¼Ð°ÑĤÐµÐ¼Ð°ÑĤÐ¸ÐºÑĥ": 41697,
  "ÑıÑĤ": 474,
  "ĠÐ°ÑģÑĤÐµÑĢÐ¾Ð¸Ð´Ð¾Ð²": 46234,
  "Ðĺ": 616,
  "ĠÐ·Ð°Ð¼ÐµÑĩÐ°ÐµÑĤ": 22224,
  "ÐŃÐºÑĢÐ°Ð½": 12209,
  "ÑĥÐ·Ñĭ": 3777,
  "ĠÐ¿Ð°Ð´ÐµÐ¶": 15312,
  "ĠÑĤÐ¾Ð»ÑĮÐºÐ¾": 1048,
  "ĠÐĿÐ°ÑģÑĤ": 13403,
  "ĠÑĤÐµÐ»ÐµÑģÐºÐ¾Ð¿": 18583,
  "ĠÐ¿ÑĢÐ¾Ð·ÑĢÐ°Ñĩ": 15969,
  "ĠÐ´ÑıÐ´Ñı": 22054,
  "ĠÐ²Ð½ÑĥÑĤ": 1963,
  "Ð°Ð²ÑĢÐ¸": 35215,
  "ĠÐ¼ÐµÑģÑĤÐ½Ð¾Ðµ": 22569,
  "ÑģÐºÑĥÐ»ÑĮÐ¿": 31277,
  "ĠÐ½Ð°ÑĤÑĥÑĢÐ°": 8848,
  "ster": 21259,
  "ĠÐºÐ¾Ð»Ð»ÐµÐ³": 8639,
  "ÑĤÐ¸Ð¸": 35556,
  "ĠÑĢÐ°Ð½ÐµÐ½Ñĭ": 23824,
  "ĠÐ¾ÑģÑĤÐµ": 48810,
  "Ã®": 50178,
  "ÐµÐ½Ð³ÐµÑĢ": 7267,
  "Ð³Ð¾Ð»ÑĮ": 5886,
  "ĠÐ¿Ð¾ÑģÑĳÐ»ÐºÐµ": 11024,
  "ÑıÐ±ÑĢÑı": 1156,
  "ape": 26170,
  "ĠÑģÐ²Ð°Ð´ÑĮÐ±Ñĭ": 25448,
  "З": 227,
  "ĠÐ²Ð²ÐµÑģÑĤÐ¸": 20325,
  "Ð¾ÑĩÐµÑĢÑĳÐ´": 44536,
  "ĠÑĦÐµÐ´ÐµÑĢÐ°ÑĨÐ¸Ð¸": 17643,
  "New": 26592,
  "Ð¡Ð¾Ð³Ð»Ð°ÑģÐ½Ð¾": 5316,
  "ĠÐ¡ÐµÐ¼ÑĳÐ½Ð°": 44370,
  "ĠÐļÑĥÐ·Ð½ÐµÑĨÐ¾Ð²": 18428,
  "ĠÑģÐ¸Ð¼Ð¿ÑĤÐ¾Ð¼": 11100,
  "ĠÐ¾ÑģÑĥÑīÐµÑģÑĤÐ²Ð»ÐµÐ½Ð¸Ñı": 19393,
  "ĠÑģÐ¾Ð»ÐµÐ¹": 24067,
  "ÐĿÐ°Ñĩ": 6791,
  "ĠĠĠĠ": 1525,
  "ĠÐºÑĢÑĥÐ³Ð»Ð¾Ð¹": 43591,
  "ĠÑĦÐ°Ð»ÑĮ": 16276,
  "ĠÐ°Ð²ÑĤÐ¾Ð¼Ð°Ð³Ð¸ÑģÑĤ": 28951,
  "ĠÑĢÐ°Ð·Ð¾Ð³": 24240,
  "ĠÐºÐ¾ÑĤÐ¾ÑĢÐ¾Ðµ": 2639,
  "ĠÐ¾Ð²Ð»Ð°Ð´ÐµÑĤÑĮ": 36580,
  "CO": 12044,
  "Ð»Ð°ÑĪ": 2262,
  "ĠÐ¡Ð°Ð¹Ð¼Ð¾Ð½": 32419,
  "ĠÐĺÑģÐ»Ð°Ð½Ð´Ð¸Ð¸": 32822,
  "Ð½Ð¾Ð³ÐµÑĢÐ¼Ð°Ð½": 44895,
  "ĠÐ¾ÐºÐ°Ð½ÑĩÐ¸Ð²": 32983,
  "ĠÐ¤ÑĢÐ°Ð½ÐºÐµÐ½": 33573,
  "ĠModel": 45177,
  "ĠÑĪÐ°Ð±Ð»Ð¾Ð½": 46968,
  "ĠÐºÐ¾ÑĢÑĢÑĥÐ¿ÑĨÐ¸Ð¸": 27375,
  "ĠÐ¿Ð°ÑģÑģÐ°Ð¶": 4354,
  "ĠÐĵÑĢÐ¾Ð·": 10230,
  "ĠÐ¿ÑĢÐ°ÐºÑĤÐ¸ÐºÐ¾Ð²": 25201,
  "ÑĦÑĥÐ½ÐºÑĨÐ¸Ð¾Ð½Ð°Ð»ÑĮ": 30560,
  "ĠÐ´Ð¾Ð±ÑĢÐ°ÑĤÑĮÑģÑı": 24708,
  "ĠÐ¡ÑĤÐ°ÑĢÐ¾Ð¼": 40331,
  "ĠÐ¿ÑĢÐ¸Ð²ÐµÐ´ÐµÐ½Ñĭ": 21006,
  "Ð¾Ð·Ð½Ð°Ð²": 21176,
  "ÑĥÐ¶Ð´Ð°ÑİÑĤ": 40230,
  "Ð°ÑĢÐ°ÐºÑĤÐµÑĢ": 1574,
  "ĠÑģÐ¾ÑĤÑĢÑĥÐ´Ð½Ð¸ÐºÐ°": 29559,
  "ĠÐ¿ÑĢÐµÐ¼ÑĮÐµÑĢ": 5653,
  "ÐĳÐ°Ð¹": 26796,
  "ĠÐ²ÑĢÐ°ÑĩÐµÐ±": 33766,
  "ĠÐĳÐµÑģÑĤ": 23526,
  "ĠVal": 21891,
  "rim": 45313,
  "ĠÑħÑĥÐ´Ð¾Ð¶Ð½Ð¸ÑĨÐ°": 29750,
  "Ð°Ð²ÑĪÐµÐ¼ÑģÑı": 40475,
  "ĠÑģÐ¿ÐµÑĪÐ½Ð¾": 46325,
  "ĠÐ´Ð¸Ð°Ð»": 5210,
  "ĠÐ²Ð·Ð³Ð»ÑıÐ´Ñĭ": 12384,
  "ĠÐ¿Ð¾Ð´Ð½ÑıÐ»": 27547,
  "ĠÐ¿ÑĢÐ¸Ð¿Ð¸ÑģÑĭÐ²Ð°": 39173,
  "ÐĺÐ·Ð´Ð°Ð½Ð¸Ñı": 30151,
  "ĠÐ¼ÐµÐ½ÐµÐµ": 2324,
  "ĠÐ¶ÑĳÐ»ÑĤÐ¾Ð³Ð¾": 38153,
  "ĠÑĥÐ½Ð¸ÐºÐ°Ð»ÑĮÐ½ÑĭÐ¼": 45723,
  "Ð¾ÑģÐµ": 6080,
  "ĠÑįÑĤÐ°Ð¶Ð°": 31553,
  "Ð¸ÑĤÐµÐ»ÑĮÐ½Ð¸ÑĨÐ°": 25950,
  "ĠÐ·Ð°Ð²ÐµÐ´ÐµÐ½Ð¸ÑıÑħ": 33933,
  "ÑĢÐµÐ·Ð²": 6402,
  "ÐŁÐ°Ð¼ÑıÑĤ": 12433,
  "ĠÐ±ÐµÑģÐ¿ÑĢÐµÑĨÐµÐ´": 43457,
  "ÐµÐ½ÑĩÐ°ÑĤ": 19310,
  "ĠÐķÐ²Ð³": 4560,
  "ĠÑİÑĢ": 45208,
  "ÑĬÑıÐ²": 12442,
  "Ġ1928": 6968,
  "ĠÑĩÐ°ÑģÑĤÐ¾ÑĤ": 9965,
  "Ð»": 297,
  "ĠÐĴÑģÐµÐ¼Ð¸ÑĢÐ½Ð¾Ð¹": 21133,
  "ĠÐ¿ÐµÑĢÑģÐ¿ÐµÐºÑĤÐ¸Ð²Ð½ÑĭÑħ": 44840,
  "ĠÑĥÑģÑĤÐ°Ð½Ð¾Ð²Ð»ÐµÐ½Ð½Ð¾Ð³Ð¾": 42697,
  "ĠÐ¿Ð»ÐµÑĩÐ¸": 49153,
  "ĠÑįÐ·Ð¾ÑĤÐµÑĢ": 38167,
  "ĠÐ¿ÑĢÐµÐ¿Ð°ÑĢÐ°ÑĤÐ°": 17119,
  "Ð°ÐºÐ¾Ð½": 3522,
  "ĠÐ¿Ð¾Ð»ÑĮÑģÐºÐ¸Ðµ": 29162,
  "ĠÐ¸Ð½Ð´Ð¸Ð²Ð¸Ð´ÑĥÐ°Ð»ÑĮÐ½ÑĭÑħ": 28910,
  "ĠÐŁÐ¾ÑģÐºÐ¾Ð»ÑĮÐºÑĥ": 9456,
  "ĠÐ»Ð°ÑĥÑĢÐµ": 19217,
  "ĠÐºÐ¾Ð½ÑĤÐµÐºÑģÑĤÐµ": 15275,
  "ĠÐ½Ð°ÑģÑĤÐ°": 14263,
  "ÐµÑģÑģÐ¸Ð¼": 42987,
  "ĠÐĳÑĥÐ´Ð°Ð¿ÐµÑĪÑĤÐµ": 46753,
  "Ġ240": 19535,
  "ĠÐ°ÐºÑĤÐ¸Ð²": 1916,
  "ĠÑıÐ·ÑĭÐº": 2600,
  "ÑģÐ¸Ð»": 21177,
  "ĠÐ³ÐµÐ¹Ð¼": 37364,
  "ĠÐ½Ð°ÑģÑĤÐ¾ÑıÑīÐ¸Ñħ": 38803,
  "ĠÐ±ÑĢÐ°": 3077,
  "ĠÐľÐ°Ð¹Ð°Ð¼Ð¸": 36366,
  "Ð»Ð°ÑĤ": 2432,
  "Ð°ÑĢÐ¸Ð°ÑĤÐ°": 21796,
  "ĠÑĥÐ²Ð»ÑĳÐº": 35655,
  "Ð³ÑĥÐ»Ð°": 43267,
  "ĠÑıÑĢ": 4391,
  "ĠÐ´ÑĢÐµÐ²Ð½ÐµÐ³ÑĢÐµÑĩÐµÑģÐºÐ¾Ð³Ð¾": 40393,
  "ĠÑĤÐ°ÐºÐ¸Ð¼Ð¸": 10140,
  "ÑħÐ¸ÑĢÑĥÑĢÐ³": 42384,
  "ĠÑģÐ¼ÐµÑĪÐ°Ð½Ð½Ð¾Ð¹": 46291,
  "ĠPublishing": 34294,
  "ĠÐ¿ÑĥÐ´Ð¾Ð²": 34664,
  "Ð°ÑģÑĤÑĥÑİ": 35635,
  "ĠÐ´Ð¸ÑģÐºÑĥÑģÑģÐ¸Ð¸": 24307,
  "ĠÐ»Ð¸Ð½ÐµÐ¹Ð½ÑĭÑħ": 25017,
  "ĠÐ²Ð·Ð³Ð»Ñı": 5008,
  "ĠÑĢÐ°Ð·Ð¼ÐµÑģÑĤÐ¸ÑĤÑĮ": 40292,
  "Ð¸ÑģÑĤÐ¾Ðµ": 33709,
  "ĠÐ¤Ð¸Ð³": 28619,
  "ĠKar": 27791,
  "ĠÐŀÐºÐ¾Ð½Ñĩ": 12301,
  "ĠÑģÑĥÑīÐµÑģÑĤÐ²ÐµÐ½Ð½Ð¾Ðµ": 31419,
  "Ð²Ð¸Ð´Ð¸Ð¼Ð¾Ð¼Ñĥ": 10674,
  "ĠÑĤÑİÑĢÑĮ": 6200,
  "ĠÐ¸Ð·Ð³Ð¾ÑĤÐ¾Ð²Ð»ÐµÐ½Ð¸Ðµ": 25958,
  "ĠÐ±Ð»Ð°Ð³Ð¾Ð´Ð°ÑĢ": 35856,
  "ĠÐ¥Ð¾Ð´Ð¶": 36327,
  "ĠÐĽÑĮÐ²Ð¾Ð¼": 49063,
  "ĠÐ±Ð¾ÐµÐ²Ð¾Ð³Ð¾": 19857,
  "1968": 12274,
  "ĠÑįÐºÐ¾Ð½Ð¾Ð¼Ð¸ÐºÐ¾Ð¹": 47136,
  "ĠÐ·Ð¸Ð¼": 3995,
  "ĠÑĤÑĢÐ°Ð½ÑģÑĦÐ¾ÑĢÐ¼Ð°ÑĤ": 24431,
  "ĠÐ½ÐµÑĢÐ²": 7668,
  "ĠÐĳÐ¾Ñı": 23173,
  "ĠÑħÑĢÑĥÑģÑĤ": 34744,
  "ĠÐ¾ÑĩÐ¸Ñī": 17749,
  "ĠÑģÐ²Ð¾Ð¹ÑģÑĤÐ²Ð°Ð¼Ð¸": 16392,
  "ĠÐ¿Ð¾Ð¼Ð¾ÑĩÑĮ": 12639,
  "ĠÐ³Ð¸Ð¼": 4129,
  "ĠÑĪÐ¾ÑĤÐ»Ð°Ð½Ð´": 8437,
  "ĠÐ¿ÑĢÐµÐ´Ð»Ð¾Ð¶ÐµÐ½Ð°": 35573,
  "ĠÑĢÐµÐ»Ð¸Ð³Ð¸Ð¾Ð·": 3717,
  "ĠÑĢÐ°Ð·Ð²Ð¾Ð´": 11186,
  "ĠÐ±Ð¾Ð»": 2871,
  "ĠÐ¼Ð¾Ð´Ð¸ÑĦÐ¸ÑĨÐ¸ÑĢÐ¾Ð²": 22126,
  "Ġ1843": 20359,
  "ĠÑĢÐµÐ´Ð°ÐºÑĤÐ¾ÑĢÐ°": 22538,
  "ĠÐ±Ð°ÑĪÐ½Ðµ": 31324,
  "ĠÑģÐºÐ¾Ð»ÑĮÐºÐ¾": 11762,
  "ĠÐ¾ÑĤÐ´ÑĭÑħ": 7507,
  "ĠÐ¿ÑĢÐ¸Ð²Ð»ÐµÑĩÑĮ": 21961,
  "ĠÐ¿Ð¾Ð²ÑĢÐµÐ¶Ð´": 8134,
  "Ð½Ð¸Ð³Ð¾Ð²": 11668,
  "1907": 15030,
  "ĠÐĶÐµÐ½": 8420,
  "Ð¸Ð²ÑĪÑĥÑİ": 13846,
  "ĠÑģÑĥÐ¼ÐµÐ»Ð¸": 27225,
  "ÑĪÐµÐ¹ÑģÑı": 16940,
  "ĠÐ½Ð°Ð»Ð¾Ð³Ð°": 29697,
  "ĠÐŃÐ²Ð°Ð½Ñģ": 38927,
  "ĠÑİÐ½Ð¾ÑĪÐ¸": 44047,
  "ĠÐºÐ¾ÑĤÐ¾ÑĢÐ¾Ð¼": 2256,
  "ĠÐĺÐ½ÑĦ": 30838,
  "ĠÐ·Ð°Ð½Ð°Ð²": 43767,
  "ĠÑģÐ±Ð°Ð»Ð°Ð½Ñģ": 46718,
  "ĠÑįÑĦÑĦÐµÐºÑĤÐ¸Ð²Ð½Ð¾Ð¹": 35544,
  "ĠEng": 23708,
  "ĠÐ¿Ð¾Ð±": 1398,
  "ÑģÐ¸Ð½": 5992,
  "ĠÐ¿Ð¾Ð¿Ð°Ð»Ð¾": 39411,
  "ĠÐŁÐ¾ÑĢÑĤÑĢÐµÑĤ": 40253,
  "ĠÐ°ÑįÑĢÐ¾Ð¿Ð¾ÑĢÑĤÑĥ": 22931,
  "ĠÑĦÑĢÐ°Ð³Ð¼ÐµÐ½ÑĤÑĭ": 17249,
  "Ð°ÑĤÐ¾Ðº": 48542,
  "ĠÐ±ÑĢÐ¾Ð½Ð·Ð¾Ð²Ð¾Ð³Ð¾": 37597,
  "ĠÐ¾Ð±ÑĬÐµÐºÑĤÐ°Ð¼Ð¸": 24299,
  "ĠÐºÐ°ÑĤÐ¾Ð»Ð¸ÑĩÐµÑģÐºÐ°Ñı": 40566,
  "ĠÐ¾ÑģÐ²Ð¾Ð±Ð¾Ð¶Ð´ÐµÐ½Ñĭ": 38488,
  "ĠÐ²Ð¸Ð´ÐµÐ¾ÐºÐ»Ð¸": 40344,
  "ĠÑĢÐµÑĪÐ¸Ð»ÑģÑı": 33474,
  "ĠÐ³Ð¾ÑĢÐ¾Ð´Ðµ": 2033,
  "ĠÐ¶Ð°ÑĢÐºÐ¾Ðµ": 48607,
  "ĠÐºÐ¾Ð½ÑĨÐµÑĢÐ½": 47213,
  "ĠÐ¾ÑģÐ½Ð¾Ð²Ð°ÑĤÐµÐ»ÐµÐ¹": 15349,
  "ĠÑħÑĢÐ¸ÑģÑĤÐ¸Ð°Ð½Ðµ": 24770,
  "ĠÐ±ÑĥÑĢÐ³Ð¾Ð¼Ð¸ÑģÑĤ": 47777,
  "ĠÑģÑĤÐ°ÑĤÑĥÑģÐµ": 26135,
  "Ð¡Ð¼Ð¸ÑĢ": 36871,
  "ĠDog": 36877,
  "ÑĥÑĢÑģÐºÐ¾Ð³Ð¾": 24592,
  "ĠSocial": 38495,
  "ĠÐ²Ð¾Ð·Ð´Ð²Ð¸Ð³Ð½ÑĥÑĤ": 49910,
  "ĠÑģÐ¾Ð²Ð¿": 7121,
  "Ð¿Ð¾Ð»Ð¸Ð³ÑĢÐ°ÑĦ": 40942,
  "ĠÐľÐ°ÑĢÐ¸ÐµÐ¹": 29888,
  "ĠâĢŀ": 2883,
  "ĠÐ½ÐµÑģÐº": 1188,
  "Ð¡Ð¸Ð±Ð¸ÑĢÑĮ": 43230,
  "ÐŁÐ¾ÑįÑĤ": 12952,
  "ĠÐľÐ½Ð¾Ð¶ÐµÑģÑĤÐ²Ð¾": 35634,
  "Ð¼Ð¾ÑĢÑģÐºÐ¸Ñħ": 34614,
  "ĠÐ¿ÑĢÐ¾ÑĨÐµÑģÑģÐµ": 6413,
  "ĠÑĦÐ°ÑĥÐ½Ñĭ": 36285,
  "ĠÐ¿ÑĢÐµÐ´ÑģÑĤÐ°Ð²Ð»ÑıÐ»": 13537,
  "TF": 37318,
  "ts": 21945,
  "ĠÐ¸Ð·ÑĢÐ°Ð¸Ð»ÑĮÑģÐºÐ¾Ð³Ð¾": 49893,
  "ĠÐµÐ´Ð¸Ð½Ð¾Ð¼": 27364,
  "ĠÐ¸Ð·Ð´Ð°Ð½Ð¸Ñı": 6828,
  "ĠÐ§ÐºÐ°Ð»Ð¾Ð²": 41401,
  "Ð¸Ð»Ñĥ": 14622,
  "ĠÐ²ÐµÑĢÑĤÐ¸ÐºÐ°Ð»ÑĮÐ½Ð¾Ð¹": 33912,
  "ĠÐ²Ð°Ñħ": 45192,
  "SP": 20266,
  "ĠÐŀÐºÑĤÑıÐ±ÑĢÑĮÑģÐºÐ¸Ð¹": 30122,
  "ÑĢÑĥÐºÑĤÑĥÑĢÐ°": 15711,
  "ĠÐ¿ÑĢÐ¾ÑıÐ²Ð»ÐµÐ½Ð¸ÐµÐ¼": 44758,
  "300": 12144,
  "ĠÑģÐ¾Ð´ÐµÑĢÐ¶": 1745,
  "Ð²Ð¸Ð·": 22545,
  "ĠÑħÐ°ÑĢÐ°ÐºÑĤÐµÑĢÐ½ÑĭÐ¹": 32030,
  "ĠÐĺÐļ": 30104,
  "Ð³ÐµÐ»ÑĮ": 4593,
  "ĠÐºÑĥÐ¿Ð¾Ð»": 38376,
  "ÐŃÐ½ÑĨÐ¸ÐºÐ»Ð¾Ð¿ÐµÐ´Ð¸Ñı": 30047,
  "ĠÐ¾ÑĦÐ¸ÑĨÐ¸Ð°Ð»ÑĮÐ½Ð¾Ð¹": 13692,
  "ĠÐ¾ÑĤÐ¿ÑĢÐ°Ð²Ð¸Ð»Ð¸": 24406,
  "Ð¾Ð²Ð¾Ðµ": 4946,
  "ĠÑģÐµÑĢÐµÐ±ÑĢÑıÐ½ÑĭÐµ": 28632,
  "ÐŃÐ»": 32367,
  "ĠÐ¼Ð°ÑĢÐ¸Ð¹": 33780,
  "Ð¼ÐµÐ»Ð¾Ð´": 25165,
  "Ġ1831": 17183,
  "ĠÐ¿ÑĢÐ¾Ð´Ð¾Ð»Ð¶Ð°Ñı": 38712,
  "ĠÐ·Ð°Ð¼ÐµÐ½Ð¾Ð¹": 41801,
  "ÐĹÐ°ÑĤÐµÐ¼": 24362,
  "ĠÐ¡ÐµÐ»ÑĮ": 17414,
  "ĠÐ¡ÐµÑĢÐ³ÐµÐµÐ¼": 26960,
  "ÐŀÑĤ": 3013,
  "Ð»Ð¸ÑģÑģ": 38260,
  "ÐĻÐ¾ÑĢÐºÐ°": 20528,
  "ĠÐĵÑĢÐ¸Ð³Ð¾ÑĢÐ¸ÐµÐ¼": 44570,
  "ĠÐĿÐ°Ð´ÐµÐ¶Ð´Ñĭ": 39695,
  "ĠIn": 2512,
  "ĠÐ¼ÐµÑĤÐ°Ð»Ð»ÑĥÑĢÐ³Ð¸ÑĩÐµÑģÐºÐ¾Ð³Ð¾": 43108,
  "Ð¢Ð¸ÑĤ": 34705,
  "ĠÐ¤Ð°ÑĢÐ°": 26275,
  "ĠÑİÐ½Ð¾ÑĪÐµÑģÑĤÐ²Ð°": 48193,
  "ĠÑģÐ·Ð°Ð´Ð¸": 32423,
  "ĠÐºÐ°ÑĤÐ°ÑģÑĤÑĢÐ¾ÑĦÑĭ": 20977,
  "ÐĽÑĮ": 27526,
  "ĠÐºÐ¾Ð»Ð¾Ð½Ð¸": 14342,
  "ĠÐĵÐµÑĢÐ±": 11093,
  "ĠÑģÑĤÑĢÐ°Ð½Ð¸ÑĨÐµ": 31949,
  "ĠÐ³Ð¸ÑĤÐ°ÑĢÐµ": 32943,
  "ÐŁÐ»Ð°Ð½": 18558,
  "ĠÐĴÐµÑģÑĤ": 7859,
  "ĠÐ¾ÑĦÐ¸ÑĨÐ¸Ð°Ð»ÑĮÐ½ÑĭÑħ": 13798,
  "ÑĢÐ°ÑĤÐµÐ»ÑĮ": 26113,
  "Ð¸ÑĢÑĥÑİÑīÐµÐ³Ð¾": 24363,
  "ĠÐ²ÑĭÐºÑĥÐ¿": 12212,
  "uper": 48005,
  "ĠÐºÐ²Ð°Ð½ÑĤÐ¾Ð²ÑĭÑħ": 42951,
  "ÐĲÐ²ÑĤ": 15097,
  "ĠÐĵÐ½ÐµÐ¹": 36427,
  "ÑıÐ½Ð¾Ð¼": 50101,
  "ĠÐ¿Ð¾Ð½ÑıÑĤÐ¸Ñı": 7994,
  "ÑĥÐ»Ð°": 6566,
  "ĠÐ¿Ð°ÑĢÐ°Ð·": 18141,
  "ĠÐ¿ÑĥÑĤÑĳÐ¼": 4689,
  "ĠÐ¾Ð·ÐµÑĢÐ°": 7271,
  "1978": 12569,
  "Ð»Ð°Ð³Ð¸": 15678,
  "ĠÑĩÐ¸ÑģÑĤÑĭÑħ": 43088,
  "IS": 17242,
  "ÐµÐ¶ÑģÐºÐ¸Ð¹": 35563,
  "ĠÐŃÐ¼Ð¸Ð»Ð¸": 27336,
  "ÑĢÐ°Ð½ÑģÐ¿Ð¾ÑĢÑĤÐ°": 37265,
  "ÑĭÐ½Ð¸": 20094,
  "ĠCla": 45020,
  "ÐļÐ°Ð¹": 42117,
  "Ð¸Ð»ÐµÑĤÐ½ÐµÐ¹": 22065,
  "ĠÑĥÐ¼Ð½Ð¾Ð¶": 16267,
  "eld": 33334,
  "ĠÐ±Ð»Ð°Ð³Ð¾ÑĥÑģÑĤÑĢÐ¾": 38015,
  "ĠÐ²ÑĭÐ¿ÑĥÑģÑĤ": 4826,
  "ĠÑĤÑĥÑĢÐ¸ÑģÑĤÐ¸ÑĩÐµÑģÐºÐ¸Ñħ": 42948,
  "ĠÐºÐ»Ð¸Ð¼Ð°ÑĤÐ¸ÑĩÐµÑģÐºÐ¸Ñħ": 41377,
  "ĠÐ¿ÑĢÐ¸ÑĪÐ»Ð¾": 20536,
  "ĠÐĲÐ½Ð½Ð°": 7529,
  "ĠÐļÐ¸ÑĤÐ°Ðµ": 8627,
  "ĠÐ°Ð»ÑĮÐ±Ð¾Ð¼": 1991,
  "Ð»ÑĳÐ½Ð½ÑĭÐµ": 18925,
  "ÑĥÐ¼Ð°Ð¶": 38480,
  "ĠÐ§Ñħ": 31592,
  "ĠÑĢÐ°Ð·Ð²Ð¸Ð²Ð°ÑĤÑĮÑģÑı": 19262,
  "Ð¿ÐµÑģ": 26214,
  "Ð²ÐµÑĤÐ°": 4046,
  "ĠÐŁÑĥÐ³": 19923,
  "ĠÑĪÐ°Ð½ÑģÐ¾Ð²": 49858,
  "ÑĤ": 293,
  "ĠÐ¼Ð°Ð»ÑĮÑĩÐ¸ÐºÐ¾Ð²": 29167,
  "ĠÐ»Ð¸ÑĤÑĮ": 41778,
  "conom": 17261,
  "ĠÐ½Ð°ÑĢÐºÐ¾Ð¼": 21808,
  "ĠÐ¿ÑĢÐµÐ´ÑģÑĤÐ°Ð²": 974,
  "ÐµÐ³Ð°Ñģ": 25504,
  "ĠÐĴÐ¾Ð·Ð¼Ð¾Ð¶Ð½Ð¾": 11967,
  "ĠÑģÐ¾Ð±Ð¸ÑĢÐ°ÐµÑĤ": 37012,
  "ĠÐºÐ¾ÑĢÐ¾Ð»ÐµÐ²ÑģÐºÐ¾Ð³Ð¾": 15735,
  "ĠÐŁÐ¾Ð¼Ð¿": 15297,
  "ĠÐ¿Ð¾Ð³ÑĢÐ°Ð½Ð¸ÑĩÐ½Ð¾Ð¹": 38926,
  "ĠÑĤÐ¸ÑħÐ¾Ð¾ÐºÐµ": 39235,
  "ÐµÐ¼ÑĭÐ¼": 10918,
  "о": 266,
  "ĠÐ¾Ð±Ð¾ÑĢÑĥÐ´Ð¾Ð²Ð°Ð½Ð¸Ñı": 8620,
  "ĠÐĶÐ¾ÑĢÐ¾Ð³": 40337,
  "Ġ181": 45679,
  "Ð°Ð¹ÑģÐºÐ¾Ð³Ð¾": 20693,
  "ĠÐ¿Ð¾ÑģÐ¼ÐµÑĢÑĤ": 39752,
  "ĠÐºÐ¾Ñĩ": 11685,
  "ĠÑģÑĤÐ°ÑĢÑĪÐ°Ñı": 34532,
  "ĠÐºÐ¾Ð¼Ð¿Ð¾Ð·Ð¸ÑĨÐ¸Ð¸": 9449,
  "ĠÐ¸Ð½Ð²ÐµÐ½ÑĤ": 33816,
  "/,": 35375,
  "ĠÐĿÐ¾Ð²Ð¾Ð¹": 9573,
  "ĠÐĿÐ°ÑĢÑıÐ´Ñĥ": 23183,
  "ÑĤÐµÐ½": 3210,
  "ĠÑģÑĤÐ°ÑĢÑĪÐµ": 14537,
  "AX": 42273,
  "ĠÑģÑĥÑīÐµÑģÑĤÐ²Ð¾Ð²Ð°Ð²ÑĪÐµÐ³Ð¾": 48655,
  "ĠÐ±Ð¾Ð»ÑĮÑĪÐ¾Ð³Ð¾": 7470,
  "Ð¾ÑģÑĤÐ¾Ð²ÐµÑĢ": 23435,
  "ĠÐ¾ÑĢÐ¸ÐµÐ½ÑĤÐ°ÑĨÐ¸Ð¸": 19943,
  "ĠÐ²ÑĭÐ¿Ð¾Ð»Ð½ÐµÐ½Ð¸Ñİ": 49302,
  "ÑģÑĤÑĢÐ¾Ð¹ÑģÑĤÐ²Ð¾": 28697,
  "ĠÐ¿Ð¾Ð²ÐµÑĢÐ½": 25138,
  "ĠÐ¸ÑģÐºÐ»ÑİÑĩÐ¸ÑĤÐµÐ»ÑĮÐ½Ð¾": 7248,
  "ĠÐĳÐµÐ»Ð°ÑĢÑĥÑģ": 9278,
  "ĠÑģÐºÐ²Ð°Ð¶": 24849,
  "ĠÐ¿Ð¾Ð´Ð¿Ð¾Ð»ÐºÐ¾Ð²Ð½Ð¸ÐºÐ°": 41489,
  "ĠÑģÐºÐ°": 8976,
  "ĠÐľÑıÑģ": 30242,
  "ĠÐ¿ÑĢÐ¾Ð²Ð¸Ð½ÑĨÐ¸Ð¸": 5095,
  "ĠZ": 3735,
  "ĠÑģÐ°ÑĤÐ¸ÑĢÑĭ": 39346,
  "ĠÐºÐ¾Ð½ÑĦÐ»Ð¸ÐºÑĤÐ°": 11011,
  "ĠÐ·Ð°Ð²Ð¸ÑģÑıÑī": 28207,
  "ĠÐ¾ÐºÐ°Ð·Ð°ÑĤÑĮ": 25990,
  "ÑħÐµÐ¼Ð°": 27842,
  "ĠÐ¾ÑģÐ°Ð´ÐºÐ¸": 38382,
  "ĠÐ¶Ð¸ÑĤÐµÐ»ÑıÐ¼Ð¸": 18578,
  "ĠÑģÐ³Ð»Ð°Ð¶": 48768,
  "ĠÐ²ÑĭÐ½": 13071,
  "ĠÐĳÐ¾Ð³Ð´Ð°Ð½Ð°": 44321,
  "ĠÑıÐ·ÑĭÐºÐ°Ñħ": 6015,
  "Ð¾Ð»Ð¾Ðº": 17637,
  "ĠÐ¿Ð¾Ð»Ð½Ð¾Ð¼": 4691,
  "ĠÐľÐ°ÑĢÑĮ": 36468,
  "ÐķÐºÐ°ÑĤÐµÑĢ": 32276,
  "ĠÐ½ÐµÐ¾Ñģ": 37564,
  "ĠÐĿÐ¾Ð¹": 25948,
  "ĠÑĢÐ°ÑģÑħÐ¾Ð´ÑıÑĤÑģÑı": 38669,
  "ÑĥÑĢÐ±": 48549,
  "ĠÐ¢Ð°Ð±": 15265,
  "ĠÑĢÑıÐ´Ðµ": 8323,
  "ĠÐ²ÐµÐ½ÐµÑĨÐ¸": 17827,
  "ĠÐľÐ»Ð°Ð´ÑĪÐ¸Ð¹": 28354,
  "ÐľÐ°ÑĢÑĤ": 19329,
  "ĠÐ®Ð¶Ð½Ð¾Ð¼": 20906,
  "ĠÑģÑĤÐ°Ð²Ð¸Ð»": 31391,
  "ÑĥÐ½ÑĮ": 8827,
  "ĠÐºÐ°ÑĦ": 4508,
  "ĠÐ´ÐµÐ±ÑİÑĤ": 6981,
  "ÑĢÐ¾Ð²ÐºÐ°": 19179,
  "ĠÐ¿Ð°Ð¼ÑıÑĤÐ½Ð¸ÐºÐ°Ð¼Ð¸": 41519,
  "ience": 17353,
  "Ð¸Ð¾Ð³ÑĢÐ°ÑĦÐ¸Ñı": 3066,
  "ĠÐ¥ÑĥÑģÐµÐ¹Ð½Ð°": 38064,
  "ĠÐ¸Ð±Ð½": 10229,
  "ĠÐ¸ÑģÐ»Ð°Ð¼ÑģÐºÐ¸Ñħ": 47243,
  "ÑĢÐ¾Ð·": 2441,
  "ĠÑĤÐ¾Ð³Ð´Ð°": 3024,
  "ĠÐ¶Ð¸ÑĢ": 18673,
  "ĠÑģÐµÑĢÑĭ": 27527,
  "ĠÑĢÑĭÐ±": 5203,
  "ĠÑħÐ¸Ð¼": 2908,
  "ĠÑģÐ¾Ð²ÐµÑĢÑĪÐµÐ½Ð¸Ð¸": 44019,
  "ĠÑħÐ¸ÑīÐ½ÑĭÑħ": 47316,
  "Ð¿Ð°Ð´Ð¾Ðº": 30000,
  "ĠÐ²Ð¾ÑģÑģÑĤ": 2012,
  "ĠÑģÐ¾Ð»ÑĮÐ½ÑĭÐ¹": 36291,
  "ĠÐ²Ð¾Ð»Ð¾Ðº": 16774,
  "ĠÐļÐ¸Ð±": 28781,
  "Ð¡Ð¿Ðµ": 27686,
  "ĠÐľÐµÐºÑģÐ¸ÐºÐ¸": 20621,
  "ÐµÐ»Ð»Ðµ": 20463,
  "ĠÐ·Ð¼ÐµÐ¹": 26713,
  "ĠÐ¾Ð±ÐµÑģÐ¿ÐµÑĩÐ¸Ð²Ð°ÑİÑĤ": 21301,
  "ĠÐ¾Ð¿ÐµÑĢÑĭ": 11918,
  "ĠÑģÑĢÐµÐ´Ð½ÑİÑİ": 23575,
  "ĠÐļÐ¸Ð½": 7203,
  "ĠSyn": 41844,
  "ÐŁÐµÑĢÑģÐ¾Ð½": 5469,
  "Ð»ÐµÑĤÐ°": 14896,
  "ĠÐ·Ð°ÐºÐ¾Ð½Ð¾Ð´Ð°ÑĤÐµÐ»ÑĮÑģÑĤÐ²Ð°": 17508,
  "ĠÐŀÑģÐ½Ð¾Ð²Ð½ÑĭÐ¼": 23343,
  "ĠÐ¾ÑģÑĤÐ°Ð²Ð¸Ð»Ð¸": 21624,
  "Ð¾ÑĪÐ»Ð¾": 41564,
  "ĠÐ³ÑĢÐ°Ð´": 9230,
  "ĠÐ¿ÑĢÐ¾Ð¸Ð·Ð²Ð¾Ð´ÑģÑĤÐ²ÐµÐ½Ð½ÑĭÐµ": 37285,
  "ĠÐ±Ð°ÐºÑĤ": 9623,
  "ĠÐ´Ð¾Ð±Ð°Ð²Ð»ÑıÐµÑĤÑģÑı": 41413,
  "ĠÐĿÐ¸Ð´ÐµÑĢÐ»Ð°Ð½Ð´": 8566,
  "ĠÐ¾ÑĤÑĢÐµ": 21662,
  "ĠÐ¿Ð¾ÑģÑĤÐ°Ð²ÐºÐ¸": 23784,
  "ĠÐ¿ÐµÑĢÐ¸Ð¾Ð´Ð¸ÑĩÐµÑģÐºÐ¸Ñħ": 39758,
  "ĠÑĢÐ°Ð±Ð¾ÑĤÐµ": 4504,
  "ĠÑıÐ²Ð»ÑıÑİÑīÐ°ÑıÑģÑı": 36471,
  "ĠÐĺÐ½ÑģÑĤÐ¸ÑĤÑĥÑĤÐµ": 23500,
  "ĠÐ¡Ð¸Ð´": 8838,
  "ÑĥÐ´Ð¾Ð²": 18212,
  "ĠÐ¾ÑģÐµÐ½ÑĮ": 28423,
  "ĠÐºÐ¸ÑģÐ»Ð¾ÑĢÐ¾Ð´": 13750,
  "Ð¿ÑĢÐ¾Ð¼": 11671,
  "ĠÐ¿ÑĢÐ¸Ð²Ð¾Ð´Ð¸Ð»": 43589,
  "Ð¸ÑģÑģÐ»ÐµÐ´Ð¾Ð²Ð°ÑĤÐµÐ»ÑĮÑģÐºÐ¾Ð³Ð¾": 42824,
  "ÑĳÐ½Ð½Ð¾ÑģÑĤÐ¸": 9333,
  "ĠÐ¿ÑĢÐ¾ÑĪÐµÐ´ÑĪÐ¸Ðµ": 47097,
  "\".": 11509,
  "ĠÐ´Ð»Ð¸Ð½Ð¾Ð¹": 7897,
  "ĠÑĤÑĢÐ°Ð´Ð¸": 2712,
  "ĠÐļÑĥÑĢÑģÐºÐ¾Ð¹": 19273,
  "ÑĨÐµÐ²": 1047,
  "ÐĿÐł": 7400,
  "ĠÐ¿ÐµÑĢÐµÐ´Ð²Ð¸Ð¶ÐµÐ½Ð¸Ñı": 27281,
  "ĠÑĦÐ¾ÑĢÐ¼Ð°ÑĤÐµ": 15473,
  "ÐµÑĩÐ¸ÑģÐ»ÐµÐ½": 41671,
  "ĠÐ¿Ð¾Ð¿Ð°Ð´Ð°ÑİÑĤ": 23641,
  "ĠÑĢÐ°Ð·Ð²Ð»ÐµÑĩ": 27528,
  "ĠÐ¸ÑģÐºÐ»ÑİÑĩÐµÐ½Ð¾": 39151,
  "Ð¸Ð¾Ð½Ð½Ð°Ñı": 38570,
  "ĠÐ¿Ð¾Ð·Ð´ÑĢÐ°Ð²": 33595,
  "ĠÐļÐĳ": 16789,
  "ĠÑģÑĤÐ°ÑĢÐ¸Ð½Ð°": 41257,
  "Ð·Ð°Ð±": 36341,
  "ĠÐ°Ð¼Ð¿Ð»Ð¸ÑĤ": 21550,
  "Ð¸ÑĩÐµ": 39130,
  "74": 5063,
  "Ð°Ð¼Ð¾Ð²": 45603,
  "ĠÐºÐ¾ÑĢÐ°Ð±Ð»ÑıÑħ": 30426,
  "ĠÑĥÑĤÑĢÐ°Ñĩ": 14009,
  "ÐµÐ´Ð°Ð³Ð¾Ð³": 4021,
  "ĠÐ¸Ð³ÑĢÐ¾Ð²Ð¾Ð³Ð¾": 27920,
  "ĠÐ½Ð¾ÑģÐ°": 31986,
  "ĠÐĵÑĢÐ°Ð½Ð¸ÑĩÐ¸ÑĤ": 48141,
  "ĠÐ´Ð²Ð¸Ð³Ð°ÑĤÑĮÑģÑı": 27927,
  "ÐµÑĢÐµÐ¸": 45395,
  "Ð²ÑĢÐµÐ¼ÐµÐ½": 22072,
  "ĠÐ¢Ð°Ð¼Ð°ÑĢÐ°": 30425,
  "Ð¸ÑģÑĨÐ¸Ð¿Ð»Ð¸Ð½": 45950,
  "ĠÐµÑģÑĤÐµÑģÑĤÐ²Ð¾": 32710,
  "ĠÐ¡ÑĤÑįÐ½Ð»Ð¸": 16862,
  "ĠÐ¿ÑĢÐµÐ¶": 6528,
  "ĠÐ¢Ð¸Ð¼ÑĥÑĢÐ°": 41469,
  "ÑĨÐ¸Ð°Ð»Ð¸ÑģÑĤ": 2725,
  "ĠÐ±ÑĭÐ²ÑĪÐ¸Ð¼Ð¸": 41794,
  "ĠÐ¿Ð°ÑģÑģÐ°Ð¶Ð¸ÑĢÑģÐºÐ¸Ð¹": 27512,
  "ĠÐŁÐ°ÑģÑģÐ°Ð¶Ð¸ÑĢ": 49021,
  "ĠÐ¿ÐµÑĢÐµÐ²ÐµÐ·": 20195,
  "ĠÐ´Ð¾Ð»Ð¶Ð½Ð¾ÑģÑĤÐ¸": 5812,
  "ĠÑĦÐµÐ´ÐµÑĢÐ°Ð»ÑĮÐ½ÑĭÐ¼": 37306,
  "ÐĿÐµÐ¿": 16173,
  "ĠÑĢÐµÐ²Ð¾Ð»ÑİÑĨÐ¸ÐµÐ¹": 41857,
  "Ð¸ÑģÐ¿ÑĭÑĤÐ°ÑĤÐµÐ»ÑĮ": 28397,
  "ĠÐ¡ÑĤÑĢÐ°Ð½Ð°": 36905,
  "ĠÐŁÐ¾ÑĤÐ¾Ð¼": 18541,
  "Ġ59": 14311,
  "ĠÑĦÐ¸Ð½Ð°Ð½ÑģÐ¸ÑĢÐ¾Ð²Ð°Ð½Ð¸Ñı": 21657,
  "ÑĢÐµÐ·Ð²ÑĭÑĩÐ°Ð¹": 6677,
  "ĠÐ¨ÐµÑģÑĤ": 19269,
  "ĠÐºÐ¾Ð»ÑĳÑģÐ°": 40118,
  "ĠÑĢÐµÑģÐ¿ÑĥÐ±Ð»Ð¸ÐºÐ°Ð½ÑģÐºÐ¸Ñħ": 50065,
  "ĠÐ¿Ð¾ÑģÑĤÐ°Ð²Ð»ÐµÐ½Ð°": 22221,
  "ĠÑģÑĤÐ°Ð½Ð´Ð°ÑĢÑĤÐ½Ð¾Ð¹": 27227,
  "ÐĲÐ½ÑĤ": 9879,
  "ĠÐ¿ÐµÑģÐ¾Ðº": 38605,
  "ĠÐ·Ð²ÐµÐ·Ð´Ð°": 10354,
  "ÐŁÐ°ÑĢÐ¸": 21110,
  "ĠÑĤÐµÑĢÑĢÐ¸ÑĤÐ¾ÑĢ": 1182,
  "ÐµÐ·Ð°Ð¿": 9284,
  "ĠÐĴÐµÑĢÐ´Ð¸": 48335,
  "ĠÐ¼Ð¾Ð¼ÐµÐ½ÑĤÑĥ": 13637,
  "Ñĭ": 302,
  "ĠÐ·Ð°ÑĢÑĥÐ±ÐµÐ¶Ð½ÑĭÑħ": 18206,
  "ĠÐ¾Ð±Ð¾Ð·Ð½Ð°ÑĩÐ°ÑİÑĤ": 30614,
  "ĠÐºÐ°Ð´": 4994,
  "ĠÐŁÐµÑĢÐ²Ð°Ñı": 7882,
  "Ġel": 23363,
  "ĠÐ³ÑĢÐ°ÑĦÐ¸ÐºÐµ": 46566,
  "ĠÐ¼Ð°Ð³Ð°Ð·Ð¸Ð½": 18532,
  "ĠÑģÐ¾": 565,
  "ĠÐ¾ÐºÐºÑĥÐ¿Ð°": 25735,
  "ĠÐĳÑĢÐ¸ÑĤÐ°Ð½Ð¸Ð¸": 18420,
  "ĠÐŁÐ¾Ð»ÑĥÑĩÐ¸Ð²": 30324,
  "ÑĥÐ²ÑģÑĤÐ²": 18688,
  "Ð¿Ð¸ÑģÐº": 2409,
  "ĠÐ·Ð°Ð½ÑıÑĤ": 6422,
  "Ð¸ÑħÐ¾ÑĤÐ²Ð¾ÑĢÐµÐ½Ð¸Ðµ": 48529,
  "ĠÑģÑĤÐµÐºÐ»Ð¾": 24684,
  "ĠÐ¸Ð·Ð¾Ð±ÑĢÐµÑĤ": 6176,
  "ep": 4830,
  "ĠÐ½Ð°ÑħÐ¾Ð´Ð¸Ð»Ð¾ÑģÑĮ": 13149,
  "Ð²ÑĳÑĢÑĤ": 5569,
  "ĠÑĢÐ°ÑģÐ¿ÑĢÐ¾ÑģÑĤÑĢÐ°Ð½ÑĳÐ½Ð½ÑĭÐ¼Ð¸": 49294,
  "Ð¸Ð»ÑĮÑģÐºÐ¾Ð³Ð¾": 28733,
  "ĠÐºÑĥÑĩ": 29811,
  "ÐŁÐ°ÑĢÐ°": 16187,
  "ĠÑĩÑĥÐ²ÑģÑĤÐ²Ð°": 15206,
  "1928": 15405,
  "Ð¡Ð¾Ð²ÐµÑĤ": 9183,
  "Ð¾ÐºÐ¸Ð¹": 27191,
  "ÐµÐ½Ð¸Ñı": 423,
  "ĠÐĵÐ»Ð°Ð²Ð½Ð¾Ð¹": 24163,
  "ĠÑįÐ²Ð¾Ð»Ñİ": 7281,
  "Ð¾Ð½Ð¸ÑĤ": 39079,
  "ĠÑĤÐ¾ÐºÐ¾Ð¼": 35408,
  "Ġ99": 14969,
  "ĠÐĲÐ±": 2721,
  "Ð¾Ð·Ð²ÑĢÐ°ÑĤ": 33763,
  "Ð¿ÑĢÐ¸Ð¿": 14694,
  "Ð¢ÐµÑħÐ½Ð¾Ð»Ð¾Ð³Ð¸Ñı": 45930,
  "ÐµÐ»ÑĮÑı": 19396,
  "ĠÐĵÐ°Ð²": 7764,
  "ÐŁÑĢÐ¸Ð¼ÐµÑĩÐ°Ð½Ð¸Ñı": 1148,
  "ĠÑģÑĤÐ°Ð½Ð¾Ð²Ð»ÐµÐ½Ð¸Ð¸": 46067,
  "ĠÐ¾ÑĤÐ¼ÐµÐ½ÐµÐ½Ñĭ": 30093,
  "ĠÐ¸Ð·Ð±ÑĢÐ°Ð½Ð½ÑĭÑħ": 37152,
  "ĠÑĢÑĭÐ½": 4023,
  "ĠÐ·Ð°ÑıÐ²Ð¸Ð»": 5107,
  "ĠÐľÐ¾Ð»Ð¾ÑĤ": 36028,
  "ĠÑĤÑİÑĢÐºÐ¾": 45119,
  "ĠÐ¿Ð°ÑĢÐ°Ð¼ÐµÑĤÑĢÐ°Ð¼Ð¸": 40674,
  "ĠSon": 12220,
  "Ð¼ÑĥÐ½Ð¸ÐºÐ°": 17868,
  "ÐļÐŀ": 7297,
  "Ð½Ð¸ÐµÐ²": 45826,
  "ĠÐ¼Ð°ÑģÑģÐ°": 8879,
  "ĠÑģÐ¼ÐµÑĪÐµÐ½Ð¸Ñı": 49226,
  "ĠÐ»ÐµÐº": 4718,
  "ĠĊĠĠĊ": 37348,
  "ĠÑįÐ¿Ð¸Ð·Ð¾Ð´Ð°Ñħ": 35154,
  "ĠÐ¿ÑĢÐ¾ÑĤÐ¸Ð²Ð¾ÑĢÐµÑĩÐ¸Ð¹": 36853,
  "Ð¾Ð¼Ñĭ": 13989,
  "ĠÐ°Ð»Ðº": 26759,
  "ĠÐºÐ¾ÑĢÐ¿Ð¾ÑĢÐ°ÑĤÐ¸Ð²": 20174,
  "Ð³ÑĢÐ¾Ð¼": 25709,
  "Ð¥Ð°Ð±": 36085,
  "ĠÐ·Ð°Ð¿ÑĢÐ¾Ñģ": 18414,
  "ĠÐŁÑĮÐµÑĢÐ°": 31409,
  "ĠÐºÐ¾Ð½Ð²ÐµÐ¹": 32485,
  "ĠÐŀÑģÐ»Ð¾": 40125,
  "ÑħÐ°Ð½": 7077,
  "Ð½Ð¸ÑģÐµÐ¹": 45945,
  "ĠÐ¢ÑĥÐ½": 19797,
  "ĠÐ·Ð°ÐºÐ»ÑİÑĩÐ¸Ð»": 16088,
  "Ð¿Ð¾Ñĩ": 14912,
  "ĠÐ½Ð°ÑĤÑĥÑĢ": 28350,
  "ĠÐ·Ð°Ð±Ð»Ñĥ": 25187,
  "ĠÑĢÐµÐ·": 1063,
  "ĠÑĥÑĢÐ¾Ð´": 40222,
  "ĠÐ¿ÐµÑĢÐµÑĢÐµÐ·": 48548,
  "tera": 31173,
  "ington": 26934,
  "ĠÑĥÐ±ÐµÐ¶Ð´ÐµÐ½Ð¸Ñı": 35158,
  "ÑģÑĥÐº": 35791,
  "Ġ1962": 5641,
  "ĠÐ¿ÑĢÐ¾ÐµÐ·Ð¶": 26363,
  "ĠÐ¸Ð¼ÐµÐ½ÑĥÐµÑĤÑģÑı": 28304,
  "Ð¾Ð½Ð°": 634,
  "ÐµÐ·Ð¶Ð°ÐµÑĤ": 17181,
  "ĠÐ¼ÐµÑģÑĤÐ½ÑĭÐµ": 10774,
  "ĠÐŃÐ½Ð³ÐµÐ»ÑĮ": 17974,
  "ĠÑģÑĨÐµÐ½Ð°ÑĢÐ¸ÑģÑĤ": 7155,
  "Ð¸Ð²Ð½Ð¾Ð³Ð¾": 21890,
  "ĠÐ¾ÑĤÐºÑĢÑĭÐ»Ð°": 29130,
  "ĠÐľÐ°ÑĢÐº": 4953,
  "ĠÐ§Ð°ÑĢÐ»Ð¸": 21805,
  "ograf": 47677,
  "ÐĶÐµÑĤÑģÑĤÐ²Ð¾": 27394,
  "Ð£Ð»Ð¸ÑĨÑĭ": 46482,
  "ĠÐ¿Ð¾Ð»Ð¾Ð¶Ð¸ÑĤÐµÐ»ÑĮÐ½Ð¾": 20039,
  "ĠÐĳÑĢÐ¾ÐºÐ³Ð°ÑĥÐ·Ð°": 37608,
  "ĠÑĤÐ¾ÑĩÐ½Ð¾ÑģÑĤÐ¸": 18793,
  "ĠÑģÐ¾ÐµÐ´Ð¸Ð½Ñı": 15905,
  "ÑĥÐ»ÑĮÐ³": 46631,
  "ĠÐ¾Ð±ÐµÑģÐ¿ÐµÑĩÐµÐ½Ð¸Ðµ": 9514,
  "ÑĭÐ²Ð°Ð»Ð¸": 7092,
  "ĠÐ°Ð±ÑģÑĤ": 14918,
  "ĠÐ´Ð°Ð»ÑĮÐ½Ð¾ÑģÑĤÑĮ": 26619,
  "ĠÐ¾ÑĢÐµ": 27733,
  "ĠÐĳÐ°ÑĢÑģÐµÐ»": 23386,
  "ĠÐŀÑģÐ²Ð¾Ð±": 34994,
  "ĠÐ¸Ðº": 19037,
  "Ð±Ð°ÑĤ": 8217,
  "ĠÐ½ÐµÐ·Ð°Ð²Ð¸ÑģÐ¸Ð¼Ð¾Ðµ": 42019,
  "ĠÐ¿ÑĢÐµÐ¾Ð±ÑĢÐ°Ð·Ð¾Ð²Ð°Ð½Ð°": 27988,
  "ÐŀÐł": 36029,
  "ĠÑįÑĤÐ°Ð¿Ð°Ñħ": 27445,
  "ĠÐ¿Ð°ÑĢÑĤ": 1396,
  "Ð¤ÐµÐ´": 38998,
  "ĠÑĢÐ°ÑģÑĩÑĳÑĤ": 9285,
  "ĠÐļÐ°ÑĢÐ¸Ð½": 24732,
  "ĠÐ¿Ð¾Ð»ÐºÐ¾Ð²Ð¾Ð´ÐµÑĨ": 20908,
  "ÑģÑİÑĢ": 43426,
  "ĠÐ¿ÐµÑĢÐµÑĪ": 3752,
  "Ð¾ÑģÑĥÐ´": 822,
  "ischer": 39938,
  "ĠÑĢÐµÐ·ÑĥÐ»ÑĮÑĤÐ°ÑĤÐ¾Ð¼": 12222,
  "Ð¾Ð·Ð¼Ð¾Ð¶Ð½Ð¾": 4979,
  "ÐĲÐ»ÑĮÐ±": 28134,
  "Ð»Ð°Ð½Ð´Ð°": 40985,
  "ĠÐ½Ð°ÑħÐ¾Ð´ÐºÐ¸": 21680,
  "ĠÐ¼Ð°Ð½ÑĥÑģÐºÑĢÐ¸Ð¿": 50096,
  "ĠÐ¿ÑĢÐ¸Ð²Ð¾Ð´Ð¸ÑĤ": 5693,
  "ĠCal": 23438,
  "ĠÐĴÐ¾ÑģÑĤÐ¾Ðº": 12953,
  "ĠÐ»ÐµÐ½ÑĤÑĥ": 44198,
  "ĠÐŁÐµÑĤÑĢÐ¾": 49354,
  "ĠÐ¸Ð·Ð²ÐµÑģÑĤÐ½Ð¾Ð¼": 36434,
  "ĠÐľÐ¸Ð½Ð¸ÑģÑĤÑĢÐ°": 49801,
  "outh": 22624,
  "ĠÐ¼Ð°ÐºÑģÐ¸Ð¼": 4678,
  "Ð¡Ð¸Ð½Ð³Ð»Ñĭ": 43475,
  "ĠÐļÐ¸ÐµÐ²Ðµ": 10997,
  "ĠÐ½Ð°Ð¿Ð¸ÑģÐ°Ð½Ð¸Ñı": 17798,
  "ĠÐ¾Ð±ÑĬÐµÐ´Ð¸Ð½ÑıÐµÑĤ": 26419,
  "ĠÐļÐ¾Ð²Ð°Ð»ÑĮ": 34509,
  "ĠÐŁÑģÐµÐ²Ð´Ð¾": 46376,
  "ĠÐ²Ð¸Ð´Ð°Ð¼Ð¸": 17251,
  "ĠÑģÑĥÐ»ÑĤÐ°Ð½Ð°": 18954,
  "ĠÐ¸Ð´ÐµÑıÐ¼": 46337,
  "ĠÑģÐ¾Ð»": 7399,
  "ĠÐ§Ð¸Ð¶": 35957,
  "ĠÐ¼ÑĥÑĤÐ°": 49759,
  "ĠÑģÐ¸Ð½Ð³Ð»Ð¾Ð²": 38823,
  "ÑĢÐ¾Ð²Ð¸Ð´": 37809,
  "ĠÐ»ÑİÐ±Ð¾Ðµ": 15938,
  "ĠÐ£ÑįÐ»ÑĮÑģÐ°": 28751,
  "ĠÑĥÑĤÑĢÐ°": 16429,
  "ĠÑģÑĤÐµÐºÐ°": 46114,
  "ÐŁÑĢÐµÐ¿Ð¾Ð´Ð°Ð²Ð°ÑĤÐµÐ»Ð¸": 9341,
  "Ġ1925": 7137,
  "ĠÐĵÐ°Ð¹": 8285,
  "Ð¸Ð²": 404,
  "ĠÐŃÐ´Ð³Ð°ÑĢ": 28883,
  "ĠÐ¢Ð¾Ð»ÑĮÐºÐ¾": 10030,
  "ĠÐ½Ð°ÑħÐ¾Ð´ÑıÑīÐ¸Ð¹ÑģÑı": 25108,
  "ĠÐ¡Ð¸Ð³": 10556,
  "ĠMore": 48226,
  "Ð°Ð²Ð°Ð»Ð¸": 27701,
  "ĠÐľÐ°Ð¹ÐµÑĢ": 43652,
  "ÐĲÐ½Ð³": 27815,
  "ĠÑĤÐµÑĢÑĢÐ¾ÑĢÐ¸ÑģÑĤ": 18264,
  "Ð°Ð½ÑĤÑĢÐ¾Ð¿": 26364,
  "Ð¾ÑĢÐ¾Ð´Ð½ÑĭÐµ": 44605,
  "ĠÐ¾ÐºÑĢÐµÑģÑĤÐ½Ð¾ÑģÑĤÑıÑħ": 11474,
  "ĠÐļÐ¾Ð¼Ð¸Ð½ÑĤÐµÑĢÐ½Ð°": 44644,
  "ÑģÐºÐ°": 1143,
  "Ð°ÑĩÐµÐ²": 35881,
  "ĠÑĤÐ²Ð¾": 26033,
  "ĠÐ²ÑģÑĤÑĢÐµÑĩÐ°ÐµÑĤ": 18280,
  "ĠÐĵÐ¾Ð»Ð¾Ñģ": 39570,
  "Ð°Ð²Ð°Ð»Ð¾ÑģÑĮ": 21164,
  "ĠÐ²Ð¾Ð·Ð¼Ð¾Ð¶Ð½Ð¾": 4323,
  "ĠÐ²Ð¾Ð·Ð½Ð¸ÐºÐ°ÑİÑīÐ¸Ñħ": 47142,
  "ĠÐ¿ÑĢÐµÐ¿Ð°ÑĢÐ°ÑĤ": 7676,
  "ĠÐ¸ÑģÐ¿Ð¾Ð»ÑĮÐ·Ð¾Ð²Ð°Ð½Ð¾": 33686,
  "ĠÐŁÐµÑĤÐµÑĢÐ³Ð¾": 34604,
  "ĠÐĹÐ¸Ð¼Ð¾Ð¹": 24861,
  "ĠÐ²ÑģÐµÐ²": 26125,
  "ĠÑįÐ½ÐµÑĢÐ³Ð¸Ð¹": 43719,
  "ĠÑħÑĥÐ´Ð¾Ð¶Ð½Ð¸ÐºÐ¾Ð¼": 19475,
  "Ĳ": 201,
  "ĠÐ¿ÑĢÐ¾Ð¸Ð·Ð½Ð¾ÑĪÐµÐ½Ð¸Ðµ": 36992,
  "ÑĥÑĪ": 857,
  "ĠÐ±Ð¾Ð³Ð°ÑĤÑģÑĤÐ²Ð¾": 30807,
  "ÐµÑģÐ»Ð°Ð²": 7546,
  "ĠÑĥÐ³Ð¾Ð»Ð¾Ð²Ð½Ð¾Ð¹": 47753,
  "ĠÑĢÐ°ÑģÐ¿ÑĢÐ¾ÑģÑĤÑĢÐ°Ð½ÐµÐ½Ð°": 23642,
  "ĠÐ¾ÑĤÐ²ÐµÑĢÑģÑĤÐ¸Ðµ": 25462,
  "1946": 14101,
  "Ð¼ÑĥÐ½Ð¸ÑĨÐ¸Ð¿": 22631,
  "ĠÐĴÐ¸Ð»": 9956,
  "ĠÑħÐ»ÐµÐ±Ð¾Ð¿": 47378,
  "ĠÐ½Ð°ÑĢÐ¾Ð´Ð½Ð¾Ð¹": 11989,
  "Ð´ÐµÐ½Ð±ÑĥÑĢÐ³Ð°": 45272,
  "Ð¾ÑĤÐµÑĢ": 14114,
  "ĠÑĦÐ¸Ð³ÑĥÑĢ": 8897,
  "ÑĥÑİÑīÐ¸Ð¼Ð¸": 10923,
  "ĠÑĢÐ°ÑģÑĤÐ²": 4525,
  "ĠÐ¸Ð½Ð°ÑĩÐµ": 11614,
  "Ð¾Ð»ÑİÐ±": 11253,
  "ĠÑģÐ¾ÑĨÐ¸Ð°Ð»ÑĮ": 2695,
  "ival": 23372,
  "ĠÐ£ÑĢÐ¾Ð²ÐµÐ½ÑĮ": 31380,
  "ĠFran": 11677,
  "ĠÐ´ÐµÐ½ÐµÐ¶Ð½ÑĭÑħ": 24183,
  "ÐĳÐ¾ÑĤÐ°Ð½": 35069,
  "ĠÐ¿ÑĥÑĤÐµÑĪ": 4573,
  "ÑħÐ¾Ð¿": 27299,
  "ĠÐ§Ð¶Ð°Ð½": 34686,
  "ĠÐ¼Ð¾ÑĤÐ¸Ð²Ð¾Ð²": 37531,
  "ĠÐ½Ð°Ð»Ð¾Ð³Ð¾Ð²": 16776,
  "ĠÐ²Ð»ÑİÐ±": 12094,
  "ĠÐ¡ÑĭÐ½Ð°": 46956,
  "ÑĸÐ¹": 27571,
  "ÐµÑĪÐ½Ð¾": 16039,
  "ĠAut": 16974,
  "ĠÐºÐ°ÑĢÐµÐ»ÑĮ": 45026,
  "ĠÐ½Ð°Ð·ÑĭÐ²Ð°ÐµÐ¼ÑĥÑİ": 28391,
  "Ð¸Ð½ÑĦÐ¾ÑĢÐ¼Ð°": 37613,
  "ĠÐ¿ÑĢÐ¸": 414,
  "ĠOnline": 39526,
  "ĠÑģÐ¾ÑģÑĤÑıÐ·": 23034,
  "в": 254,
  "Ð±ÐµÑĢÑĤÐ¾": 45285,
  "ĠÐ¿Ð¾Ð¿ÑĭÑĤÐ¾Ðº": 19588,
  "ĠÐ°ÐºÑĤÑĢÐ¸ÑģÐ¾Ð¹": 30080,
  "ÐµÑħÐ¾Ð´": 18629,
  "ĠIm": 15604,
  "Ð¾ÑģÑĢÐ¾Ñĩ": 21394,
  "ÐºÐ¾Ð¼ÐµÑĤÑĢÐ°Ð¶": 13767,
  "Ð¸Ð½Ð´": 3427,
  "ÑģÐºÐ°Ð´": 20576,
  "ĠÐ³Ð»Ð°Ð³Ð¾Ð»Ð°": 21009,
  "ĠÐ¼Ð¸Ð½Ð¸ÑģÑĤÐµÑĢÑģÑĤÐ²": 47940,
  "ĠÐ¿ÑĢÐ¾ÑĪÐ»Ð¸": 9709,
  "Ð¸ÑģÑĤÑģÐºÑĥÑİ": 33190,
  "ĠÐ¿ÐµÑĢÐµÐ´Ð°Ð»": 12785,
  "ĠÑĤÑĢÐµÑħ": 11375,
  "ĠÐ½Ð°Ð·Ð²Ð°Ð½Ð¸ÑıÑħ": 38964,
  "ol": 1263,
  "Ġ1743": 44735,
  "ĠÐ²Ð¾Ð·Ð²ÐµÐ´ÐµÐ½Ð¸Ðµ": 35506,
  "ĠÐ¿ÑĢÐ¸ÑĢÐ¾Ð´Ð½ÑĭÐ¼": 48494,
  "ĠÐ¢Ð¾Ð¼": 2894,
  "ĠÐ¿ÑĢÐ¾Ð¸ÑģÑħÐ¾Ð´Ð¸ÑĤÑĮ": 26286,
  "ĠÑĢÐµÐ°Ð»Ð¸Ð·Ð¾Ð²": 40671,
  "ÐµÐ´Ð¸Ð¹": 9775,
  "raw": 36309,
  "ĠÐŁÐ¾ÑģÐ»Ðµ": 1754,
  "ÐµÐ½Ð¾Ñģ": 9609,
  "Ð±ÑĭÐ»Ð¸": 40606,
  "ĠÐ·Ð°Ð³ÑĢÑıÐ·Ð½": 11991,
  "rsg": 46027,
  "Ð¾ÑģÐ¾Ð²": 14047,
  "ĠÐ¿Ð¾Ð±ÐµÐ´Ðµ": 23270,
  "ĠÐ¡ÐµÐ³Ð¾Ð´Ð½Ñı": 20692,
  "ĠÐĵÐ¾ÑĢ": 3566,
  "ÑĬÑİÐ½ÐºÑĤ": 33258,
  "ĠSim": 20832,
  "ÐļÐ¾Ð¼Ð¼ÐµÑĢÑģÐ°Ð½ÑĤ": 43349,
  "ĠÑĢÐ°Ð·Ð¼ÐµÑĢÐµ": 13407,
  "ĠÐĴÐ¸Ð»ÑĮÐ½Ð¾": 38810,
  "Ġ1798": 23499,
  "ĠÐ°ÑģÐºÐµÑĤ": 48535,
  "ÐĳÐ°Ðº": 34134,
  "ĠÐ²ÑĭÑģÐ¼Ðµ": 35040,
  "Ð¸ÑĤÑģÐºÐ¸Ð¹": 33357,
  "ĠÐĳÐµÑĢÑĳÐ·": 23998,
  "ĠÐ¿Ð¾Ð´Ð»Ð¸Ð½": 12241,
  "ĠÐĲÑĢÑħÐ¸": 36135,
  "ĠÐ´Ð²Ð¾Ð¹Ð½Ð¾Ð¹": 20321,
  "ĠÐ¤Ð°Ð»ÑĮ": 26510,
  "oh": 8387,
  "ĠÑĨÐµÐ½Ð½Ð¾ÑģÑĤÐ¸": 16998,
  "ĠÑĤÐµÐ»ÐµÐ¿ÐµÑĢÐµÐ´Ð°ÑĩÐ¸": 48360,
  "ĠÐºÐ¸ÑĢÐ¿": 10017,
  "ĠÑĦÐ¸Ð»Ð¾Ð»Ð¾Ð³": 22792,
  "ĠÐ´ÐµÐ»ÐµÐ³Ð°ÑĨÐ¸Ð¸": 26920,
  "PC": 21054,
  "Ð¸ÑĦÐ¸ÐºÐ°ÑĨÐ¸Ñı": 6450,
  "ĠÐĺÐ½Ð½Ð¾ÐºÐµÐ½ÑĤÐ¸Ð¹": 29073,
  "Ð°Ð½ÑģÐºÑĥÑİ": 27188,
  "ÐĺÐ¼ÐµÐµÑĤÑģÑı": 47255,
  "ĠÐ¿Ð¾ÑĤÑĢÐµÐ±Ð½Ð¾ÑģÑĤÑĮ": 27095,
  "Ð¸Ð½Ð¾Ð²ÑģÐºÐ¸Ð¹": 28831,
  "Ð£ÑĩÑĳÐ½ÑĭÐµ": 29645,
  "ĠÑĤÐµÐ»ÐµÐ²Ð¸Ð·Ð¸Ð¾Ð½Ð½ÑĭÐ¹": 31934,
  "ĠÐ°ÑģÑģÐ¾ÑĨÐ¸Ð¸": 26523,
  "ĠÑįÑĤÐ°": 2337,
  "ĠÐ¿ÑĢÐ¸ÐºÐ°Ð·Ð°Ð»": 11277,
  "ÐµÑģÑģÐ¸Ð¾Ð½": 46991,
  "ĠÐ·Ð°Ð±ÑĢÐ°Ð»": 50040,
  "ĠÐ¿ÑĢÐµÐ´Ð¿Ð¾Ð»Ð°Ð³Ð°ÑİÑĤ": 25643,
  "ÑĢÑĥÑĤÐ°": 42908,
  "Ð»Ð¸ÑĨÐ°": 9968,
  "ĠÑģÐ¼Ð¾ÑĤ": 9488,
  "Ð°ÑħÐ°Ð½": 46552,
  "ĠÐ¾Ð¿ÑĢÐµÐ´ÐµÐ»ÐµÐ½Ð¸Ðµ": 9888,
  "ĠÑĥÑģÐ²Ð¾": 32181,
  "ĠÐ¼ÐµÑģÑı": 2700,
  "Ġ151": 41622,
  "Ð¾ÑĦÑĦÐµ": 43539,
  "ĠÐ¨ÑĥÑħ": 46410,
  "ĠÐ»Ð¸ÑĤÐµÑĢÐ°ÑĤÑĥÑĢÐ½Ð°Ñı": 33285,
  "ĠÐ¿Ð¾ÑıÐ²Ð¸Ð²ÑĪÐ¸ÐµÑģÑı": 25775,
  "ĠÐ¡Ð¾ÐµÐ´Ð¸Ð½": 8610,
  "ĠEr": 15697,
  "ĠÐ¿ÑĢÐ°ÐºÑĤÐ¸ÐºÐ°": 16709,
  "ÐºÐ¾Ñģ": 16330,
  "ĠÐ¶Ð¸Ð»ÑĮÑı": 24051,
  "Ð»Ð°Ð¼Ð°Ð½Ð´": 27665,
  "ĠÐ³ÐµÐ½ÐµÑĢÐ°Ð»": 2922,
  "ĠÐ¿Ð¾Ð·Ð²Ð¾Ð»Ð¸Ð»Ð¸": 17122,
  "ĠÑįÐ»ÐµÐºÑĤ": 1420,
  "ĠÐ¼ÑĥÐ»ÑĮÑĤ": 4635,
  "Ð¾Ð¿Ð»Ð°Ð²": 31703,
  "ĠÐ»ÑĥÑĩÐµÐ¹": 22468,
  "ÐµÐ³ÐµÑĤ": 18970,
  "ĠÐ¾ÑģÑĥÐ¶Ð´": 8368,
  "ĠÐĲÑĢÐ¾Ð½": 37369,
  "ĠÐ¡Ð¾Ð´ÐµÑĢÐ¶": 37366,
  "ĠÑĥÑĢÐ°Ð²Ð½ÐµÐ½Ð¸ÐµÐ¼": 47839,
  "Ð¾Ð¿Ð¾Ð½Ð¸Ð¼": 40465,
  "ÑĨÐºÐ¸Ð¹": 5920,
  "ĠÐ¡ÑĢÐµÐ´Ð½Ðµ": 33762,
  "ĠÐ·Ð°ÑģÐ»Ð¾Ð½": 49622,
  "ĠÐ¿Ð¾Ð´Ñģ": 7044,
  "ÐµÐ´ÐµÑĢÐ°": 1516,
  "ĠÐ²Ð½ÑĥÑĤÑĢÐµÐ½": 2816,
  "ĠTechn": 20909,
  "ĠÐ·Ð°ÐºÑĢÑĭÐ²": 26077,
  "ĠÐ¾Ð¿Ð°ÑģÐ½Ð¾ÑģÑĤÐ¸": 14307,
  "ĠÐĶÐ°Ð»ÑĮÐ½ÐµÐ²Ð¾ÑģÑĤÐ¾Ñĩ": 22660,
  "Ð»Ð¸ÑıÐ½Ð¸Ðµ": 14954,
  "ĠÐ±Ð°Ð·Ð¾Ð²Ð¾Ð³Ð¾": 44621,
  "ĠÐ°Ð´Ð¼Ð¸Ð½Ð¸ÑģÑĤÑĢÐ°ÑĤÐ¾ÑĢ": 48157,
  "ĠÑģÐ´ÐµÐ»Ð°Ð½": 18538,
  "ĠEn": 5060,
  "ĠÐŁÐ°Ð½Ð´": 37897,
  "ĠÑģÐ¾ÑĨÐ¸Ð°Ð»ÑĮÐ½Ð¾Ðµ": 33098,
  "ĠÐ¿Ð¾ÑģÑĤÑĢÐ°Ð´": 9244,
  "ÑĢÐ°Ð½Ð¸ÑĩÐ¸ÑĤ": 34414,
  "ÑģÑĤÐ°ÑĤÑĮÑı": 42053,
  "ĠÑģÑĭÐ³ÑĢÐ°": 4817,
  "ĠÐ¿Ð»Ð°ÑģÑĤÐ¸Ð½ÐºÑĥ": 44704,
  "ĠTo": 21953,
  "Ð¾Ð": 296,
  "ĠÑģÐ¾Ð±ÑĢÐ°Ð½Ñĭ": 24628,
  "ĠÐ²Ð¾Ð·Ð½Ð¸ÐºÐ°ÐµÑĤ": 10083,
  "ĠIC": 20565,
  "Ð½ÑıÐ»": 6415,
  "ĠÐ¿Ð¾ÑĢÐ°Ð¶ÐµÐ½Ð¸Ð¹": 26064,
  "ÑĩÐ¸ÑģÐ»ÐµÐ½Ð¸Ñı": 19894,
  "ĠÐ°Ð²Ð°ÑĢÐ¸Ð¹": 15459,
  "ĠÐ¸Ð·Ð²Ð¸Ð»": 46086,
  "ĠÐ¼ÑĥÐ¶ÑĩÐ¸Ð½": 6826,
  "ĠÐ¨Ð²ÐµÐ´": 19234,
  "ĠÐ¾Ð±ÑĭÐºÐ½Ð¾Ð²ÐµÐ½Ð½Ð°Ñı": 46007,
  "ÑĢÐ¸Ð³Ð¸Ð½": 3154,
  "ĠÐ¼ÐµÑĤÐ°Ð½Ð°": 49429,
  "ĠÐ¸Ð½ÑģÑĤÑĢÑĥÐ¼ÐµÐ½ÑĤ": 4431,
  "ĠÐ¾Ð¿Ð°ÑģÐ°ÑıÑģÑĮ": 29466,
  "Ð¸ÑĢÐ¾Ð²ÐºÐ°": 9383,
  "ĠÐ¸ÑģÐ¿": 673,
  "ÑįÐ½ÑĮ": 10125,
  "ÐĿÐ¸": 15435,
  "ĠÐ¿ÑĢÐ¾ÑĨÐµÐ´ÑĥÑĢ": 29499,
  "ĠÐ®ÑģÑĤ": 23841,
  "ĠÐ¸Ð½Ð¾ÑģÑĤÑĢÐ°Ð½Ð½ÑĭÑħ": 6000,
  "ĠÐļÐ»ÐµÐ¹Ð½": 46305,
  "ĠÐ¿ÑĢÐ°Ð²Ð¾Ð²Ð¾Ð¹": 24813,
  "ĠÐ·Ð¾Ð»Ð¾ÑĤÐ¾Ð³Ð¾": 31874,
  "ĠÑĢÐµÐºÐ¾Ð¼ÐµÐ½Ð´Ð°": 13939,
  "ÑĢÐ¸ÑĢÐ¾Ð²Ð°Ð»": 17707,
  "ĠÐ¸ÑģÑĤÐ¾ÑĢÐ¸ÑĩÐµÑģÐºÐ¸": 18385,
  "ĠÐĵÐ¾ÑģÐ´ÑĥÐ¼Ñĭ": 32544,
  "ĠÐ¿ÑĢÐ°Ð·Ð´Ð½Ð¸ÐºÐ¾Ð¼": 48253,
  "ĠÐ½Ð°ÑħÐ¾Ð´ÑıÑīÐ¸Ð¼ÑģÑı": 47526,
  "osa": 21413,
  "ĠÑĤÑĥÑĢÐµÑĨÐºÐ¾Ð¹": 30045,
  "ĠÐ¿ÑĢÐ¸Ð·ÑĭÐ²Ð°Ð»": 33911,
  "ÑĩÐ¸Ð²Ð°ÐµÑĤ": 26448,
  "ĠÐ¾Ð±ÑĥÑģÑĤÑĢÐ¾": 38032,
  "ÑĥÐ°Ð½": 34327,
  "ÐµÑģÑģÐ¸": 20506,
  "Ð¸ÐºÐ°Ð½": 1159,
  "ĠÐ¼ÐµÐ»ÑĮÐ½Ð¸ÑĨÐ°": 48021,
  "ĠÐ´Ð¾ÐºÐ°Ð·Ð°ÑĤÐµÐ»ÑĮÑģÑĤÐ²": 19841,
  "ĠÑĥÑĢÐ¾Ð²Ð½ÐµÐ¹": 18107,
  "ÐŀÐ¿ÐµÑĢÐ°": 20417,
  "ĠÐ¿ÑĥÑĪÐºÐ¸": 16218,
  "ÑıÐ´Ñı": 35764,
  "ĠFar": 43770,
  "ĠÐľÐµÑĦ": 26897,
  "ĠÐ´Ð²Ð¸Ð½": 14477,
  "ĠÐ¿ÑĢÐµÐ´Ð¿ÑĢÐ¸ÑıÑĤÐ¸ÑıÐ¼Ð¸": 24135,
  "ĠÐĿÐ¸ÐºÐ¾Ð»Ð°ÐµÐ²Ð¸ÑĩÐ°": 30584,
  "vent": 20052,
  "ĠÑĢÐ°Ð·ÑĢÐ°ÑģÑĤ": 46774,
  "ĠÑĤÐµÑĩÐµÐ½Ð¸ÐµÐ¼": 21959,
  "ĠÐ³Ð¾ÑĢÐ¸Ð·Ð¾Ð½ÑĤÐ°": 44447,
  "ĠÐľÐ°ÑĢÐºÐ¾Ð¼": 37147,
  "ĠÐºÐ¾Ð¼Ð¿ÑĮÑİÑĤ": 3341,
  "Ð°ÑĢÐ°Ð¼Ð¸": 13765,
  "ĠÐºÐ¾Ð»ÑħÐ¾Ð·": 16116,
  "ĠÑģÐ°ÑĢÐ°": 37977,
  "ĠÐ©ÐµÑĢÐ±": 20368,
  "ĠÑĥÑģÑĤÑĢÐ¾Ð¸Ð»Ð¸": 34876,
  "ĠÑģÐµÑģÑĤÑĢÑĭ": 14890,
  "ĠÑĢÐµÐ³Ð¸Ð¾Ð½Ð°Ð»ÑĮÐ½ÑĭÐ¹": 35839,
  "ori": 31342,
  "ĠÐºÐ¾ÑĢÐ°Ð±Ð»Ð¸": 11262,
  "âĢľÂ»,": 24862,
  "Ð¾Ð»ÑĮÐ·": 726,
  "Ð¡ÑĥÐ´": 12425,
  "ĠÐ¿Ð¾Ð»ÐµÐ¼": 12230,
  "Ð¾ÑģÑĤÐ¾ÑıÐ½": 39952,
  "ĠÐĳÐµÐ»Ð¾Ð²": 19338,
  "ĠÐ¿Ð»Ð°Ñī": 35779,
  "ĠÑĤÐ°Ð»": 6310,
  "Ġ3": 662,
  "ÑĪÐ¸ÑĢÐµÐ½Ð¸Ðµ": 40994,
  "ĠÑĦÐ°ÐºÑĤÑĥ": 45409,
  "ĠÐ¡Ð¾Ð±": 4191,
  "Ð´Ð¾Ð½Ð°": 19570,
  "ĠÐ½ÐµÑĥÐ´Ð¾Ð±": 25132,
  "ÐµÐ¼ÑĥÑİ": 20053,
  "ĠÐļÐ°Ð²": 12791,
  "ÑĢÑĥÑĩ": 4110,
  "ĠÐĽÑĮÐ²Ð¾Ð²Ð¸Ñĩ": 32282,
  "ĠÐĵÑį": 18057,
  "ÐŃÐ¿": 16137,
  "lo": 18980,
  "Ġ(\"": 45461,
  "ĠABC": 44349,
  "ĠÐ±ÑĢÐ°Ðº": 8447,
  "ĠÐ²ÐµÐºÑĤÐ¾ÑĢÐ°": 26079,
  "ÑĦÐ¾ÑģÑĦ": 31885,
  "ĠÐĳÑĭ": 3249,
  "ĠÐ¿ÑĢÐµÑĤÐµÐ½Ð´Ð¾Ð²Ð°ÑĤÑĮ": 44844,
  "ĠÐ¡Ð¾Ð±Ð¾ÑĢÐ°": 30204,
  "ĠÐ·Ð½Ð°ÐµÐ¼": 43977,
  "ĠÑĩÐµÑĢÐµÐ´": 14730,
  "ĠÐĲÐ²ÐµÑĢ": 26292,
  "ĠÑĦÐ°ÐºÑĤÐ¾ÑĢÑĭ": 20061,
  "ĠÑıÐ·ÑĭÐºÐ¾Ð²ÑĭÑħ": 35613,
  "ĠÐ´ÐµÐºÐ¾ÑĢÐ°ÑĤÐ¸Ð²": 13299,
  "Ð¾Ð´ÐµÑĢÐ¶": 1610,
  "ÐŀÑĤÐ»Ð¸Ñĩ": 26168,
  "ĠÑĢÐ°ÑģÐ¿ÑĢÐ¾ÑģÑĤÑĢÐ°Ð½ÐµÐ½Ð¸Ðµ": 7254,
  "ĠÐ·Ð°Ð»Ð¾Ð¶Ð½Ð¸ÐºÐ¾Ð²": 26304,
  "ÑĳÑĪÑĮ": 48785,
  "ĠÐ²Ð¾Ð·Ð²Ð¾Ð´": 17805,
  "ĠÐ¿Ð°Ð½ÑĤÐµ": 27893,
  "ĠÐľÐ°Ð³Ð½ÑĥÑģ": 38451,
  "ĠÑģÑĤÐ°ÑĢÐ¾ÑģÑĤÐ¸": 42191,
  "ĠÑģÐ¾ÑħÑĢÐ°Ð½ÑıÑĤÑĮ": 28034,
  "ĠÐĽÑİÐ±Ð¾Ð²": 15163,
  "ĠÐ¿Ð°ÑģÑĤÐ±": 29021,
  "ĠÐ³Ð»Ð°Ð²Ð½Ð°Ñı": 17018,
  "ĠÐ¿ÐµÑĢÐµÐ´Ð°ÑĤÑĮ": 14176,
  "ĠÐĲÐ²ÑĤ": 11659,
  "ĠÐ¼ÐµÐ»ÑĮ": 12536,
  "ÐŀÐ±ÑīÐµÑģÑĤÐ²Ð¾": 33031,
  "ĠÑĢÐ¸ÑĦ": 18659,
  "ĠÐĺÐ¡": 32673,
  "ĠÐ¥Ð°ÑĢÑĢÐ¸": 22763,
  "Ð¡Ðµ": 39540,
  "Ã§": 21857,
  "ĠÑĤÐ°Ð¹Ð½ÑĭÑħ": 43214,
  "ĠÐ¾ÑĤÑĢÐµÑĩ": 22120,
  "ĠÑģÑĭÐ³ÑĢÐ°Ð²": 21183,
  "ĠÑĤÑĢÐ¾Ð½Ðµ": 42477,
  "!,": 44327,
  "ĠÐ½Ð¾Ð²Ð¾Ð¼": 10827,
  "ote": 29188,
  "ĠÑģÐ¿ÑĢÐ°ÑĪ": 24416,
  "ĠÐĴÐ¸Ð·Ð°Ð½ÑĤÐ¸Ð¹ÑģÐºÐ¾Ð¹": 40041,
  "ision": 15177,
  "ĠÐ¼Ð°ÑģÑģÑĭ": 7774,
  "ÐĽÐµÐ½Ð¸Ð½Ñĥ": 49557,
  "ĠÐľÐ°ÐºÐºÐ°ÑĢÑĤÐ½Ð¸": 27540,
  "ĠÐ·Ð²ÐµÐ½Ð°": 41944,
  "ĠÐĺÐ²Ð°Ð½Ð¾Ð¼": 23658,
  "ĠÑģÑĤÐ¾Ð¹": 12523,
  "ĠYork": 10412,
  "ÑĨÐµÐ¿": 4646,
  "ĠÐĶÐ¸Ð¼Ð¸ÑĤ": 15986,
  "ĠÐ²Ð°Ð»ÑİÑĤ": 9601,
  "ĠÐ¡ÑĤÐµÐ¹": 45021,
  "ĠÐĴÐ¾Ð·Ð´ÑĥÑĪ": 35632,
  "Ç": 139,
  "ÐļÐ¸ÑĢ": 25537,
  "ĠÑģÑĤÐ¸Ð»Ð¸Ð·": 30506,
  "Ð²ÑĪÐ¸ÑģÑĮ": 45877,
  "?)": 12821,
  "ÐµÐºÐ¾": 5416,
  "ĠÐ³ÑĢÐ°Ð½Ð¸ÑĨÑĭ": 6199,
  "ĠÐ³Ð¾ÑĢÑİÑĩ": 27308,
  "ĠÐ½ÐµÐ»": 14024,
  "ĠÐľÐ°Ð³Ð½Ð¸ÑĤ": 19170,
  "ĠÑĦÐ°Ð¼Ð¸Ð»Ð¸ÐµÐ¹": 39469,
  "ĠÐŀÑģÐ¸Ð¿Ð¾Ð²Ð¸Ñĩ": 42431,
  "ĠÐ³Ð»ÑĥÐ±Ð¾ÐºÐ¾Ð²Ð¾Ð´": 43664,
  "ĠÐ¿ÑĢÐ¾Ð½Ð¸ÐºÐ½Ð¾Ð²": 46359,
  "ĠÐ³ÑĢÐ°Ð¼Ð¼Ð°ÑĤÐ¸ÐºÐ°": 46884,
  "Ð°Ð½Ð¾Ð²ÐºÐ°": 47345,
  "ĠÐĲÐ»ÐµÐº": 47201,
  "ĠÑĥÑģÐ»Ð¾Ð²Ð¸Ð¹": 8829,
  "ÑģÐºÐ°Ð·ÑĭÐ²": 7575,
  "ĠÐ²ÑĢÐµÐ¼Ñı": 759,
  "ĠÐ¿Ð»Ð°Ðº": 20505,
  "ĠÑĢÐµÐ»Ð¸": 2481,
  "ĠÑģÐ°Ð¼Ð¾Ñģ": 22801,
  "ĠÐ¿ÑĥÑĤÐ¸": 3906,
  "ĠÑĦÐ°ÑĢÐ¼Ð°ÑĨÐµÐ²ÑĤ": 28167,
  "ĠÐ´ÐµÐ¹ÑģÑĤÐ²Ð¾Ð²": 20120,
  "ĠÐ²Ð·ÑıÐ»": 8969,
  "ÑĥÐºÑĢÐ°Ð¸Ð½ÑģÐºÐ¾Ð¹": 40205,
  "Ð°ÑĢÐ´Ð¾Ð¼": 42920,
  "ĠÐºÐ¸ÑĢ": 7332,
  "Ð¾Ð°Ð½": 3403,
  "ĠÐºÐ»Ð¸": 5343,
  "ĠÐ³ÑĢÐ°": 1087,
  "Ġ69": 14593,
  "ĠÑĦÐ¾Ðº": 34445,
  "Ð´ÐµÐ³": 28049,
  "Ð¸Ð½Ð¾Ð³Ð´Ð°": 20785,
  "ĠÑģÐ¾Ð¼Ð½ÐµÐ½Ð¸Ð¹": 44841,
  "ĠÐ¼Ð½Ð¾Ð³Ð¾Ð·Ð½Ð°Ñĩ": 26658,
  "ĠÐļÐ°Ð·": 2494,
  "ĠÐ¿Ð¾ÑĩÐ¸ÑĤÐ°Ð½Ð¸Ðµ": 50163,
  "ĠÐľÐµÐ´Ð¸ÑĩÐ¸": 24678,
  "ĠÐ²Ð»Ð¸ÑıÐ½Ð¸Ð¸": 37703,
  "ĠÐ¾Ð¿ÐµÑĢÐµÑĤÑĤÑĭ": 44110,
  "ĠÐ»Ð¸ÑģÑĤÐ°": 27659,
  "ĠÑĢÐµÑģÐ¿ÑĥÐ±Ð»": 2805,
  "ÅĽ": 31040,
  "ĠÐ½Ð°ÑĩÐ°Ð»ÑĮÐ½ÑĭÐ¹": 44208,
  "ĠÐĴÑĤÐ¾ÑĢÐ¾Ðµ": 26386,
  "ĠÐĽÐµÐ¼": 15150,
  "ĠÐ½Ð°Ð³Ð»ÑıÐ´": 27895,
  "ĠÑģÑĤÑĢÐµÑģÑģ": 26550,
  "ÑģÐºÐ¸Ð½": 28323,
  "ĠÐŁÑĤ": 26878,
  "Ð¸Ð½ÑĨÐ¸Ñı": 30003,
  "ĠÑĥÐ½Ð¸ÑĤÐ°ÑĢ": 28106,
  "ĠÐľÐ°ÑĤÐ²ÐµÐµÐ²": 46014,
  "ĠÐ¿Ð¾Ð²Ð»Ð¸ÑıÑĤÑĮ": 41311,
  "ĠÐ¼ÑĥÐ¼": 38994,
  "me": 10934,
  "ĠÑĢÑĥÑģÑģÐºÐ¾Ð³Ð¾": 4605,
  "ĠÑģÐµÑĤ": 3016,
  "ĠÐŁÑĥÑģÑĤÑĮ": 27025,
  "ĠSoft": 23415,
  "ĠÐļÐ¾": 7224,
  "Ġ1902": 10385,
  "ĠÐ¿ÑģÐ¸ÑħÐ¸ÑĩÐµÑģÐºÐ¸Ñħ": 28902,
  "ÑĪÑĤÐµÐ¹Ð½Ð¾Ð¼": 44992,
  "ĠÑĢÐ¸Ð¼ÑģÐºÐ¾Ð¹": 14583,
  "ĠÑĢÐ°ÑģÑģÐºÐ°Ð·ÑĭÐ²": 11106,
  "ĠÐ¿ÑĢÐ¸Ð½ÑıÑĤÑĭÐ¹": 39665,
  "ĠÐ²ÑĭÑģÐºÐ°Ð·ÑĭÐ²Ð°Ð½Ð¸Ñı": 29072,
  "ĠÑģÐ¸Ð¼Ð¿Ð°ÑĤ": 14543,
  "ĠÐĽÐ¾ÑĢ": 8613,
  "ĠÑģÐ¾Ð²ÐµÑĢÑĪÐ°ÐµÑĤ": 23928,
  "Ð½Ð¸Ð³Ð°": 7048,
  "ĠÐ²Ð¾ÑģÑģÑĤÐ°Ð½Ð¾Ð²Ð»ÐµÐ½": 15361,
  "ĠÐ±Ð°Ð»ÐºÐ¸": 49718,
  "ĠÑĦÐµÐ´ÐµÑĢÐ°Ð»ÑĮÐ½Ð¾Ð³Ð¾": 11985,
  "ĠÐ¾Ð±Ð¾Ð±ÑīÐµÐ½Ð¸Ñı": 41763,
  "Ð²ÑĤÐ¾ÑĢÐ¾Ð¹": 33001,
  "Ð°Ð½ÑģÐºÐ¸": 32359,
  "ĠÐ¿Ð¾ÑģÐ»ÐµÐ²Ð¾ÐµÐ½Ð½ÑĭÐµ": 33705,
  "ĠÐļÐµÐ²": 20967,
  "ĠÐ²Ð¾Ð¿ÑĢÐ¾ÑģÐ°Ð¼": 9250,
  "ĠÐļÐ°Ð»Ð°ÑĪ": 35314,
  "ĠÐ¡Ð°ÑĢÐ°ÑĤÐ¾Ð²ÑģÐºÐ¾Ð³Ð¾": 48526,
  "Ð»Ð°Ð²": 624,
  "Ġ1774": 28455,
  "Ġ24": 2422,
  "ĠÐĴÐ¾Ð¾ÑĢÑĥÐ¶ÑĳÐ½Ð½ÑĭÑħ": 15787,
  "ĠÐ¸Ð½ÑģÑĤÐ¸ÑĤÑĥÑĤÐµ": 12174,
  "ĠÑģÑĢÐµÐ´Ð½Ð¸Ðµ": 16341,
  "ĠÐŃÑģÐº": 32431,
  "ĠÐºÐ¾Ð³Ð´Ð°": 1380,
  "ÐŁÐµÑĤ": 2239,
  "ĠÐ¾ÑģÐ²Ð¾Ð±Ð¾Ð´Ð¸Ð»Ð¸": 36667,
  "Ð°ÑĤÐµÐ»ÑĮÐ½Ð¾Ð³Ð¾": 5610,
  "Ð¸ÑĩÐºÐ°": 35132,
  "Ð°Ð¼Ð¸Ð½Ð¾Ð²": 36869,
  "ĠÐ½Ð°ÑĪÐ»Ð¾": 38377,
  "Ð±ÐµÐº": 4770,
  "ĠÐ¡Ð²ÑıÑĤÐµÐ¹ÑĪÐµÐ³Ð¾": 45556,
  "ĠÐºÐ¸Ð½Ð¾Ð°ÐºÑĤÑĢÐ¸ÑģÐ°": 30263,
  "ĠÑĤÐµÑĢÐ¼Ð¸Ð½Ð°": 12974,
  "anc": 14180,
  "ÑĢÐ¾Ð³Ð¾": 9852,
  "ÑģÐ¾Ð²Ð°Ñı": 35217,
  "ĠÐ³Ð¾Ð»Ð¾Ð²Ñĥ": 11850,
  "ĠÑĤÐ¸ÑĢÐµ": 47268,
  "ĠÐŃÑĦ": 17867,
  "ĠÐĳÐµÑģÐº": 34079,
  "ĠÐĿÐ°ÑĢÐ¾Ð´": 5064,
  "ĠÐ¿ÑĢÐµÐ´Ð½Ð°Ð·Ð½Ð°Ñĩ": 4877,
  "ĠÑĦÐ¸Ð»ÑĮÐ¼": 1544,
  "ĠÐ°ÐºÑĨÐ¸Ð¾Ð½ÐµÑĢÐ¾Ð²": 36966,
  "ĠÐ·Ð°Ð¿ÑĢÐµÑĤÐ¸Ð»Ð¸": 47089,
  "ĠÐ¢Ð¾Ñħ": 37044,
  "ÐĴÐ¤": 34896,
  "ĠÐ´Ð¸ÑģÐ¿ÐµÑĤ": 36802,
  "ĠÐŃÑĤÑĥ": 22598,
  "ĠÑģÐ¾Ð±Ð¸ÑĢÐ°Ð»Ð¸ÑģÑĮ": 26628,
  "ÐµÐ¶ÑģÐºÐ¾Ð³Ð¾": 25506,
  "ÑģÑĢÐµÐ´Ð¸": 36062,
  "ĠÐ¾Ð±ÑĬÐµÐ´Ð¸Ð½ÐµÐ½Ð¸Ð¹": 26883,
  "Ð¿Ð¾Ð»Ð¸ÑĤÐ¸ÑĩÐµÑģÐºÐ°Ñı": 33451,
  "ĠÐ¿ÐµÑĢÐµÐ¶Ð¸Ð²": 33212,
  "ĠÐ±ÑĥÑħ": 9481,
  "ĠÐŁÐ¾Ð»Ð¸ÑĤÐ±ÑİÑĢÐ¾": 19292,
  "ĠÐ¿ÑĢÐµÐ´Ð¿ÑĢÐ¸ÑıÑĤÐ¸ÑıÑħ": 24167,
  "ĠÐ½Ð¾Ð²Ð¾Ð²": 28895,
  "ĠÐĿÐ°Ð·Ð½Ð°Ñĩ": 35084,
  "ĠÐ¡Ð¸Ð¼ÐµÐ¾Ð½Ð°": 45587,
  "ĠÐ¿Ð»Ñı": 13456,
  "ĠÐ°Ð²ÑĤÐ¾Ð¼Ð¾Ð±Ð¸Ð»ÑĮ": 5662,
  "ÐĳÑĥÑħ": 40312,
  "ĠÐ²ÑģÑĤÑĢÐµÑĤ": 5561,
  "ĠÐłÐ¾Ð±ÐµÑĢÑĤ": 5581,
  "ĠÐ¸Ð·Ð²ÐµÑģÑĤ": 1193,
  "ĠÐ£Ð¾Ð»ÑĤÐµÑĢ": 27337,
  "ĠÐ¥ÑĥÐ´Ð¾Ð¶Ð½Ð¸Ðº": 14060,
  "ÑĤÐµÑħÐ½Ð¸ÑĩÐµÑģÐºÐ¸Ñħ": 40850,
  "ĠÐ°ÑģÑģÐ¸ÑģÑĤÐµÐ½ÑĤÐ¾Ð¼": 42269,
  "ĠÐ°Ð»Ð»Ðµ": 17606,
  "ĠÑĦÐ¸Ð³ÑĥÑĢÑĭ": 14085,
  "ĠÑĥÐ¼ÐµÐ½Ð¸Ðµ": 34914,
  "ĠÑĢÐ¾Ð¶Ð´Ð°ÐµÑĤÑģÑı": 44803,
  "ĠÐŀÑĢÐµÐ½Ð±ÑĥÑĢÐ³ÑģÐºÐ¾Ð¹": 31038,
  "ĠÐĶÐ¶Ð¾Ð·ÐµÑĦÐ°": 41540,
  "ĠÑģÑĥÑīÐµÑģÑĤÐ²ÐµÐ½Ð½ÑĭÐµ": 30192,
  "ĠÐ¼ÐµÑĤÑĢÐ¾Ð¿Ð¾Ð»Ð¸ÑĤÐµÐ½Ð°": 9902,
  "ĠÐ¼Ð¾Ð»Ð¸Ð±": 49434,
  "ĠÑĥÐ¼ÐµÐ½ÑĮÑĪÐµÐ½Ð¸Ñİ": 40243,
  "ĠÐ¿ÐµÑĢÐµÑĩÐ¸ÑģÐ»ÐµÐ½Ñĭ": 43739,
  "ĠÐŃÑĢÐ¸": 24746,
  "ĠÑĦÐ°ÑĢÐ¼Ð°Ðº": 25032,
  "Ð°Ð»ÑıÑħ": 31910,
  "ÐĿÐ°ÑĩÐ°Ð»Ð¾": 15417,
  "ĠÐļÐ¾Ð½Ðº": 29627,
  "ĠÐ·Ð°Ð¼": 1112,
  "ĠÐ¶ÑĥÑĢÐ½Ð°Ð»Ð°": 5440,
  "ĠÐĵÐ°ÑĢÑĤ": 45198,
  "ado": 43150,
  "Ð½Ð¸ÑĤ": 2861,
  "ÐļÐ°ÑĢ": 7536,
  "ĠÑĤÐ°Ð½ÐºÐ¾Ð²Ð¾Ð³Ð¾": 37929,
  "Com": 22404,
  "ĠÐ¸Ð½Ð´ÐµÐ¹": 10506,
  "ĠÐ°ÑĢÑĤÐ¸Ð»Ð»ÐµÑĢÐ¸Ð¹ÑģÐºÐ¸Ñħ": 27856,
  "\\": 69,
  "Ð·Ð°Ð¸Ð¼Ð¾Ð´ÐµÐ¹ÑģÑĤÐ²Ð¸Ðµ": 37722,
  "1640": 45332,
  "ĠÐ¿Ð¾Ð¿ÑĥÐ»ÑıÑĢÐ½ÑĭÐ¼": 17082,
  "ÐµÐ»ÐµÐ¹": 941,
  "ĠÐºÐ»Ð¸ÐµÐ½ÑĤÐ°": 31095,
  "ĠÐ°ÑĢÑħÐ¸ÑĤÐµÐºÑĤÑĥÑĢÐ½Ð¾Ð³Ð¾": 40196,
  "ÐŁÑĢÐµÐ¿Ð¾Ð´Ð°Ð²": 8982,
  "ÐļÑĥÑĢ": 11620,
  "ĠÐ¿Ð¾ÑģÐ²ÑıÑĤ": 11192,
  "ĠÐ²ÑĭÐ¿Ð¾Ð»Ð½ÐµÐ½": 22309,
  "ĠTCP": 38363,
  "ĠÐ°Ð²Ð¸": 2765,
  "ĠÐ°ÐºÑĤÐ¸Ð²Ð½Ð¾Ð³Ð¾": 21791,
  "Ġ214": 38893,
  "ÐļÑĥÐº": 45324,
  "Ð¾ÑģÑĤÑĥÐ´": 10018,
  "ÐµÐ»ÐµÐ½Ð½Ð¾Ð¹": 10785,
  "Ð½Ð¸Ð¼": 882,
  "ĠÐ½Ð°Ð´Ð¾Ð»Ð³Ð¾": 36005,
  "Ð¸Ð½ÐºÑĥ": 39846,
  "ÐłÐ¢": 19731,
  "Ð¼Ð°Ð´Ð°": 24913,
  "ĠÐ·Ð½Ð°ÐºÐ°": 17034,
  "ĠHen": 39143,
  "Ð³Ð»ÐµÑĢÐ¾Ð´": 35057,
  "3": 28,
  "ÐºÐ¸Ð½ÑģÐ°": 47820,
  "ĠÐ¾ÑĤÑħÐ¾Ð´": 9869,
  "ÑĨÐµÐ»Ð¾": 46033,
  "ĠÑįÐ½Ð´ÐµÐ¼": 35256,
  "ĠÐ£ÑģÐ¿ÐµÐ½ÑģÐºÐ¸Ð¹": 28913,
  "Ð°ÑĢÐ¸Ñı": 5007,
  "ĠÐĴÐ°ÑĢ": 4594,
  "ĠÐ¾Ð¿ÑĥÐ±Ð»Ð¸ÐºÐ¾Ð²Ð°Ð½Ð°": 14776,
  "ĠÐ¤Ð°Ð¹": 27007,
  "ĠÐ¨ÐµÐ²": 11495,
  "ÑĤÐ¸Ð²Ð½ÑĭÐµ": 37251,
  "ĠÑģÐ¾ÑħÑĢÐ°Ð½ÐµÐ½Ð¸ÐµÐ¼": 35257,
  "ĉ": 182,
  "ĠÐ¾Ð±ÑĬÑıÑģÐ½ÑıÐ»": 34273,
  "ĠÑĢÐ°Ð±Ð¾ÑĩÐµÐ¼": 37112,
  "Ð¼Ð¾Ð³": 22444,
  "ĠÐŁÐµÑĢÑĤ": 46190,
  "Ð¿ÑĢÐµÐ´ÑģÐµÐ´": 30918,
  "ĠÐ¿ÑĥÐ»ÑĮ": 23472,
  "ĠÐĺÐµÑĢÑĥÑģÐ°Ð»Ð¸Ð¼Ðµ": 23936,
  "ĠÐ¿Ð¾ÑıÐ²Ð¸Ð»Ð¾ÑģÑĮ": 10889,
  "ÐĳÐ¡Ðķ": 48282,
  "ĠÐ²Ð¾Ð»Ð½Ð°": 18097,
  "ĠÐ²ÑĭÑħÐ¾Ð´Ð¸Ð»Ð°": 30521,
  "ĠÐ½Ð°ÑģÐ»ÐµÐ´Ð½Ð¸Ðº": 30070,
  "Ð°ÑģÑĭÑī": 48440,
  "b": 75,
  "ĠÐ·Ð°Ð½ÑıÑĤÐ¸ÐµÐ¼": 46511,
  "Ð¸ÑģÑĤÑģÐºÐ¾Ð¹": 10777,
  "ĠÐºÑĢÐ°": 1674,
  "ĠÐ²Ð¾ÐµÐ²Ð°Ð»Ð¸": 48420,
  "Ð±Ð¾Ð»ÐµÐµ": 13887,
  "Ð²ÑĭÐ¿": 19253,
  "ĠÐºÐ¾Ð½ÑģÑĤÑĢÑĥÐºÑĨÐ¸Ð¸": 7639,
  "ÑįÐ»Ð»": 30406,
  "Ð¾Ð³Ð´Ð°": 823,
  "ĠÐĿÐļÐĴÐĶ": 14573,
  "ĠÐ¸ÑģÐºÐ°Ð»": 30926,
  "ĠÐºÐ°Ð±ÐµÐ»ÑĮ": 42088,
  "ĠÐ¸Ð¼Ð¿ÑĢÐ¾Ð²": 25012,
  "ĠÐ²ÑĤÐ¾ÑĢÐ¶ÐµÐ½Ð¸Ñı": 11669,
  "ÑģÑĤÑĮ": 1169,
  "ĠÐ¾ÐºÐ¾Ð½ÐµÑĩÐ½Ð¾ÑģÑĤÐ¸": 36626,
  "ĠÐ¼Ð¾Ð´ÑĥÐ»Ñİ": 38800,
  "ĠÑģÐ°Ð¼Ð°Ñı": 10470,
  "ĠÑģÐ¼ÐµÑĢ": 1662,
  "ĠÑħÐ¾ÐºÐºÐµÐ¸ÑģÑĤ": 16997,
  "ĠÐ¾Ð±Ð¾Ð·Ð½Ð°ÑĩÐµÐ½Ð¸ÐµÐ¼": 39100,
  "Ð½ÐµÐ²Ð¾Ð¹": 23291,
  "inc": 16295,
  "ĠÐ¾ÑĤÐ¼ÐµÑĤÐ¸Ð»Ð°": 37447,
  "ĠÐ³Ð¸Ð±ÑĢÐ¸Ð´": 21434,
  "ĠÐ¥Ð¸ÑĢ": 19443,
  "Ð²Ð°ÑĤÐ°": 39947,
  "ĠÐŃÐ»ÐµÐºÑĤ": 9875,
  "ш": 276,
  "ĠÐºÐ°Ð·Ð½ÑĳÐ½": 22794,
  "Ð»ÐµÐ½Ð¸Ð¸": 2335,
  "ĠÐ·Ð°ÑĩÐ°ÑģÑĤ": 10536,
  "1961": 13894,
  "ĠÐ½Ð¸ÐºÐ¾Ð¼Ñĥ": 27114,
  "ĠÐ³Ð¾ÑģÑĥÐ´Ð°ÑĢÑģÑĤÐ²ÐµÐ½Ð½ÑĭÐ¼": 15323,
  "itch": 25843,
  "ĠÐ¾ÑĤÐ´Ð°Ð»": 9109,
  "ĠÑĥÑģÑĤÑĢÐ¾Ð¹ÑģÑĤÐ²": 11886,
  "ĠÐ¿Ð¾ÑģÐ»Ð¾Ð²": 20494,
  "ĠÐ³Ð»ÑĥÐ±Ð¾ÐºÐ¸Ñħ": 40785,
  "ÐŁÐ¾ÑĢÑıÐ´Ð¾Ðº": 45005,
  "ĠÐŀÐ·": 10980,
  "ĠÑģÐ¾Ð¾ÑĤÐ²ÐµÑĤÑģÑĤÐ²ÑĥÑİÑīÐ¸Ð¼Ð¸": 36310,
  "ĠÐ²ÐµÑĢÑĤÐ¸Ðº": 8906,
  "ĠÐ´ÑĢÐ°Ð¼Ð°ÑĤÑĥÑĢÐ³": 9089,
  "Ð±Ð¸Ð½": 3281,
  "Ġ199": 735,
  "ĠÐĿÐ°Ñģ": 10888,
  "ĠÐºÐ»ÑİÑĩÐµ": 43328,
  "ĠÐ²ÑĭÐ·Ð²Ð°Ð½Ð°": 46212,
  "ĠÑĢÐ¾ÑģÑģÐ¸ÑıÐ½": 31466,
  "ĠÐĴÐļ": 32176,
  "ĠÐ²Ð»Ð°Ð´ÐµÐ½Ð¸Ð¹": 15785,
  "ĠÐ¿Ð¾ÑĤÐµÐ½ÑĨÐ¸Ð°Ð»Ð°": 25894,
  "ĠÐ¶Ð¸Ð»Ð¸": 10357,
  "ĠÑĥÑģÑĤÑĢÐ¾Ð¹ÑģÑĤÐ²Ð¾": 7663,
  "ĠÐ¿Ð¾ÑģÐ»ÑĥÐ¶Ð¸Ð»": 28497,
  "ĠÐĺÐ²Ð°Ð½Ð¾Ð²Ð¾": 33374,
  "1802": 37516,
  "Ð¾ÑĢÐ¾": 18050,
  "ĠÐ¡Ð¾ÑĤ": 41146,
  "ĠÐ½Ð°ÑħÐ¾Ð¶Ð´ÐµÐ½Ð¸Ðµ": 46540,
  "ĠÐ²Ð¾Ð·Ð²ÑĢÐ°ÑīÑĳÐ½": 37525,
  "ĠÐ±Ð°ÑĤÐ°": 10531,
  "ĠÑĥÑħÐ¾Ð´Ð¸ÑĤ": 15207,
  "ĠÐ´Ð¾ÑĢ": 1750,
  "Ð¾Ð»ÑĮÐ½ÑĥÑİ": 31472,
  "Ð¿ÑĥÑĪ": 45378,
  "ĠÐ¸ÑģÑĨÐµÐ»": 35146,
  "Ð¾Ð¿ÑĢÐ¸Ð¼ÐµÑĩÐ°ÑĤÐµÐ»ÑĮÐ½Ð¾ÑģÑĤÐ¸": 8682,
  "Ġ365": 39602,
  "ĠÐĶÐ¶Ð¾ÑĪ": 40314,
  "ÑģÐºÐ°Ð·Ñĭ": 20669,
  "ĠÐ¼Ð°Ð³Ð¸ÑģÑĤÑĢÐ°ÑĤ": 36224,
  "Ð£Ð¶Ðµ": 19063,
  "ĠÐºÐ¾ÑģÐ¼Ð¾Ð½Ð°Ð²ÑĤ": 19215,
  "ĠÐºÐ¾Ð»Ð»ÐµÐºÑĤÐ¸Ð²Ñĭ": 15761,
  "ĠÑĢÐ°ÑģÐ¿Ð¾Ð»Ð¾Ð¶ÐµÐ½Ð½ÑĭÐ¹": 12453,
  "ĠÐ½Ð°Ð³ÑĢÑĥÐ·ÐºÑĥ": 35972,
  "ĠÐ²Ð¾Ð·Ð²ÑĭÑĪ": 8534,
  "ÑĸÐ²": 25702,
  "ĠÐ¾Ð±ÑıÐ·Ð°ÑĤÐµÐ»ÑĮÑģÑĤÐ²": 25265,
  "ĠÐ´ÑĢÑĥÐ¶ÐµÑģÐºÐ¸Ðµ": 43912,
  "ĠÐĿÐ¾Ð²Ð¾ÑģÐ¸Ð±Ð¸ÑĢÑģÐºÐµ": 33668,
  "ĠÐ´Ð¾ÐºÑĥÐ¼ÐµÐ½ÑĤÐ°Ð»ÑĮÐ½Ð¾": 49967,
  "ĠÐľÐ°ÑĪÐ¸Ð½": 48359,
[...]
