{
  "version": "1.0",
  "truncation": null,
  "padding": null,
  "added_tokens": [
    {
      "id": 0,
      "content": "<unk>",
      "single_word": false,
      "lstrip": false,
      "rstrip": false,
      "normalized": false,
      "special": true
    },
    {
      "id": 1,
      "content": "<s>",
      "single_word": false,
      "lstrip": false,
      "rstrip": false,
      "normalized": false,
      "special": true
    },
    {
      "id": 2,
      "content": "</s>",
      "single_word": false,
      "lstrip": false,
      "rstrip": false,
      "normalized": false,
      "special": true
    },
    {
      "id": 3,
      "content": "<pad>",
      "single_word": false,
      "lstrip": false,
      "rstrip": false,
      "normalized": false,
      "special": true
    },
    {
      "id": 4,
      "content": "<|im_start|>",
      "single_word": false,
      "lstrip": false,
      "rstrip": false,
      "normalized": false,
      "special": true
    },
    {
      "id": 5,
      "content": "<|im_end|>",
      "single_word": false,
      "lstrip": false,
      "rstrip": false,
      "normalized": false,
      "special": true
    }
  ],
  "normalizer": null,
  "pre_tokenizer": {
    "type": "ByteLevel",
    "add_prefix_space": false,
    "trim_offsets": true,
    "use_regex": true
  },
  "post_processor": {
    "type": "ByteLevel",
    "add_prefix_space": true,
    "trim_offsets": false,
    "use_regex": true
  },
  "decoder": {
    "type": "ByteLevel",
    "add_prefix_space": true,
    "trim_offsets": true,
    "use_regex": true
  },
  "model": {
    "type": "BPE",
    "dropout": null,
    "unk_token": "<unk>",
    "continuing_subword_prefix": null,
    "end_of_word_suffix": null,
    "fuse_unk": false,
    "byte_fallback": false,
    "ignore_merges": false,
    "vocab": {
      "<unk>": 0,
      "<s>": 1,
      "</s>": 2,
      "<pad>": 3,
      "<|im_start|>": 4,
      "<|im_end|>": 5,
      "\t": 6,
      "\n": 7,
      "\r": 8,
      " ": 9,
      "!": 10,
      "\"": 11,
      "#": 12,
      "$": 13,
      "%": 14,
      "&": 15,
      "'": 16,
      "(": 17,
      ")": 18,
      "*": 19,
      "+": 20,
      ",": 21,
      "-": 22,
      ".": 23,
      "/": 24,
      "0": 25,
      "1": 26,
      "2": 27,
      "3": 28,
      "4": 29,
      "5": 30,
      "6": 31,
      "7": 32,
      "8": 33,
      "9": 34,
      ":": 35,
      ";": 36,
      "<": 37,
      "=": 38,
      ">": 39,
      "?": 40,
      "@": 41,
      "A": 42,
      "B": 43,
      "C": 44,
      "D": 45,
      "E": 46,
      "F": 47,
      "G": 48,
      "H": 49,
      "I": 50,
      "J": 51,
      "K": 52,
      "L": 53,
      "M": 54,
      "N": 55,
      "O": 56,
      "P": 57,
      "Q": 58,
      "R": 59,
      "S": 60,
      "T": 61,
      "U": 62,
      "V": 63,
      "W": 64,
      "X": 65,
      "Y": 66,
      "Z": 67,
      "[": 68,
      "\\": 69,
      "]": 70,
      "^": 71,
      "_": 72,
      "`": 73,
      "a": 74,
      "b": 75,
      "c": 76,
      "d": 77,
      "e": 78,
      "f": 79,
      "g": 80,
      "h": 81,
      "i": 82,
      "j": 83,
      "k": 84,
      "l": 85,
      "m": 86,
      "n": 87,
      "o": 88,
      "p": 89,
      "q": 90,
      "r": 91,
      "s": 92,
      "t": 93,
      "u": 94,
      "v": 95,
      "w": 96,
      "x": 97,
      "y": 98,
      "z": 99,
      "{": 100,
      "|": 101,
      "}": 102,
      "~": 103,
      "¡": 104,
      "¢": 105,
      "¤": 106,
      "¯": 107,
      "°": 108,
      "±": 109,
      "²": 110,
      "³": 111,
      "´": 112,
      "µ": 113,
      "¶": 114,
      "·": 115,
      "¸": 116,
      "¹": 117,
      "º": 118,
      "»": 119,
      "¼": 120,
      "½": 121,
      "¾": 122,
      "¿": 123,
      "Ð": 124,
      "Ñ": 125,
      "Ġ": 126,
      "Ģ": 127,
      "ģ": 128,
      "Ĥ": 129,
      "ĥ": 130,
      "Ħ": 131,
      "ħ": 132,
      "Ĩ": 133,
      "ĩ": 134,
      "Ī": 135,
      "ī": 136,
      "Ĭ": 137,
      "ĭ": 138,
      "Į": 139,
      "į": 140,
      "İ": 141,
      "ı": 142,
      "Ĳ": 143,
      "ĳ": 144,
      "Ĵ": 145,
      "ĵ": 146,
      "Ķ": 147,
      "Ĺ": 148,
      "ĺ": 149,
      "ļ": 150,
      "ľ": 151,
      "Ŀ": 152,
      "ŀ": 153,
      "Ł": 154,
      "ł": 155,
      "Ń": 156,
      "Ё": 157,
      "А": 158,
      "Б": 159,
      "В": 160,
      "Г": 161,
      "Д": 162,
      "Е": 163,
      "Ж": 164,
      "З": 165,
      "И": 166,
      "Й": 167,
      "К": 168,
      "Л": 169,
      "М": 170,
      "Н": 171,
      "О": 172,
      "П": 173,
      "Р": 174,
      "С": 175,
      "Т": 176,
      "У": 177,
      "Ф": 178,
      "Х": 179,
      "Ц": 180,
      "Ч": 181,
      "Ш": 182,
      "Щ": 183,
      "Ъ": 184,
      "Ы": 185,
      "Ь": 186,
      "Э": 187,
      "Ю": 188,
      "Я": 189,
      "а": 190,
      "б": 191,
      "в": 192,
      "г": 193,
      "д": 194,
      "е": 195,
      "ж": 196,
      "з": 197,
      "и": 198,
      "й": 199,
      "к": 200,
      "л": 201,
      "м": 202,
      "н": 203,
      "о": 204,
      "п": 205,
      "р": 206,
      "с": 207,
      "т": 208,
      "у": 209,
      "ф": 210,
      "х": 211,
      "ц": 212,
      "ч": 213,
      "ш": 214,
      "щ": 215,
      "ъ": 216,
      "ы": 217,
      "ь": 218,
      "э": 219,
      "ю": 220,
      "я": 221,
      "ё": 222,
      "—": 223,
      "№": 224,
      "Ð¾": 225,
      "Ð¸": 226,
      "Ðµ": 227,
      "Ð½": 228,
      "Ð°": 229,
      "ÑĤ": 230,
      "ÑĢ": 231,
      "ĠÐ": 232,
      "Ð¾Ð": 233,
      "Ñģ": 234,
      "Ñı": 235,
      "Ð»": 236,
      "Ñĥ": 237,
      "Ñĭ": 238,
      "Ð¸Ð": 239,
      "Ð°Ð": 240,
      "ÐµÐ": 241,
      "Ñĩ": 242,
      "ÐµÐ½": 243,
      "Ñħ": 244,
      "Ñİ": 245,
      "ĠÐ¿": 246,
      "Ð°Ð½": 247,
      "ÑģÑĤ": 248,
      "ÑĮ": 249,
      "Ð¼": 250,
      "Ð½Ñĭ": 251,
      "ĠÑģ": 252,
      "Ð¾Ð²": 253,
      "Ð²": 254,
      "Ðº": 255,
      "ÐµÑĤ": 256,
      "ĠÐ¸": 257,
      "Ð¿": 258,
      "Ð¾Ð±": 259,
      "ÑĨ": 260,
      "Ð¸Ñı": 261,
      "ÑĢÐ°Ð": 262,
      "ĠÐ²": 263,
      "Ð´": 264,
      "ĠÐ¼": 265,
      "ĠÐ´": 266,
      "ÑĢÐ¾": 267,
      "Ð¾ÑĢ": 268,
      "Ð½Ð°": 269,
      "ÐµÐ»": 270,
      "ÐµÑĢ": 271,
      "ÑĦ": 272,
      "Ð¸Ð·": 273,
      "Ð°ÑĤ": 274,
      "ÑİÑĤ": 275,
      "Ð»Ñı": 276,
      "Ð¾Ð´": 277,
      "Ñī": 278,
      "Ð½ÑĭÑħ": 279,
      "Ð¾Ð¼": 280,
      "ÐµÐ¹": 281,
      "Ñį": 282,
      "ĠÐ·": 283,
      "ÐµÐ´": 284,
      "ÐµÑģ": 285,
      "Ð¾Ð»": 286,
      "Ð½ÑĭÐµ": 287,
      "Ð¾Ð³": 288,
      "ÑĨÐ¸": 289,
      "Ð½Ð¾": 290,
      "ÐµÐ½Ð¸Ñı": 291,
      "ÑĥÑĩ": 292,
      "Ð¸Ðµ": 293,
      "Ð·": 294,
      "Ð¾ÑĤ": 295,
      "ĠÐ¾Ð±": 296,
      "Ð¸Ð¼": 297,
      "Ð¸ÑĤ": 298,
      "ÑĤÐ¾": 299,
      "Ð¾Ð·": 300,
      "ÐµÐº": 301,
      "Ð¸ÑĢ": 302,
      "ĠÐ½Ð°": 303,
      "ĠÐ½": 304,
      "ĠÐº": 305,
      "Ð¸Ð²": 306,
      "ĠÑį": 307,
      "Ð¸Ð½": 308,
      "ĠÐ·Ð°Ð": 309,
      "Ð°ÑĨÐ¸": 310,
      "ÑİÑī": 311,
      "ĠÐ´Ð»Ñı": 312,
      "Ð¾Ñģ": 313,
      "Ð¸Ð¹": 314,
      "Ð¸Ðº": 315,
      "Ð¾Ðº": 316,
      "ÑģÑĤÐ²": 317,
      "ÑĢÐ¾Ð½": 318,
      "Ð³": 319,
      "ÑĢÐ°Ð·": 320,
      "ĠÑģÐµÑĤ": 321,
      "ĠÐ¿ÑĢ": 322,
      "Ð½Ð¾ÑģÑĤ": 323,
      "Ð¸Ñģ": 324,
      "ĠÐ¿ÑĢÐ¾": 325,
      "Ð°ÑİÑĤ": 326,
      "ÑĪ": 327,
      "Ð°Ñı": 328,
      "ÑģÑĤÑĢ": 329,
      "ĠÐ¸Ð½": 330,
      "ÐµÐ¹ÑĢÐ¾Ð½": 331,
      "Ð¾Ð¹": 332,
      "Ð¾ÑĢÐ¼": 333,
      "Ð°Ð½Ð½ÑĭÑħ": 334,
      "ÑĦÐ¾ÑĢÐ¼": 335,
      "Ð°ÑĤÑĮ": 336,
      "ÐµÐºÑĤ": 337,
      "ÑĥÐº": 338,
      "ÐµÐ¼": 339,
      "ÐµÐ½Ð¸Ðµ": 340,
      "Ð¸ÑĢÐ¾Ð²": 341,
      "ĠÑĢ": 342,
      "ĠÐ³": 343,
      "ÐµÐ»Ð¸": 344,
      "ÐµÑĩ": 345,
      "Ð°Ð¼": 346,
      "ĠÑĥ": 347,
      "ÐµÐ½ÑĤ": 348,
      "ĠÐ½ÐµÐ¹ÑĢÐ¾Ð½": 349,
      "ÐµÑħ": 350,
      "ĠÐ¸Ð·": 351,
      "Ð½Ð¾Ð³": 352,
      "ĠÐ¼Ð¾Ð´": 353,
      "ÑģÑı": 354,
      "ÑģÐ¿": 355,
      "Ð°ÑĨÐ¸Ð¸": 356,
      "Ð¾Ð½": 357,
      "ÑĥÑĢ": 358,
      "Ð°Ð²": 359,
      "ÑĥÑĩÐ°": 360,
      "Ð»Ñĥ": 361,
      "Ð°Ð½Ð¸Ñı": 362,
      "¶Ð´": 363,
      "ĠÑĩ": 364,
      "Ð°Ð»": 365,
      "Ð¸Ð¸": 366,
      "Ð¸Ñĩ": 367,
      "ĠÑįÑĤÐ¾": 368,
      "Ð±": 369,
      "ĠÑĢÐ°Ð·": 370,
      "Ð¾Ð·Ð²": 371,
      "ĠÐ±": 372,
      "ÑĮÑİÑĤ": 373,
      "Ð¿ÑĮÑİÑĤ": 374,
      "Ð¾Ð¼Ð¿ÑĮÑİÑĤ": 375,
      "ĠÑĤ": 376,
      "ĠÐ´Ð°Ð½Ð½ÑĭÑħ": 377,
      "ÑİÑīÐ°Ñı": 378,
      "ĠÑĦ": 379,
      "ÑĥÐ½": 380,
      "Ð¾Ð»ÑĮ": 381,
      "ĠÑģÐµÑĤÐ¸": 382,
      "ĠÐ¼Ð¾Ð´ÐµÐ»Ð¸": 383,
      "ÑĢÐ°Ð½": 384,
      "Ð¸Ð´": 385,
      "Ð¾Ð·Ð´": 386,
      "Ð¸ÐºÐ¸": 387,
      "Ð¸Ð»": 388,
      "ĠÐ¿Ð¾": 389,
      "Ð°Ð½Ð¸Ð·": 390,
      "Ð¹": 391,
      "Ð½Ñĥ": 392,
      "Ð°Ñĩ": 393,
      "ÑĢÐ°Ð±": 394,
      "ĠÐ¸Ð½ÑĦÐ¾ÑĢÐ¼": 395,
      "Ð¼Ð¸": 396,
      "ÑĨÐµÑģ": 397,
      "ÐµÑģÐº": 398,
      "Ð½Ð¾ÑģÑĤÐ¸": 399,
      "ÑĨÐµÑģÑģ": 400,
      "Ð½Ð¾Ð²": 401,
      "Ð¾Ð»Ñı": 402,
      "Ð°Ð²Ð»Ñı": 403,
      "Ð¾Ð·Ð²Ð¾Ð»Ñı": 404,
      "Ð¾Ð¼Ð¿ÑĮÑİÑĤÐµÑĢ": 405,
      "ºÑĤ": 406,
      "ÑħÐ¾Ð´": 407,
      "ĠÑģÐ¾Ð·Ð´": 408,
      "ÑĢÐ°Ð¼": 409,
      "Ð¸Ð´Ðµ": 410,
      "Ð¾Ð¶": 411,
      "ÐµÐ»ÑĮ": 412,
      "Ð·Ñĥ": 413,
      "ĠÐ·Ð°Ðº": 414,
      "Ð¸ÑĢÐ¾Ð²Ð°ÑĤÑĮ": 415,
      "ĠÑĦÑĥÐ½": 416,
      "Ð¾Ð»ÑĮÐ·Ñĥ": 417,
      "ÐµÑĪ": 418,
      "ÑģÐº": 419,
      "ÐµÐ¶Ð´": 420,
      "Ð½Ð¾Ð³Ð¾": 421,
      "ÐµÐ¶Ð´Ñĥ": 422,
      "ĠÐ¾": 423,
      "Ð¾Ð¼ÐµÑĢ": 424,
      "ÐµÐ´Ð¸Ð½": 425,
      "ÑĥÑĩÐµÐ½Ð¸Ðµ": 426,
      "ĠÐ¸Ð·ÑĥÑĩÐ°": 427,
      "Ð°Ð½Ð¸Ð·Ð¼": 428,
      "ÐµÐ´Ð¸Ð½Ñı": 429,
      "Ð°ÐµÑĤ": 430,
      "ÑĥÐ¼": 431,
      "ĠÐ¿Ð¾Ð·Ð²Ð¾Ð»Ñı": 432,
      "Ð°Ð½ÑĤ": 433,
      "ĠÐ²Ñĭ": 434,
      "Ð½ÑĥÑİ": 435,
      "ÑĢÐ°": 436,
      "ÑĭÐµ": 437,
      "ĠÐ·Ð°Ð´": 438,
      "Ð°ÑĨÐ¸Ñİ": 439,
      "ÑİÑīÐ¸Ð¹": 440,
      "Ð½Ð¾ÑģÑĤÑĮ": 441,
      "ĠÐ¿ÑĢÐ¾ÑĨÐµÑģÑģ": 442,
      "ĠÐ¼ÐµÑħ": 443,
      "ĠÐ¼ÐµÐ¶Ð´Ñĥ": 444,
      "ÑĥÐºÐ°": 445,
      "ÑĢÐµÐ´": 446,
      "ĠÐ»": 447,
      "ÑıÑĤ": 448,
      "Ð»Ð¾Ð²": 449,
      "ĠÐ¸ÑģÐ¿": 450,
      "ÑĢÐ°Ð²": 451,
      "ÑįÑĤÐ¾": 452,
      "Ð¸ÑĢÐ¾Ð²Ð°Ð½": 453,
      "ĠÐ¸ÑģÐ¿Ð¾Ð»ÑĮÐ·Ñĥ": 454,
      "¶ÐµÐ½Ð¸Ñı": 455,
      "ĠÐ¾Ð±Ñī": 456,
      "ĠÐ¿ÑĢÐµÐ´": 457,
      "ÑĥÑģ": 458,
      "Ð°ÐºÑĤ": 459,
      "Ð¼Ñĭ": 460,
      "Ð¾Ð³ÑĢÐ°Ð¼": 461,
      "ÑĥÑĩÐ¸ÑĤ": 462,
      "Ð¾ÑģÐ»": 463,
      "Ð¸ÑĩÐµÑģÐº": 464,
      "ĠÑĦÑĥÐ½Ðº": 465,
      "Ð¾Ð³ÑĢÐ°Ð¼Ð¼": 466,
      "Ð¾ÑģÑĤ": 467,
      "Ð½Ð¾Ð¹": 468,
      "Ð»ÐµÐ½": 469,
      "ÑĥÐ¿": 470,
      "ĠÐºÐ¾Ð¼Ð¿ÑĮÑİÑĤÐµÑĢ": 471,
      "Ð¾ÑģÐ½Ð¾Ð²": 472,
      "Ð³Ð¾ÑĢ": 473,
      "ĠÑģÐµÑĤÑĮ": 474,
      "ÑĢÐ°Ð±Ð¾ÑĤ": 475,
      "Ð¶": 476,
      "Ð»Ð¸": 477,
      "Ð¾Ð±Ð°Ð²Ð»Ñı": 478,
      "Ð°ÑĤÐµÐ¼": 479,
      "Ð¾ÐºÐµÐ½": 480,
      "ĠÐ¸Ð½ÑĦÐ¾ÑĢÐ¼Ð°ÑĨÐ¸Ñİ": 481,
      "ÐµÑĪÐµÐ½Ð¸Ñı": 482,
      "ĠÑħ": 483,
      "ĠÐ¾ÑĤ": 484,
      "Ð¸ÑĨ": 485,
      "ÑĤÐ¸Ñı": 486,
      "ÑĭÑĤÐ¸Ñı": 487,
      "ÐµÐ·": 488,
      "ÑĨÐ¸Ñı": 489,
      "ÐµÐ»Ð¾Ð²": 490,
      "Ð¾ÑĤÐ¾ÑĢ": 491,
      "Ð¸Ð¼Ð¸Ð·": 492,
      "Ð¸ÐºÐ°": 493,
      "ĠÑĢÐµÑĪÐµÐ½Ð¸Ñı": 494,
      "ĠÐ·Ð°Ð´Ð°Ñĩ": 495,
      "Ð³Ð¾ÑĢÐ¸ÑĤ": 496,
      "ÑĢÐµÐ": 497,
      "ÑģÐ»Ñĥ": 498,
      "Ð»Ð°": 499,
      "Ð»ÐµÐºÑĤ": 500,
      "ÑĭÐ²": 501,
      "Ð°Ð³": 502,
      "ĠÑģÐ¾": 503,
      "ĠÐ²Ð¸Ð´Ðµ": 504,
      "Ð°ÑĤÐµÐ»ÑĮ": 505,
      "ÑĤÐ¾Ñĩ": 506,
      "ĠÐ½Ð°ÑħÐ¾Ð´": 507,
      "ÑģÑĤÐ²ÐµÐ½": 508,
      "Ð¾Ð½Ð¾Ð¼ÐµÑĢ": 509,
      "ÑĢÐµÐ±": 510,
      "ÑĭÐ²Ð°ÑİÑĤ": 511,
      "Ð¾Ð½Ð¾Ð¼ÐµÑĢÐ½Ð¾ÑģÑĤÐ¸": 512,
      "¿ÑĤ": 513,
      "ĠÐ°": 514,
      "ĠÑĥÑĩÐ¸ÑĤ": 515,
      "ÑıÐ·": 516,
      "ÑĭÐº": 517,
      "ÑĭÐ¹": 518,
      "Ð°Ð½Ð½ÑĭÐµ": 519,
      "ĠÑģÐ¿": 520,
      "Ð¿ÐµÑĩ": 521,
      "Ð¾Ð±ÑĢÐ°Ð·": 522,
      "ÐµÑģÐ¿ÐµÑĩ": 523,
      "ÑģÑĤÐ²Ð°": 524,
      "ĠÐ¿ÑĢÐ¾Ð³ÑĢÐ°Ð¼Ð¼": 525,
      "ÑĪÐ»": 526,
      "ĠÐ½ÐµÐ¹ÑĢÐ¾Ð½Ð½ÑĭÐµ": 527,
      "ÑĥÐ¼ÐµÐ½ÑĤ": 528,
      "ÐµÑģÐ¿ÐµÑĩÐ¸Ð²": 529,
      "Ðŀ": 530,
      "ĠÐ¾ÑģÐ½Ð¾Ð²": 531,
      "Ð¸Ñħ": 532,
      "Ð¸Ð¼Ð°ÑĤÑĮ": 533,
      "Ð¾ÑģÐ¾Ð±": 534,
      "ÑģÑĤÑĢÑĥÐº": 535,
      "Ð»ÑĥÐ±": 536,
      "Ð°Ð»Ð³Ð¾ÑĢÐ¸ÑĤ": 537,
      "ĠÐ·Ð°ÐºÐ¾Ð½Ð¾Ð¼ÐµÑĢÐ½Ð¾ÑģÑĤÐ¸": 538,
      "Ð»ÑĥÐ±Ð¾Ðº": 539,
      "Ð¾Ð½Ñĭ": 540,
      "Ð½Ð¸Ð¼": 541,
      "ÑĩÐ¸Ñģ": 542,
      "ĠÐ¿Ð¾ÑĤ": 543,
      "Ð½ÑĭÐ¹": 544,
      "Ð²Ð¾Ð´": 545,
      "ĠÐ´Ð¾Ð±Ð°Ð²Ð»Ñı": 546,
      "Ð¾ÑĢÐ³": 547,
      "ĠÐ¾Ð±ÐµÑģÐ¿ÐµÑĩÐ¸Ð²": 548,
      "Ð¸ÑĢÑĥ": 549,
      "ĠÐ½Ð°ÑĥÐºÐ°": 550,
      "ĠÐºÐ¾ÑĤÐ¾ÑĢ": 551,
      "ÑģÑĤÑĢÐ°Ð½": 552,
      "Ð°Ð¼Ð¸": 553,
      "ĠÑĩÐµÐ»Ð¾Ð²": 554,
      "Ð¸ÑĢÐ¾Ð²Ð°Ð½Ð¸Ðµ": 555,
      "ĠÑĦÑĥÐ½ÐºÑĨÐ¸": 556,
      "±Ð¾Ð»": 557,
      "Ð°ÑģÐ¿": 558,
      "Ð»Ð¸Ñĩ": 559,
      "ÑĥÑİÑĤ": 560,
      "Ð¸Ð¿": 561,
      "ĠÐ¿ÐµÑĢ": 562,
      "Ð¾Ð±ÑĢÐ°Ð": 563,
      "Ð´ÐµÐ»": 564,
      "ĠÐ¼Ð½Ð¾Ð³": 565,
      "ĠÐ´Ð°Ð½Ð½ÑĭÐµ": 566,
      "ÑĦÑĦ": 567,
      "Ð½Ð¾Ðµ": 568,
      "Ð¸Ð¼Ð¸": 569,
      "Ð¸Ð²Ð½Ð¾Ð³Ð¾": 570,
      "Ð¸ÐºÑĥ": 571,
      "ĠÐ¸Ð½ÑĤ": 572,
      "ÐµÐºÑĤÐ¸Ð²Ð½Ð¾Ð³Ð¾": 573,
      "ĠÑĢÐ°ÑģÐ¿": 574,
      "Ð°Ð»ÑĮ": 575,
      "ĠÑĤÐ¾ÐºÐµÐ½": 576,
      "ĠÑģÐ¿Ð¾ÑģÐ¾Ð±": 577,
      "Ð¾Ð±ÑĢÐ°Ð¶ÐµÐ½Ð¸Ñı": 578,
      "ÑĦÑĦÐµÐºÑĤÐ¸Ð²Ð½Ð¾Ð³Ð¾": 579,
      "ĠÐ¾Ð": 580,
      "ĠÑĤÐ¾Ñĩ": 581,
      "ĠÐ°Ð»Ð³Ð¾ÑĢÐ¸ÑĤ": 582,
      "ÑģÐµÑĤ": 583,
      "ÐµÐ½Ð½ÑĭÑħ": 584,
      "Ð¾Ð²Ð°ÑĤÐµÐ»ÑĮ": 585,
      "ĠÐ¼Ñĭ": 586,
      "Ð¾ÑĢÑı": 587,
      "ÐµÐ´Ð¾Ð²Ð°ÑĤÐµÐ»ÑĮ": 588,
      "Ð¸Ð²Ð°ÑĨÐ¸Ð¸": 589,
      "ĠÑįÑĦÑĦÐµÐºÑĤÐ¸Ð²Ð½Ð¾Ð³Ð¾": 590,
      "ÑģÑĤÑĢÐ¾Ð¹": 591,
      "ĠÐ¸Ð·Ð¾Ð±ÑĢÐ°Ð¶ÐµÐ½Ð¸Ñı": 592,
      "ĠÑģÐ¾Ð·Ð´Ð°ÑİÑĤ": 593,
      "ĠÐ¿Ð¾Ð·Ð²Ð¾Ð»ÑıÑı": 594,
      "ÑĢÐ°Ñī": 595,
      "Ð°ÐºÑĤÐ¸Ð²Ð°ÑĨÐ¸Ð¸": 596,
      "Ð¾ÑģÐ»ÐµÐ´Ð¾Ð²Ð°ÑĤÐµÐ»ÑĮ": 597,
      "ĠÑģÐ¾ÐµÐ´Ð¸Ð½Ñı": 598,
      "ÑģÑĤÐ²ÐµÐ½Ð½Ð¾Ð³Ð¾": 599,
      "Ð¾ÑģÐ»ÐµÐ´Ð¾Ð²Ð°ÑĤÐµÐ»ÑĮÐ½Ð¾ÑģÑĤÐ¸": 600,
      "Ð½ÐµÐ½Ð¸Ñı": 601,
      "ÑĩÐµÐ½": 602,
      "Ð¿ÑĢÐ¾": 603,
      "ĠÐ²Ð·": 604,
      "ĠÐ´Ð¾ÑģÑĤ": 605,
      "Ð½Ð°Ñı": 606,
      "Ð½Ð°ÑĩÐµÐ½": 607,
      "ÐµÐ´Ð°Ñĩ": 608,
      "ĠÐ·Ð°Ð¿": 609,
      "ĠÐ³Ð»ÑĥÐ±Ð¾Ðº": 610,
      "ĠÑĥÑģÑĤÑĢÐ¾Ð¹": 611,
      "ĠÑĩÐ¸Ñģ": 612,
      "ĠÐ¼ÐµÑħÐ°Ð½Ð¸Ð·Ð¼": 613,
      "Ð½Ð¸Ð¼Ð°Ð½Ð¸Ñı": 614,
      "ĠÐ´Ð¾ÑģÑĤÑĥÐ¿": 615,
      "Ð½Ð°ÑĩÐµÐ½Ð¸Ð¹": 616,
      "ÐµÐ´Ð°ÑĩÐ¸": 617,
      "ĠÐ¾ÑĢÐ³": 618,
      "Ð½ÐµÐ¹ÑĢÐ¾Ð½": 619,
      "Ð»Ð¾Ð¶": 620,
      "Ð°Ð·": 621,
      "ĠÐ¿Ð¾Ð¼": 622,
      "ĠÑģÐ»Ð¾Ð¶": 623,
      "ÐºÐ¸": 624,
      "Ð¾Ð±ÑĥÑĩÐµÐ½Ð¸Ðµ": 625,
      "Ð°ÑĤÑĭÐ²Ð°ÑİÑĤ": 626,
      "Ð¾Ð»Ð¾Ð³": 627,
      "ÐµÐºÑģÑĤ": 628,
      "Ð¸ÑģÐº": 629,
      "ÑĢÐ°Ð±Ð°ÑĤÑĭÐ²Ð°ÑİÑĤ": 630,
      "ĠÐ¼ÐµÑħÐ°Ð½": 631,
      "´Ð¸": 632,
      "Ð¡": 633,
      "Ð¤": 634,
      "Ðĵ": 635,
      "Ðľ": 636,
      "ÑĬ": 637,
      "Ð°ÑĪ": 638,
      "ÑĤÑĥÑĢ": 639,
      "ÑĢÑħ": 640,
      "ÑĢÐµÐ½ÑĤ": 641,
      "ÑģÑĭ": 642,
      "ÑģÐ¾Ð²": 643,
      "ÑĥÐ´": 644,
      "ĠÐ¿Ð¾ÑģÐ»ÐµÐ´Ð¾Ð²Ð°ÑĤÐµÐ»ÑĮÐ½Ð¾ÑģÑĤÐ¸": 645,
      "Ð°Ð½Ð¸Ð¹": 646,
      "ÑģÑĤÐ°Ð²Ð»Ñı": 647,
      "Ð²Ð°Ð½ÑĤ": 648,
      "Ð²ÑıÐ·": 649,
      "ÑĨÐ¸Ð¹": 650,
      "ÑĢÐ°Ð´Ð¸": 651,
      "ĠÐ²Ñģ": 652,
      "Ð¾ÑĢÑĭ": 653,
      "Ð¾ÑĢÐ¾Ð²": 654,
      "Ð»ÑıÐµÑĤ": 655,
      "ĠÐ·Ð½Ð°ÑĩÐµÐ½Ð¸Ð¹": 656,
      "ÐµÑģÑĥÑĢ": 657,
      "Ð·ÑĭÐº": 658,
      "ĠÐ¾Ð±ÑĥÑĩÐ°": 659,
      "Ð¸ÑĤÐµÐºÑĤ": 660,
      "Ð¸ÑĤÐµÐ»ÑĮ": 661,
      "ÐµÐºÑĥÑĢ": 662,
      "ÑģÑĤÐ²Ð¾": 663,
      "ÑģÑĤÐ²Ðµ": 664,
      "Ð°Ð»Ð¸Ð·": 665,
      "ĠÐ¸Ð·ÑĥÑĩÐ°ÐµÑĤ": 666,
      "ÐµÐ´Ð¸Ð½ÑıÐµÑĤ": 667,
      "Ð°ÑĤÐµÐ¼Ð°ÑĤ": 668,
      "ĠÑħÑĢÐ°Ð½": 669,
      "ĠÐ½Ð°ÑħÐ¾Ð´Ð¸ÑĤ": 670,
      "ÑĬÐµÐ´Ð¸Ð½ÑıÐµÑĤ": 671,
      "Ð°ÑĪÐ¸Ð½": 672,
      "ÑĢÑħÐ¸ÑĤÐµÐºÑĤ": 673,
      "Ð²Ð°Ð½ÑĤÐ¾Ð²": 674,
      "ÑĢÐ°Ð´Ð¸ÐµÐ½ÑĤ": 675,
      "ĠÐ¾Ð±ÑĥÑĩÐ°ÑİÑī": 676,
      "ÐµÐºÑĥÑĢÑĢÐµÐ½ÑĤ": 677,
      "ÑĢÑħÐ¸ÑĤÐµÐºÑĤÑĥÑĢ": 678,
      "ĠÑģÑĤ": 679,
      "ĠÐ°ÐºÑĤÐ¸Ð²Ð°ÑĨÐ¸Ð¸": 680,
      "Ð¾Ð½Ð°": 681,
      "Ð¸ÑģÑĤ": 682,
      "ÐµÑģÑĤÐ²Ð°": 683,
      "Ð½ÐµÑĢ": 684,
      "Ð½Ð°Ð½Ð¸Ñı": 685,
      "ÑİÐ´": 686,
      "ÑĮÐ¼Ð¸": 687,
      "Ð¼Ñĥ": 688,
      "ĠÐ²ÐµÐºÑĤ": 689,
      "ĠÐ²Ð½Ð¸Ð¼Ð°Ð½Ð¸Ñı": 690,
      "Ð´Ðµ": 691,
      "Ð¾ÑĢÐ°": 692,
      "ÐµÐ»Ð»ÐµÐºÑĤ": 693,
      "Ð¾Ð³Ð¾": 694,
      "Ð·Ð»Ð¾Ð²": 695,
      "ĠÐ¾Ð±ÑĥÑĩÐµÐ½Ð¸Ðµ": 696,
      "Ð¾Ð·Ð½Ð°Ð½Ð¸Ñı": 697,
      "Ð¾ÐºÑĥÑģ": 698,
      "Ð³Ð¸Ð¸": 699,
      "ÐµÑĩÐµÑģÐº": 700,
      "ĠÑĢÐ°Ð·Ð¼": 701,
      "ĠÑĤÐµÐºÑģÑĤ": 702,
      "ĠÐ¸Ð½ÑĦÐ¾ÑĢÐ¼Ð°ÑĨÐ¸Ð¸": 703,
      "Ð¸ÑĢÐ¾Ð²Ð°ÑĤÑĮÑģÑı": 704,
      "ÑģÐºÑĥÑģ": 705,
      "ĠÐ²ÑĭÑĩÐ¸Ñģ": 706,
      "Ð¼ÑĭÑģÐ»Ñĥ": 707,
      "Ð»ÐµÐ½Ð¸Ð¸": 708,
      "Ð¶Ð¸ÑĤ": 709,
      "ÑĢÐµÐ±Ð»ÐµÐ½Ð¸Ð¸": 710,
      "ĠÐ¿ÐµÑĢÐµÐ´Ð°ÑĩÐ¸": 711,
      "Ð¾Ð½Ð°Ñħ": 712,
      "Ð¸ÑģÑĤÐµÐ¼": 713,
      "Ð½ÐµÑĢÐ³Ð¸Ð¸": 714,
      "ÑİÐ´ÑĮÐ¼Ð¸": 715,
      "ÐµÐ»Ð»ÐµÐºÑĤÐ°": 716,
      "Ð¾ÐºÑĥÑģÐ¸ÑĢÐ¾Ð²Ð°ÑĤÑĮÑģÑı": 717,
      "ÐµÑĩÐµÑģÐºÐ¾Ð³Ð¾": 718,
      "MS": 719,
      "RMS": 720,
      "en": 721,
      "mo": 722,
      "men": 723,
      "op": 724,
      "pr": 725,
      "tu": 726,
      "Ð¾Ñħ": 727,
      "Ð¾Ñī": 728,
      "Ð¸Ð°Ð³": 729,
      "Ð¸Ð¾Ð»Ð¾Ð³": 730,
      "ÐµÐ°Ð½": 731,
      "Ð½Ð¸ÐºÐ¸": 732,
      "Ð°Ñħ": 733,
      "Ð°ÑİÑīÐ°Ñı": 734,
      "ÑĤÑĢ": 735,
      "Ð»Ñĭ": 736,
      "Ð»Ð°Ð³": 737,
      "ÑĥÐ»Ñĭ": 738,
      "Ð°Ð¶Ð´": 739,
      "ÐµÐ¿ÑĤ": 740,
      "ÐµÐ½Ð¸Ð¸": 741,
      "ĠÐ¿ÑĢÐ°Ð²": 742,
      "ÑĮÑİ": 743,
      "ĠÑģÐ¾Ð²": 744,
      "ĠÑģÐ²ÑıÐ·": 745,
      "ÐºÐµ": 746,
      "Ð¾Ð±ÑĭÑĤÐ¸Ñı": 747,
      "ÑĨÐµÐ¿ÑĤ": 748,
      "Ð´Ð°Ð½Ð½ÑĭÑħ": 749,
      "Ð´ÐºÐµ": 750,
      "ĠÐ¼Ð¸ÑĢ": 751,
      "Ð½Ð°ÑĤ": 752,
      "Ð½Ð°ÑĥÐºÐ°": 753,
      "ÐµÐ»ÐµÐ½Ð¸Ð¸": 754,
      "ÐµÑĢÑĮ": 755,
      "ÐµÑĢÐ¸Ð¸": 756,
      "Ð°ÑĤÐµÑĢÐ¸Ð¸": 757,
      "Ð½Ð¾Ð¾Ð±ÑĢÐ°Ð·": 758,
      "ĠÐ¾Ð±ÑĢÐ°Ð±Ð¾ÑĤ": 759,
      "ĠÐ¾Ð±ÑĢÐ°Ð±Ð°ÑĤÑĭÐ²Ð°ÑİÑĤ": 760,
      "ÐµÐºÐ°": 761,
      "Ð¸Ð²Ð°ÑĤÑĮ": 762,
      "Ð¾ÐºÐµÐ°Ð½": 763,
      "ĠÑģÐµÑĤÐµÐ¹": 764,
      "Ð½Ð¾ÑģÑĤÐ¸ÐºÐ¸": 765,
      "ĠÐ¿ÑĢÐ¾Ð¸Ð·": 766,
      "ÑģÑĤÑĢÑĥÐ¼ÐµÐ½ÑĤ": 767,
      "ÑĦÐ¾ÑĢÐ¼ÑĥÐ»Ñĭ": 768,
      "ĠÑĢÐµÑģÑĥÑĢ": 769,
      "ÐµÑĩÐµÐ½Ð¸Ñı": 770,
      "ÐµÑĩÐµÐ½Ð½ÑĭÑħ": 771,
      "Ð°Ð¼ÑıÑĤ": 772,
      "Ð¾Ð½ÑĨÐµÐ¿ÑĤ": 773,
      "Ð°Ð½Ð¸ÑıÐ¼Ð¸": 774,
      "Ð¾Ð·Ð²ÑĢÐ°Ñī": 775,
      "ĠÐ±ÐµÐ·": 776,
      "Ð¸Ð»ÑĮ": 777,
      "Ð¸Ð»Ð»Ð¸": 778,
      "ĠÑģÐ¾Ð·Ð´Ð°Ð½Ð¸Ñı": 779,
      "Ð¾Ð¶Ð½Ð¸ÐºÐ¸": 780,
      "ÑģÐºÐ°Ð·": 781,
      "Ð¾Ð¼ÐµÑĢÐ½ÑĭÑħ": 782,
      "Ð°Ð½Ð¸Ð·Ð¼Ð°Ñħ": 783,
      "ÑĥÐ¼Ð¼Ñĥ": 784,
      "ÑĢÐ°ÑĦ": 785,
      "ÑĢÐµÐ´ÐµÐ»ÐµÐ½Ð¸Ð¸": 786,
      "ÑĢÐ°Ð±Ð¾ÑĤÐ°ÑİÑĤ": 787,
      "ĠÐ°ÑĢÑħÐ¸ÑĤÐµÐºÑĤÑĥÑĢ": 788,
      "ĠÑĥÑĩÐ¸ÑĤÐµÐ»": 789,
      "ÑĪÐ»Ð¾Ð¼": 790,
      "ĠÐ´Ð¾Ð±Ð°Ð²Ð»ÑıÐµÑĤ": 791,
      "ĠÑĦÑĥÐ½ÐºÑĨÐ¸Ð¸": 792,
      "ÑģÐµÑĤÐ¸": 793,
      "Ð¾ÑĢÑıÐ´ÐºÐµ": 794,
      "ÑĥÐ´Ð¾Ð¶Ð½Ð¸ÐºÐ¸": 795,
      "RMSpr": 796,
      "momen": 797,
      "tum": 798,
      "Ð¾ÑīÑĮÑİ": 799,
      "Ð¸Ð°Ð³Ð½Ð¾ÑģÑĤÐ¸ÐºÐ¸": 800,
      "Ð°Ð¶Ð´ÑĭÐ¹": 801,
      "ĠÐ¿ÑĢÐ°Ð²Ð¸Ð»ÑĮ": 802,
      "Ð½Ð¾Ð¾Ð±ÑĢÐ°Ð·Ð½Ð°": 803,
      "ĠÐ¾Ð±ÑĢÐ°Ð±Ð¾ÑĤÐºÐ¸": 804,
      "Ð¾ÐºÐµÐ°Ð½Ñĭ": 805,
      "ÑģÑĤÑĢÑĥÐ¼ÐµÐ½ÑĤÐ¾Ð²": 806,
      "Ð°Ð¼ÑıÑĤÐ¸": 807,
      "Ð¾Ð½ÑĨÐµÐ¿ÑĤÐ¾Ð²": 808,
      "Ð¾Ð·Ð²ÑĢÐ°ÑīÐ°ÑİÑīÐ°Ñı": 809,
      "Ð¸Ð»Ð»Ð¸Ð¾Ð½Ñĭ": 810,
      "ÑģÐºÐ°Ð·Ð°Ð½Ð¸ÑıÐ¼Ð¸": 811,
      "RMSprop": 812,
      "momentum": 813,
      "¶Ð½ÑĭÑħ": 814,
      "Ð¢": 815,
      "Ðĺ": 816,
      "Ðļ": 817,
      "ÐŁ": 818,
      "Ðł": 819,
      "ĠÑĦÐ¾ÑĢÐ¼ÑĥÐ»Ñĭ": 820,
      "ĠÐ¾ÐºÐµÐ°Ð½Ñĭ": 821,
      "ĠRMSprop": 822,
      "ÐµÐµ": 823,
      "ÐµÑĢÐ°Ð¼": 824,
      "ÐµÐ¾Ð±ÑĢÐ°Ð·": 825,
      "Ð½Ð¸ÑĨ": 826,
      "ÑĤÐ¾Ð¼": 827,
      "ÑģÐ°Ð¼Ð¸": 828,
      "ÑģÑģÑĭ": 829,
      "ÑĥÐµÑĤ": 830,
      "ÑĭÑħ": 831,
      "ÑĭÑģÑĤÑĢ": 832,
      "Ð¸Ð¶ÐµÐ½Ð¸Ñı": 833,
      "Ð¸Ð±Ð¾Ð»": 834,
      "Ð°Ðº": 835,
      "Ð°Ð¶Ð½ÑĭÑħ": 836,
      "ÐµÐ½Ð½ÑĥÑİ": 837,
      "ÑħÑĢÐ°Ð½": 838,
      "ĠÐ¿Ð¾Ð·Ð½Ð°Ð½Ð¸Ñı": 839,
      "ĠÐ¿Ð¾ÑĢÑıÐ´ÐºÐµ": 840,
      "ĠÐ¿Ð°Ð¼ÑıÑĤÐ¸": 841,
      "Ð°Ð½Ð°Ð»Ð¸Ð·": 842,
      "ÑĮÑģÑı": 843,
      "Ð¼Ð¾Ð´": 844,
      "ĠÑģÐ»Ñĥ": 845,
      "ĠÑģÐ¼ÑĭÑģÐ»Ñĥ": 846,
      "ĠÑģÐ¾Ð±ÑĭÑĤÐ¸Ñı": 847,
      "Ð²ÐµÑĪ": 848,
      "Ð²Ð¸Ð¶ÐµÐ½Ð¸Ñı": 849,
      "ÐµÑĤÐ¾Ð´": 850,
      "ÑĨÐ¸Ð¿": 851,
      "ÑĢÐ°ÐºÑĤ": 852,
      "ĠÐ²Ð¾Ð·Ð²ÑĢÐ°ÑīÐ°ÑİÑīÐ°Ñı": 853,
      "Ð´Ð°Ð¼": 854,
      "Ð´Ð¾Ñħ": 855,
      "ĠÐ¼Ð¸Ð»Ð»Ð¸Ð¾Ð½Ñĭ": 856,
      "ÑĢÐ¾ÐµÐ½Ð¸Ðµ": 857,
      "ÑĢÐ¾ÑģÑĤÑĢÐ°Ð½": 858,
      "ÐµÐ»Ð¸Ð½": 859,
      "ÐµÑĢÐµÐ·": 860,
      "ÑĦÐ¸Ð»": 861,
      "Ð¸Ð·Ð°ÑĨÐ¸Ð¸": 862,
      "Ð°ÑĤÐ¸Ð·Ð°ÑĨÐ¸Ð¸": 863,
      "ÐµÐ¹Ð½Ð¾ÑģÑĤÑĮ": 864,
      "ĠÐ·Ð°ÑĤÐµÐ¼": 865,
      "ÐµÑģÐ°": 866,
      "Ð¸Ð¼ÐµÑĢ": 867,
      "ĠÐ½Ð°ÑĥÐº": 868,
      "ĠÐ½Ðµ": 869,
      "ĠÐºÐ°Ð¶Ð´ÑĭÐ¹": 870,
      "ĠÐºÐ¾Ð½ÑĨÐµÐ¿ÑĤÐ¾Ð²": 871,
      "Ð¸Ð²ÑĭÑħ": 872,
      "ĠÑįÐ½ÐµÑĢÐ³Ð¸Ð¸": 873,
      "Ð¸Ð½Ð¸Ð¼Ð¸Ð·": 874,
      "Ð¸Ð½ÑĨÐ¸Ð¿": 875,
      "Ð¾ÐºÑĥÐ¼ÐµÐ½ÑĤ": 876,
      "ÑĢÐ¾Ð½Ð¸ÐºÑĥ": 877,
      "ĠÐ¸Ð½ÑģÑĤÑĢÑĥÐ¼ÐµÐ½ÑĤÐ¾Ð²": 878,
      "Ð¾Ð¹Ð½ÑĭÐµ": 879,
      "ĠÐ³Ð¾ÑĢÑĭ": 880,
      "ĠÐ³Ð´Ðµ": 881,
      "ĠÑĥÐ·Ð»Ð¾Ð²": 882,
      "ÐµÐ½ÑĤÐ°Ð»ÑĮ": 883,
      "ĠÐ½ÐµÐ¹ÑĢÐ¾Ð½Ð½ÑĥÑİ": 884,
      "Ð¾Ð½Ð¸Ð¼Ð°ÑĤÑĮ": 885,
      "Ð°Ð²ÑĤÐ¾Ð¼": 886,
      "ĠÐ±ÑĭÑĤÐ¸Ñı": 887,
      "ĠÐ±Ð»Ð°Ð³": 888,
      "Ð¾Ð¼Ð¿ÑĮÑİÑĤÐµÑĢÐ°Ð¼": 889,
      "ĠÑĦÐ¾ÐºÑĥÑģÐ¸ÑĢÐ¾Ð²Ð°ÑĤÑĮÑģÑı": 890,
      "Ð½Ð¾Ð²Ð»ÐµÐ½": 891,
      "Ð¸Ð´ÐµÐ¸": 892,
      "Ð¾Ð¶Ð¸Ðµ": 893,
      "ĠÐ·Ð°ÐºÐ¾Ð½Ð°Ñħ": 894,
      "ĠÐ¸Ð·ÑĥÑĩÐ°ÑİÑīÐ°Ñı": 895,
      "ĠÐ¸Ð·ÑĥÑĩÐ°ÑİÑīÐ¸Ð¹": 896,
      "Ð°Ð½ÑĤÑĭ": 897,
      "ĠÐ¿ÑĢÐ¾ÑĨÐµÑģÑģÐ¾ÑĢÐ°": 898,
      "ÑĢÐµÐ´ÑģÑĤÐ²Ð¾": 899,
      "ĠÐ»ÑİÐ´ÑĮÐ¼Ð¸": 900,
      "ĠÐ»ÐµÑĩÐµÐ½Ð¸Ñı": 901,
      "ÑıÑĤÑĮÑģÑı": 902,
      "ÑĢÐ°Ð²Ð½ÐµÐ½Ð¸Ñı": 903,
      "Ð¸ÑĢÐ¾Ð²Ð°Ð½Ð½ÑĥÑİ": 904,
      "ĠÐ¸ÑģÐ¿Ð¾Ð»ÑĮÐ·ÑĥÑİÑīÐ°Ñı": 905,
      "ĠÐ¾Ð±ÑīÐµÑģÑĤÐ²Ð°": 906,
      "ĠÐ¿ÑĢÐµÐ´ÑģÐºÐ°Ð·Ð°Ð½Ð¸ÑıÐ¼Ð¸": 907,
      "Ð°ÐºÑĤÐ¸ÐºÐ¸": 908,
      "Ð¾ÑģÐ»Ð¾Ð¹Ð½ÑĭÐµ": 909,
      "Ð¸ÑĩÐµÑģÐºÐ¸Ðµ": 910,
      "Ð¶Ð¸Ð¼Ð°ÑĤÑĮ": 911,
      "ĠÑħÑĥÐ´Ð¾Ð¶Ð½Ð¸ÐºÐ¸": 912,
      "Ð¸Ð¼Ð¸Ð·Ð°ÑĨÐ¸Ð¸": 913,
      "Ð»Ð°ÑģÑģÑĭ": 914,
      "Ð»ÐµÐºÑĤÑĢÐ¾Ð½Ð¸ÐºÑĥ": 915,
      "ÑĢÐµÐ±ÑĥÐµÑĤ": 916,
      "¿ÑĤÐ¸Ð¼Ð¸Ð·Ð°ÑĨÐ¸Ð¸": 917,
      "ĠÑĥÑĩÐ¸ÑĤÑģÑı": 918,
      "ÑĪÐ»ÐµÐ½Ð¸Ñı": 919,
      "ÐŀÐ±": 920,
      "ÑģÑĤÑĢÑĥÐºÑĤÑĥÑĢ": 921,
      "ÑģÑĤÑĢÑĥÐºÑĨÐ¸Ð¹": 922,
      "ĠÐ¿Ð¾ÑĤÑĢÐµÐ±Ð»ÐµÐ½Ð¸Ð¸": 923,
      "Ð²Ð¾Ð´ÑģÑĤÐ²Ðµ": 924,
      "ĠÐ¾Ð±ÐµÑģÐ¿ÐµÑĩÐ¸Ð²Ð°Ñı": 925,
      "Ð¸ÑĢÑĥÑİÑīÐ¸Ð¹": 926,
      "ĠÐºÐ¾ÑĤÐ¾ÑĢÑĭÐµ": 927,
      "ĠÑĩÐµÐ»Ð¾Ð²ÐµÑĩÐµÑģÐºÐ¾Ð³Ð¾": 928,
      "Ð»Ð¸ÑĩÐ½Ð¾": 929,
      "ÑĥÑİÑĤÑģÑı": 930,
      "ĠÐ¼Ð½Ð¾Ð³Ð¾Ð¼ÐµÑĢÐ½ÑĭÑħ": 931,
      "ĠÐ¸Ð½ÑĤÐµÐ»Ð»ÐµÐºÑĤÐ°": 932,
      "ĠÑĩÐ¸ÑģÐ»Ð°": 933,
      "Ð·ÑĭÐºÐ°Ð½ÑĤÑĭ": 934,
      "Ð°ÑĤÐµÐ¼Ð°ÑĤÐ¸ÑĩÐµÑģÐºÐ¸Ðµ": 935,
      "Ð°ÑĪÐ¸Ð½Ð°Ð¼": 936,
      "Ð²Ð°Ð½ÑĤÐ¾Ð²Ð¾Ð¹": 937,
      "ÑĢÐ°Ð´Ð¸ÐµÐ½ÑĤÐ°Ð¼": 938,
      "ÐµÐºÑĥÑĢÑĢÐµÐ½ÑĤÐ½Ð¾Ð¹": 939,
      "ÐµÐ¾Ð±ÑĢÐ°Ð·ÑĥÑİÑĤÑģÑı": 940,
      "Ð½Ð¸ÑĨÑĥ": 941,
      "ÑĭÑģÑĤÑĢÑĭÐ¹": 942,
      "Ð¸Ð±Ð¾Ð»ÐµÐµ": 943,
      "Ð°Ð½Ð°Ð»Ð¸Ð·Ð¸ÑĢÐ¾Ð²Ð°ÑĤÑĮ": 944,
      "Ð¼Ð¾Ð´ÐµÐ»Ð¸": 945,
      "ĠÑģÐ»ÑĥÐ¶Ð¸ÑĤ": 946,
      "Ð²ÐµÑĪÐµÐ½Ð½ÑĥÑİ": 947,
      "ÐµÑĤÐ¾Ð´Ð¾Ð²": 948,
      "ÑĢÐ°ÐºÑĤÐ¸ÐºÐ°": 949,
      "Ð´Ð°Ð¼ÐµÐ½ÑĤÐ°Ð»ÑĮ": 950,
      "Ð´Ð¾ÑħÐ½Ð¾Ð²Ð»ÐµÐ½": 951,
      "ÑĢÐ¾ÑģÑĤÑĢÐ°Ð½ÑıÑĤÑĮÑģÑı": 952,
      "ÐµÐ»Ð¸Ð½ÐµÐ¹Ð½Ð¾ÑģÑĤÑĮ": 953,
      "ÑĦÐ¸Ð»Ð°ÐºÑĤÐ¸ÐºÐ¸": 954,
      "Ð¸Ð½Ð¸Ð¼Ð¸Ð·Ð¸ÑĢÑĥÑİÑīÐ¸Ð¹": 955,
      "Ð¸Ð½ÑĨÐ¸Ð¿Ñĭ": 956,
      "Ð¾ÐºÑĥÐ¼ÐµÐ½ÑĤÑĭ": 957,
      "Ð°Ð²ÑĤÐ¾Ð¼Ð°ÑĤÐ¸Ð·Ð°ÑĨÐ¸Ð¸": 958,
      "ÑģÑĤÑĢÑĥÐºÑĤÑĥÑĢÐ¸ÑĢÐ¾Ð²Ð°Ð½Ð½ÑĥÑİ": 959,
      "Ð´Ð°Ð¼ÐµÐ½ÑĤÐ°Ð»ÑĮÐ½ÑĭÐµ": 960,
      "Ð´Ð¾ÑħÐ½Ð¾Ð²Ð»ÐµÐ½Ð½ÑĭÐµ": 961,
      "ĠÑĢÐ°Ð±Ð¾ÑĤÐ°ÑİÑĤ": 962,
      "Ġmomentum": 963,
      "ĠÐ°Ð½Ð°Ð»Ð¸Ð·Ð¸ÑĢÐ¾Ð²Ð°ÑĤÑĮ": 964,
      "ĠÐ°Ð²ÑĤÐ¾Ð¼Ð°ÑĤÐ¸Ð·Ð°ÑĨÐ¸Ð¸": 965,
      "ÑĥÐ·ÑĭÐºÐ°Ð½ÑĤÑĭ": 966,
      "ÑĩÐ½ÑĭÐµ": 967,
      "ÐµÐ½ÐµÑĢ": 968,
      "ÑħÐ¾Ð¶Ð¸Ðµ": 969,
      "ĠÐ¿Ð¾Ð½Ð¸Ð¼Ð°ÑĤÑĮ": 970,
      "ĠÑģÐ»Ð¾Ð²": 971,
      "ĠÑģÑĥÐ¼Ð¼Ñĥ": 972,
      "ĠÑģÐ¶Ð¸Ð¼Ð°ÑĤÑĮ": 973,
      "ÐºÑĨÐ¸Ñı": 974,
      "ĠÐ¸ÑģÐºÑĥÑģ": 975,
      "Ð¿ÐµÑĢ": 976,
      "ĠÐ²Ð°Ð¶Ð½ÑĭÑħ": 977,
      "ĠÐ²Ð´Ð¾ÑħÐ½Ð¾Ð²Ð»ÐµÐ½Ð½ÑĭÐµ": 978,
      "ĠÐ¼Ð°ÑĤÐµÑĢÐ¸Ð¸": 979,
      "ĠÐ¼Ð¸Ð½Ð¸Ð¼Ð¸Ð·Ð¸ÑĢÑĥÑİÑīÐ¸Ð¹": 980,
      "ĠÐ¼ÑĥÐ·ÑĭÐºÐ°Ð½ÑĤÑĭ": 981,
      "ĠÐ´Ð¸Ð°Ð³Ð½Ð¾ÑģÑĤÐ¸ÐºÐ¸": 982,
      "ĠÐ¾Ð±ÑĬÐµÐ´Ð¸Ð½ÑıÐµÑĤ": 983,
      "ĠÐ½Ð¾Ð»ÑĮ": 984,
      "ĠÐºÐ¾Ð¼Ð¿ÑĮÑİÑĤÐµÑĢÐ°Ð¼": 985,
      "ĠÐºÐ²Ð°Ð½ÑĤÐ¾Ð²Ð¾Ð¹": 986,
      "Ð¸Ð½ÑĦÐ¾ÑĢÐ¼": 987,
      "ĠÐ¿ÑĢÐ¸Ð¼ÐµÑĢ": 988,
      "ĠÐ¿ÑĢÐµÐ¾Ð±ÑĢÐ°Ð·ÑĥÑİÑĤÑģÑı": 989,
      "ĠÐ¿ÑĢÐ¾ÑģÑĤÑĢÐ°Ð½": 990,
      "ĠÐ¿ÑĢÐ¾ÑĪÐ»Ð¾Ð¼": 991,
      "ĠÐ¿ÑĢÐ¾ÑĦÐ¸Ð»Ð°ÐºÑĤÐ¸ÐºÐ¸": 992,
      "ÐµÐ¼Ð°Ð½ÑĤ": 993,
      "ĠÑĥÑĢÐ°Ð²Ð½ÐµÐ½Ð¸Ñı": 994,
      "ĠÑĩÐµÑĢÐµÐ·": 995,
      "ĠÑĢÐ°Ð·Ð½Ð¾Ð¾Ð±ÑĢÐ°Ð·Ð½Ð°": 996,
      "ĠÐ±ÑĭÑģÑĤÑĢÑĭÐ¹": 997,
      "ÑĥÐ½ÐºÑĨÐ¸Ñı": 998,
      "ĠÐ¿Ð¾ÑħÐ¾Ð¶Ð¸Ðµ": 999,
      "ĠÑģÐ¾Ð·Ð´Ð°Ð½Ð½ÑĭÑħ": 1000,
      "ĠÑĦÑĥÐ½Ð´Ð°Ð¼ÐµÐ½ÑĤÐ°Ð»ÑĮÐ½ÑĭÐµ": 1001,
      "ĠÐ¿ÑĢÐ¾ÑĨÐµÑģÑģÑĭ": 1002,
      "ĠÐ¿ÑĢÐ¾ÑĨÐµÑģÑģÐ¾Ð²": 1003,
      "ĠÐ»ÐµÑģÐ°": 1004,
      "ĠÐ¾Ð±ÑīÐµÐ½Ð¸Ñı": 1005,
      "ĠÐ¾Ð±ÑīÐ¸Ñħ": 1006,
      "ĠÐ¿ÑĢÐµÐ´ÑģÑĤÐ°Ð²Ð»Ñı": 1007,
      "ĠÐºÐ¾Ð¼Ð¿ÑĮÑİÑĤÐµÑĢÐ°": 1008,
      "ĠÐºÐ¾Ð¼Ð¿ÑĮÑİÑĤÐµÑĢÐ¾Ð²": 1009,
      "ĠÐ½Ð°ÑħÐ¾Ð´Ñı": 1010,
      "ĠÐ¿ÑĢÐ¾Ð³ÑĢÐ°Ð¼Ð¼Ð¸ÑĢÐ¾Ð²Ð°Ð½Ð¸Ðµ": 1011,
      "ĠÐ¾ÑģÐ½Ð¾Ð²Ðµ": 1012,
      "ĠÐ¿Ð¾ÑĤÐµÑĢÑĮ": 1013,
      "Ð²Ð¾Ð´Ð°": 1014,
      "ĠÐ¾Ð±ÐµÑģÐ¿ÐµÑĩÐ¸Ð²Ð°ÑİÑĤ": 1015,
      "ĠÐºÐ¾ÑĤÐ¾ÑĢÐ°Ñı": 1016,
      "ĠÑĩÐµÐ»Ð¾Ð²ÐµÐºÐ°": 1017,
      "ĠÑĢÐ°ÑģÐ¿ÑĢÐµÐ´ÐµÐ»ÐµÐ½Ð¸Ð¸": 1018,
      "ĠÑĢÐ°ÑģÐ¿ÑĢÐ¾ÑģÑĤÑĢÐ°Ð½ÑıÑĤÑĮÑģÑı": 1019,
      "ĠÑĤÐ¾ÐºÐµÐ½Ñĭ": 1020,
      "ĠÑĤÐ¾ÐºÐµÐ½Ð¾Ð²": 1021,
      "ĠÑģÐ¿Ð¾ÑģÐ¾Ð±Ð½Ð¾ÑģÑĤÑĮ": 1022,
      "ĠÑģÐ¿Ð¾ÑģÐ¾Ð±Ð½ÑĭÐ¹": 1023,
      "ĠÐ¾Ð¿ÑĤÐ¸Ð¼Ð¸Ð·Ð°ÑĨÐ¸Ð¸": 1024,
      "ĠÑĤÐ¾ÑĩÐ½ÑĭÑħ": 1025,
      "ĠÐ°Ð»Ð³Ð¾ÑĢÐ¸ÑĤÐ¼Ñĭ": 1026,
      "ĠÐ¼ÑĭÑĪÐ»ÐµÐ½Ð¸Ñı": 1027,
      "ĠÐ¸Ð·Ð¾Ð±ÑĢÐ°Ð¶ÐµÐ½Ð¸ÑıÐ¼Ð¸": 1028,
      "ĠÑģÐ¾ÐµÐ´Ð¸Ð½ÑıÑİÑīÐ°Ñı": 1029,
      "ĠÐ¾ÑĢÐ³Ð°Ð½Ð¸Ð·Ð¼Ð°Ñħ": 1030,
      "ĠÐ¿Ð¾Ð¼Ð¾ÑīÑĮÑİ": 1031,
      "ĠÐ¼ÐµÑħÐ°Ð½Ð¸ÐºÐ¸": 1032,
      "ĠÑģÑĤÑĢÐ¾ÐµÐ½Ð¸Ðµ": 1033,
      "ĠÐ²ÐµÐºÑĤÐ¾ÑĢÐ¾Ð²": 1034,
      "ĠÑĢÐ°Ð·Ð¼ÐµÑĩÐµÐ½Ð½ÑĭÑħ": 1035,
      "Ð¸ÑģÑĤÐµÐ¼Ñĭ": 1036,
      "ĠÐ¸ÑģÐºÑĥÑģÑģÑĤÐ²ÐµÐ½Ð½Ð¾Ð³Ð¾": 1037,
      "ÐµÐ¼Ð°Ð½ÑĤÐ¸ÑĩÐµÑģÐº": 1038,
      "²Ð°Ð½Ð¸Ð¹": 1039,
      "¶Ð¸Ð²ÑĭÑħ": 1040,
      "¿Ð¸Ñģ": 1041,
      "ĠÐ¸Ð¼": 1042,
      "ĠÑĪ": 1043,
      "ĠÐ¸Ð´ÐµÐ¸": 1044,
      "ĠÑģÑĤÑĢÑĥÐºÑĤÑĥÑĢÐ¸ÑĢÐ¾Ð²Ð°Ð½Ð½ÑĥÑİ": 1045,
      "Ð¸ÐµÑģ": 1046,
      "Ð¸Ð½Ð°ÑĤ": 1047,
      "ÐµÐµÑĤ": 1048,
      "ÐµÐ¾Ð±ÑĥÑĩÐµÐ½Ð¸Ðµ": 1049,
      "Ð½Ð¸": 1050,
      "Ð½Ð¾Ð¼": 1051,
      "Ð½Ð¸Ð¹": 1052,
      "Ð°ÑģÑĤ": 1053,
      "Ð°Ð¸Ð¼": 1054,
      "ÑĤÑĢÐ°ÑĦ": 1055,
      "ĠÐ¶Ð¸Ð²ÑĭÑħ": 1056,
      "ÑģÐ»": 1057,
      "ÑıÑı": 1058,
      "ÑıÑħ": 1059,
      "ÑıÐµÑĤ": 1060,
      "Ð»Ð¾Ð±": 1061,
      "ÑĥÑģÑĤ": 1062,
      "ÑĭÐ½Ð¸": 1063,
      "ÐµÐ²Ð°Ð½Ð¸Ð¹": 1064,
      "ÐµÐ½Ð½Ð¸Ð¹": 1065,
      "ĠÐ¿Ð¸Ñģ": 1066,
      "ĠÐ¿ÑĢÐ°ÐºÑĤÐ¸ÐºÐ°": 1067,
      "ĠÐ¿ÑĥÑģÑĤ": 1068,
      "ÑģÑĤÐ°Ñı": 1069,
      "Ð¼ÐµÑĢ": 1070,
      "ĠÑģÑĢÐµÐ´ÑģÑĤÐ²Ð¾": 1071,
      "Ð¾Ð²ÑĭÐµ": 1072,
      "ĠÐ¸Ð»Ð¸": 1073,
      "Ð¿ÑĢÐµÐ´": 1074,
      "ĠÐ¼Ð°ÑĤÐµÐ¼Ð°ÑĤÐ¸ÑĩÐµÑģÐºÐ¸Ðµ": 1075,
      "ĠÐ¼Ð°ÑĪÐ¸Ð½Ð°Ð¼": 1076,
      "ĠÐ¼ÐµÑĤÐ¾Ð´Ð¾Ð²": 1077,
      "ĠÐ´Ð²Ð¸Ð¶ÐµÐ½Ð¸Ñı": 1078,
      "ĠÐ´Ð¾ÐºÑĥÐ¼ÐµÐ½ÑĤÑĭ": 1079,
      "ÑĢÐ¾ÑģÐ¾Ð²": 1080,
      "ÐµÐ»Ð¸ÑĢÐ¾Ð²Ð°ÑĤÑĮ": 1081,
      "ÐµÑĢÑĦ": 1082,
      "Ð°ÑĤÐµÐ»Ð¸": 1083,
      "Ð»ÑıÑİÑĤ": 1084,
      "Ð¾Ð´ÐµÐ¹": 1085,
      "Ð¾Ð¼Ð¸Ð½Ð°ÑĤ": 1086,
      "ÐµÐ¹Ñģ": 1087,
      "Ð¾Ð³Ð°ÑİÑĤ": 1088,
      "ĠÐ½Ð°Ð¸Ð±Ð¾Ð»ÐµÐµ": 1089,
      "ĠÐ½ÐµÐ»Ð¸Ð½ÐµÐ¹Ð½Ð¾ÑģÑĤÑĮ": 1090,
      "ĠÐ½Ð¾Ð²ÑĭÐµ": 1091,
      "ĠÐºÐ»Ð°ÑģÑģÑĭ": 1092,
      "Ð¸Ð²Ð¸ÑĤÐµÐ»ÑĮ": 1093,
      "ĠÑįÐ»ÐµÐºÑĤÑĢÐ¾Ð½Ð¸ÐºÑĥ": 1094,
      "ĠÐ·Ð°Ð±Ð¾Ð»": 1095,
      "Ð¾ÐºÑĥÐ¿": 1096,
      "ÑģÑĤÐ²Ð¸Ñı": 1097,
      "ĠÐ¿ÑĢÐ¸Ð½ÑĨÐ¸Ð¿Ñĭ": 1098,
      "ĠÐ¸Ð½ÑģÑĤÑĢÑĥÐºÑĨÐ¸Ð¹": 1099,
      "ĠÑĢÐµÐºÑĥÑĢÑĢÐµÐ½ÑĤÐ½Ð¾Ð¹": 1100,
      "ĠÐ³ÑĢÐ°Ð½": 1101,
      "ĠÐ³ÑĢÐ°Ð´Ð¸ÐµÐ½ÑĤÐ°Ð¼": 1102,
      "ĠÑĥÑģÐ»Ñĥ": 1103,
      "ĠÐ½ÐµÐ¹ÑĢÐ¾Ð½Ð½ÑĭÑħ": 1104,
      "ĠÐ½ÐµÐ¹ÑĢÐ¾Ð½Ð½Ð¾Ð¹": 1105,
      "ĠÐ¼Ð¾Ð´ÐµÐ»Ð¸ÑĢÐ¾Ð²Ð°ÑĤÑĮ": 1106,
      "ĠÑĩÐ°ÑģÑĤ": 1107,
      "ĠÑĢÐ°Ð·Ð´ÐµÐ»": 1108,
      "ĠÑĢÐ°Ð·Ð½Ð¸ÑĨÑĥ": 1109,
      "ĠÐ±Ð¸Ð¾Ð»Ð¾Ð³": 1110,
      "ĠÑĤÑĢÐµÐ±ÑĥÐµÑĤ": 1111,
      "Ð°Ð½Ð¸Ð·ÑĥÑİÑĤ": 1112,
      "Ð½ÑĥÑĤÑĢ": 1113,
      "ĠÐ¿Ð¾Ð·Ð²Ð¾Ð»ÑıÐµÑĤ": 1114,
      "ĠÐ¿Ð¾Ð·Ð²Ð¾Ð»ÑıÑİÑīÐ¸Ð¹": 1115,
      "ĠÐ²ÑĭÐ´ÐµÐ»": 1116,
      "ĠÐ·Ð°Ð´Ð°ÐµÑĤ": 1117,
      "ÑĢÐ°Ð²Ð»ÑıÑİÑĤ": 1118,
      "ĠÐ¸ÑģÐ¿Ð¾Ð»ÑĮÐ·ÑĥÑı": 1119,
      "Ð¸ÑĩÐµÑģÐºÐ¸Ð¼Ð¸": 1120,
      "ĠÑĦÑĥÐ½ÐºÑĨÐ¸Ñı": 1121,
      "ĠÐºÐ¾Ð¼Ð¿ÑĮÑİÑĤÐµÑĢÐ½ÑĭÑħ": 1122,
      "ĠÐ¾ÑĤÐ»Ð¸ÑĩÐ½Ð¾": 1123,
      "Ð¸ÑĨÑĭ": 1124,
      "ÑıÐ·ÑĭÐº": 1125,
      "ĠÐ´Ð¾Ð±Ð°Ð²Ð»ÑıÑı": 1126,
      "ĠÑĦÑĥÐ½ÐºÑĨÐ¸Ñİ": 1127,
      "Ð»Ð¸ÑĩÐ°ÑİÑĤ": 1128,
      "ĠÐ¼Ð½Ð¾Ð³Ð¾ÑģÐ»Ð¾Ð¹Ð½ÑĭÐµ": 1129,
      "ĠÐ¸Ð½ÑĤÐµÑĢÑĦ": 1130,
      "Ð°Ð»ÑĮÐ½Ð°Ñı": 1131,
      "ĠÐ¾Ð¿Ð¸Ñģ": 1132,
      "ĠÑĤÐ¾ÑĩÐ½Ð¾Ð¼": 1133,
      "ĠÐ°Ð»Ð³Ð¾ÑĢÐ¸ÑĤÐ¼": 1134,
      "ĠÐ¼ÑĭÑģÐ»": 1135,
      "ĠÑģÐ¾ÐµÐ´Ð¸Ð½ÑıÑİÑĤ": 1136,
      "Ð¿ÑĢÐ¾ÑĨÐµÑģÑģ": 1137,
      "ĠÐ²Ð·Ð²ÐµÑĪÐµÐ½Ð½ÑĥÑİ": 1138,
      "ĠÐ²Ð·Ð°Ð¸Ð¼": 1139,
      "ĠÐ·Ð°Ð¿ÑĢÐ¾ÑģÐ¾Ð²": 1140,
      "ĠÐ·Ð°Ð¿Ð¾Ð¼Ð¸Ð½Ð°ÑĤ": 1141,
      "ĠÐ³Ð»ÑĥÐ±Ð¾ÐºÐ¸Ðµ": 1142,
      "ĠÐ³Ð»ÑĥÐ±Ð¾ÐºÐ¸Ñħ": 1143,
      "ĠÑĥÑģÑĤÑĢÐ¾Ð¹ÑģÑĤÐ²": 1144,
      "ĠÑĥÑģÑĤÑĢÐ¾Ð¹ÑģÑĤÐ²Ð°": 1145,
      "ĠÐ´Ð¾ÑģÑĤÑĥÐ¿Ð°": 1146,
      "ĠÐ²ÑģÐµÑħ": 1147,
      "ĠÑħÑĢÐ°Ð½ÐµÐ½Ð¸Ðµ": 1148,
      "ĠÐ¾Ð±ÑĥÑĩÐ°ÑİÑīÐ¸ÐµÑģ": 1149,
      "ĠÑģÐ²ÑıÐ·ÐµÐ¹": 1150,
      "ĠÐ¿ÑĢÐ¾Ð¸Ð·Ð²Ð¾Ð´ÑģÑĤÐ²Ðµ": 1151,
      "ĠÑĢÐµÑģÑĥÑĢÑģÐ°Ð¼Ð¸": 1152,
      "ĠÐ¸Ð¼ÐµÐµÑĤ": 1153,
      "ĠÑĪÑĤÑĢÐ°ÑĦ": 1154,
      "Ð»Ð¾Ð±Ð°Ð»ÑĮÐ½Ð°Ñı": 1155,
      "ĠÐ¿Ð¸ÑģÐ°ÑĤÐµÐ»Ð¸": 1156,
      "ĠÐ¿ÑĥÑģÑĤÑĭÐ½Ð¸": 1157,
      "Ð¼ÐµÑĢÑıÐµÑĤ": 1158,
      "Ð¾Ð´ÐµÐ¹ÑģÑĤÐ²Ð¸Ñı": 1159,
      "Ð¸Ð²Ð¸ÑĤÐµÐ»ÑĮÐ½Ð°": 1160,
      "ĠÐ·Ð°Ð±Ð¾Ð»ÐµÐ²Ð°Ð½Ð¸Ð¹": 1161,
      "Ð¾ÐºÑĥÐ¿Ð½Ð¾ÑģÑĤÑĮ": 1162,
      "ĠÐ³ÑĢÐ°Ð½Ð¸ÑĨÑĭ": 1163,
      "ĠÑĥÑģÐ»ÑĥÐ³": 1164,
      "ĠÑĩÐ°ÑģÑĤÑıÑħ": 1165,
      "ĠÐ±Ð¸Ð¾Ð»Ð¾Ð³Ð¸ÑĩÐµÑģÐºÐ¸Ð¼Ð¸": 1166,
      "Ð½ÑĥÑĤÑĢÐµÐ½Ð½Ð¸Ð¹": 1167,
      "ĠÐ²ÑĭÐ´ÐµÐ»ÑıÑı": 1168,
      "ÑıÐ·ÑĭÐºÐ°": 1169,
      "ĠÐ¸Ð½ÑĤÐµÑĢÑĦÐµÐ¹Ñģ": 1170,
      "ĠÐ¾Ð¿Ð¸ÑģÑĭÐ²Ð°ÑİÑĤ": 1171,
      "ĠÑĤÐ¾ÑĩÐ½Ð¾Ð¼Ñĥ": 1172,
      "ĠÐ¼ÑĭÑģÐ»ÐµÐ¹": 1173,
      "ĠÐ²Ð·Ð°Ð¸Ð¼Ð¾Ð´ÐµÐ¹ÑģÑĤÐ²Ð¸Ñı": 1174,
      "ĠÐ·Ð°Ð¿Ð¾Ð¼Ð¸Ð½Ð°ÑĤÑĮ": 1175,
      "ĠÐ¾Ð±ÑĥÑĩÐ°ÑİÑīÐ¸ÐµÑģÑı": 1176,
      "ÐĲ": 1177,
      "Ðĳ": 1178,
      "ÐĿ": 1179,
      "ÐŃ": 1180,
      "Ð¸ÑĨÐ¸": 1181,
      "Ð°ÑĨÐ¸Ñı": 1182,
      "ÑģÑĦÐ¾ÑĢÐ¼": 1183,
      "Ð°Ð´": 1184,
      "Ð¼ÐµÑħ": 1185,
      "Ð²ÐµÑĤ": 1186,
      "Ð¿ÑĢ": 1187,
      "Ð¿Ð¾Ð»ÑĮÐ·Ñĥ": 1188,
      "Ð¾Ð±Ñī": 1189,
      "Ð¾Ð±Ð¾ÑĤ": 1190,
      "Ð´Ð»Ñı": 1191,
      "Ð¸Ð·ÑĥÑĩÐ°": 1192,
      "Ð°ÑĤÐ¾ÑĢ": 1193,
      "Ð·Ð°Ðº": 1194,
      "Ð¸Ð¼Ð¾ÑģÑĤ": 1195,
      "Ð¸ÑĢÐ¾Ð´": 1196,
      "ĠÐ½Ð¸Ð¼Ð¸": 1197,
      "Ð¸Ð²Ð½ÑĭÐµ": 1198,
      "Ð¸ÑģÐ¿Ð¾Ð»ÑĮÐ·Ñĥ": 1199,
      "ÐµÑħÐ½": 1200,
      "ÑĢÐ°Ð½ÑģÑĦÐ¾ÑĢÐ¼": 1201,
      "ĠÐ¿Ð¾Ð¸ÑģÐº": 1202,
      "ĠÐ¾ÑĤÐ²ÐµÑĤ": 1203,
      "Ð½ÐµÐ¹ÑĢÐ¾Ð½Ð½ÑĭÐµ": 1204,
      "Ð¤ÑĥÐ½ÐºÑĨÐ¸Ñı": 1205,
      "ÐļÐ¾Ð¼Ð¿ÑĮÑİÑĤÐµÑĢ": 1206,
      "ÐŁÑĢ": 1207,
      "ÐŀÐ±ÑĥÑĩÐµÐ½Ð¸Ðµ": 1208,
      "Ð¸Ð½ÑĦÐ¾ÑĢÐ¼Ð°ÑĨÐ¸Ñİ": 1209,
      "ÑĢÐ°Ð½ÑģÑĦÐ¾ÑĢÐ¼ÐµÑĢ": 1210,
      "Ad": 1211,
      "am": 1212,
      "±Ð¸Ð»": 1213,
      "¶Ð°ÐµÑĤ": 1214,
      "ĠÐ¾Ð³": 1215,
      "ĠÐ¸Ð´": 1216,
      "ĠÑıÐ·ÑĭÐºÐ°": 1217,
      "ĹÐµÐ¼": 1218,
      "Ð¸Ñİ": 1219,
      "ÐµÑģÑĤ": 1220,
      "ÐµÑģÑĤÐ²ÐµÐ½Ð½Ð¾Ð³Ð¾": 1221,
      "Ð½Ð°Ð½Ð¸Ð¹": 1222,
      "Ð°ÑĢ": 1223,
      "ÑĢÑĭ": 1224,
      "ÑĢÐµÐ½Ð¸Ðµ": 1225,
      "ÑĢÐ¸ÑĨ": 1226,
      "Ð¾Ð¶Ð´": 1227,
      "ÑģÐ¾Ð·Ð´": 1228,
      "ÑıÐ²": 1229,
      "Ð»ÐµÐ½Ð¸Ñı": 1230,
      "Ð»Ð¸Ð²Ð°ÑĤÑĮ": 1231,
      "ÑĥÑİ": 1232,
      "ÑĥÑģÐº": 1233,
      "Ð°Ð±Ð¸Ð»": 1234,
      "ÐµÐ½Ð¸Ð²Ð°ÑĤÑĮ": 1235,
      "ÐµÐ½Ð¸Ñİ": 1236,
      "ÑħÐ¾Ð¶Ð´": 1237,
      "Ð°Ð½Ð°Ð²": 1238,
      "ÑģÑĤÐ°Ð½Ð°Ð²": 1239,
      "Ð¼ÐµÐ½Ð¸Ð²Ð°ÑĤÑĮ": 1240,
      "Ð½ÑĭÐ¼Ð¸": 1241,
      "ĠÑģÐº": 1242,
      "ĠÑģÐµÐ¼Ð°Ð½ÑĤÐ¸ÑĩÐµÑģÐº": 1243,
      "Ð²ÑĢÐ°Ñī": 1244,
      "Ð²Ð°ÑĢ": 1245,
      "ÐºÐ¾Ð´": 1246,
      "ÐºÐ¾Ð¼Ð¿ÑĮÑİÑĤÐµÑĢ": 1247,
      "Ð¿Ð¾": 1248,
      "Ð¿Ð¾Ð»": 1249,
      "Ð¿Ð¾Ð·Ð²Ð¾Ð»Ñı": 1250,
      "Ð¿ÑĢÐ°Ð²Ð»ÑıÑİÑĤ": 1251,
      "Ð¿Ð°Ð´": 1252,
      "ÑĢÐ°Ð¶Ð°ÐµÑĤ": 1253,
      "ĠÐ²Ð¾Ñģ": 1254,
      "ĠÐ²ÐµÑĩ": 1255,
      "ĠÐ²ÑħÐ¾Ð´": 1256,
      "ĠÐ²Ð²Ð¾Ð´Ð°": 1257,
      "ĠÐ²Ð½ÑĥÑĤÑĢÐµÐ½Ð½Ð¸Ð¹": 1258,
      "Ð´Ð¾Ð±Ð°Ð²Ð»Ñı": 1259,
      "Ð´Ð¸Ð²Ð¸ÑĤÐµÐ»ÑĮÐ½Ð°": 1260,
      "ĠÐ´Ð¾Ð»": 1261,
      "ĠÐ´Ð°ÐµÑĤ": 1262,
      "ÑĢÐ¾ÑĩÐ½ÑĭÐµ": 1263,
      "Ð½Ð°ÑħÐ¾Ð´": 1264,
      "Ð¸Ð·Ð¸ÑĢÑĥ": 1265,
      "ĠÐ·Ð°": 1266,
      "ÑĥÑĩÐµÐ½Ð¸Ñı": 1267,
      "Ð¾ÑĤÐ²ÑĢÐ°Ñī": 1268,
      "ĠÐ¾Ð±Ð¼ÐµÐ½Ð¸Ð²Ð°ÑĤÑĮ": 1269,
      "ĠÐ¾Ð±ÑĥÑĩÐµÐ½Ð¸Ñı": 1270,
      "ÑĤÐ¾Ðµ": 1271,
      "Ð¸Ð²Ð°ÐµÑĤ": 1272,
      "Ð¾ÑģÑĢÐ¾ÑĩÐ½ÑĭÐµ": 1273,
      "Ð³Ð¾ÑģÑĢÐ¾ÑĩÐ½ÑĭÐµ": 1274,
      "Ð¸ÑģÑħÐ¾Ð¶Ð´": 1275,
      "ĠÐ¿ÑĢÐ¾ÑģÑĤÐ°Ñı": 1276,
      "ĠÐ¿ÑĢÐ¾Ð¸ÑģÑħÐ¾Ð¶Ð´": 1277,
      "ÐµÐ¼Ñĥ": 1278,
      "ĠÐ³ÐµÐ½ÐµÑĢ": 1279,
      "ĠÐ³Ð»Ð¾Ð±Ð°Ð»ÑĮÐ½Ð°Ñı": 1280,
      "ĠÑĥÑģÐº": 1281,
      "ĠÑĥÐ¿ÑĢÐ°Ð²Ð»ÑıÑİÑĤ": 1282,
      "ĠÑĥÐ´Ð¸Ð²Ð¸ÑĤÐµÐ»ÑĮÐ½Ð°": 1283,
      "ĠÐ½ÐµÐ¹ÑĢÐ¾Ð½Ð°Ð¼Ð¸": 1284,
      "ĠÐ½ÐµÐ¹ÑĢÐ¾Ð½Ð½Ð°Ñı": 1285,
      "ĠÐ¸Ð·Ð¼ÐµÑĢÑıÐµÑĤ": 1286,
      "Ð¸ÑĩÐµÐ½Ð½ÑĭÑħ": 1287,
      "Ð±Ð¸Ð²Ð°ÐµÑĤ": 1288,
      "ĠÑĢÐ°Ð·Ð»Ð¸ÑĩÐ°ÑİÑĤ": 1289,
      "ĠÑĤÐ¸Ð¿": 1290,
      "ÑĢÐ°Ð½Ð¸ÑĩÐµÐ½Ð½ÑĭÑħ": 1291,
      "ĠÐ·Ð°ÐºÐ¾Ð½Ñĭ": 1292,
      "ĠÐ²ÑĭÐ¿Ð¾Ð»": 1293,
      "Ð»Ð¾Ð²ÑĭÐµ": 1294,
      "ĠÐ¸ÑģÐ¿Ð¾Ð»ÑĮÐ·ÑĥÐµÑĤ": 1295,
      "ĠÐ¸ÑģÐ¿Ð¾Ð»ÑĮÐ·ÑĥÑİÑĤ": 1296,
      "ĠÐ¿ÑĢÐµÐ´Ð²Ð°ÑĢ": 1297,
      "ĠÐ¾ÑĤÑĢÐ¸ÑĨ": 1298,
      "ĠÑģÐ¾ÑħÑĢÐ°Ð½": 1299,
      "Ð°ÑĤÐµÐ»ÑĮÐ½ÑĭÑħ": 1300,
      "ÑģÑĤÐ²ÐµÐ½Ð½ÑĭÐµ": 1301,
      "ĠÐ¾ÑģÐ½Ð¾Ð²Ð¾Ð¹": 1302,
      "ĠÐ¾ÑģÐ½Ð¾Ð²Ð½Ð¾Ðµ": 1303,
      "ĠÐ¿ÐµÑĢÐµÐ¾Ð±ÑĥÑĩÐµÐ½Ð¸Ðµ": 1304,
      "ÑģÐµÑĤÑĮ": 1305,
      "Ð¾ÑĢÑıÑı": 1306,
      "ĠÑĩÐ¸ÑģÐ»Ð¾Ð²ÑĭÐµ": 1307,
      "ĠÐ¾ÑĢÐ³Ð°Ð½Ð¸Ð·ÑĥÑİÑĤ": 1308,
      "ĠÐ¿Ð¾Ð¼Ð¾Ð³Ð°ÑİÑĤ": 1309,
      "ĠÑģÐ»Ð¾Ð¶Ð½ÑĭÑħ": 1310,
      "ĠÑģÐ»Ð¾Ð¶Ð½ÑĭÐµ": 1311,
      "ĠÐ¼ÐµÑħÐ°Ð½Ð¸ÐºÑĥ": 1312,
      "ĠÐ²ÑģÐµÐ¼Ñĥ": 1313,
      "Ð»ÑıÐµÑĤÑģÑı": 1314,
      "Ð¸ÑĤÐµÐ»ÑĮÐ½Ð¾Ð¹": 1315,
      "ĠÑħÑĢÐ°Ð½ÑıÑĤ": 1316,
      "ĠÐ¾Ð±ÑĥÑĩÐ°ÑİÑīÑĥÑİ": 1317,
      "ĠÐ²ÑĭÑĩÐ¸ÑģÐ»ÑıÐµÑĤ": 1318,
      "ĠÑģÐ¾Ð²Ð¾ÐºÑĥÐ¿Ð½Ð¾ÑģÑĤÑĮ": 1319,
      "ĠÑģÐ¾Ð²Ð¿Ð°Ð´": 1320,
      "ĠÐ°ÑĢÑħÐ¸ÑĤÐµÐºÑĤÑĥÑĢÐ°": 1321,
      "ĠÐ°ÑĢÑħÐ¸ÑĤÐµÐºÑĤÑĥÑĢÑĥ": 1322,
      "ĠÑĥÑĩÐ¸ÑĤÐµÐ»Ñı": 1323,
      "ĠÑĥÑĩÐ¸ÑĤÐµÐ»ÐµÐ¼": 1324,
      "ĠÐ¿ÑĢÐ°Ð²Ð¸Ð»ÑĮÐ½ÑĭÐ¹": 1325,
      "ĠÐ¿ÑĢÐ°Ð²Ð¸Ð»ÑĮÐ½ÑĭÐ¼Ð¸": 1326,
      "ĠÑģÐ»Ð¾Ð²Ð°": 1327,
      "ĠÐ¿ÑĢÐ¾ÑģÑĤÑĢÐ°Ð½ÑģÑĤÐ²ÐµÐ½Ð½ÑĭÐµ": 1328,
      "ĠÐ¿ÑĢÐµÐ´ÑģÑĤÐ°Ð²Ð»ÑıÐµÑĤ": 1329,
      "Adam": 1330,
      "ĠÐ¾Ð³ÑĢÐ°Ð½Ð¸ÑĩÐµÐ½Ð½ÑĭÑħ": 1331,
      "ĠÐ¸Ð´ÐµÐ¹": 1332,
      "ĹÐµÐ¼Ð»Ð¸": 1333,
      "ÐµÑģÑĤÐµÑģÑĤÐ²ÐµÐ½Ð½Ð¾Ð³Ð¾": 1334,
      "ÑĢÑĭÑĤÐ¾Ðµ": 1335,
      "ÑıÐ²Ð»ÑıÐµÑĤÑģÑı": 1336,
      "Ð°Ð±Ð¸Ð»Ð¸Ð·Ð¸ÑĢÑĥ": 1337,
      "ÑģÑĤÐ°Ð½Ð°Ð²Ð»Ð¸Ð²Ð°ÑĤÑĮ": 1338,
      "ĠÑģÐºÑĢÑĭÑĤÐ¾Ðµ": 1339,
      "ĠÑģÐµÐ¼Ð°Ð½ÑĤÐ¸ÑĩÐµÑģÐºÐ¾Ð¼": 1340,
      "ĠÐ²Ð¾ÑģÑģÑĤÐ°Ð½Ð°Ð²Ð»Ð¸Ð²Ð°ÑĤÑĮ": 1341,
      "ĠÐ²ÐµÑĩÐ½ÑĭÐµ": 1342,
      "ĠÐ²ÑħÐ¾Ð´Ð½ÑĭÑħ": 1343,
      "ĠÐ´Ð¾Ð»Ð³Ð¾ÑģÑĢÐ¾ÑĩÐ½ÑĭÐµ": 1344,
      "Ð¾ÑĤÐ²ÑĢÐ°ÑīÐ°ÐµÑĤ": 1345,
      "ĠÐ¾Ð±Ð¼ÐµÐ½Ð¸Ð²Ð°ÑĤÑĮÑģÑı": 1346,
      "ĠÐ¿ÑĢÐ¾Ð¸ÑģÑħÐ¾Ð¶Ð´ÐµÐ½Ð¸Ðµ": 1347,
      "ĠÐ³ÐµÐ½ÐµÑĢÐ¸ÑĢÐ¾Ð²Ð°ÑĤÑĮ": 1348,
      "ĠÑĥÑģÐºÐ¾ÑĢÑıÑı": 1349,
      "ĠÐ²ÑĭÐ¿Ð¾Ð»Ð½ÐµÐ½Ð¸Ñı": 1350,
      "ĠÐ¿ÑĢÐµÐ´Ð²Ð°ÑĢÐ¸ÑĤÐµÐ»ÑĮÐ½Ð¾Ð¹": 1351,
      "ĠÐ¾ÑĤÑĢÐ¸ÑĨÐ°ÑĤÐµÐ»ÑĮÐ½ÑĭÑħ": 1352,
      "ĠÑģÐ¾ÑħÑĢÐ°Ð½ÐµÐ½Ð¸Ñı": 1353,
      "ĠÑģÐ¾Ð²Ð¿Ð°Ð´ÐµÐ½Ð¸Ñİ": 1354,
      "Ð°Ð±Ð¸Ð»Ð¸Ð·Ð¸ÑĢÑĥÐµÑĤ": 1355,
      "ÑĭÑĩÐ¸Ñģ": 1356,
      "ÑĩÐµÐ»Ð¾Ð²": 1357,
      "Ð¼ÐµÐ¶Ð´Ñĥ": 1358,
      "Ð²Ð¸Ð´Ðµ": 1359,
      "Ð²ÑĭÑĩÐ¸Ñģ": 1360,
      "ÐºÐ¾ÑĤÐ¾ÑĢ": 1361,
      "Ð¿Ð¾Ð¼": 1362,
      "Ð¿Ð¾ÑĤ": 1363,
      "Ð¾Ð±ÑĬÐµÐ´Ð¸Ð½ÑıÐµÑĤ": 1364,
      "ÑĥÑĩÐ¸ÑĤÐµÐ»": 1365,
      "Ð¾Ð³ÑĢÐ°Ð¼Ð¼Ð¸ÑĢÐ¾Ð²Ð°Ð½Ð¸Ðµ": 1366,
      "Ð¿ÑĢÐµÐ´ÑģÑĤÐ°Ð²Ð»Ñı": 1367,
      "Ð´Ð¾Ð±Ð°Ð²Ð»ÑıÐµÑĤ": 1368,
      "Ð½Ð°ÑħÐ¾Ð´Ð¸ÑĤ": 1369,
      "LS": 1370,
      "LU": 1371,
      "Re": 1372,
      "TM": 1373,
      "¯Ð·ÑĭÐº": 1374,
      "²Ð¸Ñģ": 1375,
      "³Ñĥ": 1376,
      "¿ÑĢÐ¾": 1377,
      "ÐĴ": 1378,
      "ÐĶ": 1379,
      "Ð¯Ð·ÑĭÐº": 1380,
      "ĠAdam": 1381,
      "ĠÐµÑģÑĤÐµÑģÑĤÐ²ÐµÐ½Ð½Ð¾Ð³Ð¾": 1382,
      "ĠÑıÐ²Ð»ÑıÐµÑĤÑģÑı": 1383,
      "Ð¾Ðµ": 1384,
      "Ð¾Ñı": 1385,
      "Ð¾ÑĦ": 1386,
      "Ð¾ÐµÐ´Ð¸Ð½Ñı": 1387,
      "Ð¾ÑĨÐ¸Ð¹": 1388,
      "Ð¾ÑĩÐ½ÑĭÐµ": 1389,
      "Ð¸ÑĦ": 1390,
      "Ð½ÑĤ": 1391,
      "Ð½ÐµÑĤ": 1392,
      "Ð½Ð¸Ðµ": 1393,
      "Ð½Ð°Ðº": 1394,
      "Ð½ÐºÐ¾Ð´": 1395,
      "ÑĤÐ¾ÐºÐµÐ½": 1396,
      "ÑĤÐ¸Ð¼Ð¸Ð·": 1397,
      "ÑĢÐ¸Ð·": 1398,
      "ÑĢÐ¸Ð¼Ð¸": 1399,
      "ĠÐĹÐµÐ¼Ð»Ð¸": 1400,
      "Ð¾Ð¿ÑĢÐ¾": 1401,
      "ÑģÐ¾ÐµÐ´Ð¸Ð½Ñı": 1402,
      "Ð»Ñİ": 1403,
      "Ð»Ð³Ð¾ÑĢÐ¸ÑĤ": 1404,
      "ÐµÐ³Ñĥ": 1405,
      "ÑĩÐµÐ¹": 1406,
      "ÑİÑĨÐ¸": 1407,
      "Ð°Ð½Ð¸Ðµ": 1408,
      "ÑģÑĤÐ¾ÑĢ": 1409,
      "ÑģÑĤÐ°ÑĤ": 1410,
      "ÑĮÑı": 1411,
      "Ð¼Ð½Ð¾Ð³": 1412,
      "Ð¼Ð±": 1413,
      "Ð¼Ð¾ÑĨÐ¸Ð¹": 1414,
      "ĠÑģÑħÐ¾Ð´": 1415,
      "ĠÑģÐ¾ÑģÑĤ": 1416,
      "ĠÑģÐ¸ÑģÑĤÐµÐ¼": 1417,
      "ĠÑģÐ¸ÑģÑĤÐµÐ¼Ñĭ": 1418,
      "Ð²ÐµÑĢ": 1419,
      "Ð²ÐµÐ´": 1420,
      "Ð²Ð¾Ð»": 1421,
      "Ð²Ð¸ÑĤ": 1422,
      "Ð²ÑĤÐ¾": 1423,
      "Ð²Ð½Ð¸Ð¼Ð°Ð½Ð¸Ñı": 1424,
      "ÐºÐ°": 1425,
      "ÐºÑĥ": 1426,
      "ÐºÐ¾Ñģ": 1427,
      "ÐºÐ¾Ð½": 1428,
      "ÐµÑĤÐ¸": 1429,
      "ÐµÑĤÐºÐ¸": 1430,
      "Ð¿Ð¾ÑģÐ»ÐµÐ´Ð¾Ð²Ð°ÑĤÐµÐ»ÑĮÐ½Ð¾ÑģÑĤÐ¸": 1431,
      "Ð¿ÑĤÐ¸Ð¼Ð¸Ð·": 1432,
      "Ð¾Ð±ÑĢÐ°Ð±Ð°ÑĤÑĭÐ²Ð°ÑİÑĤ": 1433,
      "ĠÐ²Ð¾Ð¿ÑĢÐ¾": 1434,
      "Ð´Ð¸Ð½": 1435,
      "Ð´Ð°Ð½Ð½ÑĭÐµ": 1436,
      "Ð´Ð¾ÑĢÐ¾Ð²": 1437,
      "ĠÐ¼Ð¾Ð·": 1438,
      "ĠÐ¼Ð¸ÑĢÑĥ": 1439,
      "Ð¾ÑĢÐºÑĥ": 1440,
      "ÐµÑĢÐ½ÐµÑĤ": 1441,
      "Ð¸Ð·Ð¸ÐºÐ°": 1442,
      "Ð¸Ð·Ð°ÑĤÐ¾ÑĢ": 1443,
      "Ð¸Ð·Ð½Ð°Ðº": 1444,
      "Ð°ÑĤÐ¸Ð²Ð½ÑĭÐµ": 1445,
      "Ð»ÑıÑĢÐ¸Ð·": 1446,
      "Ð¾Ð´Ð¸ÑĢÐ¾Ð²Ð°Ð½Ð¸Ðµ": 1447,
      "Ð¾Ð¼Ð¸ÐºÐ°": 1448,
      "ÑįÐ½ÐºÐ¾Ð´": 1449,
      "ĠÐ·Ð½Ð°Ð½Ð¸Ð¹": 1450,
      "ĠÐ·ÑĢÐµÐ½Ð¸Ðµ": 1451,
      "ĠÐ·Ð´Ð¾ÑĢÐ¾Ð²": 1452,
      "ÐµÐ´Ð¸ÑĨÐ¸": 1453,
      "ÐµÐ´Ð´Ð¸Ð½": 1454,
      "Ð¾ÑĤÐµÑħÐ½": 1455,
      "Ð¾Ð·Ð¸ÑĨÐ¸": 1456,
      "ĠÐºÐ»Ñİ": 1457,
      "ĠÐºÐ¾Ð´Ð¸ÑĢÐ¾Ð²Ð°Ð½Ð¸Ðµ": 1458,
      "ĠÑįÐ¼Ð¾ÑĨÐ¸Ð¹": 1459,
      "ĠÑįÐ²Ð¾Ð»": 1460,
      "ĠÑįÐºÐ¾Ñģ": 1461,
      "ĠÐ·Ð°Ð²Ð¸Ñģ": 1462,
      "Ð°ÑĨÐ¸ÐµÐ¹": 1463,
      "Ð°ÑĨÐ¸Ð¾Ð½": 1464,
      "Ð¾ÑģÐ¾ÑĦ": 1465,
      "Ð¸ÐºÐ°ÑĨÐ¸Ð¸": 1466,
      "Ð³Ð¸": 1467,
      "Ð³Ð°": 1468,
      "ĠÐ¿ÑĢÐ¸ÑĢÐ¾Ð´": 1469,
      "ĠÐ¿ÑĢÐ¸Ð·Ð½Ð°Ðº": 1470,
      "ÐµÐ¹ÑĢÐ¾Ð½Ð½ÑĭÐµ": 1471,
      "Ð¾ÑĢÐ¼Ð°Ð»Ð¸Ð·": 1472,
      "ÑĥÐºÑĤÑĥÑĢ": 1473,
      "ĠÑĢÐ¾Ð±Ð¾ÑĤ": 1474,
      "ÐµÑħÐ°Ð½Ð¸Ð·Ð¼": 1475,
      "ĠÐ¼Ð¾Ð´Ð¸ÑĦ": 1476,
      "Ð¾Ð½Ð½Ð¾Ðµ": 1477,
      "Ð±Ð¾ÑĢÐºÑĥ": 1478,
      "ĠÑĢÐ°Ð·Ð±Ð¸Ð²Ð°ÐµÑĤ": 1479,
      "ĠÑĢÐ°Ð·Ð²Ð¸ÑĤ": 1480,
      "ĠÑĤÑĢÐ°Ð½ÑģÑĦÐ¾ÑĢÐ¼ÐµÑĢ": 1481,
      "Ð¸Ð»Ð¾ÑģÐ¾ÑĦ": 1482,
      "ĠÐ¸Ð½ÑĦÐ¾ÑĢÐ¼Ð°ÑĨÐ¸ÐµÐ¹": 1483,
      "ĠÐ²ÑĭÐ²Ð¾Ð´Ð°": 1484,
      "ĠÐ²ÑĭÐ±Ð¾ÑĢÐºÑĥ": 1485,
      "ÑĢÐ°ÑģÐ¿": 1486,
      "ĠÐ¿ÑĢÐµÐ´Ð¾ÑĤÐ²ÑĢÐ°ÑīÐ°ÐµÑĤ": 1487,
      "Ð»ÐµÐ½Ð¸Ð¹": 1488,
      "ÑĢÐ°Ð±Ð¾ÑĤÐºÐ°": 1489,
      "Ð¾ÐºÐµÐ½Ð¸Ð·Ð°ÑĤÐ¾ÑĢ": 1490,
      "ĠÐ¾ÑĤÑĢÐ°Ð¶Ð°ÐµÑĤ": 1491,
      "ĠÐ²Ð¸Ð´ÐµÐ¾": 1492,
      "ÑĤÐ¾ÑĩÐ½ÑĭÐµ": 1493,
      "ĠÑģÐ¿ÑĥÑģÐº": 1494,
      "ÐŀÐ¿ÐµÑĢ": 1495,
      "ÐŀÑģÑĤÐ°ÑĤ": 1496,
      "ÐŀÐ¿ÑĤÐ¸Ð¼Ð¸Ð·": 1497,
      "Ð»ÑĥÐ±Ð¾ÐºÐ¾Ðµ": 1498,
      "Ð½Ð¸Ð¼Ð°Ð½Ð¸Ðµ": 1499,
      "Ð°Ð·Ñĭ": 1500,
      "ĠÑģÐ»Ð¾Ð¶Ð½Ð¾ÑģÑĤÑĮ": 1501,
      "Ð¾Ð»Ð¾Ð³Ð¸Ð¸": 1502,
      "Ð¸ÑģÐºÑĢÐ¸Ð¼Ð¸": 1503,
      "Ð¡ÑĤÑĢ": 1504,
      "Ð¡ÐµÐ¼Ð°Ð½ÑĤÐ¸ÑĩÐµÑģÐº": 1505,
      "Ð¡Ð²ÐµÑĢ": 1506,
      "Ð¡ÐµÑĤÐ¸": 1507,
      "Ð¤Ð¸Ð·Ð¸ÐºÐ°": 1508,
      "Ð¤Ð¸Ð»Ð¾ÑģÐ¾ÑĦ": 1509,
      "ÐĵÑĢÐ°Ð´Ð¸ÐµÐ½ÑĤ": 1510,
      "ÐĵÑĢÐ°ÑĦ": 1511,
      "ÐĵÐµÐ½ÐµÑĢ": 1512,
      "ÐĵÐ»ÑĥÐ±Ð¾ÐºÐ¾Ðµ": 1513,
      "ÐľÐ°ÑĤÐµÐ¼Ð°ÑĤ": 1514,
      "ÐľÐ°ÑĪÐ¸Ð½": 1515,
      "ÐľÐµÐ´Ð¸ÑĨÐ¸": 1516,
      "ÐľÐµÑħÐ°Ð½Ð¸Ð·Ð¼": 1517,
      "Ð²Ð°Ð½ÑĤÐ¾Ð²ÑĭÐµ": 1518,
      "ÐµÐºÑĥÑĢÑĢÐµÐ½ÑĤÐ½ÑĭÐµ": 1519,
      "ĠÑģÑĤÐ°Ð±Ð¸Ð»Ð¸Ð·Ð¸ÑĢÑĥÐµÑĤ": 1520,
      "ĠÐ²ÐµÐºÑĤÐ¾ÑĢÑĭ": 1521,
      "ĠÑĢÐ°Ð·Ð¼ÐµÑĤÐºÐ¸": 1522,
      "ĠÑĤÐµÐºÑģÑĤÐ°": 1523,
      "ÑģÐºÑĥÑģÑģÑĤÐ²Ð¾": 1524,
      "ĠÐ²ÑĭÑĩÐ¸ÑģÐ»ÐµÐ½Ð¸Ñı": 1525,
      "ĠÐ²ÑĭÑĩÐ¸ÑģÐ»ÐµÐ½Ð¸Ð¹": 1526,
      "Ð¸Ð¾Ð»Ð¾Ð³Ð¸Ñı": 1527,
      "ĠÑģÐ²ÑıÐ·Ð¸": 1528,
      "ĠÐ¼Ð¸ÑĢÐ°": 1529,
      "Ð½Ð°ÑĤÐ¸Ð²Ð½ÑĭÐµ": 1530,
      "ĠÐ¿ÑĢÐ¾Ð¸Ð·Ð²ÐµÐ´": 1531,
      "ĠÑĢÐµÑģÑĥÑĢÑģÐ¾Ð²": 1532,
      "Ð¢ÐµÑħÐ½": 1533,
      "Ð¢ÑĢÐ°Ð½ÑģÑĦÐ¾ÑĢÐ¼ÐµÑĢ": 1534,
      "Ð¢Ð¾ÐºÐµÐ½Ð¸Ð·Ð°ÑĤÐ¾ÑĢ": 1535,
      "ÐĺÐ½ÑĤ": 1536,
      "ÐĺÑģÑĤÐ¾ÑĢ": 1537,
      "ÐĺÑģÐºÑĥÑģÑģÑĤÐ²Ð¾": 1538,
      "ÐļÐ²Ð°Ð½ÑĤÐ¾Ð²ÑĭÐµ": 1539,
      "ÐŁÐ¾Ð·Ð¸ÑĨÐ¸": 1540,
      "ÐłÐ¾Ð±Ð¾ÑĤ": 1541,
      "ÐłÐµÐ³Ñĥ": 1542,
      "ÐłÐµÐºÑĥÑĢÑĢÐµÐ½ÑĤÐ½ÑĭÐµ": 1543,
      "ÐŀÐ±ÑĢÐ°Ð±Ð¾ÑĤÐºÐ°": 1544,
      "Ð¿ÐµÑĢÐµÐ´Ð°ÑĩÐ¸": 1545,
      "ĠÐ¿ÑĢÐ¾ÑģÑĤÑĢÐ°Ð½ÑģÑĤÐ²Ðµ": 1546,
      "ĠÐ¿ÑĢÐµÐ´ÑģÑĤÐ°Ð²Ð»ÑıÑİÑĤ": 1547,
      "ÐĲÐ»Ð³Ð¾ÑĢÐ¸ÑĤ": 1548,
      "ÐĲÐ²ÑĤÐ¾": 1549,
      "ÐĳÐ°Ð·Ñĭ": 1550,
      "ÐĳÐ¸Ð¾Ð»Ð¾Ð³Ð¸Ñı": 1551,
      "ÐĿÐµÐ¹ÑĢÐ¾Ð½Ð½ÑĭÐµ": 1552,
      "ÐĿÐ¾ÑĢÐ¼Ð°Ð»Ð¸Ð·": 1553,
      "ÐŃÐ¼Ð±": 1554,
      "ÐŃÐºÐ¾Ð½": 1555,
      "Ð¼ÐµÑħÐ°Ð½": 1556,
      "Ð¼ÐµÑħÐ°Ð½Ð¸Ð·Ð¼": 1557,
      "Ð¸Ð·ÑĥÑĩÐ°ÐµÑĤ": 1558,
      "Ð¸Ð¼Ð¾ÑģÑĤÐ¸": 1559,
      "Ð¸Ð¼Ð¾ÑģÑĤÑĮ": 1560,
      "Ð¸ÑĢÐ¾Ð´Ð°": 1561,
      "ĠÐ¾ÑĤÐ²ÐµÑĤÐ°Ð¼Ð¸": 1562,
      "ÐļÐ¾Ð¼Ð¿ÑĮÑİÑĤÐµÑĢÑĭ": 1563,
      "ÐļÐ¾Ð¼Ð¿ÑĮÑİÑĤÐµÑĢÐ½Ð¾Ðµ": 1564,
      "ÐŁÑĢÐ¾Ð³ÑĢÐ°Ð¼Ð¼Ð¸ÑĢÐ¾Ð²Ð°Ð½Ð¸Ðµ": 1565,
      "ÐŁÑĢÐ¸ÑĢÐ¾Ð´Ð°": 1566,
      "LSTM": 1567,
      "ReLU": 1568,
      "ÐĴÐ½Ð¸Ð¼Ð°Ð½Ð¸Ðµ": 1569,
      "ÐĶÐ¸ÑģÐºÑĢÐ¸Ð¼Ð¸": 1570,
      "Ð¾ÑıÐ½Ð¸Ðµ": 1571,
      "ÑİÑĨÐ¸Ñİ": 1572,
      "ĠÑģÑħÐ¾Ð´Ð¸Ð¼Ð¾ÑģÑĤÑĮ": 1573,
      "ĠÑģÐ¾ÑģÑĤÐ¾ÑıÐ½Ð¸Ðµ": 1574,
      "ĠÐ²Ð¾Ð¿ÑĢÐ¾ÑģÑĭ": 1575,
      "ĠÐ¼Ð¾Ð·Ð³Ð°": 1576,
      "Ð»ÑıÑĢÐ¸Ð·Ð°ÑĨÐ¸Ñı": 1577,
      "ÑįÐ½ÐºÐ¾Ð´ÐµÑĢ": 1578,
      "ĠÐ·Ð´Ð¾ÑĢÐ¾Ð²ÑĮÑı": 1579,
      "ÐµÐ´Ð´Ð¸Ð½Ð³Ð¸": 1580,
      "Ð¾ÑĤÐµÑħÐ½Ð¸ÐºÐ°": 1581,
      "ĠÐºÐ»ÑİÑĩÐµÐ¹": 1582,
      "ĠÑįÐ²Ð¾Ð»ÑİÑĨÐ¸Ñİ": 1583,
      "ĠÑįÐºÐ¾ÑģÐ¸ÑģÑĤÐµÐ¼Ñĭ": 1584,
      "ĠÐ·Ð°Ð²Ð¸ÑģÐ¸Ð¼Ð¾ÑģÑĤÐ¸": 1585,
      "Ð°ÑĨÐ¸Ð¾Ð½Ð½ÑĭÐµ": 1586,
      "ĠÐ¿ÑĢÐ¸ÑĢÐ¾Ð´Ðµ": 1587,
      "ĠÐ¿ÑĢÐ¸Ð·Ð½Ð°ÐºÐ¸": 1588,
      "ÑĥÐºÑĤÑĥÑĢÑĭ": 1589,
      "ĠÑĢÐ¾Ð±Ð¾ÑĤÐ¾Ð²": 1590,
      "ĠÐ¼Ð¾Ð´Ð¸ÑĦÐ¸ÐºÐ°ÑĨÐ¸Ð¸": 1591,
      "ĠÑĢÐ°Ð·Ð²Ð¸ÑĤÐ¸Ñı": 1592,
      "ĠÑĤÑĢÐ°Ð½ÑģÑĦÐ¾ÑĢÐ¼ÐµÑĢÐ°": 1593,
      "ÐŀÐ¿ÐµÑĢÐ°ÑĨÐ¸Ð¾Ð½Ð½ÑĭÐµ": 1594,
      "ÐŀÑģÑĤÐ°ÑĤÐ¾ÑĩÐ½ÑĭÐµ": 1595,
      "ÐŀÐ¿ÑĤÐ¸Ð¼Ð¸Ð·Ð°ÑĤÐ¾ÑĢ": 1596,
      "Ð¡ÑĤÑĢÑĥÐºÑĤÑĥÑĢÑĭ": 1597,
      "Ð¡ÐµÐ¼Ð°Ð½ÑĤÐ¸ÑĩÐµÑģÐºÐ¸Ð¹": 1598,
      "Ð¡Ð²ÐµÑĢÑĤÐ¾ÑĩÐ½ÑĭÐµ": 1599,
      "Ð¤Ð¸Ð»Ð¾ÑģÐ¾ÑĦÐ¸Ñı": 1600,
      "ÐĵÑĢÐ°Ð´Ð¸ÐµÐ½ÑĤÐ½ÑĭÐ¹": 1601,
      "ÐĵÐµÐ½ÐµÑĢÐ°ÑĤÐ¸Ð²Ð½ÑĭÐµ": 1602,
      "ÐľÐ°ÑĤÐµÐ¼Ð°ÑĤÐ¸ÐºÐ°": 1603,
      "ÐľÐ°ÑĪÐ¸Ð½Ð½Ð¾Ðµ": 1604,
      "ÐľÐµÐ´Ð¸ÑĨÐ¸Ð½Ð°": 1605,
      "ĠÐ¿ÑĢÐ¾Ð¸Ð·Ð²ÐµÐ´ÐµÐ½Ð¸Ñı": 1606,
      "Ð¢ÐµÑħÐ½Ð¾Ð»Ð¾Ð³Ð¸Ð¸": 1607,
      "ÐĺÐ½ÑĤÐµÑĢÐ½ÐµÑĤ": 1608,
      "ÐĺÑģÑĤÐ¾ÑĢÐ¸Ñı": 1609,
      "ÐŁÐ¾Ð·Ð¸ÑĨÐ¸Ð¾Ð½Ð½Ð¾Ðµ": 1610,
      "ÐłÐ¾Ð±Ð¾ÑĤÐ¾ÑĤÐµÑħÐ½Ð¸ÐºÐ°": 1611,
      "ÐłÐµÐ³ÑĥÐ»ÑıÑĢÐ¸Ð·Ð°ÑĨÐ¸Ñı": 1612,
      "ÐĲÐ»Ð³Ð¾ÑĢÐ¸ÑĤÐ¼Ñĭ": 1613,
      "ÐĲÐ²ÑĤÐ¾ÑįÐ½ÐºÐ¾Ð´ÐµÑĢ": 1614,
      "ÐĿÐ¾ÑĢÐ¼Ð°Ð»Ð¸Ð·Ð°ÑĨÐ¸Ñı": 1615,
      "ÐŃÐ¼Ð±ÐµÐ´Ð´Ð¸Ð½Ð³Ð¸": 1616,
      "ÐŃÐºÐ¾Ð½Ð¾Ð¼Ð¸ÐºÐ°": 1617,
      "ÐĶÐ¸ÑģÐºÑĢÐ¸Ð¼Ð¸Ð½Ð°ÑĤÐ¸Ð²Ð½ÑĭÐµ": 1618,
      "ÐĹÐµÐ¼Ð»Ð¸": 1619,
      "Ð½ÐµÐ»Ð¸Ð½ÐµÐ¹Ð½Ð¾ÑģÑĤÑĮ": 1620,
      "Ð°ÑĢÑħÐ¸ÑĤÐµÐºÑĤÑĥÑĢ": 1621,
      "ÑĤÐ¸Ð¿": 1622,
      "ÑĤÐµÐºÑģÑĤ": 1623,
      "ÑĤÐµÐ»Ð»ÐµÐºÑĤÐ°": 1624,
      "ÑĤÑĢÐµÐ±ÑĥÐµÑĤ": 1625,
      "ÑĢÐµÑģÑĥÑĢ": 1626,
      "ÑĢÐµÐºÑĥÑĢÑĢÐµÐ½ÑĤÐ½Ð¾Ð¹": 1627,
      "ÑģÐµÑħ": 1628,
      "ÑģÐ»Ð¾Ð²": 1629,
      "ÑģÐ²ÑıÐ·": 1630,
      "ÑģÐ¼ÑĭÑģÐ»Ñĥ": 1631,
      "ÑģÑĥÐ¼Ð¼Ñĥ": 1632,
      "ÑģÑĢÐµÐ´ÑģÑĤÐ²Ð¾": 1633,
      "ÑģÐ¸ÑģÑĤÐµÐ¼Ñĭ": 1634,
      "Ð»ÑİÐ´ÑĮÐ¼Ð¸": 1635,
      "ÑĥÐ·Ð»Ð¾Ð²": 1636,
      "ÑģÑĤÐ°Ð±Ð¸Ð»Ð¸Ð·Ð¸ÑĢÑĥÐµÑĤ": 1637,
      "Ð¼Ð¸ÑĢ": 1638,
      "Ð¼Ð°ÑĤÐµÑĢÐ¸Ð¸": 1639,
      "Ð¼ÐµÑĩÐµÐ½Ð½ÑĭÑħ": 1640,
      "Ð¼Ð°ÑĤÐµÐ¼Ð°ÑĤÐ¸ÑĩÐµÑģÐºÐ¸Ðµ": 1641,
      "Ð¼Ð°ÑĪÐ¸Ð½Ð°Ð¼": 1642,
      "Ð¼ÐµÑĤÐ¾Ð´Ð¾Ð²": 1643,
      "Ð²Ð·": 1644,
      "Ð²Ð½ÑĥÑĤÑĢÐµÐ½Ð½Ð¸Ð¹": 1645,
      "Ð²ÑģÐµÑħ": 1646,
      "ÐºÐ»Ð°ÑģÑģÑĭ": 1647,
      "Ð¿Ð¾Ð·Ð½Ð°Ð½Ð¸Ñı": 1648,
      "Ð¿ÑĢÐ°ÐºÑĤÐ¸ÐºÐ°": 1649,
      "Ð¾Ð±ÐµÑģÐ¿ÐµÑĩÐ¸Ð²": 1650,
      "Ð´Ð°ÐµÑĤ": 1651,
      "Ð´Ð¸Ð°Ð³Ð½Ð¾ÑģÑĤÐ¸ÐºÐ¸": 1652,
      "Ð´Ð²Ð¸Ð¶ÐµÐ½Ð¸Ñı": 1653,
      "Ð´Ð¾ÐºÑĥÐ¼ÐµÐ½ÑĤÑĭ": 1654,
      "Ð½Ð°ÑĥÐº": 1655,
      "Ð½Ð°Ð¸Ð±Ð¾Ð»ÐµÐµ": 1656,
      "ÑĦÐ¾ÐºÑĥÑģÐ¸ÑĢÐ¾Ð²Ð°ÑĤÑĮÑģÑı": 1657,
      "ÑĦÑĥÐ½ÐºÑĨÐ¸Ñı": 1658,
      "Ð¸Ð·Ð²Ð¾Ð´ÑģÑĤÐ²Ðµ": 1659,
      "Ð¸Ð·Ð¼ÐµÑĢÑıÐµÑĤ": 1660,
      "ÑįÐ½ÐµÑĢÐ³Ð¸Ð¸": 1661,
      "ÑįÐ»ÐµÐºÑĤÑĢÐ¾Ð½Ð¸ÐºÑĥ": 1662,
      "Ð·Ð½Ð°ÑĩÐµÐ½Ð¸Ð¹": 1663,
      "Ð·Ð½Ð°Ð½Ð¸Ð¹": 1664,
      "Ð·ÑĢÐµÐ½Ð¸Ðµ": 1665,
      "Ð¾ÑĤÐ»Ð¸ÑĩÐ½Ð¾": 1666,
      "Ð¾ÑĤÑĢÐ°Ð¶Ð°ÐµÑĤ": 1667,
      "Ð¸Ð½ÑģÑĤÑĢÑĥÐºÑĨÐ¸Ð¹": 1668,
      "Ð¸Ð½ÑĤÐµÐ»Ð»ÐµÐºÑĤÐ°": 1669,
      "Ð³Ð´Ðµ": 1670,
      "Ð³ÑĢÐ°Ð´Ð¸ÐµÐ½ÑĤÐ°Ð¼": 1671,
      "Ð³Ð»Ð¾Ð±Ð°Ð»ÑĮÐ½Ð°Ñı": 1672,
      "ÑĢÐ°Ð·Ð´ÐµÐ»": 1673,
      "ÑĢÐ°Ð·Ð½Ð¾Ð¾Ð±ÑĢÐ°Ð·Ð½Ð°": 1674,
      "ÑĢÐ°Ð·Ð½Ð¸ÑĨÑĥ": 1675,
      "ÑĢÐ°Ð·Ð»Ð¸ÑĩÐ°ÑİÑĤ": 1676,
      "ÑĢÐ°Ð·Ð±Ð¸Ð²Ð°ÐµÑĤ": 1677,
      "ÑĢÐ°Ð·Ð¼ÐµÑĩÐµÐ½Ð½ÑĭÑħ": 1678,
      "ÑģÐ¿Ð¾ÑģÐ¾Ð±": 1679,
      "ÑģÐ¿ÑĥÑģÐº": 1680,
      "Ð±ÑĭÑĤÐ¸Ñı": 1681,
      "Ð±ÐµÐ·": 1682,
      "Ð½Ð¾Ð²ÑĭÐµ": 1683,
      "ÑĥÑģÑģÑĤÐ²ÐµÐ½Ð½Ð¾Ð³Ð¾": 1684,
      "ÑĥÐ¿ÑĢÐ°Ð²Ð»ÑıÑİÑĤ": 1685,
      "Ð¾ÑģÐ½Ð¾Ð²Ð¾Ð¹": 1686,
      "Ð¾ÑģÐ½Ð¾Ð²Ð½Ð¾Ðµ": 1687,
      "Ð³Ð¾ÑĢÑĭ": 1688,
      "Ð¶Ð¸Ð²ÑĭÑħ": 1689,
      "ÑģÐ»ÑĥÐ¶Ð¸ÑĤ": 1690,
      "ÑĤÐ¾ÑĩÐ½ÑĭÑħ": 1691,
      "Ð°Ð»Ð³Ð¾ÑĢÐ¸ÑĤÐ¼": 1692,
      "ÑĩÐ¸ÑģÐ»Ð°": 1693,
      "Ð¾ÑĢÐ³Ð°Ð½Ð¸Ð·Ð¼Ð°Ñħ": 1694,
      "Ð¾ÑĢÐ³Ð°Ð½Ð¸Ð·ÑĥÑİÑĤ": 1695,
      "Ð¿ÑĢÐ¾ÑĪÐ»Ð¾Ð¼": 1696,
      "Ð¿ÑĢÐ¾ÑģÑĤÐ°Ñı": 1697,
      "Ð¿ÑĢÐ¾Ð¸Ð·Ð²Ð¾Ð´ÑģÑĤÐ²Ðµ": 1698,
      "Ð½ÐµÐ¹ÑĢÐ¾Ð½Ð½ÑĥÑİ": 1699,
      "Ð½ÐµÐ¹ÑĢÐ¾Ð½Ð½Ð¾Ð¹": 1700,
      "Ð½ÐµÐ¹ÑĢÐ¾Ð½Ð½Ð°Ñı": 1701,
      "Ð¸ÑģÐºÑĥÑģÑģÑĤÐ²ÐµÐ½Ð½Ð¾Ð³Ð¾": 1702,
      "ÑģÐ¾Ð²Ð¾ÐºÑĥÐ¿Ð½Ð¾ÑģÑĤÑĮ": 1703,
      "ÑĥÐ´Ð¸Ð²Ð¸ÑĤÐµÐ»ÑĮÐ½Ð°": 1704,
      "ÑħÑĢÐ°Ð½ÐµÐ½Ð¸Ðµ": 1705,
      "ÑħÑĢÐ°Ð½ÑıÑĤ": 1706,
      "Ð¿ÐµÑĢÐµÐ¾Ð±ÑĥÑĩÐµÐ½Ð¸Ðµ": 1707,
      "Ð¸Ð½ÑĦÐ¾ÑĢÐ¼Ð°ÑĨÐ¸Ð¸": 1708,
      "Ð¿ÑĢÐµÐ´Ð¾ÑĤÐ²ÑĢÐ°ÑīÐ°ÐµÑĤ": 1709,
      "Ð¿ÑĢÐ¾ÑĨÐµÑģÑģÐ¾Ð²": 1710,
      "Ð¿ÑĢÐ¾ÑĨÐµÑģÑģÐ¾ÑĢÐ°": 1711,
      "Ð¿ÑĢÐ¸Ð½ÑĨÐ¸Ð¿Ñĭ": 1712,
      "Ð¾Ð±ÑīÐµÐ½Ð¸Ñı": 1713,
      "Ð¾Ð±ÑīÐ¸Ñħ": 1714,
      "Ð¾Ð±ÑīÐµÑģÑĤÐ²Ð°": 1715,
      "Ð¸Ð·ÑĥÑĩÐ°ÑİÑīÐ°Ñı": 1716,
      "Ð·Ð°ÐºÐ¾Ð½Ð¾Ð¼ÐµÑĢÐ½Ð¾ÑģÑĤÐ¸": 1717,
      "Ð·Ð°ÐºÐ¾Ð½Ñĭ": 1718,
      "Ð·Ð°ÐºÐ¾Ð½Ð°Ñħ": 1719,
      "Ð¸ÑģÐ¿Ð¾Ð»ÑĮÐ·ÑĥÐµÑĤ": 1720,
      "Ð¸ÑģÐ¿Ð¾Ð»ÑĮÐ·ÑĥÑİÑĤ": 1721,
      "Ð¸ÑģÐ¿Ð¾Ð»ÑĮÐ·ÑĥÑİÑīÐ°Ñı": 1722,
      "ÑģÐ¾Ð·Ð´Ð°ÑİÑĤ": 1723,
      "ÑģÐ¾Ð·Ð´Ð°Ð½Ð¸Ñı": 1724,
      "ÐºÐ¾Ð´Ð¸ÑĢÐ¾Ð²Ð°Ð½Ð¸Ðµ": 1725,
      "ÐºÐ¾Ð¼Ð¿ÑĮÑİÑĤÐµÑĢÐ°": 1726,
      "ÐºÐ¾Ð¼Ð¿ÑĮÑİÑĤÐµÑĢÐ½ÑĭÑħ": 1727,
      "Ð¿Ð¾Ð¸ÑģÐº": 1728,
      "Ð¿Ð¾Ð·Ð²Ð¾Ð»ÑıÐµÑĤ": 1729,
      "Ð¿Ð¾Ð·Ð²Ð¾Ð»ÑıÑİÑīÐ¸Ð¹": 1730,
      "ÑĩÐµÐ»Ð¾Ð²ÐµÑĩÐµÑģÐºÐ¾Ð³Ð¾": 1731,
      "ÑĩÐµÐ»Ð¾Ð²ÐµÐºÐ°": 1732,
      "Ð²ÑĭÑĩÐ¸ÑģÐ»ÑıÐµÑĤ": 1733,
      "Ð²ÑĭÑĩÐ¸ÑģÐ»ÐµÐ½Ð¸Ñı": 1734,
      "ÐºÐ¾ÑĤÐ¾ÑĢÐ°Ñı": 1735,
      "ÐºÐ¾ÑĤÐ¾ÑĢÑĭÐµ": 1736,
      "Ð¿Ð¾Ð¼Ð¾ÑīÑĮÑİ": 1737,
      "Ð¿Ð¾Ð¼Ð¾Ð³Ð°ÑİÑĤ": 1738,
      "Ð¿Ð¾ÑĤÑĢÐµÐ±Ð»ÐµÐ½Ð¸Ð¸": 1739,
      "Ð¿Ð¾ÑĤÐµÑĢÑĮ": 1740,
      "ÑĥÑĩÐ¸ÑĤÐµÐ»Ñı": 1741,
      "ÑĥÑĩÐ¸ÑĤÐµÐ»ÐµÐ¼": 1742,
      "Ð¿ÑĢÐµÐ´ÑģÑĤÐ°Ð²Ð»ÑıÐµÑĤ": 1743,
      "Ð¿ÑĢÐµÐ´ÑģÑĤÐ°Ð²Ð»ÑıÑİÑĤ": 1744,
      "ÑĤÐ¾ÐºÐµÐ½Ñĭ": 1745,
      "ÑģÐ¾ÐµÐ´Ð¸Ð½ÑıÑİÑīÐ°Ñı": 1746,
      "Ð¼Ð½Ð¾Ð³Ð¾ÑģÐ»Ð¾Ð¹Ð½ÑĭÐµ": 1747,
      "ÑĢÐ°ÑģÐ¿ÑĢÐµÐ´ÐµÐ»ÐµÐ½Ð¸Ð¸": 1748,
      "Ð¼ÐµÑħÐ°Ð½Ð¸ÐºÑĥ": 1749,
      "Ð°ÑĢÑħÐ¸ÑĤÐµÐºÑĤÑĥÑĢÐ°": 1750,
      "ÑĢÐµÑģÑĥÑĢÑģÐ°Ð¼Ð¸": 1751,
      "ÑģÐ»Ð¾Ð²Ð°": 1752,
      "ÑģÐ²ÑıÐ·Ð¸": 1753,
      "Ð²Ð·Ð²ÐµÑĪÐµÐ½Ð½ÑĥÑİ": 1754,
      "Ð½Ðµ": 1755,
      "Ð½Ð¾Ð»ÑĮ": 1756,
      "ÑĢÐµÑĪÐµÐ½Ð¸Ñı": 1757,
      "Ð¾Ð¿ÑĤÐ¸Ð¼Ð¸Ð·Ð°ÑĨÐ¸Ð¸": 1758,
      "ÑģÐ¾Ð±ÑĭÑĤÐ¸Ñı": 1759,
      "ÑģÐ¶Ð¸Ð¼Ð°ÑĤÑĮ": 1760,
      "Ð»ÐµÑĩÐµÐ½Ð¸Ñı": 1761,
      "Ð»ÐµÑģÐ°": 1762,
      "ÑĥÑģÑĤÑĢÐ¾Ð¹": 1763,
      "ÑĥÑĢÐ°Ð²Ð½ÐµÐ½Ð¸Ñı": 1764,
      "ÑĩÐµÑĢÐµÐ·": 1765,
      "ÑħÑĥÐ´Ð¾Ð¶Ð½Ð¸ÐºÐ¸": 1766,
      "ÑģÑĤÑĢÐ¾ÐµÐ½Ð¸Ðµ": 1767,
      "Ð¼Ð¸Ð»Ð»Ð¸Ð¾Ð½Ñĭ": 1768,
      "Ð¼Ð¸Ð½Ð¸Ð¼Ð¸Ð·Ð¸ÑĢÑĥÑİÑīÐ¸Ð¹": 1769,
      "Ð²ÐµÐºÑĤ": 1770,
      "Ð²Ð¾Ð·Ð²ÑĢÐ°ÑīÐ°ÑİÑīÐ°Ñı": 1771,
      "Ð²Ð°Ð¶Ð½ÑĭÑħ": 1772,
      "Ð²Ð´Ð¾ÑħÐ½Ð¾Ð²Ð»ÐµÐ½Ð½ÑĭÐµ": 1773,
      "ÐºÐ°Ð¶Ð´ÑĭÐ¹": 1774,
      "ÐºÐ¾Ð½ÑĨÐµÐ¿ÑĤÐ¾Ð²": 1775,
      "ÐºÐ¾Ð¼Ð¿ÑĮÑİÑĤÐµÑĢÐ°Ð¼": 1776,
      "ÐºÐ²Ð°Ð½ÑĤÐ¾Ð²Ð¾Ð¹": 1777,
      "Ð¿Ð¾Ñħ": 1778,
      "Ð¿Ð¾ÑĢÑıÐ´ÐºÐµ": 1779,
      "Ð¿Ð°Ð¼ÑıÑĤÐ¸": 1780,
      "Ð¿Ð¾Ð½Ð¸Ð¼Ð°ÑĤÑĮ": 1781,
      "ÑĦÑĥÐ½": 1782,
      "Ð¸Ð·Ð¾Ð±ÑĢÐ°Ð¶ÐµÐ½Ð¸Ñı": 1783,
      "ÑįÑĦÑĦÐµÐºÑĤÐ¸Ð²Ð½Ð¾Ð³Ð¾": 1784,
      "Ð·Ð°ÑĤÐµÐ¼": 1785,
      "Ð·Ð°Ð´": 1786,
      "Ð¸Ð½ÑģÑĤÑĢÑĥÐ¼ÐµÐ½ÑĤÐ¾Ð²": 1787,
      "Ð³Ð»ÑĥÐ±Ð¾Ðº": 1788,
      "Ð±Ð»Ð°Ð³": 1789,
      "Ð±ÑĭÑģÑĤÑĢÑĭÐ¹": 1790,
      "Ð¼ÑĭÑĪÐ»ÐµÐ½Ð¸Ñı": 1791,
      "ÑĥÑĩÐ¸ÑĤÑģÑı": 1792,
      "Ð¾ÑģÐ½Ð¾Ð²Ðµ": 1793,
      "Ð°Ð»Ð³Ð¾ÑĢÐ¸ÑĤÐ¼Ñĭ": 1794,
      "Ð¿ÑĢÐ¾ÑĦÐ¸Ð»Ð°ÐºÑĤÐ¸ÐºÐ¸": 1795,
      "Ð½ÐµÐ¹ÑĢÐ¾Ð½Ð½ÑĭÑħ": 1796,
      "Ð¼ÑĥÐ·ÑĭÐºÐ°Ð½ÑĤÑĭ": 1797,
      "Ð¿ÑĢÐµÐ´ÑģÐºÐ°Ð·Ð°Ð½Ð¸ÑıÐ¼Ð¸": 1798,
      "Ð¿ÑĢÐ¾ÑĨÐµÑģÑģÑĭ": 1799,
      "Ð¿ÑĢÐ¾Ð³ÑĢÐ°Ð¼Ð¼": 1800,
      "Ð¿ÑĢÐ¸Ð¼ÐµÑĢ": 1801,
      "Ð¿ÑĢÐµÐ¾Ð±ÑĢÐ°Ð·ÑĥÑİÑĤÑģÑı": 1802,
      "Ð¿ÑĢÐ¾Ð³ÑĢÐ°Ð¼Ð¼Ð¸ÑĢÐ¾Ð²Ð°Ð½Ð¸Ðµ": 1803,
      "Ð¸Ð·ÑĥÑĩÐ°ÑİÑīÐ¸Ð¹": 1804,
      "ÑģÐ¾Ð·Ð´Ð°Ð½Ð½ÑĭÑħ": 1805,
      "ÐºÐ¾Ð¼Ð¿ÑĮÑİÑĤÐµÑĢÐ¾Ð²": 1806,
      "Ð¿Ð¾Ð·Ð²Ð¾Ð»ÑıÑı": 1807,
      "Ð´Ð¾Ð±Ð°Ð²Ð»ÑıÑı": 1808,
      "Ð½Ð°ÑħÐ¾Ð´Ñı": 1809,
      "ÑĤÐ¾ÐºÐµÐ½Ð¾Ð²": 1810,
      "ÑģÐ¾ÐµÐ´Ð¸Ð½ÑıÑİÑĤ": 1811,
      "Ð¼Ð½Ð¾Ð³Ð¾Ð¼ÐµÑĢÐ½ÑĭÑħ": 1812,
      "ÑĢÐ°ÑģÐ¿ÑĢÐ¾ÑģÑĤÑĢÐ°Ð½ÑıÑĤÑĮÑģÑı": 1813,
      "Ð¼ÐµÑħÐ°Ð½Ð¸ÐºÐ¸": 1814,
      "Ð¾Ð±ÐµÑģÐ¿ÐµÑĩÐ¸Ð²Ð°ÑİÑĤ": 1815,
      "Ð¾Ð±ÐµÑģÐ¿ÐµÑĩÐ¸Ð²Ð°Ñı": 1816,
      "ÑģÐ¿Ð¾ÑģÐ¾Ð±Ð½Ð¾ÑģÑĤÑĮ": 1817,
      "ÑģÐ¿Ð¾ÑģÐ¾Ð±Ð½ÑĭÐ¹": 1818,
      "ÑĥÑģÑĤÑĢÐ¾Ð¹ÑģÑĤÐ²Ð°": 1819,
      "Ð²ÐµÐºÑĤÐ¾ÑĢÐ¾Ð²": 1820,
      "Ð¿Ð¾ÑħÐ¾Ð¶Ð¸Ðµ": 1821,
      "ÑĦÑĥÐ½Ð´Ð°Ð¼ÐµÐ½ÑĤÐ°Ð»ÑĮÐ½ÑĭÐµ": 1822,
      "Ð¸Ð·Ð¾Ð±ÑĢÐ°Ð¶ÐµÐ½Ð¸ÑıÐ¼Ð¸": 1823,
      "Ð·Ð°Ð´Ð°Ñĩ": 1824,
      "Ð³Ð»ÑĥÐ±Ð¾ÐºÐ¸Ñħ": 1825
    },
    "merges": [
      [
        "Ð",
        "¾"
      ],
      [
        "Ð",
        "¸"
      ],
      [
        "Ð",
        "µ"
      ],
      [
        "Ð",
        "½"
      ],
      [
        "Ð",
        "°"
      ],
      [
        "Ñ",
        "Ĥ"
      ],
      [
        "Ñ",
        "Ģ"
      ],
      [
        "Ġ",
        "Ð"
      ],
      [
        "Ð¾",
        "Ð"
      ],
      [
        "Ñ",
        "ģ"
      ],
      [
        "Ñ",
        "ı"
      ],
      [
        "Ð",
        "»"
      ],
      [
        "Ñ",
        "ĥ"
      ],
      [
        "Ñ",
        "ĭ"
      ],
      [
        "Ð¸",
        "Ð"
      ],
      [
        "Ð°",
        "Ð"
      ],
      [
        "Ðµ",
        "Ð"
      ],
      [
        "Ñ",
        "ĩ"
      ],
      [
        "Ðµ",
        "Ð½"
      ],
      [
        "Ñ",
        "ħ"
      ],
      [
        "Ñ",
        "İ"
      ],
      [
        "ĠÐ",
        "¿"
      ],
      [
        "Ð°",
        "Ð½"
      ],
      [
        "Ñģ",
        "ÑĤ"
      ],
      [
        "Ñ",
        "Į"
      ],
      [
        "Ð",
        "¼"
      ],
      [
        "Ð½",
        "Ñĭ"
      ],
      [
        "Ġ",
        "Ñģ"
      ],
      [
        "Ð¾Ð",
        "²"
      ],
      [
        "Ð",
        "²"
      ],
      [
        "Ð",
        "º"
      ],
      [
        "Ðµ",
        "ÑĤ"
      ],
      [
        "Ġ",
        "Ð¸"
      ],
      [
        "Ð",
        "¿"
      ],
      [
        "Ð¾Ð",
        "±"
      ],
      [
        "Ñ",
        "Ĩ"
      ],
      [
        "Ð¸",
        "Ñı"
      ],
      [
        "ÑĢ",
        "Ð°Ð"
      ],
      [
        "ĠÐ",
        "²"
      ],
      [
        "Ð",
        "´"
      ],
      [
        "ĠÐ",
        "¼"
      ],
      [
        "ĠÐ",
        "´"
      ],
      [
        "ÑĢ",
        "Ð¾"
      ],
      [
        "Ð¾",
        "ÑĢ"
      ],
      [
        "Ð½",
        "Ð°"
      ],
      [
        "Ðµ",
        "Ð»"
      ],
      [
        "Ðµ",
        "ÑĢ"
      ],
      [
        "Ñ",
        "Ħ"
      ],
      [
        "Ð¸Ð",
        "·"
      ],
      [
        "Ð°",
        "ÑĤ"
      ],
      [
        "Ñİ",
        "ÑĤ"
      ],
      [
        "Ð»",
        "Ñı"
      ],
      [
        "Ð¾Ð",
        "´"
      ],
      [
        "Ñ",
        "ī"
      ],
      [
        "Ð½Ñĭ",
        "Ñħ"
      ],
      [
        "Ð¾Ð",
        "¼"
      ],
      [
        "ÐµÐ",
        "¹"
      ],
      [
        "Ñ",
        "į"
      ],
      [
        "ĠÐ",
        "·"
      ],
      [
        "ÐµÐ",
        "´"
      ],
      [
        "Ðµ",
        "Ñģ"
      ],
      [
        "Ð¾Ð",
        "»"
      ],
      [
        "Ð½Ñĭ",
        "Ðµ"
      ],
      [
        "Ð¾Ð",
        "³"
      ],
      [
        "ÑĨ",
        "Ð¸"
      ],
      [
        "Ð½",
        "Ð¾"
      ],
      [
        "ÐµÐ½",
        "Ð¸Ñı"
      ],
      [
        "Ñĥ",
        "Ñĩ"
      ],
      [
        "Ð¸",
        "Ðµ"
      ],
      [
        "Ð",
        "·"
      ],
      [
        "Ð¾",
        "ÑĤ"
      ],
      [
        "Ġ",
        "Ð¾Ð±"
      ],
      [
        "Ð¸Ð",
        "¼"
      ],
      [
        "Ð¸",
        "ÑĤ"
      ],
      [
        "ÑĤ",
        "Ð¾"
      ],
      [
        "Ð¾Ð",
        "·"
      ],
      [
        "ÐµÐ",
        "º"
      ],
      [
        "Ð¸",
        "ÑĢ"
      ],
      [
        "Ġ",
        "Ð½Ð°"
      ],
      [
        "Ġ",
        "Ð½"
      ],
      [
        "ĠÐ",
        "º"
      ],
      [
        "Ð¸Ð",
        "²"
      ],
      [
        "Ġ",
        "Ñį"
      ],
      [
        "Ð¸",
        "Ð½"
      ],
      [
        "ĠÐ·",
        "Ð°Ð"
      ],
      [
        "Ð°",
        "ÑĨÐ¸"
      ],
      [
        "Ñİ",
        "Ñī"
      ],
      [
        "ĠÐ´",
        "Ð»Ñı"
      ],
      [
        "Ð¾",
        "Ñģ"
      ],
      [
        "Ð¸Ð",
        "¹"
      ],
      [
        "Ð¸Ð",
        "º"
      ],
      [
        "Ð¾Ð",
        "º"
      ],
      [
        "ÑģÑĤ",
        "Ð²"
      ],
      [
        "ÑĢÐ¾",
        "Ð½"
      ],
      [
        "Ð",
        "³"
      ],
      [
        "ÑĢÐ°Ð",
        "·"
      ],
      [
        "ĠÑģ",
        "ÐµÑĤ"
      ],
      [
        "ĠÐ¿",
        "ÑĢ"
      ],
      [
        "Ð½Ð¾",
        "ÑģÑĤ"
      ],
      [
        "Ð¸",
        "Ñģ"
      ],
      [
        "ĠÐ¿",
        "ÑĢÐ¾"
      ],
      [
        "Ð°",
        "ÑİÑĤ"
      ],
      [
        "Ñ",
        "Ī"
      ],
      [
        "Ð°",
        "Ñı"
      ],
      [
        "ÑģÑĤ",
        "ÑĢ"
      ],
      [
        "ĠÐ¸",
        "Ð½"
      ],
      [
        "ÐµÐ¹",
        "ÑĢÐ¾Ð½"
      ],
      [
        "Ð¾Ð",
        "¹"
      ],
      [
        "Ð¾ÑĢ",
        "Ð¼"
      ],
      [
        "Ð°Ð½",
        "Ð½ÑĭÑħ"
      ],
      [
        "ÑĦ",
        "Ð¾ÑĢÐ¼"
      ],
      [
        "Ð°ÑĤ",
        "ÑĮ"
      ],
      [
        "ÐµÐº",
        "ÑĤ"
      ],
      [
        "Ñĥ",
        "Ðº"
      ],
      [
        "ÐµÐ",
        "¼"
      ],
      [
        "ÐµÐ½",
        "Ð¸Ðµ"
      ],
      [
        "Ð¸ÑĢ",
        "Ð¾Ð²"
      ],
      [
        "Ġ",
        "ÑĢ"
      ],
      [
        "ĠÐ",
        "³"
      ],
      [
        "ÐµÐ»",
        "Ð¸"
      ],
      [
        "Ðµ",
        "Ñĩ"
      ],
      [
        "Ð°Ð",
        "¼"
      ],
      [
        "Ġ",
        "Ñĥ"
      ],
      [
        "ÐµÐ½",
        "ÑĤ"
      ],
      [
        "ĠÐ½",
        "ÐµÐ¹ÑĢÐ¾Ð½"
      ],
      [
        "Ðµ",
        "Ñħ"
      ],
      [
        "Ġ",
        "Ð¸Ð·"
      ],
      [
        "Ð½",
        "Ð¾Ð³"
      ],
      [
        "ĠÐ¼",
        "Ð¾Ð´"
      ],
      [
        "Ñģ",
        "Ñı"
      ],
      [
        "Ñģ",
        "Ð¿"
      ],
      [
        "Ð°ÑĨÐ¸",
        "Ð¸"
      ],
      [
        "Ð¾",
        "Ð½"
      ],
      [
        "Ñĥ",
        "ÑĢ"
      ],
      [
        "Ð°Ð",
        "²"
      ],
      [
        "ÑĥÑĩ",
        "Ð°"
      ],
      [
        "Ð»",
        "Ñĥ"
      ],
      [
        "Ð°Ð½",
        "Ð¸Ñı"
      ],
      [
        "¶",
        "Ð´"
      ],
      [
        "Ġ",
        "Ñĩ"
      ],
      [
        "Ð°",
        "Ð»"
      ],
      [
        "Ð¸",
        "Ð¸"
      ],
      [
        "Ð¸",
        "Ñĩ"
      ],
      [
        "ĠÑį",
        "ÑĤÐ¾"
      ],
      [
        "Ð",
        "±"
      ],
      [
        "Ġ",
        "ÑĢÐ°Ð·"
      ],
      [
        "Ð¾Ð·",
        "Ð²"
      ],
      [
        "ĠÐ",
        "±"
      ],
      [
        "ÑĮ",
        "ÑİÑĤ"
      ],
      [
        "Ð¿",
        "ÑĮÑİÑĤ"
      ],
      [
        "Ð¾Ð¼",
        "Ð¿ÑĮÑİÑĤ"
      ],
      [
        "Ġ",
        "ÑĤ"
      ],
      [
        "ĠÐ´",
        "Ð°Ð½Ð½ÑĭÑħ"
      ],
      [
        "ÑİÑī",
        "Ð°Ñı"
      ],
      [
        "Ġ",
        "ÑĦ"
      ],
      [
        "Ñĥ",
        "Ð½"
      ],
      [
        "Ð¾Ð»",
        "ÑĮ"
      ],
      [
        "ĠÑģÐµÑĤ",
        "Ð¸"
      ],
      [
        "ĠÐ¼Ð¾Ð´",
        "ÐµÐ»Ð¸"
      ],
      [
        "ÑĢ",
        "Ð°Ð½"
      ],
      [
        "Ð¸Ð",
        "´"
      ],
      [
        "Ð¾Ð·",
        "Ð´"
      ],
      [
        "Ð¸Ðº",
        "Ð¸"
      ],
      [
        "Ð¸",
        "Ð»"
      ],
      [
        "ĠÐ¿",
        "Ð¾"
      ],
      [
        "Ð°Ð½",
        "Ð¸Ð·"
      ],
      [
        "Ð",
        "¹"
      ],
      [
        "Ð½",
        "Ñĥ"
      ],
      [
        "Ð°",
        "Ñĩ"
      ],
      [
        "ÑĢÐ°Ð",
        "±"
      ],
      [
        "ĠÐ¸Ð½",
        "ÑĦÐ¾ÑĢÐ¼"
      ],
      [
        "Ð¼",
        "Ð¸"
      ],
      [
        "ÑĨ",
        "ÐµÑģ"
      ],
      [
        "ÐµÑģ",
        "Ðº"
      ],
      [
        "Ð½Ð¾ÑģÑĤ",
        "Ð¸"
      ],
      [
        "ÑĨÐµÑģ",
        "Ñģ"
      ],
      [
        "Ð½",
        "Ð¾Ð²"
      ],
      [
        "Ð¾Ð»",
        "Ñı"
      ],
      [
        "Ð°Ð²",
        "Ð»Ñı"
      ],
      [
        "Ð¾Ð·Ð²",
        "Ð¾Ð»Ñı"
      ],
      [
        "Ð¾Ð¼Ð¿ÑĮÑİÑĤ",
        "ÐµÑĢ"
      ],
      [
        "º",
        "ÑĤ"
      ],
      [
        "Ñħ",
        "Ð¾Ð´"
      ],
      [
        "ĠÑģ",
        "Ð¾Ð·Ð´"
      ],
      [
        "ÑĢÐ°Ð",
        "¼"
      ],
      [
        "Ð¸Ð´",
        "Ðµ"
      ],
      [
        "Ð¾Ð",
        "¶"
      ],
      [
        "ÐµÐ»",
        "ÑĮ"
      ],
      [
        "Ð·",
        "Ñĥ"
      ],
      [
        "ĠÐ·Ð°Ð",
        "º"
      ],
      [
        "Ð¸ÑĢÐ¾Ð²",
        "Ð°ÑĤÑĮ"
      ],
      [
        "ĠÑĦ",
        "ÑĥÐ½"
      ],
      [
        "Ð¾Ð»ÑĮ",
        "Ð·Ñĥ"
      ],
      [
        "Ðµ",
        "ÑĪ"
      ],
      [
        "Ñģ",
        "Ðº"
      ],
      [
        "ÐµÐ",
        "¶Ð´"
      ],
      [
        "Ð½Ð¾Ð³",
        "Ð¾"
      ],
      [
        "ÐµÐ¶Ð´",
        "Ñĥ"
      ],
      [
        "Ġ",
        "Ð¾"
      ],
      [
        "Ð¾Ð¼",
        "ÐµÑĢ"
      ],
      [
        "ÐµÐ´",
        "Ð¸Ð½"
      ],
      [
        "ÑĥÑĩ",
        "ÐµÐ½Ð¸Ðµ"
      ],
      [
        "ĠÐ¸Ð·",
        "ÑĥÑĩÐ°"
      ],
      [
        "Ð°Ð½Ð¸Ð·",
        "Ð¼"
      ],
      [
        "ÐµÐ´Ð¸Ð½",
        "Ñı"
      ],
      [
        "Ð°",
        "ÐµÑĤ"
      ],
      [
        "Ñĥ",
        "Ð¼"
      ],
      [
        "ĠÐ¿",
        "Ð¾Ð·Ð²Ð¾Ð»Ñı"
      ],
      [
        "Ð°Ð½",
        "ÑĤ"
      ],
      [
        "ĠÐ²",
        "Ñĭ"
      ],
      [
        "Ð½Ñĥ",
        "Ñİ"
      ],
      [
        "ÑĢ",
        "Ð°"
      ],
      [
        "Ñĭ",
        "Ðµ"
      ],
      [
        "ĠÐ·Ð°Ð",
        "´"
      ],
      [
        "Ð°ÑĨÐ¸",
        "Ñİ"
      ],
      [
        "ÑİÑī",
        "Ð¸Ð¹"
      ],
      [
        "Ð½Ð¾ÑģÑĤ",
        "ÑĮ"
      ],
      [
        "ĠÐ¿ÑĢÐ¾",
        "ÑĨÐµÑģÑģ"
      ],
      [
        "ĠÐ¼",
        "ÐµÑħ"
      ],
      [
        "ĠÐ¼",
        "ÐµÐ¶Ð´Ñĥ"
      ],
      [
        "ÑĥÐº",
        "Ð°"
      ],
      [
        "ÑĢ",
        "ÐµÐ´"
      ],
      [
        "ĠÐ",
        "»"
      ],
      [
        "Ñı",
        "ÑĤ"
      ],
      [
        "Ð»",
        "Ð¾Ð²"
      ],
      [
        "ĠÐ¸",
        "ÑģÐ¿"
      ],
      [
        "ÑĢÐ°Ð",
        "²"
      ],
      [
        "Ñį",
        "ÑĤÐ¾"
      ],
      [
        "Ð¸ÑĢÐ¾Ð²",
        "Ð°Ð½"
      ],
      [
        "ĠÐ¸ÑģÐ¿",
        "Ð¾Ð»ÑĮÐ·Ñĥ"
      ],
      [
        "¶",
        "ÐµÐ½Ð¸Ñı"
      ],
      [
        "ĠÐ¾Ð±",
        "Ñī"
      ],
      [
        "ĠÐ¿ÑĢ",
        "ÐµÐ´"
      ],
      [
        "Ñĥ",
        "Ñģ"
      ],
      [
        "Ð°Ð",
        "ºÑĤ"
      ],
      [
        "Ð¼",
        "Ñĭ"
      ],
      [
        "Ð¾Ð³",
        "ÑĢÐ°Ð¼"
      ],
      [
        "ÑĥÑĩ",
        "Ð¸ÑĤ"
      ],
      [
        "Ð¾Ñģ",
        "Ð»"
      ],
      [
        "Ð¸Ñĩ",
        "ÐµÑģÐº"
      ],
      [
        "ĠÑĦÑĥÐ½",
        "Ðº"
      ],
      [
        "Ð¾Ð³ÑĢÐ°Ð¼",
        "Ð¼"
      ],
      [
        "Ð¾",
        "ÑģÑĤ"
      ],
      [
        "Ð½",
        "Ð¾Ð¹"
      ],
      [
        "Ð»",
        "ÐµÐ½"
      ],
      [
        "Ñĥ",
        "Ð¿"
      ],
      [
        "ĠÐº",
        "Ð¾Ð¼Ð¿ÑĮÑİÑĤÐµÑĢ"
      ],
      [
        "Ð¾Ñģ",
        "Ð½Ð¾Ð²"
      ],
      [
        "Ð³",
        "Ð¾ÑĢ"
      ],
      [
        "ĠÑģÐµÑĤ",
        "ÑĮ"
      ],
      [
        "ÑĢÐ°Ð±",
        "Ð¾ÑĤ"
      ],
      [
        "Ð",
        "¶"
      ],
      [
        "Ð»",
        "Ð¸"
      ],
      [
        "Ð¾Ð±",
        "Ð°Ð²Ð»Ñı"
      ],
      [
        "Ð°ÑĤ",
        "ÐµÐ¼"
      ],
      [
        "Ð¾Ðº",
        "ÐµÐ½"
      ],
      [
        "ĠÐ¸Ð½ÑĦÐ¾ÑĢÐ¼",
        "Ð°ÑĨÐ¸Ñİ"
      ],
      [
        "ÐµÑĪ",
        "ÐµÐ½Ð¸Ñı"
      ],
      [
        "Ġ",
        "Ñħ"
      ],
      [
        "Ġ",
        "Ð¾ÑĤ"
      ],
      [
        "Ð¸",
        "ÑĨ"
      ],
      [
        "ÑĤ",
        "Ð¸Ñı"
      ],
      [
        "Ñĭ",
        "ÑĤÐ¸Ñı"
      ],
      [
        "ÐµÐ",
        "·"
      ],
      [
        "ÑĨ",
        "Ð¸Ñı"
      ],
      [
        "ÐµÐ»",
        "Ð¾Ð²"
      ],
      [
        "Ð¾ÑĤ",
        "Ð¾ÑĢ"
      ],
      [
        "Ð¸Ð¼",
        "Ð¸Ð·"
      ],
      [
        "Ð¸Ðº",
        "Ð°"
      ],
      [
        "ĠÑĢ",
        "ÐµÑĪÐµÐ½Ð¸Ñı"
      ],
      [
        "ĠÐ·Ð°Ð´",
        "Ð°Ñĩ"
      ],
      [
        "Ð³Ð¾ÑĢ",
        "Ð¸ÑĤ"
      ],
      [
        "ÑĢ",
        "ÐµÐ"
      ],
      [
        "Ñģ",
        "Ð»Ñĥ"
      ],
      [
        "Ð»",
        "Ð°"
      ],
      [
        "Ð»",
        "ÐµÐºÑĤ"
      ],
      [
        "Ñĭ",
        "Ð²"
      ],
      [
        "Ð°Ð",
        "³"
      ],
      [
        "ĠÑģ",
        "Ð¾"
      ],
      [
        "ĠÐ²",
        "Ð¸Ð´Ðµ"
      ],
      [
        "Ð°ÑĤ",
        "ÐµÐ»ÑĮ"
      ],
      [
        "ÑĤÐ¾",
        "Ñĩ"
      ],
      [
        "ĠÐ½Ð°",
        "ÑħÐ¾Ð´"
      ],
      [
        "ÑģÑĤÐ²",
        "ÐµÐ½"
      ],
      [
        "Ð¾Ð½",
        "Ð¾Ð¼ÐµÑĢ"
      ],
      [
        "ÑĢÐµÐ",
        "±"
      ],
      [
        "ÑĭÐ²",
        "Ð°ÑİÑĤ"
      ],
      [
        "Ð¾Ð½Ð¾Ð¼ÐµÑĢ",
        "Ð½Ð¾ÑģÑĤÐ¸"
      ],
      [
        "¿",
        "ÑĤ"
      ],
      [
        "Ġ",
        "Ð°"
      ],
      [
        "Ġ",
        "ÑĥÑĩÐ¸ÑĤ"
      ],
      [
        "Ñı",
        "Ð·"
      ],
      [
        "Ñĭ",
        "Ðº"
      ],
      [
        "Ñĭ",
        "Ð¹"
      ],
      [
        "Ð°Ð½",
        "Ð½ÑĭÐµ"
      ],
      [
        "ĠÑģ",
        "Ð¿"
      ],
      [
        "Ð¿",
        "ÐµÑĩ"
      ],
      [
        "Ð¾Ð±",
        "ÑĢÐ°Ð·"
      ],
      [
        "ÐµÑģ",
        "Ð¿ÐµÑĩ"
      ],
      [
        "ÑģÑĤÐ²",
        "Ð°"
      ],
      [
        "ĠÐ¿ÑĢ",
        "Ð¾Ð³ÑĢÐ°Ð¼Ð¼"
      ],
      [
        "ÑĪ",
        "Ð»"
      ],
      [
        "ĠÐ½ÐµÐ¹ÑĢÐ¾Ð½",
        "Ð½ÑĭÐµ"
      ],
      [
        "ÑĥÐ¼",
        "ÐµÐ½ÑĤ"
      ],
      [
        "ÐµÑģÐ¿ÐµÑĩ",
        "Ð¸Ð²"
      ],
      [
        "Ð",
        "ŀ"
      ],
      [
        "Ġ",
        "Ð¾ÑģÐ½Ð¾Ð²"
      ],
      [
        "Ð¸",
        "Ñħ"
      ],
      [
        "Ð¸Ð¼",
        "Ð°ÑĤÑĮ"
      ],
      [
        "Ð¾Ñģ",
        "Ð¾Ð±"
      ],
      [
        "ÑģÑĤÑĢ",
        "ÑĥÐº"
      ],
      [
        "Ð»Ñĥ",
        "Ð±"
      ],
      [
        "Ð°Ð»",
        "Ð³Ð¾ÑĢÐ¸ÑĤ"
      ],
      [
        "ĠÐ·Ð°Ðº",
        "Ð¾Ð½Ð¾Ð¼ÐµÑĢÐ½Ð¾ÑģÑĤÐ¸"
      ],
      [
        "Ð»ÑĥÐ±",
        "Ð¾Ðº"
      ],
      [
        "Ð¾",
        "Ð½Ñĭ"
      ],
      [
        "Ð½",
        "Ð¸Ð¼"
      ],
      [
        "Ñĩ",
        "Ð¸Ñģ"
      ],
      [
        "ĠÐ¿",
        "Ð¾ÑĤ"
      ],
      [
        "Ð½Ñĭ",
        "Ð¹"
      ],
      [
        "Ð²",
        "Ð¾Ð´"
      ],
      [
        "ĠÐ´",
        "Ð¾Ð±Ð°Ð²Ð»Ñı"
      ],
      [
        "Ð¾ÑĢ",
        "Ð³"
      ],
      [
        "ĠÐ¾Ð±",
        "ÐµÑģÐ¿ÐµÑĩÐ¸Ð²"
      ],
      [
        "Ð¸ÑĢ",
        "Ñĥ"
      ],
      [
        "ĠÐ½Ð°",
        "ÑĥÐºÐ°"
      ],
      [
        "ĠÐº",
        "Ð¾ÑĤÐ¾ÑĢ"
      ],
      [
        "ÑģÑĤÑĢ",
        "Ð°Ð½"
      ],
      [
        "Ð°Ð¼",
        "Ð¸"
      ],
      [
        "ĠÑĩ",
        "ÐµÐ»Ð¾Ð²"
      ],
      [
        "Ð¸ÑĢÐ¾Ð²Ð°Ð½",
        "Ð¸Ðµ"
      ],
      [
        "ĠÑĦÑĥÐ½Ðº",
        "ÑĨÐ¸"
      ],
      [
        "±",
        "Ð¾Ð»"
      ],
      [
        "Ð°",
        "ÑģÐ¿"
      ],
      [
        "Ð»",
        "Ð¸Ñĩ"
      ],
      [
        "Ñĥ",
        "ÑİÑĤ"
      ],
      [
        "Ð¸Ð",
        "¿"
      ],
      [
        "ĠÐ¿",
        "ÐµÑĢ"
      ],
      [
        "Ð¾Ð±",
        "ÑĢÐ°Ð"
      ],
      [
        "Ð´",
        "ÐµÐ»"
      ],
      [
        "ĠÐ¼",
        "Ð½Ð¾Ð³"
      ],
      [
        "ĠÐ´",
        "Ð°Ð½Ð½ÑĭÐµ"
      ],
      [
        "ÑĦ",
        "ÑĦ"
      ],
      [
        "Ð½Ð¾",
        "Ðµ"
      ],
      [
        "Ð¸Ð¼",
        "Ð¸"
      ],
      [
        "Ð¸Ð²",
        "Ð½Ð¾Ð³Ð¾"
      ],
      [
        "Ð¸Ðº",
        "Ñĥ"
      ],
      [
        "ĠÐ¸Ð½",
        "ÑĤ"
      ],
      [
        "ÐµÐºÑĤ",
        "Ð¸Ð²Ð½Ð¾Ð³Ð¾"
      ],
      [
        "ĠÑĢ",
        "Ð°ÑģÐ¿"
      ],
      [
        "Ð°Ð»",
        "ÑĮ"
      ],
      [
        "ĠÑĤ",
        "Ð¾ÐºÐµÐ½"
      ],
      [
        "ĠÑģÐ¿",
        "Ð¾ÑģÐ¾Ð±"
      ],
      [
        "Ð¾Ð±ÑĢÐ°Ð",
        "¶ÐµÐ½Ð¸Ñı"
      ],
      [
        "ÑĦÑĦ",
        "ÐµÐºÑĤÐ¸Ð²Ð½Ð¾Ð³Ð¾"
      ],
      [
        "Ġ",
        "Ð¾Ð"
      ],
      [
        "Ġ",
        "ÑĤÐ¾Ñĩ"
      ],
      [
        "Ġ",
        "Ð°Ð»Ð³Ð¾ÑĢÐ¸ÑĤ"
      ],
      [
        "Ñģ",
        "ÐµÑĤ"
      ],
      [
        "ÐµÐ½",
        "Ð½ÑĭÑħ"
      ],
      [
        "Ð¾Ð²",
        "Ð°ÑĤÐµÐ»ÑĮ"
      ],
      [
        "ĠÐ¼",
        "Ñĭ"
      ],
      [
        "Ð¾ÑĢ",
        "Ñı"
      ],
      [
        "ÐµÐ´",
        "Ð¾Ð²Ð°ÑĤÐµÐ»ÑĮ"
      ],
      [
        "Ð¸Ð²",
        "Ð°ÑĨÐ¸Ð¸"
      ],
      [
        "ĠÑį",
        "ÑĦÑĦÐµÐºÑĤÐ¸Ð²Ð½Ð¾Ð³Ð¾"
      ],
      [
        "ÑģÑĤÑĢ",
        "Ð¾Ð¹"
      ],
      [
        "ĠÐ¸Ð·",
        "Ð¾Ð±ÑĢÐ°Ð¶ÐµÐ½Ð¸Ñı"
      ],
      [
        "ĠÑģÐ¾Ð·Ð´",
        "Ð°ÑİÑĤ"
      ],
      [
        "ĠÐ¿Ð¾Ð·Ð²Ð¾Ð»Ñı",
        "Ñı"
      ],
      [
        "ÑĢÐ°",
        "Ñī"
      ],
      [
        "Ð°ÐºÑĤ",
        "Ð¸Ð²Ð°ÑĨÐ¸Ð¸"
      ],
      [
        "Ð¾ÑģÐ»",
        "ÐµÐ´Ð¾Ð²Ð°ÑĤÐµÐ»ÑĮ"
      ],
      [
        "ĠÑģÐ¾",
        "ÐµÐ´Ð¸Ð½Ñı"
      ],
      [
        "ÑģÑĤÐ²ÐµÐ½",
        "Ð½Ð¾Ð³Ð¾"
      ],
      [
        "Ð¾ÑģÐ»ÐµÐ´Ð¾Ð²Ð°ÑĤÐµÐ»ÑĮ",
        "Ð½Ð¾ÑģÑĤÐ¸"
      ],
      [
        "Ð½",
        "ÐµÐ½Ð¸Ñı"
      ],
      [
        "Ñĩ",
        "ÐµÐ½"
      ],
      [
        "Ð¿",
        "ÑĢÐ¾"
      ],
      [
        "ĠÐ²",
        "Ð·"
      ],
      [
        "ĠÐ´",
        "Ð¾ÑģÑĤ"
      ],
      [
        "Ð½Ð°",
        "Ñı"
      ],
      [
        "Ð½Ð°",
        "ÑĩÐµÐ½"
      ],
      [
        "ÐµÐ´",
        "Ð°Ñĩ"
      ],
      [
        "ĠÐ·Ð°Ð",
        "¿"
      ],
      [
        "ĠÐ³",
        "Ð»ÑĥÐ±Ð¾Ðº"
      ],
      [
        "ĠÑĥ",
        "ÑģÑĤÑĢÐ¾Ð¹"
      ],
      [
        "ĠÑĩ",
        "Ð¸Ñģ"
      ],
      [
        "ĠÐ¼ÐµÑħ",
        "Ð°Ð½Ð¸Ð·Ð¼"
      ],
      [
        "Ð½Ð¸Ð¼",
        "Ð°Ð½Ð¸Ñı"
      ],
      [
        "ĠÐ´Ð¾ÑģÑĤ",
        "ÑĥÐ¿"
      ],
      [
        "Ð½Ð°ÑĩÐµÐ½",
        "Ð¸Ð¹"
      ],
      [
        "ÐµÐ´Ð°Ñĩ",
        "Ð¸"
      ],
      [
        "Ġ",
        "Ð¾ÑĢÐ³"
      ],
      [
        "Ð½",
        "ÐµÐ¹ÑĢÐ¾Ð½"
      ],
      [
        "Ð»",
        "Ð¾Ð¶"
      ],
      [
        "Ð°Ð",
        "·"
      ],
      [
        "ĠÐ¿",
        "Ð¾Ð¼"
      ],
      [
        "ĠÑģ",
        "Ð»Ð¾Ð¶"
      ],
      [
        "Ðº",
        "Ð¸"
      ],
      [
        "Ð¾Ð±",
        "ÑĥÑĩÐµÐ½Ð¸Ðµ"
      ],
      [
        "Ð°ÑĤ",
        "ÑĭÐ²Ð°ÑİÑĤ"
      ],
      [
        "Ð¾Ð»",
        "Ð¾Ð³"
      ],
      [
        "ÐµÐº",
        "ÑģÑĤ"
      ],
      [
        "Ð¸Ñģ",
        "Ðº"
      ],
      [
        "ÑĢÐ°Ð±",
        "Ð°ÑĤÑĭÐ²Ð°ÑİÑĤ"
      ],
      [
        "ĠÐ¼ÐµÑħ",
        "Ð°Ð½"
      ],
      [
        "´",
        "Ð¸"
      ],
      [
        "Ð",
        "¡"
      ],
      [
        "Ð",
        "¤"
      ],
      [
        "Ð",
        "ĵ"
      ],
      [
        "Ð",
        "ľ"
      ],
      [
        "Ñ",
        "Ĭ"
      ],
      [
        "Ð°",
        "ÑĪ"
      ],
      [
        "ÑĤ",
        "ÑĥÑĢ"
      ],
      [
        "ÑĢ",
        "Ñħ"
      ],
      [
        "ÑĢ",
        "ÐµÐ½ÑĤ"
      ],
      [
        "Ñģ",
        "Ñĭ"
      ],
      [
        "Ñģ",
        "Ð¾Ð²"
      ],
      [
        "Ñĥ",
        "Ð´"
      ],
      [
        "ĠÐ¿",
        "Ð¾ÑģÐ»ÐµÐ´Ð¾Ð²Ð°ÑĤÐµÐ»ÑĮÐ½Ð¾ÑģÑĤÐ¸"
      ],
      [
        "Ð°Ð½",
        "Ð¸Ð¹"
      ],
      [
        "ÑģÑĤ",
        "Ð°Ð²Ð»Ñı"
      ],
      [
        "Ð²",
        "Ð°Ð½ÑĤ"
      ],
      [
        "Ð²",
        "ÑıÐ·"
      ],
      [
        "ÑĨ",
        "Ð¸Ð¹"
      ],
      [
        "ÑĢÐ°Ð",
        "´Ð¸"
      ],
      [
        "ĠÐ²",
        "Ñģ"
      ],
      [
        "Ð¾ÑĢ",
        "Ñĭ"
      ],
      [
        "Ð¾ÑĢ",
        "Ð¾Ð²"
      ],
      [
        "Ð»Ñı",
        "ÐµÑĤ"
      ],
      [
        "ĠÐ·",
        "Ð½Ð°ÑĩÐµÐ½Ð¸Ð¹"
      ],
      [
        "ÐµÑģ",
        "ÑĥÑĢ"
      ],
      [
        "Ð·",
        "ÑĭÐº"
      ],
      [
        "ĠÐ¾Ð±",
        "ÑĥÑĩÐ°"
      ],
      [
        "Ð¸ÑĤ",
        "ÐµÐºÑĤ"
      ],
      [
        "Ð¸ÑĤ",
        "ÐµÐ»ÑĮ"
      ],
      [
        "ÐµÐº",
        "ÑĥÑĢ"
      ],
      [
        "ÑģÑĤÐ²",
        "Ð¾"
      ],
      [
        "ÑģÑĤÐ²",
        "Ðµ"
      ],
      [
        "Ð°Ð»",
        "Ð¸Ð·"
      ],
      [
        "ĠÐ¸Ð·ÑĥÑĩÐ°",
        "ÐµÑĤ"
      ],
      [
        "ÐµÐ´Ð¸Ð½Ñı",
        "ÐµÑĤ"
      ],
      [
        "Ð°ÑĤÐµÐ¼",
        "Ð°ÑĤ"
      ],
      [
        "ĠÑħ",
        "ÑĢÐ°Ð½"
      ],
      [
        "ĠÐ½Ð°ÑħÐ¾Ð´",
        "Ð¸ÑĤ"
      ],
      [
        "ÑĬ",
        "ÐµÐ´Ð¸Ð½ÑıÐµÑĤ"
      ],
      [
        "Ð°ÑĪ",
        "Ð¸Ð½"
      ],
      [
        "ÑĢÑħ",
        "Ð¸ÑĤÐµÐºÑĤ"
      ],
      [
        "Ð²Ð°Ð½ÑĤ",
        "Ð¾Ð²"
      ],
      [
        "ÑĢÐ°Ð´Ð¸",
        "ÐµÐ½ÑĤ"
      ],
      [
        "ĠÐ¾Ð±ÑĥÑĩÐ°",
        "ÑİÑī"
      ],
      [
        "ÐµÐºÑĥÑĢ",
        "ÑĢÐµÐ½ÑĤ"
      ],
      [
        "ÑĢÑħÐ¸ÑĤÐµÐºÑĤ",
        "ÑĥÑĢ"
      ],
      [
        "Ġ",
        "ÑģÑĤ"
      ],
      [
        "Ġ",
        "Ð°ÐºÑĤÐ¸Ð²Ð°ÑĨÐ¸Ð¸"
      ],
      [
        "Ð¾",
        "Ð½Ð°"
      ],
      [
        "Ð¸",
        "ÑģÑĤ"
      ],
      [
        "Ðµ",
        "ÑģÑĤÐ²Ð°"
      ],
      [
        "Ð½",
        "ÐµÑĢ"
      ],
      [
        "Ð½",
        "Ð°Ð½Ð¸Ñı"
      ],
      [
        "Ñİ",
        "Ð´"
      ],
      [
        "ÑĮ",
        "Ð¼Ð¸"
      ],
      [
        "Ð¼",
        "Ñĥ"
      ],
      [
        "ĠÐ²",
        "ÐµÐºÑĤ"
      ],
      [
        "ĠÐ²",
        "Ð½Ð¸Ð¼Ð°Ð½Ð¸Ñı"
      ],
      [
        "Ð´",
        "Ðµ"
      ],
      [
        "Ð¾ÑĢ",
        "Ð°"
      ],
      [
        "ÐµÐ»",
        "Ð»ÐµÐºÑĤ"
      ],
      [
        "Ð¾Ð³",
        "Ð¾"
      ],
      [
        "Ð·",
        "Ð»Ð¾Ð²"
      ],
      [
        "ĠÐ¾Ð±",
        "ÑĥÑĩÐµÐ½Ð¸Ðµ"
      ],
      [
        "Ð¾Ð·",
        "Ð½Ð°Ð½Ð¸Ñı"
      ],
      [
        "Ð¾Ðº",
        "ÑĥÑģ"
      ],
      [
        "Ð³",
        "Ð¸Ð¸"
      ],
      [
        "ÐµÑĩ",
        "ÐµÑģÐº"
      ],
      [
        "ĠÑĢÐ°Ð·",
        "Ð¼"
      ],
      [
        "ĠÑĤ",
        "ÐµÐºÑģÑĤ"
      ],
      [
        "ĠÐ¸Ð½ÑĦÐ¾ÑĢÐ¼",
        "Ð°ÑĨÐ¸Ð¸"
      ],
      [
        "Ð¸ÑĢÐ¾Ð²Ð°ÑĤÑĮ",
        "ÑģÑı"
      ],
      [
        "ÑģÐº",
        "ÑĥÑģ"
      ],
      [
        "ĠÐ²Ñĭ",
        "ÑĩÐ¸Ñģ"
      ],
      [
        "Ð¼Ñĭ",
        "ÑģÐ»Ñĥ"
      ],
      [
        "Ð»ÐµÐ½",
        "Ð¸Ð¸"
      ],
      [
        "Ð¶",
        "Ð¸ÑĤ"
      ],
      [
        "ÑĢÐµÐ±",
        "Ð»ÐµÐ½Ð¸Ð¸"
      ],
      [
        "ĠÐ¿ÐµÑĢ",
        "ÐµÐ´Ð°ÑĩÐ¸"
      ],
      [
        "Ð¾Ð½Ð°",
        "Ñħ"
      ],
      [
        "Ð¸ÑģÑĤ",
        "ÐµÐ¼"
      ],
      [
        "Ð½ÐµÑĢ",
        "Ð³Ð¸Ð¸"
      ],
      [
        "ÑİÐ´",
        "ÑĮÐ¼Ð¸"
      ],
      [
        "ÐµÐ»Ð»ÐµÐºÑĤ",
        "Ð°"
      ],
      [
        "Ð¾ÐºÑĥÑģ",
        "Ð¸ÑĢÐ¾Ð²Ð°ÑĤÑĮÑģÑı"
      ],
      [
        "ÐµÑĩÐµÑģÐº",
        "Ð¾Ð³Ð¾"
      ],
      [
        "M",
        "S"
      ],
      [
        "R",
        "MS"
      ],
      [
        "e",
        "n"
      ],
      [
        "m",
        "o"
      ],
      [
        "m",
        "en"
      ],
      [
        "o",
        "p"
      ],
      [
        "p",
        "r"
      ],
      [
        "t",
        "u"
      ],
      [
        "Ð¾",
        "Ñħ"
      ],
      [
        "Ð¾",
        "Ñī"
      ],
      [
        "Ð¸",
        "Ð°Ð³"
      ],
      [
        "Ð¸",
        "Ð¾Ð»Ð¾Ð³"
      ],
      [
        "Ðµ",
        "Ð°Ð½"
      ],
      [
        "Ð½",
        "Ð¸ÐºÐ¸"
      ],
      [
        "Ð°",
        "Ñħ"
      ],
      [
        "Ð°",
        "ÑİÑīÐ°Ñı"
      ],
      [
        "ÑĤ",
        "ÑĢ"
      ],
      [
        "Ð»",
        "Ñĭ"
      ],
      [
        "Ð»",
        "Ð°Ð³"
      ],
      [
        "Ñĥ",
        "Ð»Ñĭ"
      ],
      [
        "Ð°Ð",
        "¶Ð´"
      ],
      [
        "ÐµÐ",
        "¿ÑĤ"
      ],
      [
        "ÐµÐ½",
        "Ð¸Ð¸"
      ],
      [
        "ĠÐ¿",
        "ÑĢÐ°Ð²"
      ],
      [
        "ÑĮ",
        "Ñİ"
      ],
      [
        "ĠÑģ",
        "Ð¾Ð²"
      ],
      [
        "ĠÑģ",
        "Ð²ÑıÐ·"
      ],
      [
        "Ðº",
        "Ðµ"
      ],
      [
        "Ð¾Ð±",
        "ÑĭÑĤÐ¸Ñı"
      ],
      [
        "ÑĨ",
        "ÐµÐ¿ÑĤ"
      ],
      [
        "Ð´",
        "Ð°Ð½Ð½ÑĭÑħ"
      ],
      [
        "Ð´",
        "ÐºÐµ"
      ],
      [
        "ĠÐ¼",
        "Ð¸ÑĢ"
      ],
      [
        "Ð½Ð°",
        "ÑĤ"
      ],
      [
        "Ð½Ð°",
        "ÑĥÐºÐ°"
      ],
      [
        "ÐµÐ»",
        "ÐµÐ½Ð¸Ð¸"
      ],
      [
        "ÐµÑĢ",
        "ÑĮ"
      ],
      [
        "ÐµÑĢ",
        "Ð¸Ð¸"
      ],
      [
        "Ð°ÑĤ",
        "ÐµÑĢÐ¸Ð¸"
      ],
      [
        "Ð½Ð¾",
        "Ð¾Ð±ÑĢÐ°Ð·"
      ],
      [
        "ĠÐ¾Ð±",
        "ÑĢÐ°Ð±Ð¾ÑĤ"
      ],
      [
        "ĠÐ¾Ð±",
        "ÑĢÐ°Ð±Ð°ÑĤÑĭÐ²Ð°ÑİÑĤ"
      ],
      [
        "ÐµÐº",
        "Ð°"
      ],
      [
        "Ð¸Ð²",
        "Ð°ÑĤÑĮ"
      ],
      [
        "Ð¾Ðº",
        "ÐµÐ°Ð½"
      ],
      [
        "ĠÑģÐµÑĤ",
        "ÐµÐ¹"
      ],
      [
        "Ð½Ð¾ÑģÑĤ",
        "Ð¸ÐºÐ¸"
      ],
      [
        "ĠÐ¿ÑĢÐ¾",
        "Ð¸Ð·"
      ],
      [
        "ÑģÑĤÑĢ",
        "ÑĥÐ¼ÐµÐ½ÑĤ"
      ],
      [
        "ÑĦÐ¾ÑĢÐ¼",
        "ÑĥÐ»Ñĭ"
      ],
      [
        "ĠÑĢ",
        "ÐµÑģÑĥÑĢ"
      ],
      [
        "ÐµÑĩ",
        "ÐµÐ½Ð¸Ñı"
      ],
      [
        "ÐµÑĩ",
        "ÐµÐ½Ð½ÑĭÑħ"
      ],
      [
        "Ð°Ð¼",
        "ÑıÑĤ"
      ],
      [
        "Ð¾Ð½",
        "ÑĨÐµÐ¿ÑĤ"
      ],
      [
        "Ð°Ð½Ð¸Ñı",
        "Ð¼Ð¸"
      ],
      [
        "Ð¾Ð·Ð²",
        "ÑĢÐ°Ñī"
      ],
      [
        "ĠÐ±",
        "ÐµÐ·"
      ],
      [
        "Ð¸Ð»",
        "ÑĮ"
      ],
      [
        "Ð¸Ð»",
        "Ð»Ð¸"
      ],
      [
        "ĠÑģÐ¾Ð·Ð´",
        "Ð°Ð½Ð¸Ñı"
      ],
      [
        "Ð¾Ð¶",
        "Ð½Ð¸ÐºÐ¸"
      ],
      [
        "ÑģÐº",
        "Ð°Ð·"
      ],
      [
        "Ð¾Ð¼ÐµÑĢ",
        "Ð½ÑĭÑħ"
      ],
      [
        "Ð°Ð½Ð¸Ð·Ð¼",
        "Ð°Ñħ"
      ],
      [
        "ÑĥÐ¼",
        "Ð¼Ñĥ"
      ],
      [
        "ÑĢÐ°",
        "ÑĦ"
      ],
      [
        "ÑĢÐµÐ´",
        "ÐµÐ»ÐµÐ½Ð¸Ð¸"
      ],
      [
        "ÑĢÐ°Ð±Ð¾ÑĤ",
        "Ð°ÑİÑĤ"
      ],
      [
        "ĠÐ°",
        "ÑĢÑħÐ¸ÑĤÐµÐºÑĤÑĥÑĢ"
      ],
      [
        "ĠÑĥÑĩÐ¸ÑĤ",
        "ÐµÐ»"
      ],
      [
        "ÑĪÐ»",
        "Ð¾Ð¼"
      ],
      [
        "ĠÐ´Ð¾Ð±Ð°Ð²Ð»Ñı",
        "ÐµÑĤ"
      ],
      [
        "ĠÑĦÑĥÐ½ÐºÑĨÐ¸",
        "Ð¸"
      ],
      [
        "ÑģÐµÑĤ",
        "Ð¸"
      ],
      [
        "Ð¾ÑĢÑı",
        "Ð´ÐºÐµ"
      ],
      [
        "ÑĥÐ´",
        "Ð¾Ð¶Ð½Ð¸ÐºÐ¸"
      ],
      [
        "RMS",
        "pr"
      ],
      [
        "mo",
        "men"
      ],
      [
        "tu",
        "m"
      ],
      [
        "Ð¾Ñī",
        "ÑĮÑİ"
      ],
      [
        "Ð¸Ð°Ð³",
        "Ð½Ð¾ÑģÑĤÐ¸ÐºÐ¸"
      ],
      [
        "Ð°Ð¶Ð´",
        "ÑĭÐ¹"
      ],
      [
        "ĠÐ¿ÑĢÐ°Ð²",
        "Ð¸Ð»ÑĮ"
      ],
      [
        "Ð½Ð¾Ð¾Ð±ÑĢÐ°Ð·",
        "Ð½Ð°"
      ],
      [
        "ĠÐ¾Ð±ÑĢÐ°Ð±Ð¾ÑĤ",
        "ÐºÐ¸"
      ],
      [
        "Ð¾ÐºÐµÐ°Ð½",
        "Ñĭ"
      ],
      [
        "ÑģÑĤÑĢÑĥÐ¼ÐµÐ½ÑĤ",
        "Ð¾Ð²"
      ],
      [
        "Ð°Ð¼ÑıÑĤ",
        "Ð¸"
      ],
      [
        "Ð¾Ð½ÑĨÐµÐ¿ÑĤ",
        "Ð¾Ð²"
      ],
      [
        "Ð¾Ð·Ð²ÑĢÐ°Ñī",
        "Ð°ÑİÑīÐ°Ñı"
      ],
      [
        "Ð¸Ð»Ð»Ð¸",
        "Ð¾Ð½Ñĭ"
      ],
      [
        "ÑģÐºÐ°Ð·",
        "Ð°Ð½Ð¸ÑıÐ¼Ð¸"
      ],
      [
        "RMSpr",
        "op"
      ],
      [
        "momen",
        "tum"
      ],
      [
        "¶",
        "Ð½ÑĭÑħ"
      ],
      [
        "Ð",
        "¢"
      ],
      [
        "Ð",
        "ĺ"
      ],
      [
        "Ð",
        "ļ"
      ],
      [
        "Ð",
        "Ł"
      ],
      [
        "Ð",
        "ł"
      ],
      [
        "Ġ",
        "ÑĦÐ¾ÑĢÐ¼ÑĥÐ»Ñĭ"
      ],
      [
        "Ġ",
        "Ð¾ÐºÐµÐ°Ð½Ñĭ"
      ],
      [
        "Ġ",
        "RMSprop"
      ],
      [
        "Ðµ",
        "Ðµ"
      ],
      [
        "Ðµ",
        "ÑĢÐ°Ð¼"
      ],
      [
        "Ðµ",
        "Ð¾Ð±ÑĢÐ°Ð·"
      ],
      [
        "Ð½",
        "Ð¸ÑĨ"
      ],
      [
        "ÑĤ",
        "Ð¾Ð¼"
      ],
      [
        "Ñģ",
        "Ð°Ð¼Ð¸"
      ],
      [
        "Ñģ",
        "ÑģÑĭ"
      ],
      [
        "Ñĥ",
        "ÐµÑĤ"
      ],
      [
        "Ñĭ",
        "Ñħ"
      ],
      [
        "Ñĭ",
        "ÑģÑĤÑĢ"
      ],
      [
        "Ð¸Ð",
        "¶ÐµÐ½Ð¸Ñı"
      ],
      [
        "Ð¸Ð",
        "±Ð¾Ð»"
      ],
      [
        "Ð°Ð",
        "º"
      ],
      [
        "Ð°Ð",
        "¶Ð½ÑĭÑħ"
      ],
      [
        "ÐµÐ½",
        "Ð½ÑĥÑİ"
      ],
      [
        "Ñħ",
        "ÑĢÐ°Ð½"
      ],
      [
        "ĠÐ¿",
        "Ð¾Ð·Ð½Ð°Ð½Ð¸Ñı"
      ],
      [
        "ĠÐ¿",
        "Ð¾ÑĢÑıÐ´ÐºÐµ"
      ],
      [
        "ĠÐ¿",
        "Ð°Ð¼ÑıÑĤÐ¸"
      ],
      [
        "Ð°Ð½",
        "Ð°Ð»Ð¸Ð·"
      ],
      [
        "ÑĮ",
        "ÑģÑı"
      ],
      [
        "Ð¼",
        "Ð¾Ð´"
      ],
      [
        "ĠÑģ",
        "Ð»Ñĥ"
      ],
      [
        "ĠÑģ",
        "Ð¼ÑĭÑģÐ»Ñĥ"
      ],
      [
        "ĠÑģ",
        "Ð¾Ð±ÑĭÑĤÐ¸Ñı"
      ],
      [
        "Ð²",
        "ÐµÑĪ"
      ],
      [
        "Ð²",
        "Ð¸Ð¶ÐµÐ½Ð¸Ñı"
      ],
      [
        "ÐµÑĤ",
        "Ð¾Ð´"
      ],
      [
        "ÑĨ",
        "Ð¸Ð¿"
      ],
      [
        "ÑĢÐ°Ð",
        "ºÑĤ"
      ],
      [
        "ĠÐ²",
        "Ð¾Ð·Ð²ÑĢÐ°ÑīÐ°ÑİÑīÐ°Ñı"
      ],
      [
        "Ð´",
        "Ð°Ð¼"
      ],
      [
        "Ð´",
        "Ð¾Ñħ"
      ],
      [
        "ĠÐ¼",
        "Ð¸Ð»Ð»Ð¸Ð¾Ð½Ñĭ"
      ],
      [
        "ÑĢÐ¾",
        "ÐµÐ½Ð¸Ðµ"
      ],
      [
        "ÑĢÐ¾",
        "ÑģÑĤÑĢÐ°Ð½"
      ],
      [
        "ÐµÐ»",
        "Ð¸Ð½"
      ],
      [
        "ÐµÑĢ",
        "ÐµÐ·"
      ],
      [
        "ÑĦ",
        "Ð¸Ð»"
      ],
      [
        "Ð¸Ð·",
        "Ð°ÑĨÐ¸Ð¸"
      ],
      [
        "Ð°ÑĤ",
        "Ð¸Ð·Ð°ÑĨÐ¸Ð¸"
      ],
      [
        "ÐµÐ¹",
        "Ð½Ð¾ÑģÑĤÑĮ"
      ],
      [
        "ĠÐ·",
        "Ð°ÑĤÐµÐ¼"
      ],
      [
        "ÐµÑģ",
        "Ð°"
      ],
      [
        "Ð¸Ð¼",
        "ÐµÑĢ"
      ],
      [
        "ĠÐ½Ð°",
        "ÑĥÐº"
      ],
      [
        "ĠÐ½",
        "Ðµ"
      ],
      [
        "ĠÐº",
        "Ð°Ð¶Ð´ÑĭÐ¹"
      ],
      [
        "ĠÐº",
        "Ð¾Ð½ÑĨÐµÐ¿ÑĤÐ¾Ð²"
      ],
      [
        "Ð¸Ð²",
        "ÑĭÑħ"
      ],
      [
        "ĠÑį",
        "Ð½ÐµÑĢÐ³Ð¸Ð¸"
      ],
      [
        "Ð¸Ð½",
        "Ð¸Ð¼Ð¸Ð·"
      ],
      [
        "Ð¸Ð½",
        "ÑĨÐ¸Ð¿"
      ],
      [
        "Ð¾Ðº",
        "ÑĥÐ¼ÐµÐ½ÑĤ"
      ],
      [
        "ÑĢÐ¾Ð½",
        "Ð¸ÐºÑĥ"
      ],
      [
        "ĠÐ¸Ð½",
        "ÑģÑĤÑĢÑĥÐ¼ÐµÐ½ÑĤÐ¾Ð²"
      ],
      [
        "Ð¾Ð¹",
        "Ð½ÑĭÐµ"
      ],
      [
        "ĠÐ³",
        "Ð¾ÑĢÑĭ"
      ],
      [
        "ĠÐ³",
        "Ð´Ðµ"
      ],
      [
        "ĠÑĥ",
        "Ð·Ð»Ð¾Ð²"
      ],
      [
        "ÐµÐ½ÑĤ",
        "Ð°Ð»ÑĮ"
      ],
      [
        "ĠÐ½ÐµÐ¹ÑĢÐ¾Ð½",
        "Ð½ÑĥÑİ"
      ],
      [
        "Ð¾Ð½",
        "Ð¸Ð¼Ð°ÑĤÑĮ"
      ],
      [
        "Ð°Ð²",
        "ÑĤÐ¾Ð¼"
      ],
      [
        "ĠÐ±",
        "ÑĭÑĤÐ¸Ñı"
      ],
      [
        "ĠÐ±",
        "Ð»Ð°Ð³"
      ],
      [
        "Ð¾Ð¼Ð¿ÑĮÑİÑĤ",
        "ÐµÑĢÐ°Ð¼"
      ],
      [
        "ĠÑĦ",
        "Ð¾ÐºÑĥÑģÐ¸ÑĢÐ¾Ð²Ð°ÑĤÑĮÑģÑı"
      ],
      [
        "Ð½Ð¾Ð²",
        "Ð»ÐµÐ½"
      ],
      [
        "Ð¸Ð´Ðµ",
        "Ð¸"
      ],
      [
        "Ð¾Ð¶",
        "Ð¸Ðµ"
      ],
      [
        "ĠÐ·Ð°Ðº",
        "Ð¾Ð½Ð°Ñħ"
      ],
      [
        "ĠÐ¸Ð·ÑĥÑĩÐ°",
        "ÑİÑīÐ°Ñı"
      ],
      [
        "ĠÐ¸Ð·ÑĥÑĩÐ°",
        "ÑİÑīÐ¸Ð¹"
      ],
      [
        "Ð°Ð½ÑĤ",
        "Ñĭ"
      ],
      [
        "ĠÐ¿ÑĢÐ¾ÑĨÐµÑģÑģ",
        "Ð¾ÑĢÐ°"
      ],
      [
        "ÑĢÐµÐ´",
        "ÑģÑĤÐ²Ð¾"
      ],
      [
        "ĠÐ»",
        "ÑİÐ´ÑĮÐ¼Ð¸"
      ],
      [
        "ĠÐ»",
        "ÐµÑĩÐµÐ½Ð¸Ñı"
      ],
      [
        "ÑıÑĤ",
        "ÑĮÑģÑı"
      ],
      [
        "ÑĢÐ°Ð²",
        "Ð½ÐµÐ½Ð¸Ñı"
      ],
      [
        "Ð¸ÑĢÐ¾Ð²Ð°Ð½",
        "Ð½ÑĥÑİ"
      ],
      [
        "ĠÐ¸ÑģÐ¿Ð¾Ð»ÑĮÐ·Ñĥ",
        "ÑİÑīÐ°Ñı"
      ],
      [
        "ĠÐ¾Ð±Ñī",
        "ÐµÑģÑĤÐ²Ð°"
      ],
      [
        "ĠÐ¿ÑĢÐµÐ´",
        "ÑģÐºÐ°Ð·Ð°Ð½Ð¸ÑıÐ¼Ð¸"
      ],
      [
        "Ð°ÐºÑĤ",
        "Ð¸ÐºÐ¸"
      ],
      [
        "Ð¾ÑģÐ»",
        "Ð¾Ð¹Ð½ÑĭÐµ"
      ],
      [
        "Ð¸ÑĩÐµÑģÐº",
        "Ð¸Ðµ"
      ],
      [
        "Ð¶",
        "Ð¸Ð¼Ð°ÑĤÑĮ"
      ],
      [
        "ĠÑħ",
        "ÑĥÐ´Ð¾Ð¶Ð½Ð¸ÐºÐ¸"
      ],
      [
        "Ð¸Ð¼Ð¸Ð·",
        "Ð°ÑĨÐ¸Ð¸"
      ],
      [
        "Ð»Ð°",
        "ÑģÑģÑĭ"
      ],
      [
        "Ð»ÐµÐºÑĤ",
        "ÑĢÐ¾Ð½Ð¸ÐºÑĥ"
      ],
      [
        "ÑĢÐµÐ±",
        "ÑĥÐµÑĤ"
      ],
      [
        "¿ÑĤ",
        "Ð¸Ð¼Ð¸Ð·Ð°ÑĨÐ¸Ð¸"
      ],
      [
        "ĠÑĥÑĩÐ¸ÑĤ",
        "ÑģÑı"
      ],
      [
        "ÑĪÐ»",
        "ÐµÐ½Ð¸Ñı"
      ],
      [
        "Ðŀ",
        "Ð±"
      ],
      [
        "ÑģÑĤÑĢÑĥÐº",
        "ÑĤÑĥÑĢ"
      ],
      [
        "ÑģÑĤÑĢÑĥÐº",
        "ÑĨÐ¸Ð¹"
      ],
      [
        "ĠÐ¿Ð¾ÑĤ",
        "ÑĢÐµÐ±Ð»ÐµÐ½Ð¸Ð¸"
      ],
      [
        "Ð²Ð¾Ð´",
        "ÑģÑĤÐ²Ðµ"
      ],
      [
        "ĠÐ¾Ð±ÐµÑģÐ¿ÐµÑĩÐ¸Ð²",
        "Ð°Ñı"
      ],
      [
        "Ð¸ÑĢÑĥ",
        "ÑİÑīÐ¸Ð¹"
      ],
      [
        "ĠÐºÐ¾ÑĤÐ¾ÑĢ",
        "ÑĭÐµ"
      ],
      [
        "ĠÑĩÐµÐ»Ð¾Ð²",
        "ÐµÑĩÐµÑģÐºÐ¾Ð³Ð¾"
      ],
      [
        "Ð»Ð¸Ñĩ",
        "Ð½Ð¾"
      ],
      [
        "ÑĥÑİÑĤ",
        "ÑģÑı"
      ],
      [
        "ĠÐ¼Ð½Ð¾Ð³",
        "Ð¾Ð¼ÐµÑĢÐ½ÑĭÑħ"
      ],
      [
        "ĠÐ¸Ð½ÑĤ",
        "ÐµÐ»Ð»ÐµÐºÑĤÐ°"
      ],
      [
        "ĠÑĩÐ¸Ñģ",
        "Ð»Ð°"
      ],
      [
        "Ð·ÑĭÐº",
        "Ð°Ð½ÑĤÑĭ"
      ],
      [
        "Ð°ÑĤÐµÐ¼Ð°ÑĤ",
        "Ð¸ÑĩÐµÑģÐºÐ¸Ðµ"
      ],
      [
        "Ð°ÑĪÐ¸Ð½",
        "Ð°Ð¼"
      ],
      [
        "Ð²Ð°Ð½ÑĤÐ¾Ð²",
        "Ð¾Ð¹"
      ],
      [
        "ÑĢÐ°Ð´Ð¸ÐµÐ½ÑĤ",
        "Ð°Ð¼"
      ],
      [
        "ÐµÐºÑĥÑĢÑĢÐµÐ½ÑĤ",
        "Ð½Ð¾Ð¹"
      ],
      [
        "ÐµÐ¾Ð±ÑĢÐ°Ð·",
        "ÑĥÑİÑĤÑģÑı"
      ],
      [
        "Ð½Ð¸ÑĨ",
        "Ñĥ"
      ],
      [
        "ÑĭÑģÑĤÑĢ",
        "ÑĭÐ¹"
      ],
      [
        "Ð¸Ð±Ð¾Ð»",
        "ÐµÐµ"
      ],
      [
        "Ð°Ð½Ð°Ð»Ð¸Ð·",
        "Ð¸ÑĢÐ¾Ð²Ð°ÑĤÑĮ"
      ],
      [
        "Ð¼Ð¾Ð´",
        "ÐµÐ»Ð¸"
      ],
      [
        "ĠÑģÐ»Ñĥ",
        "Ð¶Ð¸ÑĤ"
      ],
      [
        "Ð²ÐµÑĪ",
        "ÐµÐ½Ð½ÑĥÑİ"
      ],
      [
        "ÐµÑĤÐ¾Ð´",
        "Ð¾Ð²"
      ],
      [
        "ÑĢÐ°ÐºÑĤ",
        "Ð¸ÐºÐ°"
      ],
      [
        "Ð´Ð°Ð¼",
        "ÐµÐ½ÑĤÐ°Ð»ÑĮ"
      ],
      [
        "Ð´Ð¾Ñħ",
        "Ð½Ð¾Ð²Ð»ÐµÐ½"
      ],
      [
        "ÑĢÐ¾ÑģÑĤÑĢÐ°Ð½",
        "ÑıÑĤÑĮÑģÑı"
      ],
      [
        "ÐµÐ»Ð¸Ð½",
        "ÐµÐ¹Ð½Ð¾ÑģÑĤÑĮ"
      ],
      [
        "ÑĦÐ¸Ð»",
        "Ð°ÐºÑĤÐ¸ÐºÐ¸"
      ],
      [
        "Ð¸Ð½Ð¸Ð¼Ð¸Ð·",
        "Ð¸ÑĢÑĥÑİÑīÐ¸Ð¹"
      ],
      [
        "Ð¸Ð½ÑĨÐ¸Ð¿",
        "Ñĭ"
      ],
      [
        "Ð¾ÐºÑĥÐ¼ÐµÐ½ÑĤ",
        "Ñĭ"
      ],
      [
        "Ð°Ð²ÑĤÐ¾Ð¼",
        "Ð°ÑĤÐ¸Ð·Ð°ÑĨÐ¸Ð¸"
      ],
      [
        "ÑģÑĤÑĢÑĥÐºÑĤÑĥÑĢ",
        "Ð¸ÑĢÐ¾Ð²Ð°Ð½Ð½ÑĥÑİ"
      ],
      [
        "Ð´Ð°Ð¼ÐµÐ½ÑĤÐ°Ð»ÑĮ",
        "Ð½ÑĭÐµ"
      ],
      [
        "Ð´Ð¾ÑħÐ½Ð¾Ð²Ð»ÐµÐ½",
        "Ð½ÑĭÐµ"
      ],
      [
        "Ġ",
        "ÑĢÐ°Ð±Ð¾ÑĤÐ°ÑİÑĤ"
      ],
      [
        "Ġ",
        "momentum"
      ],
      [
        "Ġ",
        "Ð°Ð½Ð°Ð»Ð¸Ð·Ð¸ÑĢÐ¾Ð²Ð°ÑĤÑĮ"
      ],
      [
        "Ġ",
        "Ð°Ð²ÑĤÐ¾Ð¼Ð°ÑĤÐ¸Ð·Ð°ÑĨÐ¸Ð¸"
      ],
      [
        "Ñĥ",
        "Ð·ÑĭÐºÐ°Ð½ÑĤÑĭ"
      ],
      [
        "Ñĩ",
        "Ð½ÑĭÐµ"
      ],
      [
        "ÐµÐ½",
        "ÐµÑĢ"
      ],
      [
        "Ñħ",
        "Ð¾Ð¶Ð¸Ðµ"
      ],
      [
        "ĠÐ¿",
        "Ð¾Ð½Ð¸Ð¼Ð°ÑĤÑĮ"
      ],
      [
        "ĠÑģ",
        "Ð»Ð¾Ð²"
      ],
      [
        "ĠÑģ",
        "ÑĥÐ¼Ð¼Ñĥ"
      ],
      [
        "ĠÑģ",
        "Ð¶Ð¸Ð¼Ð°ÑĤÑĮ"
      ],
      [
        "Ðº",
        "ÑĨÐ¸Ñı"
      ],
      [
        "ĠÐ¸",
        "ÑģÐºÑĥÑģ"
      ],
      [
        "Ð¿",
        "ÐµÑĢ"
      ],
      [
        "ĠÐ²",
        "Ð°Ð¶Ð½ÑĭÑħ"
      ],
      [
        "ĠÐ²",
        "Ð´Ð¾ÑħÐ½Ð¾Ð²Ð»ÐµÐ½Ð½ÑĭÐµ"
      ],
      [
        "ĠÐ¼",
        "Ð°ÑĤÐµÑĢÐ¸Ð¸"
      ],
      [
        "ĠÐ¼",
        "Ð¸Ð½Ð¸Ð¼Ð¸Ð·Ð¸ÑĢÑĥÑİÑīÐ¸Ð¹"
      ],
      [
        "ĠÐ¼",
        "ÑĥÐ·ÑĭÐºÐ°Ð½ÑĤÑĭ"
      ],
      [
        "ĠÐ´",
        "Ð¸Ð°Ð³Ð½Ð¾ÑģÑĤÐ¸ÐºÐ¸"
      ],
      [
        "ĠÐ¾Ð±",
        "ÑĬÐµÐ´Ð¸Ð½ÑıÐµÑĤ"
      ],
      [
        "ĠÐ½",
        "Ð¾Ð»ÑĮ"
      ],
      [
        "ĠÐº",
        "Ð¾Ð¼Ð¿ÑĮÑİÑĤÐµÑĢÐ°Ð¼"
      ],
      [
        "ĠÐº",
        "Ð²Ð°Ð½ÑĤÐ¾Ð²Ð¾Ð¹"
      ],
      [
        "Ð¸Ð½",
        "ÑĦÐ¾ÑĢÐ¼"
      ],
      [
        "ĠÐ¿ÑĢ",
        "Ð¸Ð¼ÐµÑĢ"
      ],
      [
        "ĠÐ¿ÑĢ",
        "ÐµÐ¾Ð±ÑĢÐ°Ð·ÑĥÑİÑĤÑģÑı"
      ],
      [
        "ĠÐ¿ÑĢÐ¾",
        "ÑģÑĤÑĢÐ°Ð½"
      ],
      [
        "ĠÐ¿ÑĢÐ¾",
        "ÑĪÐ»Ð¾Ð¼"
      ],
      [
        "ĠÐ¿ÑĢÐ¾",
        "ÑĦÐ¸Ð»Ð°ÐºÑĤÐ¸ÐºÐ¸"
      ],
      [
        "ÐµÐ¼",
        "Ð°Ð½ÑĤ"
      ],
      [
        "ĠÑĥ",
        "ÑĢÐ°Ð²Ð½ÐµÐ½Ð¸Ñı"
      ],
      [
        "ĠÑĩ",
        "ÐµÑĢÐµÐ·"
      ],
      [
        "ĠÑĢÐ°Ð·",
        "Ð½Ð¾Ð¾Ð±ÑĢÐ°Ð·Ð½Ð°"
      ],
      [
        "ĠÐ±",
        "ÑĭÑģÑĤÑĢÑĭÐ¹"
      ],
      [
        "ÑĥÐ½",
        "ÐºÑĨÐ¸Ñı"
      ],
      [
        "ĠÐ¿Ð¾",
        "ÑħÐ¾Ð¶Ð¸Ðµ"
      ],
      [
        "ĠÑģÐ¾Ð·Ð´",
        "Ð°Ð½Ð½ÑĭÑħ"
      ],
      [
        "ĠÑĦÑĥÐ½",
        "Ð´Ð°Ð¼ÐµÐ½ÑĤÐ°Ð»ÑĮÐ½ÑĭÐµ"
      ],
      [
        "ĠÐ¿ÑĢÐ¾ÑĨÐµÑģÑģ",
        "Ñĭ"
      ],
      [
        "ĠÐ¿ÑĢÐ¾ÑĨÐµÑģÑģ",
        "Ð¾Ð²"
      ],
      [
        "ĠÐ»",
        "ÐµÑģÐ°"
      ],
      [
        "ĠÐ¾Ð±Ñī",
        "ÐµÐ½Ð¸Ñı"
      ],
      [
        "ĠÐ¾Ð±Ñī",
        "Ð¸Ñħ"
      ],
      [
        "ĠÐ¿ÑĢÐµÐ´",
        "ÑģÑĤÐ°Ð²Ð»Ñı"
      ],
      [
        "ĠÐºÐ¾Ð¼Ð¿ÑĮÑİÑĤÐµÑĢ",
        "Ð°"
      ],
      [
        "ĠÐºÐ¾Ð¼Ð¿ÑĮÑİÑĤÐµÑĢ",
        "Ð¾Ð²"
      ],
      [
        "ĠÐ½Ð°ÑħÐ¾Ð´",
        "Ñı"
      ],
      [
        "ĠÐ¿ÑĢÐ¾Ð³ÑĢÐ°Ð¼Ð¼",
        "Ð¸ÑĢÐ¾Ð²Ð°Ð½Ð¸Ðµ"
      ],
      [
        "ĠÐ¾ÑģÐ½Ð¾Ð²",
        "Ðµ"
      ],
      [
        "ĠÐ¿Ð¾ÑĤ",
        "ÐµÑĢÑĮ"
      ],
      [
        "Ð²Ð¾Ð´",
        "Ð°"
      ],
      [
        "ĠÐ¾Ð±ÐµÑģÐ¿ÐµÑĩÐ¸Ð²",
        "Ð°ÑİÑĤ"
      ],
      [
        "ĠÐºÐ¾ÑĤÐ¾ÑĢ",
        "Ð°Ñı"
      ],
      [
        "ĠÑĩÐµÐ»Ð¾Ð²",
        "ÐµÐºÐ°"
      ],
      [
        "ĠÑĢÐ°ÑģÐ¿",
        "ÑĢÐµÐ´ÐµÐ»ÐµÐ½Ð¸Ð¸"
      ],
      [
        "ĠÑĢÐ°ÑģÐ¿",
        "ÑĢÐ¾ÑģÑĤÑĢÐ°Ð½ÑıÑĤÑĮÑģÑı"
      ],
      [
        "ĠÑĤÐ¾ÐºÐµÐ½",
        "Ñĭ"
      ],
      [
        "ĠÑĤÐ¾ÐºÐµÐ½",
        "Ð¾Ð²"
      ],
      [
        "ĠÑģÐ¿Ð¾ÑģÐ¾Ð±",
        "Ð½Ð¾ÑģÑĤÑĮ"
      ],
      [
        "ĠÑģÐ¿Ð¾ÑģÐ¾Ð±",
        "Ð½ÑĭÐ¹"
      ],
      [
        "ĠÐ¾Ð",
        "¿ÑĤÐ¸Ð¼Ð¸Ð·Ð°ÑĨÐ¸Ð¸"
      ],
      [
        "ĠÑĤÐ¾Ñĩ",
        "Ð½ÑĭÑħ"
      ],
      [
        "ĠÐ°Ð»Ð³Ð¾ÑĢÐ¸ÑĤ",
        "Ð¼Ñĭ"
      ],
      [
        "ĠÐ¼Ñĭ",
        "ÑĪÐ»ÐµÐ½Ð¸Ñı"
      ],
      [
        "ĠÐ¸Ð·Ð¾Ð±ÑĢÐ°Ð¶ÐµÐ½Ð¸Ñı",
        "Ð¼Ð¸"
      ],
      [
        "ĠÑģÐ¾ÐµÐ´Ð¸Ð½Ñı",
        "ÑİÑīÐ°Ñı"
      ],
      [
        "ĠÐ¾ÑĢÐ³",
        "Ð°Ð½Ð¸Ð·Ð¼Ð°Ñħ"
      ],
      [
        "ĠÐ¿Ð¾Ð¼",
        "Ð¾ÑīÑĮÑİ"
      ],
      [
        "ĠÐ¼ÐµÑħÐ°Ð½",
        "Ð¸ÐºÐ¸"
      ],
      [
        "ĠÑģÑĤ",
        "ÑĢÐ¾ÐµÐ½Ð¸Ðµ"
      ],
      [
        "ĠÐ²ÐµÐºÑĤ",
        "Ð¾ÑĢÐ¾Ð²"
      ],
      [
        "ĠÑĢÐ°Ð·Ð¼",
        "ÐµÑĩÐµÐ½Ð½ÑĭÑħ"
      ],
      [
        "Ð¸ÑģÑĤÐµÐ¼",
        "Ñĭ"
      ],
      [
        "ĠÐ¸ÑģÐºÑĥÑģ",
        "ÑģÑĤÐ²ÐµÐ½Ð½Ð¾Ð³Ð¾"
      ],
      [
        "ÐµÐ¼Ð°Ð½ÑĤ",
        "Ð¸ÑĩÐµÑģÐº"
      ],
      [
        "²",
        "Ð°Ð½Ð¸Ð¹"
      ],
      [
        "¶",
        "Ð¸Ð²ÑĭÑħ"
      ],
      [
        "¿",
        "Ð¸Ñģ"
      ],
      [
        "Ġ",
        "Ð¸Ð¼"
      ],
      [
        "Ġ",
        "ÑĪ"
      ],
      [
        "Ġ",
        "Ð¸Ð´ÐµÐ¸"
      ],
      [
        "Ġ",
        "ÑģÑĤÑĢÑĥÐºÑĤÑĥÑĢÐ¸ÑĢÐ¾Ð²Ð°Ð½Ð½ÑĥÑİ"
      ],
      [
        "Ð¸",
        "ÐµÑģ"
      ],
      [
        "Ð¸",
        "Ð½Ð°ÑĤ"
      ],
      [
        "Ðµ",
        "ÐµÑĤ"
      ],
      [
        "Ðµ",
        "Ð¾Ð±ÑĥÑĩÐµÐ½Ð¸Ðµ"
      ],
      [
        "Ð½",
        "Ð¸"
      ],
      [
        "Ð½",
        "Ð¾Ð¼"
      ],
      [
        "Ð½",
        "Ð¸Ð¹"
      ],
      [
        "Ð°",
        "ÑģÑĤ"
      ],
      [
        "Ð°",
        "Ð¸Ð¼"
      ],
      [
        "ÑĤ",
        "ÑĢÐ°ÑĦ"
      ],
      [
        "ĠÐ",
        "¶Ð¸Ð²ÑĭÑħ"
      ],
      [
        "Ñģ",
        "Ð»"
      ],
      [
        "Ñı",
        "Ñı"
      ],
      [
        "Ñı",
        "Ñħ"
      ],
      [
        "Ñı",
        "ÐµÑĤ"
      ],
      [
        "Ð»",
        "Ð¾Ð±"
      ],
      [
        "Ñĥ",
        "ÑģÑĤ"
      ],
      [
        "Ñĭ",
        "Ð½Ð¸"
      ],
      [
        "ÐµÐ",
        "²Ð°Ð½Ð¸Ð¹"
      ],
      [
        "ÐµÐ½",
        "Ð½Ð¸Ð¹"
      ],
      [
        "ĠÐ¿",
        "Ð¸Ñģ"
      ],
      [
        "ĠÐ¿",
        "ÑĢÐ°ÐºÑĤÐ¸ÐºÐ°"
      ],
      [
        "ĠÐ¿",
        "ÑĥÑģÑĤ"
      ],
      [
        "ÑģÑĤ",
        "Ð°Ñı"
      ],
      [
        "Ð¼",
        "ÐµÑĢ"
      ],
      [
        "ĠÑģ",
        "ÑĢÐµÐ´ÑģÑĤÐ²Ð¾"
      ],
      [
        "Ð¾Ð²",
        "ÑĭÐµ"
      ],
      [
        "ĠÐ¸",
        "Ð»Ð¸"
      ],
      [
        "Ð¿",
        "ÑĢÐµÐ´"
      ],
      [
        "ĠÐ¼",
        "Ð°ÑĤÐµÐ¼Ð°ÑĤÐ¸ÑĩÐµÑģÐºÐ¸Ðµ"
      ],
      [
        "ĠÐ¼",
        "Ð°ÑĪÐ¸Ð½Ð°Ð¼"
      ],
      [
        "ĠÐ¼",
        "ÐµÑĤÐ¾Ð´Ð¾Ð²"
      ],
      [
        "ĠÐ´",
        "Ð²Ð¸Ð¶ÐµÐ½Ð¸Ñı"
      ],
      [
        "ĠÐ´",
        "Ð¾ÐºÑĥÐ¼ÐµÐ½ÑĤÑĭ"
      ],
      [
        "ÑĢÐ¾",
        "ÑģÐ¾Ð²"
      ],
      [
        "ÐµÐ»",
        "Ð¸ÑĢÐ¾Ð²Ð°ÑĤÑĮ"
      ],
      [
        "ÐµÑĢ",
        "ÑĦ"
      ],
      [
        "Ð°ÑĤ",
        "ÐµÐ»Ð¸"
      ],
      [
        "Ð»Ñı",
        "ÑİÑĤ"
      ],
      [
        "Ð¾Ð´",
        "ÐµÐ¹"
      ],
      [
        "Ð¾Ð¼",
        "Ð¸Ð½Ð°ÑĤ"
      ],
      [
        "ÐµÐ¹",
        "Ñģ"
      ],
      [
        "Ð¾Ð³",
        "Ð°ÑİÑĤ"
      ],
      [
        "ĠÐ½Ð°",
        "Ð¸Ð±Ð¾Ð»ÐµÐµ"
      ],
      [
        "ĠÐ½",
        "ÐµÐ»Ð¸Ð½ÐµÐ¹Ð½Ð¾ÑģÑĤÑĮ"
      ],
      [
        "ĠÐ½",
        "Ð¾Ð²ÑĭÐµ"
      ],
      [
        "ĠÐº",
        "Ð»Ð°ÑģÑģÑĭ"
      ],
      [
        "Ð¸Ð²",
        "Ð¸ÑĤÐµÐ»ÑĮ"
      ],
      [
        "ĠÑį",
        "Ð»ÐµÐºÑĤÑĢÐ¾Ð½Ð¸ÐºÑĥ"
      ],
      [
        "ĠÐ·Ð°Ð",
        "±Ð¾Ð»"
      ],
      [
        "Ð¾Ðº",
        "ÑĥÐ¿"
      ],
      [
        "ÑģÑĤÐ²",
        "Ð¸Ñı"
      ],
      [
        "ĠÐ¿ÑĢ",
        "Ð¸Ð½ÑĨÐ¸Ð¿Ñĭ"
      ],
      [
        "ĠÐ¸Ð½",
        "ÑģÑĤÑĢÑĥÐºÑĨÐ¸Ð¹"
      ],
      [
        "ĠÑĢ",
        "ÐµÐºÑĥÑĢÑĢÐµÐ½ÑĤÐ½Ð¾Ð¹"
      ],
      [
        "ĠÐ³",
        "ÑĢÐ°Ð½"
      ],
      [
        "ĠÐ³",
        "ÑĢÐ°Ð´Ð¸ÐµÐ½ÑĤÐ°Ð¼"
      ],
      [
        "ĠÑĥ",
        "ÑģÐ»Ñĥ"
      ],
      [
        "ĠÐ½ÐµÐ¹ÑĢÐ¾Ð½",
        "Ð½ÑĭÑħ"
      ],
      [
        "ĠÐ½ÐµÐ¹ÑĢÐ¾Ð½",
        "Ð½Ð¾Ð¹"
      ],
      [
        "ĠÐ¼Ð¾Ð´",
        "ÐµÐ»Ð¸ÑĢÐ¾Ð²Ð°ÑĤÑĮ"
      ],
      [
        "ĠÑĩ",
        "Ð°ÑģÑĤ"
      ],
      [
        "ĠÑĢÐ°Ð·",
        "Ð´ÐµÐ»"
      ],
      [
        "ĠÑĢÐ°Ð·",
        "Ð½Ð¸ÑĨÑĥ"
      ],
      [
        "ĠÐ±",
        "Ð¸Ð¾Ð»Ð¾Ð³"
      ],
      [
        "ĠÑĤ",
        "ÑĢÐµÐ±ÑĥÐµÑĤ"
      ],
      [
        "Ð°Ð½Ð¸Ð·",
        "ÑĥÑİÑĤ"
      ],
      [
        "Ð½Ñĥ",
        "ÑĤÑĢ"
      ],
      [
        "ĠÐ¿Ð¾Ð·Ð²Ð¾Ð»Ñı",
        "ÐµÑĤ"
      ],
      [
        "ĠÐ¿Ð¾Ð·Ð²Ð¾Ð»Ñı",
        "ÑİÑīÐ¸Ð¹"
      ],
      [
        "ĠÐ²Ñĭ",
        "Ð´ÐµÐ»"
      ],
      [
        "ĠÐ·Ð°Ð´",
        "Ð°ÐµÑĤ"
      ],
      [
        "ÑĢÐ°Ð²",
        "Ð»ÑıÑİÑĤ"
      ],
      [
        "ĠÐ¸ÑģÐ¿Ð¾Ð»ÑĮÐ·Ñĥ",
        "Ñı"
      ],
      [
        "Ð¸ÑĩÐµÑģÐº",
        "Ð¸Ð¼Ð¸"
      ],
      [
        "ĠÑĦÑĥÐ½Ðº",
        "ÑĨÐ¸Ñı"
      ],
      [
        "ĠÐºÐ¾Ð¼Ð¿ÑĮÑİÑĤÐµÑĢ",
        "Ð½ÑĭÑħ"
      ],
      [
        "ĠÐ¾ÑĤ",
        "Ð»Ð¸ÑĩÐ½Ð¾"
      ],
      [
        "Ð¸ÑĨ",
        "Ñĭ"
      ],
      [
        "ÑıÐ·",
        "ÑĭÐº"
      ],
      [
        "ĠÐ´Ð¾Ð±Ð°Ð²Ð»Ñı",
        "Ñı"
      ],
      [
        "ĠÑĦÑĥÐ½ÐºÑĨÐ¸",
        "Ñİ"
      ],
      [
        "Ð»Ð¸Ñĩ",
        "Ð°ÑİÑĤ"
      ],
      [
        "ĠÐ¼Ð½Ð¾Ð³",
        "Ð¾ÑģÐ»Ð¾Ð¹Ð½ÑĭÐµ"
      ],
      [
        "ĠÐ¸Ð½ÑĤ",
        "ÐµÑĢÑĦ"
      ],
      [
        "Ð°Ð»ÑĮ",
        "Ð½Ð°Ñı"
      ],
      [
        "ĠÐ¾Ð",
        "¿Ð¸Ñģ"
      ],
      [
        "ĠÑĤÐ¾Ñĩ",
        "Ð½Ð¾Ð¼"
      ],
      [
        "ĠÐ°Ð»Ð³Ð¾ÑĢÐ¸ÑĤ",
        "Ð¼"
      ],
      [
        "ĠÐ¼Ñĭ",
        "ÑģÐ»"
      ],
      [
        "ĠÑģÐ¾ÐµÐ´Ð¸Ð½Ñı",
        "ÑİÑĤ"
      ],
      [
        "Ð¿ÑĢÐ¾",
        "ÑĨÐµÑģÑģ"
      ],
      [
        "ĠÐ²Ð·",
        "Ð²ÐµÑĪÐµÐ½Ð½ÑĥÑİ"
      ],
      [
        "ĠÐ²Ð·",
        "Ð°Ð¸Ð¼"
      ],
      [
        "ĠÐ·Ð°Ð¿",
        "ÑĢÐ¾ÑģÐ¾Ð²"
      ],
      [
        "ĠÐ·Ð°Ð¿",
        "Ð¾Ð¼Ð¸Ð½Ð°ÑĤ"
      ],
      [
        "ĠÐ³Ð»ÑĥÐ±Ð¾Ðº",
        "Ð¸Ðµ"
      ],
      [
        "ĠÐ³Ð»ÑĥÐ±Ð¾Ðº",
        "Ð¸Ñħ"
      ],
      [
        "ĠÑĥÑģÑĤÑĢÐ¾Ð¹",
        "ÑģÑĤÐ²"
      ],
      [
        "ĠÑĥÑģÑĤÑĢÐ¾Ð¹",
        "ÑģÑĤÐ²Ð°"
      ],
      [
        "ĠÐ´Ð¾ÑģÑĤÑĥÐ¿",
        "Ð°"
      ],
      [
        "ĠÐ²Ñģ",
        "ÐµÑħ"
      ],
      [
        "ĠÑħÑĢÐ°Ð½",
        "ÐµÐ½Ð¸Ðµ"
      ],
      [
        "ĠÐ¾Ð±ÑĥÑĩÐ°ÑİÑī",
        "Ð¸ÐµÑģ"
      ],
      [
        "ĠÑģÐ²ÑıÐ·",
        "ÐµÐ¹"
      ],
      [
        "ĠÐ¿ÑĢÐ¾Ð¸Ð·",
        "Ð²Ð¾Ð´ÑģÑĤÐ²Ðµ"
      ],
      [
        "ĠÑĢÐµÑģÑĥÑĢ",
        "ÑģÐ°Ð¼Ð¸"
      ],
      [
        "ĠÐ¸Ð¼",
        "ÐµÐµÑĤ"
      ],
      [
        "ĠÑĪ",
        "ÑĤÑĢÐ°ÑĦ"
      ],
      [
        "Ð»Ð¾Ð±",
        "Ð°Ð»ÑĮÐ½Ð°Ñı"
      ],
      [
        "ĠÐ¿Ð¸Ñģ",
        "Ð°ÑĤÐµÐ»Ð¸"
      ],
      [
        "ĠÐ¿ÑĥÑģÑĤ",
        "ÑĭÐ½Ð¸"
      ],
      [
        "Ð¼ÐµÑĢ",
        "ÑıÐµÑĤ"
      ],
      [
        "Ð¾Ð´ÐµÐ¹",
        "ÑģÑĤÐ²Ð¸Ñı"
      ],
      [
        "Ð¸Ð²Ð¸ÑĤÐµÐ»ÑĮ",
        "Ð½Ð°"
      ],
      [
        "ĠÐ·Ð°Ð±Ð¾Ð»",
        "ÐµÐ²Ð°Ð½Ð¸Ð¹"
      ],
      [
        "Ð¾ÐºÑĥÐ¿",
        "Ð½Ð¾ÑģÑĤÑĮ"
      ],
      [
        "ĠÐ³ÑĢÐ°Ð½",
        "Ð¸ÑĨÑĭ"
      ],
      [
        "ĠÑĥÑģÐ»Ñĥ",
        "Ð³"
      ],
      [
        "ĠÑĩÐ°ÑģÑĤ",
        "ÑıÑħ"
      ],
      [
        "ĠÐ±Ð¸Ð¾Ð»Ð¾Ð³",
        "Ð¸ÑĩÐµÑģÐºÐ¸Ð¼Ð¸"
      ],
      [
        "Ð½ÑĥÑĤÑĢ",
        "ÐµÐ½Ð½Ð¸Ð¹"
      ],
      [
        "ĠÐ²ÑĭÐ´ÐµÐ»",
        "ÑıÑı"
      ],
      [
        "ÑıÐ·ÑĭÐº",
        "Ð°"
      ],
      [
        "ĠÐ¸Ð½ÑĤÐµÑĢÑĦ",
        "ÐµÐ¹Ñģ"
      ],
      [
        "ĠÐ¾Ð¿Ð¸Ñģ",
        "ÑĭÐ²Ð°ÑİÑĤ"
      ],
      [
        "ĠÑĤÐ¾ÑĩÐ½Ð¾Ð¼",
        "Ñĥ"
      ],
      [
        "ĠÐ¼ÑĭÑģÐ»",
        "ÐµÐ¹"
      ],
      [
        "ĠÐ²Ð·Ð°Ð¸Ð¼",
        "Ð¾Ð´ÐµÐ¹ÑģÑĤÐ²Ð¸Ñı"
      ],
      [
        "ĠÐ·Ð°Ð¿Ð¾Ð¼Ð¸Ð½Ð°ÑĤ",
        "ÑĮ"
      ],
      [
        "ĠÐ¾Ð±ÑĥÑĩÐ°ÑİÑīÐ¸ÐµÑģ",
        "Ñı"
      ],
      [
        "Ð",
        "Ĳ"
      ],
      [
        "Ð",
        "ĳ"
      ],
      [
        "Ð",
        "Ŀ"
      ],
      [
        "Ð",
        "Ń"
      ],
      [
        "Ð¸",
        "ÑĨÐ¸"
      ],
      [
        "Ð°",
        "ÑĨÐ¸Ñı"
      ],
      [
        "Ñģ",
        "ÑĦÐ¾ÑĢÐ¼"
      ],
      [
        "Ð°Ð",
        "´"
      ],
      [
        "Ð¼",
        "ÐµÑħ"
      ],
      [
        "Ð²",
        "ÐµÑĤ"
      ],
      [
        "Ð¿",
        "ÑĢ"
      ],
      [
        "Ð¿",
        "Ð¾Ð»ÑĮÐ·Ñĥ"
      ],
      [
        "Ð¾Ð±",
        "Ñī"
      ],
      [
        "Ð¾Ð±",
        "Ð¾ÑĤ"
      ],
      [
        "Ð´",
        "Ð»Ñı"
      ],
      [
        "Ð¸Ð·",
        "ÑĥÑĩÐ°"
      ],
      [
        "Ð°ÑĤ",
        "Ð¾ÑĢ"
      ],
      [
        "Ð·",
        "Ð°Ðº"
      ],
      [
        "Ð¸Ð¼",
        "Ð¾ÑģÑĤ"
      ],
      [
        "Ð¸ÑĢ",
        "Ð¾Ð´"
      ],
      [
        "ĠÐ½",
        "Ð¸Ð¼Ð¸"
      ],
      [
        "Ð¸Ð²",
        "Ð½ÑĭÐµ"
      ],
      [
        "Ð¸Ñģ",
        "Ð¿Ð¾Ð»ÑĮÐ·Ñĥ"
      ],
      [
        "ÐµÑħ",
        "Ð½"
      ],
      [
        "ÑĢÐ°Ð½",
        "ÑģÑĦÐ¾ÑĢÐ¼"
      ],
      [
        "ĠÐ¿Ð¾",
        "Ð¸ÑģÐº"
      ],
      [
        "ĠÐ¾ÑĤ",
        "Ð²ÐµÑĤ"
      ],
      [
        "Ð½ÐµÐ¹ÑĢÐ¾Ð½",
        "Ð½ÑĭÐµ"
      ],
      [
        "Ð¤",
        "ÑĥÐ½ÐºÑĨÐ¸Ñı"
      ],
      [
        "Ðļ",
        "Ð¾Ð¼Ð¿ÑĮÑİÑĤÐµÑĢ"
      ],
      [
        "ÐŁ",
        "ÑĢ"
      ],
      [
        "ÐŀÐ±",
        "ÑĥÑĩÐµÐ½Ð¸Ðµ"
      ],
      [
        "Ð¸Ð½ÑĦÐ¾ÑĢÐ¼",
        "Ð°ÑĨÐ¸Ñİ"
      ],
      [
        "ÑĢÐ°Ð½ÑģÑĦÐ¾ÑĢÐ¼",
        "ÐµÑĢ"
      ],
      [
        "A",
        "d"
      ],
      [
        "a",
        "m"
      ],
      [
        "±",
        "Ð¸Ð»"
      ],
      [
        "¶",
        "Ð°ÐµÑĤ"
      ],
      [
        "Ġ",
        "Ð¾Ð³"
      ],
      [
        "Ġ",
        "Ð¸Ð´"
      ],
      [
        "Ġ",
        "ÑıÐ·ÑĭÐºÐ°"
      ],
      [
        "Ĺ",
        "ÐµÐ¼"
      ],
      [
        "Ð¸",
        "Ñİ"
      ],
      [
        "Ðµ",
        "ÑģÑĤ"
      ],
      [
        "Ðµ",
        "ÑģÑĤÐ²ÐµÐ½Ð½Ð¾Ð³Ð¾"
      ],
      [
        "Ð½",
        "Ð°Ð½Ð¸Ð¹"
      ],
      [
        "Ð°",
        "ÑĢ"
      ],
      [
        "ÑĢ",
        "Ñĭ"
      ],
      [
        "ÑĢ",
        "ÐµÐ½Ð¸Ðµ"
      ],
      [
        "ÑĢ",
        "Ð¸ÑĨ"
      ],
      [
        "Ð¾Ð",
        "¶Ð´"
      ],
      [
        "Ñģ",
        "Ð¾Ð·Ð´"
      ],
      [
        "Ñı",
        "Ð²"
      ],
      [
        "Ð»",
        "ÐµÐ½Ð¸Ñı"
      ],
      [
        "Ð»",
        "Ð¸Ð²Ð°ÑĤÑĮ"
      ],
      [
        "Ñĥ",
        "Ñİ"
      ],
      [
        "Ñĥ",
        "ÑģÐº"
      ],
      [
        "Ð°Ð",
        "±Ð¸Ð»"
      ],
      [
        "ÐµÐ½",
        "Ð¸Ð²Ð°ÑĤÑĮ"
      ],
      [
        "ÐµÐ½",
        "Ð¸Ñİ"
      ],
      [
        "Ñħ",
        "Ð¾Ð¶Ð´"
      ],
      [
        "Ð°Ð½",
        "Ð°Ð²"
      ],
      [
        "ÑģÑĤ",
        "Ð°Ð½Ð°Ð²"
      ],
      [
        "Ð¼",
        "ÐµÐ½Ð¸Ð²Ð°ÑĤÑĮ"
      ],
      [
        "Ð½Ñĭ",
        "Ð¼Ð¸"
      ],
      [
        "ĠÑģ",
        "Ðº"
      ],
      [
        "ĠÑģ",
        "ÐµÐ¼Ð°Ð½ÑĤÐ¸ÑĩÐµÑģÐº"
      ],
      [
        "Ð²",
        "ÑĢÐ°Ñī"
      ],
      [
        "Ð²",
        "Ð°ÑĢ"
      ],
      [
        "Ðº",
        "Ð¾Ð´"
      ],
      [
        "Ðº",
        "Ð¾Ð¼Ð¿ÑĮÑİÑĤÐµÑĢ"
      ],
      [
        "Ð¿",
        "Ð¾"
      ],
      [
        "Ð¿",
        "Ð¾Ð»"
      ],
      [
        "Ð¿",
        "Ð¾Ð·Ð²Ð¾Ð»Ñı"
      ],
      [
        "Ð¿",
        "ÑĢÐ°Ð²Ð»ÑıÑİÑĤ"
      ],
      [
        "Ð¿",
        "Ð°Ð´"
      ],
      [
        "ÑĢÐ°Ð",
        "¶Ð°ÐµÑĤ"
      ],
      [
        "ĠÐ²",
        "Ð¾Ñģ"
      ],
      [
        "ĠÐ²",
        "ÐµÑĩ"
      ],
      [
        "ĠÐ²",
        "ÑħÐ¾Ð´"
      ],
      [
        "ĠÐ²",
        "Ð²Ð¾Ð´Ð°"
      ],
      [
        "ĠÐ²",
        "Ð½ÑĥÑĤÑĢÐµÐ½Ð½Ð¸Ð¹"
      ],
      [
        "Ð´",
        "Ð¾Ð±Ð°Ð²Ð»Ñı"
      ],
      [
        "Ð´",
        "Ð¸Ð²Ð¸ÑĤÐµÐ»ÑĮÐ½Ð°"
      ],
      [
        "ĠÐ´",
        "Ð¾Ð»"
      ],
      [
        "ĠÐ´",
        "Ð°ÐµÑĤ"
      ],
      [
        "ÑĢÐ¾",
        "ÑĩÐ½ÑĭÐµ"
      ],
      [
        "Ð½Ð°",
        "ÑħÐ¾Ð´"
      ],
      [
        "Ð¸Ð·",
        "Ð¸ÑĢÑĥ"
      ],
      [
        "ĠÐ·",
        "Ð°"
      ],
      [
        "ÑĥÑĩ",
        "ÐµÐ½Ð¸Ñı"
      ],
      [
        "Ð¾ÑĤ",
        "Ð²ÑĢÐ°Ñī"
      ],
      [
        "ĠÐ¾Ð±",
        "Ð¼ÐµÐ½Ð¸Ð²Ð°ÑĤÑĮ"
      ],
      [
        "ĠÐ¾Ð±",
        "ÑĥÑĩÐµÐ½Ð¸Ñı"
      ],
      [
        "ÑĤÐ¾",
        "Ðµ"
      ],
      [
        "Ð¸Ð²",
        "Ð°ÐµÑĤ"
      ],
      [
        "Ð¾Ñģ",
        "ÑĢÐ¾ÑĩÐ½ÑĭÐµ"
      ],
      [
        "Ð³",
        "Ð¾ÑģÑĢÐ¾ÑĩÐ½ÑĭÐµ"
      ],
      [
        "Ð¸Ñģ",
        "ÑħÐ¾Ð¶Ð´"
      ],
      [
        "ĠÐ¿ÑĢÐ¾",
        "ÑģÑĤÐ°Ñı"
      ],
      [
        "ĠÐ¿ÑĢÐ¾",
        "Ð¸ÑģÑħÐ¾Ð¶Ð´"
      ],
      [
        "ÐµÐ¼",
        "Ñĥ"
      ],
      [
        "ĠÐ³",
        "ÐµÐ½ÐµÑĢ"
      ],
      [
        "ĠÐ³",
        "Ð»Ð¾Ð±Ð°Ð»ÑĮÐ½Ð°Ñı"
      ],
      [
        "ĠÑĥ",
        "ÑģÐº"
      ],
      [
        "ĠÑĥ",
        "Ð¿ÑĢÐ°Ð²Ð»ÑıÑİÑĤ"
      ],
      [
        "ĠÑĥ",
        "Ð´Ð¸Ð²Ð¸ÑĤÐµÐ»ÑĮÐ½Ð°"
      ],
      [
        "ĠÐ½ÐµÐ¹ÑĢÐ¾Ð½",
        "Ð°Ð¼Ð¸"
      ],
      [
        "ĠÐ½ÐµÐ¹ÑĢÐ¾Ð½",
        "Ð½Ð°Ñı"
      ],
      [
        "ĠÐ¸Ð·",
        "Ð¼ÐµÑĢÑıÐµÑĤ"
      ],
      [
        "Ð¸Ñĩ",
        "ÐµÐ½Ð½ÑĭÑħ"
      ],
      [
        "Ð±",
        "Ð¸Ð²Ð°ÐµÑĤ"
      ],
      [
        "ĠÑĢÐ°Ð·",
        "Ð»Ð¸ÑĩÐ°ÑİÑĤ"
      ],
      [
        "ĠÑĤ",
        "Ð¸Ð¿"
      ],
      [
        "ÑĢÐ°Ð½",
        "Ð¸ÑĩÐµÐ½Ð½ÑĭÑħ"
      ],
      [
        "ĠÐ·Ð°Ðº",
        "Ð¾Ð½Ñĭ"
      ],
      [
        "ĠÐ²Ñĭ",
        "Ð¿Ð¾Ð»"
      ],
      [
        "Ð»Ð¾Ð²",
        "ÑĭÐµ"
      ],
      [
        "ĠÐ¸ÑģÐ¿Ð¾Ð»ÑĮÐ·Ñĥ",
        "ÐµÑĤ"
      ],
      [
        "ĠÐ¸ÑģÐ¿Ð¾Ð»ÑĮÐ·Ñĥ",
        "ÑİÑĤ"
      ],
      [
        "ĠÐ¿ÑĢÐµÐ´",
        "Ð²Ð°ÑĢ"
      ],
      [
        "ĠÐ¾ÑĤ",
        "ÑĢÐ¸ÑĨ"
      ],
      [
        "ĠÑģÐ¾",
        "ÑħÑĢÐ°Ð½"
      ],
      [
        "Ð°ÑĤÐµÐ»ÑĮ",
        "Ð½ÑĭÑħ"
      ],
      [
        "ÑģÑĤÐ²ÐµÐ½",
        "Ð½ÑĭÐµ"
      ],
      [
        "ĠÐ¾ÑģÐ½Ð¾Ð²",
        "Ð¾Ð¹"
      ],
      [
        "ĠÐ¾ÑģÐ½Ð¾Ð²",
        "Ð½Ð¾Ðµ"
      ],
      [
        "ĠÐ¿ÐµÑĢ",
        "ÐµÐ¾Ð±ÑĥÑĩÐµÐ½Ð¸Ðµ"
      ],
      [
        "ÑģÐµÑĤ",
        "ÑĮ"
      ],
      [
        "Ð¾ÑĢÑı",
        "Ñı"
      ],
      [
        "ĠÑĩÐ¸Ñģ",
        "Ð»Ð¾Ð²ÑĭÐµ"
      ],
      [
        "ĠÐ¾ÑĢÐ³",
        "Ð°Ð½Ð¸Ð·ÑĥÑİÑĤ"
      ],
      [
        "ĠÐ¿Ð¾Ð¼",
        "Ð¾Ð³Ð°ÑİÑĤ"
      ],
      [
        "ĠÑģÐ»Ð¾Ð¶",
        "Ð½ÑĭÑħ"
      ],
      [
        "ĠÑģÐ»Ð¾Ð¶",
        "Ð½ÑĭÐµ"
      ],
      [
        "ĠÐ¼ÐµÑħÐ°Ð½",
        "Ð¸ÐºÑĥ"
      ],
      [
        "ĠÐ²Ñģ",
        "ÐµÐ¼Ñĥ"
      ],
      [
        "Ð»ÑıÐµÑĤ",
        "ÑģÑı"
      ],
      [
        "Ð¸ÑĤÐµÐ»ÑĮ",
        "Ð½Ð¾Ð¹"
      ],
      [
        "ĠÑħÑĢÐ°Ð½",
        "ÑıÑĤ"
      ],
      [
        "ĠÐ¾Ð±ÑĥÑĩÐ°ÑİÑī",
        "ÑĥÑİ"
      ],
      [
        "ĠÐ²ÑĭÑĩÐ¸Ñģ",
        "Ð»ÑıÐµÑĤ"
      ],
      [
        "ĠÑģÐ¾Ð²",
        "Ð¾ÐºÑĥÐ¿Ð½Ð¾ÑģÑĤÑĮ"
      ],
      [
        "ĠÑģÐ¾Ð²",
        "Ð¿Ð°Ð´"
      ],
      [
        "ĠÐ°ÑĢÑħÐ¸ÑĤÐµÐºÑĤÑĥÑĢ",
        "Ð°"
      ],
      [
        "ĠÐ°ÑĢÑħÐ¸ÑĤÐµÐºÑĤÑĥÑĢ",
        "Ñĥ"
      ],
      [
        "ĠÑĥÑĩÐ¸ÑĤÐµÐ»",
        "Ñı"
      ],
      [
        "ĠÑĥÑĩÐ¸ÑĤÐµÐ»",
        "ÐµÐ¼"
      ],
      [
        "ĠÐ¿ÑĢÐ°Ð²Ð¸Ð»ÑĮ",
        "Ð½ÑĭÐ¹"
      ],
      [
        "ĠÐ¿ÑĢÐ°Ð²Ð¸Ð»ÑĮ",
        "Ð½ÑĭÐ¼Ð¸"
      ],
      [
        "ĠÑģÐ»Ð¾Ð²",
        "Ð°"
      ],
      [
        "ĠÐ¿ÑĢÐ¾ÑģÑĤÑĢÐ°Ð½",
        "ÑģÑĤÐ²ÐµÐ½Ð½ÑĭÐµ"
      ],
      [
        "ĠÐ¿ÑĢÐµÐ´ÑģÑĤÐ°Ð²Ð»Ñı",
        "ÐµÑĤ"
      ],
      [
        "Ad",
        "am"
      ],
      [
        "ĠÐ¾Ð³",
        "ÑĢÐ°Ð½Ð¸ÑĩÐµÐ½Ð½ÑĭÑħ"
      ],
      [
        "ĠÐ¸Ð´",
        "ÐµÐ¹"
      ],
      [
        "ĹÐµÐ¼",
        "Ð»Ð¸"
      ],
      [
        "ÐµÑģÑĤ",
        "ÐµÑģÑĤÐ²ÐµÐ½Ð½Ð¾Ð³Ð¾"
      ],
      [
        "ÑĢÑĭ",
        "ÑĤÐ¾Ðµ"
      ],
      [
        "ÑıÐ²",
        "Ð»ÑıÐµÑĤÑģÑı"
      ],
      [
        "Ð°Ð±Ð¸Ð»",
        "Ð¸Ð·Ð¸ÑĢÑĥ"
      ],
      [
        "ÑģÑĤÐ°Ð½Ð°Ð²",
        "Ð»Ð¸Ð²Ð°ÑĤÑĮ"
      ],
      [
        "ĠÑģÐº",
        "ÑĢÑĭÑĤÐ¾Ðµ"
      ],
      [
        "ĠÑģÐµÐ¼Ð°Ð½ÑĤÐ¸ÑĩÐµÑģÐº",
        "Ð¾Ð¼"
      ],
      [
        "ĠÐ²Ð¾Ñģ",
        "ÑģÑĤÐ°Ð½Ð°Ð²Ð»Ð¸Ð²Ð°ÑĤÑĮ"
      ],
      [
        "ĠÐ²ÐµÑĩ",
        "Ð½ÑĭÐµ"
      ],
      [
        "ĠÐ²ÑħÐ¾Ð´",
        "Ð½ÑĭÑħ"
      ],
      [
        "ĠÐ´Ð¾Ð»",
        "Ð³Ð¾ÑģÑĢÐ¾ÑĩÐ½ÑĭÐµ"
      ],
      [
        "Ð¾ÑĤÐ²ÑĢÐ°Ñī",
        "Ð°ÐµÑĤ"
      ],
      [
        "ĠÐ¾Ð±Ð¼ÐµÐ½Ð¸Ð²Ð°ÑĤÑĮ",
        "ÑģÑı"
      ],
      [
        "ĠÐ¿ÑĢÐ¾Ð¸ÑģÑħÐ¾Ð¶Ð´",
        "ÐµÐ½Ð¸Ðµ"
      ],
      [
        "ĠÐ³ÐµÐ½ÐµÑĢ",
        "Ð¸ÑĢÐ¾Ð²Ð°ÑĤÑĮ"
      ],
      [
        "ĠÑĥÑģÐº",
        "Ð¾ÑĢÑıÑı"
      ],
      [
        "ĠÐ²ÑĭÐ¿Ð¾Ð»",
        "Ð½ÐµÐ½Ð¸Ñı"
      ],
      [
        "ĠÐ¿ÑĢÐµÐ´Ð²Ð°ÑĢ",
        "Ð¸ÑĤÐµÐ»ÑĮÐ½Ð¾Ð¹"
      ],
      [
        "ĠÐ¾ÑĤÑĢÐ¸ÑĨ",
        "Ð°ÑĤÐµÐ»ÑĮÐ½ÑĭÑħ"
      ],
      [
        "ĠÑģÐ¾ÑħÑĢÐ°Ð½",
        "ÐµÐ½Ð¸Ñı"
      ],
      [
        "ĠÑģÐ¾Ð²Ð¿Ð°Ð´",
        "ÐµÐ½Ð¸Ñİ"
      ],
      [
        "Ð°Ð±Ð¸Ð»Ð¸Ð·Ð¸ÑĢÑĥ",
        "ÐµÑĤ"
      ],
      [
        "Ñĭ",
        "ÑĩÐ¸Ñģ"
      ],
      [
        "Ñĩ",
        "ÐµÐ»Ð¾Ð²"
      ],
      [
        "Ð¼",
        "ÐµÐ¶Ð´Ñĥ"
      ],
      [
        "Ð²",
        "Ð¸Ð´Ðµ"
      ],
      [
        "Ð²",
        "ÑĭÑĩÐ¸Ñģ"
      ],
      [
        "Ðº",
        "Ð¾ÑĤÐ¾ÑĢ"
      ],
      [
        "Ð¿",
        "Ð¾Ð¼"
      ],
      [
        "Ð¿",
        "Ð¾ÑĤ"
      ],
      [
        "Ð¾Ð±",
        "ÑĬÐµÐ´Ð¸Ð½ÑıÐµÑĤ"
      ],
      [
        "ÑĥÑĩÐ¸ÑĤ",
        "ÐµÐ»"
      ],
      [
        "Ð¾Ð³ÑĢÐ°Ð¼Ð¼",
        "Ð¸ÑĢÐ¾Ð²Ð°Ð½Ð¸Ðµ"
      ],
      [
        "Ð¿ÑĢÐµÐ´",
        "ÑģÑĤÐ°Ð²Ð»Ñı"
      ],
      [
        "Ð´Ð¾Ð±Ð°Ð²Ð»Ñı",
        "ÐµÑĤ"
      ],
      [
        "Ð½Ð°ÑħÐ¾Ð´",
        "Ð¸ÑĤ"
      ],
      [
        "L",
        "S"
      ],
      [
        "L",
        "U"
      ],
      [
        "R",
        "e"
      ],
      [
        "T",
        "M"
      ],
      [
        "¯",
        "Ð·ÑĭÐº"
      ],
      [
        "²",
        "Ð¸Ñģ"
      ],
      [
        "³",
        "Ñĥ"
      ],
      [
        "¿",
        "ÑĢÐ¾"
      ],
      [
        "Ð",
        "Ĵ"
      ],
      [
        "Ð",
        "Ķ"
      ],
      [
        "Ð",
        "¯Ð·ÑĭÐº"
      ],
      [
        "Ġ",
        "Adam"
      ],
      [
        "Ġ",
        "ÐµÑģÑĤÐµÑģÑĤÐ²ÐµÐ½Ð½Ð¾Ð³Ð¾"
      ],
      [
        "Ġ",
        "ÑıÐ²Ð»ÑıÐµÑĤÑģÑı"
      ],
      [
        "Ð¾",
        "Ðµ"
      ],
      [
        "Ð¾",
        "Ñı"
      ],
      [
        "Ð¾",
        "ÑĦ"
      ],
      [
        "Ð¾",
        "ÐµÐ´Ð¸Ð½Ñı"
      ],
      [
        "Ð¾",
        "ÑĨÐ¸Ð¹"
      ],
      [
        "Ð¾",
        "ÑĩÐ½ÑĭÐµ"
      ],
      [
        "Ð¸",
        "ÑĦ"
      ],
      [
        "Ð½",
        "ÑĤ"
      ],
      [
        "Ð½",
        "ÐµÑĤ"
      ],
      [
        "Ð½",
        "Ð¸Ðµ"
      ],
      [
        "Ð½",
        "Ð°Ðº"
      ],
      [
        "Ð½",
        "ÐºÐ¾Ð´"
      ],
      [
        "ÑĤ",
        "Ð¾ÐºÐµÐ½"
      ],
      [
        "ÑĤ",
        "Ð¸Ð¼Ð¸Ð·"
      ],
      [
        "ÑĢ",
        "Ð¸Ð·"
      ],
      [
        "ÑĢ",
        "Ð¸Ð¼Ð¸"
      ],
      [
        "ĠÐ",
        "ĹÐµÐ¼Ð»Ð¸"
      ],
      [
        "Ð¾Ð",
        "¿ÑĢÐ¾"
      ],
      [
        "Ñģ",
        "Ð¾ÐµÐ´Ð¸Ð½Ñı"
      ],
      [
        "Ð»",
        "Ñİ"
      ],
      [
        "Ð»",
        "Ð³Ð¾ÑĢÐ¸ÑĤ"
      ],
      [
        "ÐµÐ",
        "³Ñĥ"
      ],
      [
        "Ñĩ",
        "ÐµÐ¹"
      ],
      [
        "Ñİ",
        "ÑĨÐ¸"
      ],
      [
        "Ð°Ð½",
        "Ð¸Ðµ"
      ],
      [
        "ÑģÑĤ",
        "Ð¾ÑĢ"
      ],
      [
        "ÑģÑĤ",
        "Ð°ÑĤ"
      ],
      [
        "ÑĮ",
        "Ñı"
      ],
      [
        "Ð¼",
        "Ð½Ð¾Ð³"
      ],
      [
        "Ð¼",
        "Ð±"
      ],
      [
        "Ð¼",
        "Ð¾ÑĨÐ¸Ð¹"
      ],
      [
        "ĠÑģ",
        "ÑħÐ¾Ð´"
      ],
      [
        "ĠÑģ",
        "Ð¾ÑģÑĤ"
      ],
      [
        "ĠÑģ",
        "Ð¸ÑģÑĤÐµÐ¼"
      ],
      [
        "ĠÑģ",
        "Ð¸ÑģÑĤÐµÐ¼Ñĭ"
      ],
      [
        "Ð²",
        "ÐµÑĢ"
      ],
      [
        "Ð²",
        "ÐµÐ´"
      ],
      [
        "Ð²",
        "Ð¾Ð»"
      ],
      [
        "Ð²",
        "Ð¸ÑĤ"
      ],
      [
        "Ð²",
        "ÑĤÐ¾"
      ],
      [
        "Ð²",
        "Ð½Ð¸Ð¼Ð°Ð½Ð¸Ñı"
      ],
      [
        "Ðº",
        "Ð°"
      ],
      [
        "Ðº",
        "Ñĥ"
      ],
      [
        "Ðº",
        "Ð¾Ñģ"
      ],
      [
        "Ðº",
        "Ð¾Ð½"
      ],
      [
        "ÐµÑĤ",
        "Ð¸"
      ],
      [
        "ÐµÑĤ",
        "ÐºÐ¸"
      ],
      [
        "Ð¿",
        "Ð¾ÑģÐ»ÐµÐ´Ð¾Ð²Ð°ÑĤÐµÐ»ÑĮÐ½Ð¾ÑģÑĤÐ¸"
      ],
      [
        "Ð¿",
        "ÑĤÐ¸Ð¼Ð¸Ð·"
      ],
      [
        "Ð¾Ð±",
        "ÑĢÐ°Ð±Ð°ÑĤÑĭÐ²Ð°ÑİÑĤ"
      ],
      [
        "ĠÐ²",
        "Ð¾Ð¿ÑĢÐ¾"
      ],
      [
        "Ð´",
        "Ð¸Ð½"
      ],
      [
        "Ð´",
        "Ð°Ð½Ð½ÑĭÐµ"
      ],
      [
        "Ð´",
        "Ð¾ÑĢÐ¾Ð²"
      ],
      [
        "ĠÐ¼",
        "Ð¾Ð·"
      ],
      [
        "ĠÐ¼",
        "Ð¸ÑĢÑĥ"
      ],
      [
        "Ð¾ÑĢ",
        "ÐºÑĥ"
      ],
      [
        "ÐµÑĢ",
        "Ð½ÐµÑĤ"
      ],
      [
        "Ð¸Ð·",
        "Ð¸ÐºÐ°"
      ],
      [
        "Ð¸Ð·",
        "Ð°ÑĤÐ¾ÑĢ"
      ],
      [
        "Ð¸Ð·",
        "Ð½Ð°Ðº"
      ],
      [
        "Ð°ÑĤ",
        "Ð¸Ð²Ð½ÑĭÐµ"
      ],
      [
        "Ð»Ñı",
        "ÑĢÐ¸Ð·"
      ],
      [
        "Ð¾Ð´",
        "Ð¸ÑĢÐ¾Ð²Ð°Ð½Ð¸Ðµ"
      ],
      [
        "Ð¾Ð¼",
        "Ð¸ÐºÐ°"
      ],
      [
        "Ñį",
        "Ð½ÐºÐ¾Ð´"
      ],
      [
        "ĠÐ·",
        "Ð½Ð°Ð½Ð¸Ð¹"
      ],
      [
        "ĠÐ·",
        "ÑĢÐµÐ½Ð¸Ðµ"
      ],
      [
        "ĠÐ·",
        "Ð´Ð¾ÑĢÐ¾Ð²"
      ],
      [
        "ÐµÐ´",
        "Ð¸ÑĨÐ¸"
      ],
      [
        "ÐµÐ´",
        "Ð´Ð¸Ð½"
      ],
      [
        "Ð¾ÑĤ",
        "ÐµÑħÐ½"
      ],
      [
        "Ð¾Ð·",
        "Ð¸ÑĨÐ¸"
      ],
      [
        "ĠÐº",
        "Ð»Ñİ"
      ],
      [
        "ĠÐº",
        "Ð¾Ð´Ð¸ÑĢÐ¾Ð²Ð°Ð½Ð¸Ðµ"
      ],
      [
        "ĠÑį",
        "Ð¼Ð¾ÑĨÐ¸Ð¹"
      ],
      [
        "ĠÑį",
        "Ð²Ð¾Ð»"
      ],
      [
        "ĠÑį",
        "ÐºÐ¾Ñģ"
      ],
      [
        "ĠÐ·Ð°Ð",
        "²Ð¸Ñģ"
      ],
      [
        "Ð°ÑĨÐ¸",
        "ÐµÐ¹"
      ],
      [
        "Ð°ÑĨÐ¸",
        "Ð¾Ð½"
      ],
      [
        "Ð¾Ñģ",
        "Ð¾ÑĦ"
      ],
      [
        "Ð¸Ðº",
        "Ð°ÑĨÐ¸Ð¸"
      ],
      [
        "Ð³",
        "Ð¸"
      ],
      [
        "Ð³",
        "Ð°"
      ],
      [
        "ĠÐ¿ÑĢ",
        "Ð¸ÑĢÐ¾Ð´"
      ],
      [
        "ĠÐ¿ÑĢ",
        "Ð¸Ð·Ð½Ð°Ðº"
      ],
      [
        "ÐµÐ¹ÑĢÐ¾Ð½",
        "Ð½ÑĭÐµ"
      ],
      [
        "Ð¾ÑĢÐ¼",
        "Ð°Ð»Ð¸Ð·"
      ],
      [
        "ÑĥÐº",
        "ÑĤÑĥÑĢ"
      ],
      [
        "ĠÑĢ",
        "Ð¾Ð±Ð¾ÑĤ"
      ],
      [
        "ÐµÑħ",
        "Ð°Ð½Ð¸Ð·Ð¼"
      ],
      [
        "ĠÐ¼Ð¾Ð´",
        "Ð¸ÑĦ"
      ],
      [
        "Ð¾Ð½",
        "Ð½Ð¾Ðµ"
      ],
      [
        "Ð±",
        "Ð¾ÑĢÐºÑĥ"
      ],
      [
        "ĠÑĢÐ°Ð·",
        "Ð±Ð¸Ð²Ð°ÐµÑĤ"
      ],
      [
        "ĠÑĢÐ°Ð·",
        "Ð²Ð¸ÑĤ"
      ],
      [
        "ĠÑĤ",
        "ÑĢÐ°Ð½ÑģÑĦÐ¾ÑĢÐ¼ÐµÑĢ"
      ],
      [
        "Ð¸Ð»",
        "Ð¾ÑģÐ¾ÑĦ"
      ],
      [
        "ĠÐ¸Ð½ÑĦÐ¾ÑĢÐ¼",
        "Ð°ÑĨÐ¸ÐµÐ¹"
      ],
      [
        "ĠÐ²Ñĭ",
        "Ð²Ð¾Ð´Ð°"
      ],
      [
        "ĠÐ²Ñĭ",
        "Ð±Ð¾ÑĢÐºÑĥ"
      ],
      [
        "ÑĢÐ°",
        "ÑģÐ¿"
      ],
      [
        "ĠÐ¿ÑĢÐµÐ´",
        "Ð¾ÑĤÐ²ÑĢÐ°ÑīÐ°ÐµÑĤ"
      ],
      [
        "Ð»ÐµÐ½",
        "Ð¸Ð¹"
      ],
      [
        "ÑĢÐ°Ð±Ð¾ÑĤ",
        "ÐºÐ°"
      ],
      [
        "Ð¾ÐºÐµÐ½",
        "Ð¸Ð·Ð°ÑĤÐ¾ÑĢ"
      ],
      [
        "ĠÐ¾ÑĤ",
        "ÑĢÐ°Ð¶Ð°ÐµÑĤ"
      ],
      [
        "ĠÐ²Ð¸Ð´Ðµ",
        "Ð¾"
      ],
      [
        "ÑĤÐ¾Ñĩ",
        "Ð½ÑĭÐµ"
      ],
      [
        "ĠÑģÐ¿",
        "ÑĥÑģÐº"
      ],
      [
        "Ðŀ",
        "Ð¿ÐµÑĢ"
      ],
      [
        "Ðŀ",
        "ÑģÑĤÐ°ÑĤ"
      ],
      [
        "Ðŀ",
        "Ð¿ÑĤÐ¸Ð¼Ð¸Ð·"
      ],
      [
        "Ð»ÑĥÐ±Ð¾Ðº",
        "Ð¾Ðµ"
      ],
      [
        "Ð½Ð¸Ð¼",
        "Ð°Ð½Ð¸Ðµ"
      ],
      [
        "Ð°Ð·",
        "Ñĭ"
      ],
      [
        "ĠÑģÐ»Ð¾Ð¶",
        "Ð½Ð¾ÑģÑĤÑĮ"
      ],
      [
        "Ð¾Ð»Ð¾Ð³",
        "Ð¸Ð¸"
      ],
      [
        "Ð¸ÑģÐº",
        "ÑĢÐ¸Ð¼Ð¸"
      ],
      [
        "Ð¡",
        "ÑĤÑĢ"
      ],
      [
        "Ð¡",
        "ÐµÐ¼Ð°Ð½ÑĤÐ¸ÑĩÐµÑģÐº"
      ],
      [
        "Ð¡",
        "Ð²ÐµÑĢ"
      ],
      [
        "Ð¡",
        "ÐµÑĤÐ¸"
      ],
      [
        "Ð¤",
        "Ð¸Ð·Ð¸ÐºÐ°"
      ],
      [
        "Ð¤",
        "Ð¸Ð»Ð¾ÑģÐ¾ÑĦ"
      ],
      [
        "Ðĵ",
        "ÑĢÐ°Ð´Ð¸ÐµÐ½ÑĤ"
      ],
      [
        "Ðĵ",
        "ÑĢÐ°ÑĦ"
      ],
      [
        "Ðĵ",
        "ÐµÐ½ÐµÑĢ"
      ],
      [
        "Ðĵ",
        "Ð»ÑĥÐ±Ð¾ÐºÐ¾Ðµ"
      ],
      [
        "Ðľ",
        "Ð°ÑĤÐµÐ¼Ð°ÑĤ"
      ],
      [
        "Ðľ",
        "Ð°ÑĪÐ¸Ð½"
      ],
      [
        "Ðľ",
        "ÐµÐ´Ð¸ÑĨÐ¸"
      ],
      [
        "Ðľ",
        "ÐµÑħÐ°Ð½Ð¸Ð·Ð¼"
      ],
      [
        "Ð²Ð°Ð½ÑĤÐ¾Ð²",
        "ÑĭÐµ"
      ],
      [
        "ÐµÐºÑĥÑĢÑĢÐµÐ½ÑĤ",
        "Ð½ÑĭÐµ"
      ],
      [
        "ĠÑģÑĤ",
        "Ð°Ð±Ð¸Ð»Ð¸Ð·Ð¸ÑĢÑĥÐµÑĤ"
      ],
      [
        "ĠÐ²ÐµÐºÑĤ",
        "Ð¾ÑĢÑĭ"
      ],
      [
        "ĠÑĢÐ°Ð·Ð¼",
        "ÐµÑĤÐºÐ¸"
      ],
      [
        "ĠÑĤÐµÐºÑģÑĤ",
        "Ð°"
      ],
      [
        "ÑģÐºÑĥÑģ",
        "ÑģÑĤÐ²Ð¾"
      ],
      [
        "ĠÐ²ÑĭÑĩÐ¸Ñģ",
        "Ð»ÐµÐ½Ð¸Ñı"
      ],
      [
        "ĠÐ²ÑĭÑĩÐ¸Ñģ",
        "Ð»ÐµÐ½Ð¸Ð¹"
      ],
      [
        "Ð¸Ð¾Ð»Ð¾Ð³",
        "Ð¸Ñı"
      ],
      [
        "ĠÑģÐ²ÑıÐ·",
        "Ð¸"
      ],
      [
        "ĠÐ¼Ð¸ÑĢ",
        "Ð°"
      ],
      [
        "Ð½Ð°ÑĤ",
        "Ð¸Ð²Ð½ÑĭÐµ"
      ],
      [
        "ĠÐ¿ÑĢÐ¾Ð¸Ð·",
        "Ð²ÐµÐ´"
      ],
      [
        "ĠÑĢÐµÑģÑĥÑĢ",
        "ÑģÐ¾Ð²"
      ],
      [
        "Ð¢",
        "ÐµÑħÐ½"
      ],
      [
        "Ð¢",
        "ÑĢÐ°Ð½ÑģÑĦÐ¾ÑĢÐ¼ÐµÑĢ"
      ],
      [
        "Ð¢",
        "Ð¾ÐºÐµÐ½Ð¸Ð·Ð°ÑĤÐ¾ÑĢ"
      ],
      [
        "Ðĺ",
        "Ð½ÑĤ"
      ],
      [
        "Ðĺ",
        "ÑģÑĤÐ¾ÑĢ"
      ],
      [
        "Ðĺ",
        "ÑģÐºÑĥÑģÑģÑĤÐ²Ð¾"
      ],
      [
        "Ðļ",
        "Ð²Ð°Ð½ÑĤÐ¾Ð²ÑĭÐµ"
      ],
      [
        "ÐŁ",
        "Ð¾Ð·Ð¸ÑĨÐ¸"
      ],
      [
        "Ðł",
        "Ð¾Ð±Ð¾ÑĤ"
      ],
      [
        "Ðł",
        "ÐµÐ³Ñĥ"
      ],
      [
        "Ðł",
        "ÐµÐºÑĥÑĢÑĢÐµÐ½ÑĤÐ½ÑĭÐµ"
      ],
      [
        "ÐŀÐ±",
        "ÑĢÐ°Ð±Ð¾ÑĤÐºÐ°"
      ],
      [
        "Ð¿ÐµÑĢ",
        "ÐµÐ´Ð°ÑĩÐ¸"
      ],
      [
        "ĠÐ¿ÑĢÐ¾ÑģÑĤÑĢÐ°Ð½",
        "ÑģÑĤÐ²Ðµ"
      ],
      [
        "ĠÐ¿ÑĢÐµÐ´ÑģÑĤÐ°Ð²Ð»Ñı",
        "ÑİÑĤ"
      ],
      [
        "ÐĲ",
        "Ð»Ð³Ð¾ÑĢÐ¸ÑĤ"
      ],
      [
        "ÐĲ",
        "Ð²ÑĤÐ¾"
      ],
      [
        "Ðĳ",
        "Ð°Ð·Ñĭ"
      ],
      [
        "Ðĳ",
        "Ð¸Ð¾Ð»Ð¾Ð³Ð¸Ñı"
      ],
      [
        "ÐĿ",
        "ÐµÐ¹ÑĢÐ¾Ð½Ð½ÑĭÐµ"
      ],
      [
        "ÐĿ",
        "Ð¾ÑĢÐ¼Ð°Ð»Ð¸Ð·"
      ],
      [
        "ÐŃ",
        "Ð¼Ð±"
      ],
      [
        "ÐŃ",
        "ÐºÐ¾Ð½"
      ],
      [
        "Ð¼ÐµÑħ",
        "Ð°Ð½"
      ],
      [
        "Ð¼ÐµÑħ",
        "Ð°Ð½Ð¸Ð·Ð¼"
      ],
      [
        "Ð¸Ð·ÑĥÑĩÐ°",
        "ÐµÑĤ"
      ],
      [
        "Ð¸Ð¼Ð¾ÑģÑĤ",
        "Ð¸"
      ],
      [
        "Ð¸Ð¼Ð¾ÑģÑĤ",
        "ÑĮ"
      ],
      [
        "Ð¸ÑĢÐ¾Ð´",
        "Ð°"
      ],
      [
        "ĠÐ¾ÑĤÐ²ÐµÑĤ",
        "Ð°Ð¼Ð¸"
      ],
      [
        "ÐļÐ¾Ð¼Ð¿ÑĮÑİÑĤÐµÑĢ",
        "Ñĭ"
      ],
      [
        "ÐļÐ¾Ð¼Ð¿ÑĮÑİÑĤÐµÑĢ",
        "Ð½Ð¾Ðµ"
      ],
      [
        "ÐŁÑĢ",
        "Ð¾Ð³ÑĢÐ°Ð¼Ð¼Ð¸ÑĢÐ¾Ð²Ð°Ð½Ð¸Ðµ"
      ],
      [
        "ÐŁÑĢ",
        "Ð¸ÑĢÐ¾Ð´Ð°"
      ],
      [
        "LS",
        "TM"
      ],
      [
        "Re",
        "LU"
      ],
      [
        "ÐĴ",
        "Ð½Ð¸Ð¼Ð°Ð½Ð¸Ðµ"
      ],
      [
        "ÐĶ",
        "Ð¸ÑģÐºÑĢÐ¸Ð¼Ð¸"
      ],
      [
        "Ð¾Ñı",
        "Ð½Ð¸Ðµ"
      ],
      [
        "ÑİÑĨÐ¸",
        "Ñİ"
      ],
      [
        "ĠÑģÑħÐ¾Ð´",
        "Ð¸Ð¼Ð¾ÑģÑĤÑĮ"
      ],
      [
        "ĠÑģÐ¾ÑģÑĤ",
        "Ð¾ÑıÐ½Ð¸Ðµ"
      ],
      [
        "ĠÐ²Ð¾Ð¿ÑĢÐ¾",
        "ÑģÑĭ"
      ],
      [
        "ĠÐ¼Ð¾Ð·",
        "Ð³Ð°"
      ],
      [
        "Ð»ÑıÑĢÐ¸Ð·",
        "Ð°ÑĨÐ¸Ñı"
      ],
      [
        "ÑįÐ½ÐºÐ¾Ð´",
        "ÐµÑĢ"
      ],
      [
        "ĠÐ·Ð´Ð¾ÑĢÐ¾Ð²",
        "ÑĮÑı"
      ],
      [
        "ÐµÐ´Ð´Ð¸Ð½",
        "Ð³Ð¸"
      ],
      [
        "Ð¾ÑĤÐµÑħÐ½",
        "Ð¸ÐºÐ°"
      ],
      [
        "ĠÐºÐ»Ñİ",
        "ÑĩÐµÐ¹"
      ],
      [
        "ĠÑįÐ²Ð¾Ð»",
        "ÑİÑĨÐ¸Ñİ"
      ],
      [
        "ĠÑįÐºÐ¾Ñģ",
        "Ð¸ÑģÑĤÐµÐ¼Ñĭ"
      ],
      [
        "ĠÐ·Ð°Ð²Ð¸Ñģ",
        "Ð¸Ð¼Ð¾ÑģÑĤÐ¸"
      ],
      [
        "Ð°ÑĨÐ¸Ð¾Ð½",
        "Ð½ÑĭÐµ"
      ],
      [
        "ĠÐ¿ÑĢÐ¸ÑĢÐ¾Ð´",
        "Ðµ"
      ],
      [
        "ĠÐ¿ÑĢÐ¸Ð·Ð½Ð°Ðº",
        "Ð¸"
      ],
      [
        "ÑĥÐºÑĤÑĥÑĢ",
        "Ñĭ"
      ],
      [
        "ĠÑĢÐ¾Ð±Ð¾ÑĤ",
        "Ð¾Ð²"
      ],
      [
        "ĠÐ¼Ð¾Ð´Ð¸ÑĦ",
        "Ð¸ÐºÐ°ÑĨÐ¸Ð¸"
      ],
      [
        "ĠÑĢÐ°Ð·Ð²Ð¸ÑĤ",
        "Ð¸Ñı"
      ],
      [
        "ĠÑĤÑĢÐ°Ð½ÑģÑĦÐ¾ÑĢÐ¼ÐµÑĢ",
        "Ð°"
      ],
      [
        "ÐŀÐ¿ÐµÑĢ",
        "Ð°ÑĨÐ¸Ð¾Ð½Ð½ÑĭÐµ"
      ],
      [
        "ÐŀÑģÑĤÐ°ÑĤ",
        "Ð¾ÑĩÐ½ÑĭÐµ"
      ],
      [
        "ÐŀÐ¿ÑĤÐ¸Ð¼Ð¸Ð·",
        "Ð°ÑĤÐ¾ÑĢ"
      ],
      [
        "Ð¡ÑĤÑĢ",
        "ÑĥÐºÑĤÑĥÑĢÑĭ"
      ],
      [
        "Ð¡ÐµÐ¼Ð°Ð½ÑĤÐ¸ÑĩÐµÑģÐº",
        "Ð¸Ð¹"
      ],
      [
        "Ð¡Ð²ÐµÑĢ",
        "ÑĤÐ¾ÑĩÐ½ÑĭÐµ"
      ],
      [
        "Ð¤Ð¸Ð»Ð¾ÑģÐ¾ÑĦ",
        "Ð¸Ñı"
      ],
      [
        "ÐĵÑĢÐ°Ð´Ð¸ÐµÐ½ÑĤ",
        "Ð½ÑĭÐ¹"
      ],
      [
        "ÐĵÐµÐ½ÐµÑĢ",
        "Ð°ÑĤÐ¸Ð²Ð½ÑĭÐµ"
      ],
      [
        "ÐľÐ°ÑĤÐµÐ¼Ð°ÑĤ",
        "Ð¸ÐºÐ°"
      ],
      [
        "ÐľÐ°ÑĪÐ¸Ð½",
        "Ð½Ð¾Ðµ"
      ],
      [
        "ÐľÐµÐ´Ð¸ÑĨÐ¸",
        "Ð½Ð°"
      ],
      [
        "ĠÐ¿ÑĢÐ¾Ð¸Ð·Ð²ÐµÐ´",
        "ÐµÐ½Ð¸Ñı"
      ],
      [
        "Ð¢ÐµÑħÐ½",
        "Ð¾Ð»Ð¾Ð³Ð¸Ð¸"
      ],
      [
        "ÐĺÐ½ÑĤ",
        "ÐµÑĢÐ½ÐµÑĤ"
      ],
      [
        "ÐĺÑģÑĤÐ¾ÑĢ",
        "Ð¸Ñı"
      ],
      [
        "ÐŁÐ¾Ð·Ð¸ÑĨÐ¸",
        "Ð¾Ð½Ð½Ð¾Ðµ"
      ],
      [
        "ÐłÐ¾Ð±Ð¾ÑĤ",
        "Ð¾ÑĤÐµÑħÐ½Ð¸ÐºÐ°"
      ],
      [
        "ÐłÐµÐ³Ñĥ",
        "Ð»ÑıÑĢÐ¸Ð·Ð°ÑĨÐ¸Ñı"
      ],
      [
        "ÐĲÐ»Ð³Ð¾ÑĢÐ¸ÑĤ",
        "Ð¼Ñĭ"
      ],
      [
        "ÐĲÐ²ÑĤÐ¾",
        "ÑįÐ½ÐºÐ¾Ð´ÐµÑĢ"
      ],
      [
        "ÐĿÐ¾ÑĢÐ¼Ð°Ð»Ð¸Ð·",
        "Ð°ÑĨÐ¸Ñı"
      ],
      [
        "ÐŃÐ¼Ð±",
        "ÐµÐ´Ð´Ð¸Ð½Ð³Ð¸"
      ],
      [
        "ÐŃÐºÐ¾Ð½",
        "Ð¾Ð¼Ð¸ÐºÐ°"
      ],
      [
        "ÐĶÐ¸ÑģÐºÑĢÐ¸Ð¼Ð¸",
        "Ð½Ð°ÑĤÐ¸Ð²Ð½ÑĭÐµ"
      ],
      [
        "Ð",
        "ĹÐµÐ¼Ð»Ð¸"
      ],
      [
        "Ð½",
        "ÐµÐ»Ð¸Ð½ÐµÐ¹Ð½Ð¾ÑģÑĤÑĮ"
      ],
      [
        "Ð°",
        "ÑĢÑħÐ¸ÑĤÐµÐºÑĤÑĥÑĢ"
      ],
      [
        "ÑĤ",
        "Ð¸Ð¿"
      ],
      [
        "ÑĤ",
        "ÐµÐºÑģÑĤ"
      ],
      [
        "ÑĤ",
        "ÐµÐ»Ð»ÐµÐºÑĤÐ°"
      ],
      [
        "ÑĤ",
        "ÑĢÐµÐ±ÑĥÐµÑĤ"
      ],
      [
        "ÑĢ",
        "ÐµÑģÑĥÑĢ"
      ],
      [
        "ÑĢ",
        "ÐµÐºÑĥÑĢÑĢÐµÐ½ÑĤÐ½Ð¾Ð¹"
      ],
      [
        "Ñģ",
        "ÐµÑħ"
      ],
      [
        "Ñģ",
        "Ð»Ð¾Ð²"
      ],
      [
        "Ñģ",
        "Ð²ÑıÐ·"
      ],
      [
        "Ñģ",
        "Ð¼ÑĭÑģÐ»Ñĥ"
      ],
      [
        "Ñģ",
        "ÑĥÐ¼Ð¼Ñĥ"
      ],
      [
        "Ñģ",
        "ÑĢÐµÐ´ÑģÑĤÐ²Ð¾"
      ],
      [
        "Ñģ",
        "Ð¸ÑģÑĤÐµÐ¼Ñĭ"
      ],
      [
        "Ð»",
        "ÑİÐ´ÑĮÐ¼Ð¸"
      ],
      [
        "Ñĥ",
        "Ð·Ð»Ð¾Ð²"
      ],
      [
        "ÑģÑĤ",
        "Ð°Ð±Ð¸Ð»Ð¸Ð·Ð¸ÑĢÑĥÐµÑĤ"
      ],
      [
        "Ð¼",
        "Ð¸ÑĢ"
      ],
      [
        "Ð¼",
        "Ð°ÑĤÐµÑĢÐ¸Ð¸"
      ],
      [
        "Ð¼",
        "ÐµÑĩÐµÐ½Ð½ÑĭÑħ"
      ],
      [
        "Ð¼",
        "Ð°ÑĤÐµÐ¼Ð°ÑĤÐ¸ÑĩÐµÑģÐºÐ¸Ðµ"
      ],
      [
        "Ð¼",
        "Ð°ÑĪÐ¸Ð½Ð°Ð¼"
      ],
      [
        "Ð¼",
        "ÐµÑĤÐ¾Ð´Ð¾Ð²"
      ],
      [
        "Ð²",
        "Ð·"
      ],
      [
        "Ð²",
        "Ð½ÑĥÑĤÑĢÐµÐ½Ð½Ð¸Ð¹"
      ],
      [
        "Ð²",
        "ÑģÐµÑħ"
      ],
      [
        "Ðº",
        "Ð»Ð°ÑģÑģÑĭ"
      ],
      [
        "Ð¿",
        "Ð¾Ð·Ð½Ð°Ð½Ð¸Ñı"
      ],
      [
        "Ð¿",
        "ÑĢÐ°ÐºÑĤÐ¸ÐºÐ°"
      ],
      [
        "Ð¾Ð±",
        "ÐµÑģÐ¿ÐµÑĩÐ¸Ð²"
      ],
      [
        "Ð´",
        "Ð°ÐµÑĤ"
      ],
      [
        "Ð´",
        "Ð¸Ð°Ð³Ð½Ð¾ÑģÑĤÐ¸ÐºÐ¸"
      ],
      [
        "Ð´",
        "Ð²Ð¸Ð¶ÐµÐ½Ð¸Ñı"
      ],
      [
        "Ð´",
        "Ð¾ÐºÑĥÐ¼ÐµÐ½ÑĤÑĭ"
      ],
      [
        "Ð½Ð°",
        "ÑĥÐº"
      ],
      [
        "Ð½Ð°",
        "Ð¸Ð±Ð¾Ð»ÐµÐµ"
      ],
      [
        "ÑĦ",
        "Ð¾ÐºÑĥÑģÐ¸ÑĢÐ¾Ð²Ð°ÑĤÑĮÑģÑı"
      ],
      [
        "ÑĦ",
        "ÑĥÐ½ÐºÑĨÐ¸Ñı"
      ],
      [
        "Ð¸Ð·",
        "Ð²Ð¾Ð´ÑģÑĤÐ²Ðµ"
      ],
      [
        "Ð¸Ð·",
        "Ð¼ÐµÑĢÑıÐµÑĤ"
      ],
      [
        "Ñį",
        "Ð½ÐµÑĢÐ³Ð¸Ð¸"
      ],
      [
        "Ñį",
        "Ð»ÐµÐºÑĤÑĢÐ¾Ð½Ð¸ÐºÑĥ"
      ],
      [
        "Ð·",
        "Ð½Ð°ÑĩÐµÐ½Ð¸Ð¹"
      ],
      [
        "Ð·",
        "Ð½Ð°Ð½Ð¸Ð¹"
      ],
      [
        "Ð·",
        "ÑĢÐµÐ½Ð¸Ðµ"
      ],
      [
        "Ð¾ÑĤ",
        "Ð»Ð¸ÑĩÐ½Ð¾"
      ],
      [
        "Ð¾ÑĤ",
        "ÑĢÐ°Ð¶Ð°ÐµÑĤ"
      ],
      [
        "Ð¸Ð½",
        "ÑģÑĤÑĢÑĥÐºÑĨÐ¸Ð¹"
      ],
      [
        "Ð¸Ð½",
        "ÑĤÐµÐ»Ð»ÐµÐºÑĤÐ°"
      ],
      [
        "Ð³",
        "Ð´Ðµ"
      ],
      [
        "Ð³",
        "ÑĢÐ°Ð´Ð¸ÐµÐ½ÑĤÐ°Ð¼"
      ],
      [
        "Ð³",
        "Ð»Ð¾Ð±Ð°Ð»ÑĮÐ½Ð°Ñı"
      ],
      [
        "ÑĢÐ°Ð·",
        "Ð´ÐµÐ»"
      ],
      [
        "ÑĢÐ°Ð·",
        "Ð½Ð¾Ð¾Ð±ÑĢÐ°Ð·Ð½Ð°"
      ],
      [
        "ÑĢÐ°Ð·",
        "Ð½Ð¸ÑĨÑĥ"
      ],
      [
        "ÑĢÐ°Ð·",
        "Ð»Ð¸ÑĩÐ°ÑİÑĤ"
      ],
      [
        "ÑĢÐ°Ð·",
        "Ð±Ð¸Ð²Ð°ÐµÑĤ"
      ],
      [
        "ÑĢÐ°Ð·",
        "Ð¼ÐµÑĩÐµÐ½Ð½ÑĭÑħ"
      ],
      [
        "ÑģÐ¿",
        "Ð¾ÑģÐ¾Ð±"
      ],
      [
        "ÑģÐ¿",
        "ÑĥÑģÐº"
      ],
      [
        "Ð±",
        "ÑĭÑĤÐ¸Ñı"
      ],
      [
        "Ð±",
        "ÐµÐ·"
      ],
      [
        "Ð½Ð¾Ð²",
        "ÑĭÐµ"
      ],
      [
        "ÑĥÑģ",
        "ÑģÑĤÐ²ÐµÐ½Ð½Ð¾Ð³Ð¾"
      ],
      [
        "ÑĥÐ¿",
        "ÑĢÐ°Ð²Ð»ÑıÑİÑĤ"
      ],
      [
        "Ð¾ÑģÐ½Ð¾Ð²",
        "Ð¾Ð¹"
      ],
      [
        "Ð¾ÑģÐ½Ð¾Ð²",
        "Ð½Ð¾Ðµ"
      ],
      [
        "Ð³Ð¾ÑĢ",
        "Ñĭ"
      ],
      [
        "Ð¶",
        "Ð¸Ð²ÑĭÑħ"
      ],
      [
        "ÑģÐ»Ñĥ",
        "Ð¶Ð¸ÑĤ"
      ],
      [
        "ÑĤÐ¾Ñĩ",
        "Ð½ÑĭÑħ"
      ],
      [
        "Ð°Ð»Ð³Ð¾ÑĢÐ¸ÑĤ",
        "Ð¼"
      ],
      [
        "ÑĩÐ¸Ñģ",
        "Ð»Ð°"
      ],
      [
        "Ð¾ÑĢÐ³",
        "Ð°Ð½Ð¸Ð·Ð¼Ð°Ñħ"
      ],
      [
        "Ð¾ÑĢÐ³",
        "Ð°Ð½Ð¸Ð·ÑĥÑİÑĤ"
      ],
      [
        "Ð¿ÑĢÐ¾",
        "ÑĪÐ»Ð¾Ð¼"
      ],
      [
        "Ð¿ÑĢÐ¾",
        "ÑģÑĤÐ°Ñı"
      ],
      [
        "Ð¿ÑĢÐ¾",
        "Ð¸Ð·Ð²Ð¾Ð´ÑģÑĤÐ²Ðµ"
      ],
      [
        "Ð½ÐµÐ¹ÑĢÐ¾Ð½",
        "Ð½ÑĥÑİ"
      ],
      [
        "Ð½ÐµÐ¹ÑĢÐ¾Ð½",
        "Ð½Ð¾Ð¹"
      ],
      [
        "Ð½ÐµÐ¹ÑĢÐ¾Ð½",
        "Ð½Ð°Ñı"
      ],
      [
        "Ð¸ÑģÐº",
        "ÑĥÑģÑģÑĤÐ²ÐµÐ½Ð½Ð¾Ð³Ð¾"
      ],
      [
        "ÑģÐ¾Ð²",
        "Ð¾ÐºÑĥÐ¿Ð½Ð¾ÑģÑĤÑĮ"
      ],
      [
        "ÑĥÐ´",
        "Ð¸Ð²Ð¸ÑĤÐµÐ»ÑĮÐ½Ð°"
      ],
      [
        "ÑħÑĢÐ°Ð½",
        "ÐµÐ½Ð¸Ðµ"
      ],
      [
        "ÑħÑĢÐ°Ð½",
        "ÑıÑĤ"
      ],
      [
        "Ð¿ÐµÑĢ",
        "ÐµÐ¾Ð±ÑĥÑĩÐµÐ½Ð¸Ðµ"
      ],
      [
        "Ð¸Ð½ÑĦÐ¾ÑĢÐ¼",
        "Ð°ÑĨÐ¸Ð¸"
      ],
      [
        "Ð¿ÑĢÐµÐ´",
        "Ð¾ÑĤÐ²ÑĢÐ°ÑīÐ°ÐµÑĤ"
      ],
      [
        "Ð¿ÑĢÐ¾ÑĨÐµÑģÑģ",
        "Ð¾Ð²"
      ],
      [
        "Ð¿ÑĢÐ¾ÑĨÐµÑģÑģ",
        "Ð¾ÑĢÐ°"
      ],
      [
        "Ð¿ÑĢ",
        "Ð¸Ð½ÑĨÐ¸Ð¿Ñĭ"
      ],
      [
        "Ð¾Ð±Ñī",
        "ÐµÐ½Ð¸Ñı"
      ],
      [
        "Ð¾Ð±Ñī",
        "Ð¸Ñħ"
      ],
      [
        "Ð¾Ð±Ñī",
        "ÐµÑģÑĤÐ²Ð°"
      ],
      [
        "Ð¸Ð·ÑĥÑĩÐ°",
        "ÑİÑīÐ°Ñı"
      ],
      [
        "Ð·Ð°Ðº",
        "Ð¾Ð½Ð¾Ð¼ÐµÑĢÐ½Ð¾ÑģÑĤÐ¸"
      ],
      [
        "Ð·Ð°Ðº",
        "Ð¾Ð½Ñĭ"
      ],
      [
        "Ð·Ð°Ðº",
        "Ð¾Ð½Ð°Ñħ"
      ],
      [
        "Ð¸ÑģÐ¿Ð¾Ð»ÑĮÐ·Ñĥ",
        "ÐµÑĤ"
      ],
      [
        "Ð¸ÑģÐ¿Ð¾Ð»ÑĮÐ·Ñĥ",
        "ÑİÑĤ"
      ],
      [
        "Ð¸ÑģÐ¿Ð¾Ð»ÑĮÐ·Ñĥ",
        "ÑİÑīÐ°Ñı"
      ],
      [
        "ÑģÐ¾Ð·Ð´",
        "Ð°ÑİÑĤ"
      ],
      [
        "ÑģÐ¾Ð·Ð´",
        "Ð°Ð½Ð¸Ñı"
      ],
      [
        "ÐºÐ¾Ð´",
        "Ð¸ÑĢÐ¾Ð²Ð°Ð½Ð¸Ðµ"
      ],
      [
        "ÐºÐ¾Ð¼Ð¿ÑĮÑİÑĤÐµÑĢ",
        "Ð°"
      ],
      [
        "ÐºÐ¾Ð¼Ð¿ÑĮÑİÑĤÐµÑĢ",
        "Ð½ÑĭÑħ"
      ],
      [
        "Ð¿Ð¾",
        "Ð¸ÑģÐº"
      ],
      [
        "Ð¿Ð¾Ð·Ð²Ð¾Ð»Ñı",
        "ÐµÑĤ"
      ],
      [
        "Ð¿Ð¾Ð·Ð²Ð¾Ð»Ñı",
        "ÑİÑīÐ¸Ð¹"
      ],
      [
        "ÑĩÐµÐ»Ð¾Ð²",
        "ÐµÑĩÐµÑģÐºÐ¾Ð³Ð¾"
      ],
      [
        "ÑĩÐµÐ»Ð¾Ð²",
        "ÐµÐºÐ°"
      ],
      [
        "Ð²ÑĭÑĩÐ¸Ñģ",
        "Ð»ÑıÐµÑĤ"
      ],
      [
        "Ð²ÑĭÑĩÐ¸Ñģ",
        "Ð»ÐµÐ½Ð¸Ñı"
      ],
      [
        "ÐºÐ¾ÑĤÐ¾ÑĢ",
        "Ð°Ñı"
      ],
      [
        "ÐºÐ¾ÑĤÐ¾ÑĢ",
        "ÑĭÐµ"
      ],
      [
        "Ð¿Ð¾Ð¼",
        "Ð¾ÑīÑĮÑİ"
      ],
      [
        "Ð¿Ð¾Ð¼",
        "Ð¾Ð³Ð°ÑİÑĤ"
      ],
      [
        "Ð¿Ð¾ÑĤ",
        "ÑĢÐµÐ±Ð»ÐµÐ½Ð¸Ð¸"
      ],
      [
        "Ð¿Ð¾ÑĤ",
        "ÐµÑĢÑĮ"
      ],
      [
        "ÑĥÑĩÐ¸ÑĤÐµÐ»",
        "Ñı"
      ],
      [
        "ÑĥÑĩÐ¸ÑĤÐµÐ»",
        "ÐµÐ¼"
      ],
      [
        "Ð¿ÑĢÐµÐ´ÑģÑĤÐ°Ð²Ð»Ñı",
        "ÐµÑĤ"
      ],
      [
        "Ð¿ÑĢÐµÐ´ÑģÑĤÐ°Ð²Ð»Ñı",
        "ÑİÑĤ"
      ],
      [
        "ÑĤÐ¾ÐºÐµÐ½",
        "Ñĭ"
      ],
      [
        "ÑģÐ¾ÐµÐ´Ð¸Ð½Ñı",
        "ÑİÑīÐ°Ñı"
      ],
      [
        "Ð¼Ð½Ð¾Ð³",
        "Ð¾ÑģÐ»Ð¾Ð¹Ð½ÑĭÐµ"
      ],
      [
        "ÑĢÐ°ÑģÐ¿",
        "ÑĢÐµÐ´ÐµÐ»ÐµÐ½Ð¸Ð¸"
      ],
      [
        "Ð¼ÐµÑħÐ°Ð½",
        "Ð¸ÐºÑĥ"
      ],
      [
        "Ð°ÑĢÑħÐ¸ÑĤÐµÐºÑĤÑĥÑĢ",
        "Ð°"
      ],
      [
        "ÑĢÐµÑģÑĥÑĢ",
        "ÑģÐ°Ð¼Ð¸"
      ],
      [
        "ÑģÐ»Ð¾Ð²",
        "Ð°"
      ],
      [
        "ÑģÐ²ÑıÐ·",
        "Ð¸"
      ],
      [
        "Ð²Ð·",
        "Ð²ÐµÑĪÐµÐ½Ð½ÑĥÑİ"
      ],
      [
        "Ð½",
        "Ðµ"
      ],
      [
        "Ð½",
        "Ð¾Ð»ÑĮ"
      ],
      [
        "ÑĢ",
        "ÐµÑĪÐµÐ½Ð¸Ñı"
      ],
      [
        "Ð¾Ð",
        "¿ÑĤÐ¸Ð¼Ð¸Ð·Ð°ÑĨÐ¸Ð¸"
      ],
      [
        "Ñģ",
        "Ð¾Ð±ÑĭÑĤÐ¸Ñı"
      ],
      [
        "Ñģ",
        "Ð¶Ð¸Ð¼Ð°ÑĤÑĮ"
      ],
      [
        "Ð»",
        "ÐµÑĩÐµÐ½Ð¸Ñı"
      ],
      [
        "Ð»",
        "ÐµÑģÐ°"
      ],
      [
        "Ñĥ",
        "ÑģÑĤÑĢÐ¾Ð¹"
      ],
      [
        "Ñĥ",
        "ÑĢÐ°Ð²Ð½ÐµÐ½Ð¸Ñı"
      ],
      [
        "Ñĩ",
        "ÐµÑĢÐµÐ·"
      ],
      [
        "Ñħ",
        "ÑĥÐ´Ð¾Ð¶Ð½Ð¸ÐºÐ¸"
      ],
      [
        "ÑģÑĤ",
        "ÑĢÐ¾ÐµÐ½Ð¸Ðµ"
      ],
      [
        "Ð¼",
        "Ð¸Ð»Ð»Ð¸Ð¾Ð½Ñĭ"
      ],
      [
        "Ð¼",
        "Ð¸Ð½Ð¸Ð¼Ð¸Ð·Ð¸ÑĢÑĥÑİÑīÐ¸Ð¹"
      ],
      [
        "Ð²",
        "ÐµÐºÑĤ"
      ],
      [
        "Ð²",
        "Ð¾Ð·Ð²ÑĢÐ°ÑīÐ°ÑİÑīÐ°Ñı"
      ],
      [
        "Ð²",
        "Ð°Ð¶Ð½ÑĭÑħ"
      ],
      [
        "Ð²",
        "Ð´Ð¾ÑħÐ½Ð¾Ð²Ð»ÐµÐ½Ð½ÑĭÐµ"
      ],
      [
        "Ðº",
        "Ð°Ð¶Ð´ÑĭÐ¹"
      ],
      [
        "Ðº",
        "Ð¾Ð½ÑĨÐµÐ¿ÑĤÐ¾Ð²"
      ],
      [
        "Ðº",
        "Ð¾Ð¼Ð¿ÑĮÑİÑĤÐµÑĢÐ°Ð¼"
      ],
      [
        "Ðº",
        "Ð²Ð°Ð½ÑĤÐ¾Ð²Ð¾Ð¹"
      ],
      [
        "Ð¿",
        "Ð¾Ñħ"
      ],
      [
        "Ð¿",
        "Ð¾ÑĢÑıÐ´ÐºÐµ"
      ],
      [
        "Ð¿",
        "Ð°Ð¼ÑıÑĤÐ¸"
      ],
      [
        "Ð¿",
        "Ð¾Ð½Ð¸Ð¼Ð°ÑĤÑĮ"
      ],
      [
        "ÑĦ",
        "ÑĥÐ½"
      ],
      [
        "Ð¸Ð·",
        "Ð¾Ð±ÑĢÐ°Ð¶ÐµÐ½Ð¸Ñı"
      ],
      [
        "Ñį",
        "ÑĦÑĦÐµÐºÑĤÐ¸Ð²Ð½Ð¾Ð³Ð¾"
      ],
      [
        "Ð·",
        "Ð°ÑĤÐµÐ¼"
      ],
      [
        "Ð·",
        "Ð°Ð´"
      ],
      [
        "Ð¸Ð½",
        "ÑģÑĤÑĢÑĥÐ¼ÐµÐ½ÑĤÐ¾Ð²"
      ],
      [
        "Ð³",
        "Ð»ÑĥÐ±Ð¾Ðº"
      ],
      [
        "Ð±",
        "Ð»Ð°Ð³"
      ],
      [
        "Ð±",
        "ÑĭÑģÑĤÑĢÑĭÐ¹"
      ],
      [
        "Ð¼Ñĭ",
        "ÑĪÐ»ÐµÐ½Ð¸Ñı"
      ],
      [
        "ÑĥÑĩÐ¸ÑĤ",
        "ÑģÑı"
      ],
      [
        "Ð¾ÑģÐ½Ð¾Ð²",
        "Ðµ"
      ],
      [
        "Ð°Ð»Ð³Ð¾ÑĢÐ¸ÑĤ",
        "Ð¼Ñĭ"
      ],
      [
        "Ð¿ÑĢÐ¾",
        "ÑĦÐ¸Ð»Ð°ÐºÑĤÐ¸ÐºÐ¸"
      ],
      [
        "Ð½ÐµÐ¹ÑĢÐ¾Ð½",
        "Ð½ÑĭÑħ"
      ],
      [
        "Ð¼Ñĥ",
        "Ð·ÑĭÐºÐ°Ð½ÑĤÑĭ"
      ],
      [
        "Ð¿ÑĢÐµÐ´",
        "ÑģÐºÐ°Ð·Ð°Ð½Ð¸ÑıÐ¼Ð¸"
      ],
      [
        "Ð¿ÑĢÐ¾ÑĨÐµÑģÑģ",
        "Ñĭ"
      ],
      [
        "Ð¿ÑĢ",
        "Ð¾Ð³ÑĢÐ°Ð¼Ð¼"
      ],
      [
        "Ð¿ÑĢ",
        "Ð¸Ð¼ÐµÑĢ"
      ],
      [
        "Ð¿ÑĢ",
        "ÐµÐ¾Ð±ÑĢÐ°Ð·ÑĥÑİÑĤÑģÑı"
      ],
      [
        "Ð¿ÑĢ",
        "Ð¾Ð³ÑĢÐ°Ð¼Ð¼Ð¸ÑĢÐ¾Ð²Ð°Ð½Ð¸Ðµ"
      ],
      [
        "Ð¸Ð·ÑĥÑĩÐ°",
        "ÑİÑīÐ¸Ð¹"
      ],
      [
        "ÑģÐ¾Ð·Ð´",
        "Ð°Ð½Ð½ÑĭÑħ"
      ],
      [
        "ÐºÐ¾Ð¼Ð¿ÑĮÑİÑĤÐµÑĢ",
        "Ð¾Ð²"
      ],
      [
        "Ð¿Ð¾Ð·Ð²Ð¾Ð»Ñı",
        "Ñı"
      ],
      [
        "Ð´Ð¾Ð±Ð°Ð²Ð»Ñı",
        "Ñı"
      ],
      [
        "Ð½Ð°ÑħÐ¾Ð´",
        "Ñı"
      ],
      [
        "ÑĤÐ¾ÐºÐµÐ½",
        "Ð¾Ð²"
      ],
      [
        "ÑģÐ¾ÐµÐ´Ð¸Ð½Ñı",
        "ÑİÑĤ"
      ],
      [
        "Ð¼Ð½Ð¾Ð³",
        "Ð¾Ð¼ÐµÑĢÐ½ÑĭÑħ"
      ],
      [
        "ÑĢÐ°ÑģÐ¿",
        "ÑĢÐ¾ÑģÑĤÑĢÐ°Ð½ÑıÑĤÑĮÑģÑı"
      ],
      [
        "Ð¼ÐµÑħÐ°Ð½",
        "Ð¸ÐºÐ¸"
      ],
      [
        "Ð¾Ð±ÐµÑģÐ¿ÐµÑĩÐ¸Ð²",
        "Ð°ÑİÑĤ"
      ],
      [
        "Ð¾Ð±ÐµÑģÐ¿ÐµÑĩÐ¸Ð²",
        "Ð°Ñı"
      ],
      [
        "ÑģÐ¿Ð¾ÑģÐ¾Ð±",
        "Ð½Ð¾ÑģÑĤÑĮ"
      ],
      [
        "ÑģÐ¿Ð¾ÑģÐ¾Ð±",
        "Ð½ÑĭÐ¹"
      ],
      [
        "ÑĥÑģÑĤÑĢÐ¾Ð¹",
        "ÑģÑĤÐ²Ð°"
      ],
      [
        "Ð²ÐµÐºÑĤ",
        "Ð¾ÑĢÐ¾Ð²"
      ],
      [
        "Ð¿Ð¾Ñħ",
        "Ð¾Ð¶Ð¸Ðµ"
      ],
      [
        "ÑĦÑĥÐ½",
        "Ð´Ð°Ð¼ÐµÐ½ÑĤÐ°Ð»ÑĮÐ½ÑĭÐµ"
      ],
      [
        "Ð¸Ð·Ð¾Ð±ÑĢÐ°Ð¶ÐµÐ½Ð¸Ñı",
        "Ð¼Ð¸"
      ],
      [
        "Ð·Ð°Ð´",
        "Ð°Ñĩ"
      ],
      [
        "Ð³Ð»ÑĥÐ±Ð¾Ðº",
        "Ð¸Ñħ"
      ]
    ]
  }
}