{
  "version": "1.0",
  "truncation": null,
  "padding": null,
  "added_tokens": [
    {
      "id": 0,
      "content": "<unk>",
      "single_word": false,
      "lstrip": false,
      "rstrip": false,
      "normalized": false,
      "special": true
    },
    {
      "id": 1,
      "content": "<s>",
      "single_word": false,
      "lstrip": false,
      "rstrip": false,
      "normalized": false,
      "special": true
    },
    {
      "id": 2,
      "content": "</s>",
      "single_word": false,
      "lstrip": false,
      "rstrip": false,
      "normalized": false,
      "special": true
    },
    {
      "id": 3,
      "content": "<pad>",
      "single_word": false,
      "lstrip": false,
      "rstrip": false,
      "normalized": false,
      "special": true
    },
    {
      "id": 4,
      "content": "<|im_start|>",
      "single_word": false,
      "lstrip": false,
      "rstrip": false,
      "normalized": false,
      "special": true
    },
    {
      "id": 5,
      "content": "<|im_end|>",
      "single_word": false,
      "lstrip": false,
      "rstrip": false,
      "normalized": false,
      "special": true
    }
  ],
  "normalizer": null,
  "pre_tokenizer": {
    "type": "ByteLevel",
    "add_prefix_space": false,
    "trim_offsets": true,
    "use_regex": true
  },
  "post_processor": {
    "type": "ByteLevel",
    "add_prefix_space": true,
    "trim_offsets": false,
    "use_regex": true
  },
  "decoder": {
    "type": "ByteLevel",
    "add_prefix_space": true,
    "trim_offsets": true,
    "use_regex": true
  },
  "model": {
    "type": "BPE",
    "dropout": null,
    "unk_token": "<unk>",
    "continuing_subword_prefix": null,
    "end_of_word_suffix": null,
    "fuse_unk": false,
    "byte_fallback": false,
    "ignore_merges": false,
    "vocab": {
      "<unk>": 0,
      "<s>": 1,
      "</s>": 2,
      "<pad>": 3,
      "<|im_start|>": 4,
      "<|im_end|>": 5,
      "\t": 6,
      "\n": 7,
      "\r": 8,
      " ": 9,
      "!": 10,
      "\"": 11,
      "#": 12,
      "$": 13,
      "%": 14,
      "&": 15,
      "'": 16,
      "(": 17,
      ")": 18,
      "*": 19,
      "+": 20,
      ",": 21,
      "-": 22,
      ".": 23,
      "/": 24,
      "0": 25,
      "1": 26,
      "2": 27,
      "3": 28,
      "4": 29,
      "5": 30,
      "6": 31,
      "7": 32,
      "8": 33,
      "9": 34,
      ":": 35,
      ";": 36,
      "<": 37,
      "=": 38,
      ">": 39,
      "?": 40,
      "@": 41,
      "A": 42,
      "B": 43,
      "C": 44,
      "D": 45,
      "E": 46,
      "F": 47,
      "G": 48,
      "H": 49,
      "I": 50,
      "J": 51,
      "K": 52,
      "L": 53,
      "M": 54,
      "N": 55,
      "O": 56,
      "P": 57,
      "Q": 58,
      "R": 59,
      "S": 60,
      "T": 61,
      "U": 62,
      "V": 63,
      "W": 64,
      "X": 65,
      "Y": 66,
      "Z": 67,
      "[": 68,
      "\\": 69,
      "]": 70,
      "^": 71,
      "_": 72,
      "`": 73,
      "a": 74,
      "b": 75,
      "c": 76,
      "d": 77,
      "e": 78,
      "f": 79,
      "g": 80,
      "h": 81,
      "i": 82,
      "j": 83,
      "k": 84,
      "l": 85,
      "m": 86,
      "n": 87,
      "o": 88,
      "p": 89,
      "q": 90,
      "r": 91,
      "s": 92,
      "t": 93,
      "u": 94,
      "v": 95,
      "w": 96,
      "x": 97,
      "y": 98,
      "z": 99,
      "{": 100,
      "|": 101,
      "}": 102,
      "~": 103,
      "¡": 104,
      "¢": 105,
      "£": 106,
      "¤": 107,
      "¥": 108,
      "§": 109,
      "¯": 110,
      "°": 111,
      "±": 112,
      "²": 113,
      "³": 114,
      "´": 115,
      "µ": 116,
      "¶": 117,
      "·": 118,
      "¸": 119,
      "¹": 120,
      "º": 121,
      "»": 122,
      "¼": 123,
      "½": 124,
      "¾": 125,
      "¿": 126,
      "Ð": 127,
      "Ñ": 128,
      "â": 129,
      "Ġ": 130,
      "Ģ": 131,
      "ģ": 132,
      "Ĥ": 133,
      "ĥ": 134,
      "Ħ": 135,
      "ħ": 136,
      "Ĩ": 137,
      "ĩ": 138,
      "Ī": 139,
      "ī": 140,
      "Ĭ": 141,
      "ĭ": 142,
      "Į": 143,
      "į": 144,
      "İ": 145,
      "ı": 146,
      "Ĳ": 147,
      "ĳ": 148,
      "Ĵ": 149,
      "ĵ": 150,
      "Ķ": 151,
      "Ĺ": 152,
      "ĺ": 153,
      "ļ": 154,
      "Ľ": 155,
      "ľ": 156,
      "Ŀ": 157,
      "ŀ": 158,
      "Ł": 159,
      "ł": 160,
      "Ń": 161,
      "Ё": 162,
      "А": 163,
      "Б": 164,
      "В": 165,
      "Г": 166,
      "Д": 167,
      "Е": 168,
      "Ж": 169,
      "З": 170,
      "И": 171,
      "Й": 172,
      "К": 173,
      "Л": 174,
      "М": 175,
      "Н": 176,
      "О": 177,
      "П": 178,
      "Р": 179,
      "С": 180,
      "Т": 181,
      "У": 182,
      "Ф": 183,
      "Х": 184,
      "Ц": 185,
      "Ч": 186,
      "Ш": 187,
      "Щ": 188,
      "Ъ": 189,
      "Ы": 190,
      "Ь": 191,
      "Э": 192,
      "Ю": 193,
      "Я": 194,
      "а": 195,
      "б": 196,
      "в": 197,
      "г": 198,
      "д": 199,
      "е": 200,
      "ж": 201,
      "з": 202,
      "и": 203,
      "й": 204,
      "к": 205,
      "л": 206,
      "м": 207,
      "н": 208,
      "о": 209,
      "п": 210,
      "р": 211,
      "с": 212,
      "т": 213,
      "у": 214,
      "ф": 215,
      "х": 216,
      "ц": 217,
      "ч": 218,
      "ш": 219,
      "щ": 220,
      "ъ": 221,
      "ы": 222,
      "ь": 223,
      "э": 224,
      "ю": 225,
      "я": 226,
      "ё": 227,
      "—": 228,
      "№": 229,
      "Ð¸": 230,
      "Ðµ": 231,
      "Ð¾": 232,
      "Ð°": 233,
      "Ð½": 234,
      "ĠÐ": 235,
      "ÑĤ": 236,
      "Ð¾Ð": 237,
      "ÑĢ": 238,
      "Ñģ": 239,
      "ÐµÐ": 240,
      "Ð¸Ð": 241,
      "Ñĭ": 242,
      "Ñĥ": 243,
      "Ñı": 244,
      "Ð»": 245,
      "Ñĩ": 246,
      "Ð°Ð": 247,
      "ĠÐ¸": 248,
      "ÐµÐ½": 249,
      "ÑģÑĤ": 250,
      "Ð¾Ð²": 251,
      "Ðº": 252,
      "ÑĮ": 253,
      "Ñİ": 254,
      "Ð²": 255,
      "ĠÐ¿": 256,
      "ĠÑģ": 257,
      "Ð¸Ñı": 258,
      "Ñħ": 259,
      "ÐµÑĤ": 260,
      "ĠÑ": 261,
      "Ð°ÑĤ": 262,
      "ÐµÐ»": 263,
      "Ð½Ð°": 264,
      "Ð½Ñĭ": 265,
      "ĠÐ²": 266,
      "ĠÐ¼": 267,
      "ÑİÑĤ": 268,
      "Ð¼": 269,
      "Ð¾ÑĢ": 270,
      "ÐµÐ¼": 271,
      "Ð¸Ð·": 272,
      "Ð½Ð¾Ð": 273,
      "ĠÐ¾Ð": 274,
      "Ð¸ÑĢ": 275,
      "ĠÐ·": 276,
      "ÑĢÐ°Ð": 277,
      "Ð´": 278,
      "Ð¾Ð³": 279,
      "Ð¾Ð»": 280,
      "Ð¸Ðº": 281,
      "ÑĪ": 282,
      "Ð°Ð½": 283,
      "Ð°ÐµÑĤ": 284,
      "ĠÐ¿ÑĢ": 285,
      "ĠÐ·Ð°Ð": 286,
      "Ð¿": 287,
      "ĠÑĩ": 288,
      "Ð¸Ð¸": 289,
      "ÐµÑĢ": 290,
      "ÐµÑģ": 291,
      "ÐµÑĩ": 292,
      "ĠÐ´": 293,
      "ÐµÐ´": 294,
      "ÐµÐ½Ð¸Ñı": 295,
      "ÑģÑĤÐ²": 296,
      "Ñī": 297,
      "ĠÐ¾": 298,
      "Ð¸Ðµ": 299,
      "Ð½Ð¾": 300,
      "ÐµÐ¹": 301,
      "Ð»Ñı": 302,
      "ĠÑĦ": 303,
      "ĠÑį": 304,
      "ÐµÐ»Ð¾Ð²": 305,
      "ĠÑĩÐµÐ»Ð¾Ð²": 306,
      "Ð³": 307,
      "ĠÐ½Ð°": 308,
      "Ð¸ÑĤ": 309,
      "Ð¸Ñģ": 310,
      "Ð¾Ð·": 311,
      "ÑĢÐ°": 312,
      "ÑĢÐµÐ¼": 313,
      "Ð½ÑĭÐµ": 314,
      "ºÐ¾": 315,
      "ĠÑĥ": 316,
      "Ð°ÑİÑĤ": 317,
      "Ð½Ð¾Ð²": 318,
      "ĠÐ³": 319,
      "ĠÐ¶": 320,
      "ĠÐ»": 321,
      "Ð¾Ð´": 322,
      "Ð¾Ð¼": 323,
      "ÑģÐ»": 324,
      "ÐµÐ²": 325,
      "Ð¸Ð²": 326,
      "Ð¸Ð¼": 327,
      "ÑĥÑİÑĤ": 328,
      "ÐµÐ½Ð½Ð¾Ð": 329,
      "ÑģÑĤÐ¸": 330,
      "Ð¸ÐºÐ°": 331,
      "ÐµÑģÐº": 332,
      "·Ñĭ": 333,
      "ÑĨ": 334,
      "âĢ": 335,
      "ĠÐ°": 336,
      "ĠÑĢ": 337,
      "ĠÑı": 338,
      "ĠÐ¸Ð·": 339,
      "ĠâĢ": 340,
      "Ð¸Ñĩ": 341,
      "Ð¸Ñħ": 342,
      "ÐµÑģÑĤÐ²": 343,
      "Ð½ÐµÐ¹": 344,
      "Ð¾Ð¹": 345,
      "ÑĢÑĥ": 346,
      "ÐµÐº": 347,
      "Ð¸Ð¹": 348,
      "Ð¸Ð»": 349,
      "ÑĭÑģÐ»": 350,
      "Ð¾Ð²ÑĢÐµÐ¼": 351,
      "ĠÑģÐ¾Ð²ÑĢÐµÐ¼": 352,
      "Ð½ÑĭÑħ": 353,
      "ĠÐ¼Ð¸ÑĢ": 354,
      "Ð¼Ð¸ÑĢ": 355,
      "Ð½Ð¾Ð¼": 356,
      "ĠÐ¾Ð±": 357,
      "ÑĢÐ°Ð²": 358,
      "ÑĢÐ°Ð·": 359,
      "Ð¾Ð»Ð¾Ð³": 360,
      "Ð¸ÐºÐ¸": 361,
      "ĠÐ¿ÑĢÐ¾": 362,
      "ĠÐ·Ð°ÐºÐ¾": 363,
      "ĠÑĦÐ¾ÑĢ": 364,
      "ĠÑĩÐµÐ»Ð¾Ð²ÐµÑĩ": 365,
      "ĠâĢĶ": 366,
      "ĠÑģÐ¾Ð²ÑĢÐµÐ¼ÐµÐ½Ð½Ð¾Ð": 367,
      "ºÑĢÑĥ": 368,
      "Ð·Ñĭ": 369,
      "Ñĳ": 370,
      "ĠÑĤ": 371,
      "ĠÑģÑĤ": 372,
      "ĠÑĢÐ°Ð·": 373,
      "ŁÑĢ": 374,
      "Ð¾Ñģ": 375,
      "Ð½Ð¸": 376,
      "Ð½Ð¸Ð¼": 377,
      "ĠÐ±": 378,
      "Ð¾Ð¶": 379,
      "ÑĢÐµÐ´": 380,
      "ÑģÑı": 381,
      "ÑģÐº": 382,
      "ÑģÐ¿": 383,
      "ÑģÐ½Ð¾Ð²": 384,
      "ÑĭÐµ": 385,
      "ÑĥÑģ": 386,
      "ÑĥÑĩ": 387,
      "ÑĥÐº": 388,
      "ÑıÑĤ": 389,
      "Ð°Ð²": 390,
      "ÑģÑĤÐ¾ÑĢ": 391,
      "ÑİÑī": 392,
      "Ð²Ð¸Ð": 393,
      "ĠÑģÐ¾Ð·": 394,
      "Ð°ÑĤÐµÐ¼": 395,
      "ÐµÐ»ÑĮ": 396,
      "Ð¸ÑĢÐ¾Ð´": 397,
      "ÑĪÐ¸Ñħ": 398,
      "ĠÐ¾ÑģÐ½Ð¾Ð²": 399,
      "Ð½Ð¾ÑģÑĤÐ¸": 400,
      "Ð»ÑıÐµÑĤ": 401,
      "ĠÑįÐº": 402,
      "ĠÑĩÐµÐ»Ð¾Ð²ÐµÐº": 403,
      "Ð¸ÑģÑĮ": 404,
      "ĠÐ¶Ð¸Ð·": 405,
      "ĠÑıÐ²": 406,
      "Ð¸ÑĩÐµÑģÐº": 407,
      "ÐµÑģÑĤÐ²Ð°": 408,
      "Ð¼Ð¸ÑĢÑĥÑİÑĤ": 409,
      "ĠÑĦÐ¾ÑĢÐ¼Ð¸ÑĢÑĥÑİÑĤ": 410,
      "Ð·ÑĭÐº": 411,
      "Ð°ÑĤÐµÐ¼Ð°ÑĤ": 412,
      "ĠÑĩÐµÐ»Ð¾Ð²ÐµÐºÐ°": 413,
      "³Ð¾": 414,
      "³ÑĢ": 415,
      "´Ð°": 416,
      "¶Ð°": 417,
      "Ðĺ": 418,
      "Ðľ": 419,
      "Ð¶Ð°": 420,
      "ÑĦ": 421,
      "ĠÐ½": 422,
      "ĠÐ¸Ð": 423,
      "Ð¸Ð¾Ð»Ð¾Ð³": 424,
      "ÐµÐ°": 425,
      "ÐµÑħ": 426,
      "Ð¾ÑĤ": 427,
      "Ð¾Ñĩ": 428,
      "Ð¾Ñħ": 429,
      "Ð¾Ð½Ð¾Ð¼": 430,
      "Ð¾ÑĦ": 431,
      "Ð½ÑĤ": 432,
      "Ð½Ñĥ": 433,
      "Ð½Ð¸Ñı": 434,
      "Ð½Ð¸ÐºÐ¸": 435,
      "ĠÐ¡": 436,
      "ĠÐº": 437,
      "ĠÐĴ": 438,
      "ĠÐł": 439,
      "ĠÐŁÑĢ": 440,
      "ÑĤÐ¾": 441,
      "ÑĤÑĭ": 442,
      "Ð¾Ð±": 443,
      "Ð¾Ð¿": 444,
      "ÑĭÑĤ": 445,
      "ÑĭÐ²": 446,
      "ÑıÑİÑĤ": 447,
      "Ð»ÑĮ": 448,
      "Ð°Ð¶": 449,
      "Ð°Ðº": 450,
      "ĠÐ¸Ð½ÑĤ": 451,
      "ÐµÐ½Ð¸Ðµ": 452,
      "ÐºÐ¸": 453,
      "ÑİÐ´": 454,
      "Ð²Ð¾Ð»": 455,
      "ĠÐ¿Ð¾Ð·": 456,
      "ĠÑģÐ¿": 457,
      "ĠÑģÑĢÐµÐ´": 458,
      "Ð°ÑĤÑĮ": 459,
      "ÐµÐ»Ð¸": 460,
      "Ð½Ð°Ð½Ð¸Ñı": 461,
      "ĠÐ²Ð°Ð¶": 462,
      "ĠÐ¼ÐµÐ½": 463,
      "ĠÐ¼ÑĭÑģÐ»": 464,
      "ĠÐ¼Ð°ÑĤÐµÐ¼Ð°ÑĤ": 465,
      "Ð¾ÑĢÐ³": 466,
      "Ð½Ð¾Ð¹": 467,
      "ĠÐ¾Ð´": 468,
      "ĠÐ¾ÐºÑĢÑĥ": 469,
      "ÑĢÐ°Ð¼": 470,
      "Ð´Ð°ÑİÑĤ": 471,
      "Ð¾Ð³Ð¾": 472,
      "Ð¾Ð»ÑĮ": 473,
      "ÑĪÐ»": 474,
      "Ð°Ð½Ð¸Ðµ": 475,
      "ĠÐ¿ÑĢÐ¸ÑĢÐ¾Ð´": 476,
      "ĠÐ·Ð°Ð´Ð°": 477,
      "ÐµÑĢÐ½Ð¾ÑģÑĤÐ¸": 478,
      "ÑģÑĤÐ²Ð¾": 479,
      "ÑīÐµÐ½Ð¸Ñı": 480,
      "ĠÐ¾ÑĤ": 481,
      "ĠÑįÑĤÐ¾": 482,
      "ĠÐ½Ð°ÑĥÐº": 483,
      "Ð¸ÑĤÐµÐ»ÑĮ": 484,
      "ĠÐ³Ð»": 485,
      "ĠÐ¶Ð¸Ð²": 486,
      "ĠÐ»ÐµÑĩ": 487,
      "ĠÐ»ÑİÐ´": 488,
      "ÑĨÐ¸Ð¸": 489,
      "ĠÐ¸Ð·ÑĥÑĩ": 490,
      "Ð½ÐµÐ¹ÑĪÐ¸Ñħ": 491,
      "ĠÐ¼Ð¸ÑĢÐ°": 492,
      "Ð½Ð¾Ð¼ÐµÑĢÐ½Ð¾ÑģÑĤÐ¸": 493,
      "ĠÐ¿ÑĢÐ¾ÑĪÐ»": 494,
      "ĠÐ·Ð°ÐºÐ¾Ð½Ð¾Ð¼ÐµÑĢÐ½Ð¾ÑģÑĤÐ¸": 495,
      "ĠÑĩÐµÐ»Ð¾Ð²ÐµÑĩÐµÑģÐº": 496,
      "ĠÑĩÐµÐ»Ð¾Ð²ÐµÑĩÐµÑģÑĤÐ²Ð°": 497,
      "ĠÑģÐ¾Ð²ÑĢÐµÐ¼ÐµÐ½Ð½Ð¾Ð¹": 498,
      "ÑģÐºÑĥÑģ": 499,
      "ĠÑģÐ¾Ð·Ð´Ð°ÑİÑĤ": 500,
      "Ð»ÑıÐµÑĤÑģÑı": 501,
      "ĠÐ¶Ð¸Ð·Ð½Ð¸": 502,
      "ĠÑıÐ²Ð»ÑıÐµÑĤÑģÑı": 503,
      "Ð¶Ð°ÑİÑī": 504,
      "Ð½ÑĥÑĤ": 505,
      "ĠÐ¿Ð¾Ð·Ð²Ð¾Ð»": 506,
      "ĠÐ¼ÑĭÑģÐ»Ð¸": 507,
      "ĠÐ¾ÐºÑĢÑĥÐ¶Ð°ÑİÑī": 508,
      "ĠÐ¸Ð·ÑĥÑĩÐ°ÐµÑĤ": 509,
      "¢ÐµÑħ": 510,
      "£Ñĩ": 511,
      "¤Ð¸Ð·": 512,
      "¤Ð¸Ð»": 513,
      "¥Ñĥ": 514,
      "§Ð¸Ñģ": 515,
      "¯Ð·ÑĭÐº": 516,
      "±Ð¸": 517,
      "±Ð¾Ð»": 518,
      "±ÑĢÐ°": 519,
      "³Ð»Ñı": 520,
      "³Ð°ÑİÑĤ": 521,
      "´Ðµ": 522,
      "´ÐµÑĤ": 523,
      "´Ð°ÐµÑĤ": 524,
      "¶Ð´": 525,
      "¶Ð°ÐµÑĤ": 526,
      "¶ÐµÐ½Ð¸Ñı": 527,
      "·ÑĥÑİÑĤ": 528,
      "·Ð½ÐµÐ¹": 529,
      "ºÐµÐ°": 530,
      "»Ð¾Ð³": 531,
      "¼ÐµÐ½": 532,
      "¿ÐµÑĩ": 533,
      "¿Ð¸Ñģ": 534,
      "¿Ð¾ÑĤ": 535,
      "Ð¹": 536,
      "ÐĿ": 537,
      "ÐŃ": 538,
      "ÐŁÑĢ": 539,
      "Ð¢ÐµÑħ": 540,
      "Ð¤Ð¸Ð»": 541,
      "Ð¯Ð·ÑĭÐº": 542,
      "Ð±Ð¸": 543,
      "Ð·ÑĥÑİÑĤ": 544,
      "ÑĬ": 545,
      "ĠÑħ": 546,
      "ĠÐ°Ð½": 547,
      "ĠÑĢÐ°": 548,
      "ĠÐ½Ð¾Ð²": 549,
      "ĠÐ¾ÑĢÐ³": 550,
      "ĨÐ¸Ð²": 551,
      "ĲÐ»": 552,
      "ĵÐ¾ÑĢ": 553,
      "ĹÐµÐ¼": 554,
      "ĺÑģÑĤÐ¾ÑĢ": 555,
      "ļÐ¾Ð¼": 556,
      "ĽÐ¸ÑĤ": 557,
      "ľÑĭÑģÐ»": 558,
      "ŀÐ½Ð°": 559,
      "ŁÐ¾": 560,
      "Ð¸ÑģÑĤ": 561,
      "Ð¸Ð½Ð°": 562,
      "Ð¸ÐµÐ¼": 563,
      "Ð¸ÐµÐ¹": 564,
      "Ð¸ÑĨ": 565,
      "Ð¸Ð½Ð¸Ð¼": 566,
      "ÐµÐµ": 567,
      "ÐµÑģÑĤ": 568,
      "ÐµÐ¾ÑĢ": 569,
      "ÐµÑĪ": 570,
      "ÐµÑī": 571,
      "ÐµÐ¾Ð¼": 572,
      "ÐµÐ¾Ð»Ð¾Ð³": 573,
      "Ð¾Ð½": 574,
      "Ð¾ÑģÑĤ": 575,
      "Ð¾ÑģÑĤÐ¸": 576,
      "Ð¾ÑıÑĤ": 577,
      "Ð¾ÑĨÐ¸Ð¸": 578,
      "Ð°ÑĢ": 579,
      "Ð°Ñģ": 580,
      "Ð°Ð»": 581,
      "Ð°ÑĥÐº": 582,
      "Ð°ÑĨÐ¸Ð¸": 583,
      "Ð½Ðµ": 584,
      "Ð½Ñı": 585,
      "Ð½ÑĮ": 586,
      "Ð½ÐµÑĤ": 587,
      "Ð½Ð´": 588,
      "Ð½ÐµÐ½Ð¸Ñı": 589,
      "Ð½Ð¸ÐºÐ°": 590,
      "Ð½Ð¸Ð¹": 591,
      "Ð½ÐºÐ¸": 592,
      "ĠÐºÐ¾": 593,
      "ĠÐ£Ñĩ": 594,
      "ĠÐ¤Ð¸Ð·": 595,
      "ĠÐ¥Ñĥ": 596,
      "ĠÐ§Ð¸Ñģ": 597,
      "ĠÐĲÐ»": 598,
      "ĠÐĵÐ¾ÑĢ": 599,
      "ĠÐĹÐµÐ¼": 600,
      "ĠÐĺÑģÑĤÐ¾ÑĢ": 601,
      "ĠÐļÐ¾Ð¼": 602,
      "ĠÐĽÐ¸ÑĤ": 603,
      "ĠÐľÑĭÑģÐ»": 604,
      "ĠÐŀÐ½Ð°": 605,
      "ĠÐŁÐ¾": 606,
      "ÑĤÐ¾ÑĢ": 607,
      "ÑĤÐ¸ÐºÐ°": 608,
      "Ð¾ÐºÑĢÑĥ": 609,
      "ÑĢÑģ": 610,
      "ÑĢÐµÐ½": 611,
      "ÑĢÐ¸Ñı": 612,
      "ÑĢÑħ": 613,
      "ÑĢÐ°Ð½": 614,
      "ÑĢÐµÐ²": 615,
      "ÑĢÐ¾Ñģ": 616,
      "ÑĢÑĭÐ²": 617,
      "ÑĢÐ¾ÑıÑĤ": 618,
      "ÑģÑĭ": 619,
      "ÑģÐµÐ»": 620,
      "ÑģÑģÐ»": 621,
      "ÑģÐµÑħ": 622,
      "ÑģÐ¾ÑĤ": 623,
      "ÑģÐ½Ñı": 624,
      "ÐµÐ·Ñĭ": 625,
      "ÐµÐ³Ð¾": 626,
      "ÐµÐ±ÑĢÐ°": 627,
      "ÐµÐ¶Ð´": 628,
      "ÐµÐ·Ð½ÐµÐ¹": 629,
      "Ð¸Ð¿Ð¾ÑĤ": 630,
      "ÑĭÐº": 631,
      "ÑĭÐ´": 632,
      "ÑĭÐ½Ð¸": 633,
      "ÑĭÐ½ÐºÐ¸": 634,
      "ÑĥÐ»": 635,
      "ÑĥÑģÑĤ": 636,
      "ÑĥÑİ": 637,
      "ÑĥÑĪ": 638,
      "ÑĥÑĢÐ°": 639,
      "ÑĥÐ·ÑĭÐº": 640,
      "ÑĥÐ±Ð¸": 641,
      "ÑĥÐ½Ð´": 642,
      "ÑĥÑĢÑģ": 643,
      "ÑıÐµÑĤ": 644,
      "ÑıÑģÐ½Ñı": 645,
      "Ð»Ð¸": 646,
      "Ð»Ð°": 647,
      "Ð»Ð°Ð": 648,
      "Ð»Ð¾Ð²": 649,
      "Ð»Ñİ": 650,
      "Ð»Ð¸Ð·": 651,
      "Ð»ÐµÐ½Ð¸Ñı": 652,
      "Ð»ÐµÐ²": 653,
      "Ð»Ð¸Ð²": 654,
      "Ð»ÐµÐº": 655,
      "Ð»Ð¾Ð¶": 656,
      "Ð»ÑĥÑĩ": 657,
      "ÑĩÐ¸": 658,
      "ÑĩÐµÐ²": 659,
      "Ð°Ð¼ÐµÐ½": 660,
      "ĠÐ¸ÑģÑĤ": 661,
      "ĠÐ¸Ñħ": 662,
      "ĠÐ¸ÑģÑĤÐ¸": 663,
      "ĠÐ¸ÑģÐ¿": 664,
      "ĠÐ¸ÑģÑĤÐ¾ÑĢ": 665,
      "ĠÐ¸ÑģÐºÑĥÑģ": 666,
      "ĠÐ¸ÑģÑģÐ»": 667,
      "ÐµÐ½ÑĮ": 668,
      "ÐµÐ½Ð½Ñĭ": 669,
      "ÐµÐ½Ð½ÑĭÐµ": 670,
      "ÐµÐ½Ð½ÑĭÑħ": 671,
      "ÐµÐ½ÑĤÑĭ": 672,
      "ÐµÐ½Ð¸ÐµÐ¼": 673,
      "ÑģÑĤÑĮ": 674,
      "Ð¾Ð²ÑĮ": 675,
      "Ð¾Ð²Ð»Ñı": 676,
      "Ð¾Ð²Ð¸ÑĤ": 677,
      "Ð¾Ð²Ð¾Ð´": 678,
      "Ð¾Ð²Ð°Ð½Ð¸Ðµ": 679,
      "ÐºÐ¾Ð½Ð¾Ð¼": 680,
      "ÐºÑĢÑĭÐ²": 681,
      "ÑĮÑİÑĤ": 682,
      "ÑĮÐ¼": 683,
      "ÑĮÐ½ÑĭÐµ": 684,
      "Ð²ÐµÐ´": 685,
      "Ð²Ð¸ÑĤ": 686,
      "ĠÐ¿ÐµÑĢ": 687,
      "ĠÐ¿Ð¸Ñģ": 688,
      "ĠÐ¿Ð¾Ð¼": 689,
      "ĠÐ¿ÑĢÐ°Ð²": 690,
      "ĠÐ¿Ð¸ÑģÑĮ": 691,
      "ĠÐ¿ÑĭÑĤ": 692,
      "ĠÐ¿Ð¾Ð½": 693,
      "ĠÐ¿ÑĥÑģÑĤ": 694,
      "ĠÑģÐ¼": 695,
      "ĠÑģÐ²Ð¸Ð": 696,
      "ĠÑģÐ¾Ð±": 697,
      "ĠÑģÐ¾ÑģÑĤ": 698,
      "ĠÑģÐ»Ð¾Ð¶": 699,
      "ÑħÐ¾Ð´": 700,
      "ÐµÑĤÑĢÐ¸Ñı": 701,
      "ĠÑĨÐ¸Ð²": 702,
      "Ð°ÑĤÐ¸Ðº": 703,
      "Ð°ÑĤÐµÑĢ": 704,
      "Ð°ÑĤÐ¾Ð¼": 705,
      "Ð°ÑĤÐ¾Ð¹": 706,
      "Ð°ÑĤÐµÐ»Ð¸": 707,
      "Ð°ÑĤÑĥÑĢÐ°": 708,
      "Ð°ÑĤÐ»ÐµÐ²": 709,
      "ÐµÐ»Ð»ÐµÐº": 710,
      "ÐµÐ»ÐµÐ½Ð¸ÐµÐ¼": 711,
      "Ð½Ð°Ð»Ð¸Ð·": 712,
      "ĠÐ²Ð¾": 713,
      "ĠÐ²ÐµÑĩ": 714,
      "ĠÐ²Ð¾Ð·": 715,
      "ĠÐ²ÑĢÐµÐ¼": 716,
      "ĠÐ²Ð¾Ð¿": 717,
      "ĠÐ²Ð½ÑĥÑĤ": 718,
      "ĠÐ²ÐµÑī": 719,
      "ĠÐ²Ð¾ÐºÑĢÑĥ": 720,
      "ĠÐ²ÑģÐµÑħ": 721,
      "ĠÐ²ÑĭÐ´": 722,
      "ĠÐ¼ÐµÑģÑĤ": 723,
      "ĠÐ¼ÐµÐ¶Ð´": 724,
      "ĠÐ¼ÑĥÐ·ÑĭÐº": 725,
      "ĠÐ¼Ð°ÑĤÐµÑĢ": 726,
      "Ð¼Ñĭ": 727,
      "Ð¼Ð¾Ð¶": 728,
      "Ð¼Ð°Ðº": 729,
      "Ð¼Ð¾ÑĨÐ¸Ð¸": 730,
      "Ð¼ÑĥÐ»": 731,
      "Ð¼ÐµÐ½Ð½ÑĭÐµ": 732,
      "Ð¼Ð°ÑĤÐ¸Ðº": 733,
      "Ð¾ÑĢÐ¾Ð²ÑĮ": 734,
      "ÐµÐ¼Ñĭ": 735,
      "Ð¸Ð·Ð¸Ð¾Ð»Ð¾Ð³": 736,
      "Ð¸Ð·Ð°ÑĨÐ¸Ð¸": 737,
      "Ð¸Ð·Ð²ÐµÐ´": 738,
      "Ð¸Ð·Ð¼Ñĭ": 739,
      "Ð½Ð¾Ð»Ð¾Ð³": 740,
      "ĠÐ¾Ð³ÑĢ": 741,
      "ĠÐ¾ÐºÐµÐ°": 742,
      "ĠÐ¾Ð¿Ð¸Ñģ": 743,
      "ĠÐ·Ð´": 744,
      "ĠÐ·Ð½Ð°Ð½Ð¸Ñı": 745,
      "ÑĢÐ°Ð¶Ð°ÐµÑĤ": 746,
      "Ð´Ð¸Ð²": 747,
      "Ð´Ð¾Ð¶": 748,
      "Ð¾Ð³Ð°ÐµÑĤ": 749,
      "Ð¾Ð³ÑĢÐ°Ð¼": 750,
      "Ð¾Ð³Ð°ÑĤÐ¾Ð¹": 751,
      "Ð¾Ð»ÐµÐ·Ð½ÐµÐ¹": 752,
      "ÑĪÑĥ": 753,
      "ÑĪÐ°ÐµÑĤ": 754,
      "Ð°Ð½Ð¸Ñĩ": 755,
      "Ð°Ð½Ð¸Ð¹": 756,
      "Ð°Ð½ÑĤÑĭ": 757,
      "Ð°Ð½Ð¾Ð²Ð¸ÑĤ": 758,
      "Ð°Ð½Ð¸Ð·Ð¼Ñĭ": 759,
      "ĠÐ¿ÑĢÐµÐ²": 760,
      "ĠÐ¿ÑĢÐ¸Ð½Ð¸Ð¼": 761,
      "ĠÐ¿ÑĢÐ¾Ð²Ð¾Ð´": 762,
      "ĠÐ·Ð°Ð±Ð¾Ð»": 763,
      "ĠÐ·Ð°Ð³Ð»Ñı": 764,
      "ĠÐ·Ð°Ð¿ÐµÑĩ": 765,
      "Ð¿ÑĢÐ°Ð²": 766,
      "Ð¿Ð¾Ñħ": 767,
      "Ð¿ÑĮÑİÑĤ": 768,
      "ĠÑĩÐµÐ¼": 769,
      "ÐµÑĢÑĭ": 770,
      "ÐµÑĢÐ¸Ð¼": 771,
      "ÐµÑĢÐ½ÐµÑĤ": 772,
      "ÐµÑĢÐ°ÑĤÑĥÑĢÐ°": 773,
      "ÐµÑģÐ°": 774,
      "ÐµÑģÑģÑĭ": 775,
      "ÐµÑģÑĥÑĢÑģ": 776,
      "ĠÐ´Ð¾": 777,
      "ĠÐ´Ð»Ñı": 778,
      "ĠÐ´Ð½ÐµÐ¹": 779,
      "ĠÐ´ÑĢÑĥ": 780,
      "ĠÐ´Ð²Ð¸Ð": 781,
      "ĠÐ´ÑĢÐµÐ²": 782,
      "ĠÐ´ÑĥÑĪ": 783,
      "ĠÐ´ÐµÐ½ÑĮ": 784,
      "ÐµÐ´Ð°ÑİÑĤ": 785,
      "ÐµÐ´ÑĥÑİÑĤ": 786,
      "ÐµÐ´Ð¸ÑĨ": 787,
      "ÐµÐ´Ð»Ð¸Ð²": 788,
      "ÑģÑĤÐ²Ð°": 789,
      "ÑģÑĤÐ²ÐµÐ½Ð½Ñĭ": 790,
      "ÑīÐµÑģÑĤÐ²Ð°": 791,
      "Ð½Ð¾Ðµ": 792,
      "Ð½Ð¾Ð¾Ð±": 793,
      "Ð½Ð¾ÑģÑĤÑĮ": 794,
      "Ð»ÑıÑİÑĤ": 795,
      "ĠÑĦÐ°ÑĢ": 796,
      "ĠÑĦÑĥÐ½Ð´": 797,
      "ĠÑĦÐ¸Ð·Ð¸Ð¾Ð»Ð¾Ð³": 798,
      "ĠÑįÐ¼Ð¾ÑĨÐ¸Ð¸": 799,
      "ĠÑįÐ¿Ð¾Ñħ": 800,
      "Ð³Ð¸": 801,
      "Ð³Ð¸Ðµ": 802,
      "Ð³ÐµÐ±ÑĢÐ°": 803,
      "ĠÐ½Ð°Ñģ": 804,
      "ĠÐ½Ð°ÑĪÐ¸Ñħ": 805,
      "ĠÐ½Ð°ÑħÐ¾Ð´": 806,
      "ĠÐ½Ð°ÑĪÑĥ": 807,
      "Ð¸ÑĤÐµÐ»Ð¸": 808,
      "ÑĢÐ°ÑīÐµÐ½Ð¸Ñı": 809,
      "ÑĢÐ°ÑģÐ¾ÑĤ": 810,
      "ÑĢÐ°ÑĩÐ¸": 811,
      "ÑĢÐµÐ¼Ð¸ÑĤÐµÐ»ÑĮ": 812,
      "ĠÑĥÑĢÐ°Ð²": 813,
      "ĠÑĥÐ½Ð¸ÐºÐ°": 814,
      "ĠÑĥÐ»ÑĥÑĩ": 815,
      "ĠÑĥÐ´Ð¸Ð²": 816,
      "ĠÑĥÐ¿ÑĢÐ°Ð²": 817,
      "ĠÐ³ÑĢÐ°Ð¼": 818,
      "ĠÐ³ÐµÐ¾Ð¼": 819,
      "ĠÐ³Ð¸Ð¿Ð¾ÑĤ": 820,
      "ĠÐ»ÐµÑģÐ°": 821,
      "ÐµÐ²Ð°Ð½Ð¸Ð¹": 822,
      "Ð¸Ð¼Ð¸Ñı": 823,
      "ÐµÐ½Ð½Ð¾Ð¹": 824,
      "ÑĨÐµÑģÑģÑĭ": 825,
      "ĠÐ°ÑĢÑħ": 826,
      "ĠÐ°Ð½Ð°Ð»Ð¸Ð·": 827,
      "ĠÑĢÐµÐ°": 828,
      "ĠÑĢÐ¾Ð»ÑĮ": 829,
      "ĠÑĢÐµÑĪ": 830,
      "ĠÑĢÐµÑģÑĥÑĢÑģ": 831,
      "ĠÑıÐ·ÑĭÐº": 832,
      "Ð¸Ð»Ð°Ðº": 833,
      "Ð¸Ð»ÑĮÐ½ÑĭÐµ": 834,
      "Ð¸Ð»Ð¸Ð·Ð°ÑĨÐ¸Ð¸": 835,
      "ÑĭÑģÐ»Ðµ": 836,
      "ĠÐ¼Ð¸ÑĢÐµ": 837,
      "Ð¼Ð¸ÑĢÐ¾Ð²Ð°Ð½Ð¸Ðµ": 838,
      "ĠÐ¾Ð±ÑīÐµÐ½Ð¸Ñı": 839,
      "ĠÐ¾Ð±ÑĬ": 840,
      "ĠÐ¾Ð±Ð»Ð°Ð": 841,
      "ĠÐ¾Ð±ÑīÐµÑģÑĤÐ²Ð°": 842,
      "ÑĢÐ°Ð²ÐµÐ´Ð»Ð¸Ð²": 843,
      "ÑĢÐ°Ð·Ð½Ð°": 844,
      "Ð¾Ð»Ð¾Ð³Ð¸Ð¸": 845,
      "ĠÐ¿ÑĢÐ¾Ð¸Ð·Ð²ÐµÐ´": 846,
      "ĠÐ¿ÑĢÐ¾ÑĨÐµÑģÑģÑĭ": 847,
      "ĠÐ·Ð°ÐºÐ¾Ð½Ñĭ": 848,
      "ĠÐ·Ð°ÐºÐ¾Ð½Ð¾Ð²": 849,
      "ĠÑĦÐ¾ÑĢÐ¼ÑĥÐ»": 850,
      "ĠÑģÐ¾Ð²ÑĢÐµÐ¼ÐµÐ½Ð½Ð¾Ð¼": 851,
      "ĠÑģÐ¾Ð²ÑĢÐµÐ¼ÐµÐ½Ð½Ð¾Ð³Ð¾": 852,
      "ÑĳÐ½": 853,
      "ÑĳÑĤ": 854,
      "ÑĳÐ½ÑĭÐµ": 855,
      "ĠÑĤÐ¾Ñĩ": 856,
      "ĠÑĤÐ¾ÑĢÐ³": 857,
      "ĠÑĤÐµÐ¾ÑĢ": 858,
      "ĠÑģÑĤÑĢÐ¾ÑıÑĤ": 859,
      "ĠÑģÑĤÐ°Ð½Ð¾Ð²Ð¸ÑĤ": 860,
      "ĠÑģÑĤÑĢÐµÐ¼Ð¸ÑĤÐµÐ»ÑĮ": 861,
      "ĠÑĢÐ°Ð·Ð½ÑĭÑħ": 862,
      "ĠÑĢÐ°Ð·Ð²Ð¸ÑĤ": 863,
      "ĠÑĢÐ°Ð·Ð½Ð¾Ð¾Ð±": 864,
      "Ð¾ÑģÐ¾ÑĦ": 865,
      "Ð¾ÑģÐ¸ÑģÑĤ": 866,
      "Ð½Ð¸Ð¼Ð°Ð½Ð¸Ðµ": 867,
      "ĠÐ±Ð¸Ð¾Ð»Ð¾Ð³": 868,
      "ĠÐ±Ð¾Ð³Ð°ÑĤÐ¾Ð¹": 869,
      "ĠÐ±Ð¾Ð»ÐµÐ·Ð½ÐµÐ¹": 870,
      "ÑĢÐµÐ´ÐµÐ»ÐµÐ½Ð¸ÐµÐ¼": 871,
      "ÑģÐºÐ¸Ð¹": 872,
      "ÑģÐ¿ÐµÑĢÐ¸Ð¼": 873,
      "ÑģÐ¿ÑĢÐµÐ´ÐµÐ»ÐµÐ½Ð¸ÐµÐ¼": 874,
      "ÑĥÑģÑģÐºÐ¸Ð¹": 875,
      "ÑıÑĤÑĮ": 876,
      "Ð°Ð²Ð½ÑĭÑħ": 877,
      "Ð°Ð²ÑĭÐº": 878,
      "Ð°Ð²Ð»ÑıÑİÑĤ": 879,
      "ÑģÑĤÐ¾ÑĢÐ¸Ñı": 880,
      "ÑİÑīÐ¸Ðµ": 881,
      "Ð²Ð¸Ð³Ð°ÑİÑĤ": 882,
      "ĠÑģÐ¾Ð·Ð½Ð°Ð½Ð¸Ñı": 883,
      "ÐµÐ»ÑĮÑģÑĤÐ²Ð°": 884,
      "Ð¸ÑĢÐ¾Ð´Ð°": 885,
      "ĠÐ¾ÑģÐ½Ð¾Ð²Ñĥ": 886,
      "ĠÐ¾ÑģÐ½Ð¾Ð²Ð¾Ð¹": 887,
      "ĠÐ¾ÑģÐ½Ð¾Ð²Ð½Ð¾Ðµ": 888,
      "ĠÑįÐºÐ¾Ð½Ð¾Ð¼": 889,
      "ĠÑįÐºÐ¾ÑģÐ¸ÑģÑĤ": 890,
      "ĠÑįÐºÑģÐ¿ÐµÑĢÐ¸Ð¼": 891,
      "ĠÐ¶Ð¸Ð·Ð½ÑĮ": 892,
      "ĠÑıÐ²Ð»ÐµÐ½Ð¸Ñı": 893,
      "Ð¸ÑĩÐµÑģÐºÐ¸Ðµ": 894,
      "Ð¸ÑĩÐµÑģÐºÐ¸Ñħ": 895,
      "Ð¸ÑĩÐµÑģÐºÐ¸Ð¹": 896,
      "Ð°ÑĤÐµÐ¼Ð°ÑĤÐ¸ÐºÐ°": 897,
      "³ÑĢÐ°ÐµÑĤ": 898,
      "ÐĺÑģÐºÑĥÑģ": 899,
      "ÐĺÑģÑĤÐ¾ÑĢÐ¸Ñı": 900,
      "ÐľÐµÐ´Ð¸ÑĨ": 901,
      "ÐľÐ°ÑĤÐµÐ¼Ð°ÑĤÐ¸ÐºÐ°": 902,
      "ĠÐ½Ðµ": 903,
      "ĠÐ½Ð°Ð²ÑĭÐº": 904,
      "ĠÐ¸Ð´Ðµ": 905,
      "ĠÐ¸Ð³ÑĢÐ°ÐµÑĤ": 906,
      "Ð¾ÑĩÐ½Ð¸ÐºÐ¸": 907,
      "Ð¾ÑħÑĢÐ°Ð½": 908,
      "Ð¾ÑĦÐ¸Ð»Ð°Ðº": 909,
      "ĠÐ¡Ð»Ð¾Ð²": 910,
      "ĠÐ¡Ð¾ÑħÑĢÐ°Ð½": 911,
      "ĠÐºÐ»Ñİ": 912,
      "ĠÐºÑĢÐ°ÑģÐ¾ÑĤ": 913,
      "ĠÐĴÑģÐµÐ»": 914,
      "ĠÐĴÑĢÐ°ÑĩÐ¸": 915,
      "ĠÐłÑĭÐ½ÐºÐ¸": 916,
      "ĠÐłÑĥÑģÑģÐºÐ¸Ð¹": 917,
      "ĠÐŁÑĢÐ¾Ð³ÑĢÐ°Ð¼": 918,
      "ĠÐŁÑĢÐ¾ÑĦÐ¸Ð»Ð°Ðº": 919,
      "Ð¾Ð¿Ð¸ÑģÑĮ": 920,
      "ÑĭÑĤÐ¸Ñı": 921,
      "ÑĭÐ²Ð°ÑĤÑĮ": 922,
      "Ð»ÑĮÐ½ÑĭÐµ": 923,
      "Ð»ÑĮÐ½Ð¾ÑģÑĤÑĮ": 924,
      "ĠÐ¸Ð½ÑĤÐµÐ»Ð»ÐµÐº": 925,
      "ĠÐ¸Ð½ÑĤÐµÑĢÐ½ÐµÑĤ": 926,
      "ĠÑģÐ¿Ð°Ñģ": 927,
      "ĠÑģÐ¿ÑĢÐ°Ð²ÐµÐ´Ð»Ð¸Ð²": 928,
      "ĠÑģÑĢÐµÐ´Ñĭ": 929,
      "ĠÑģÑĢÐµÐ´ÑģÑĤÐ²Ð¾": 930,
      "ĠÐ²Ð°Ð¶Ð½Ð°": 931,
      "ĠÐ²Ð°Ð¶Ð½ÐµÐ¹ÑĪÐ¸Ñħ": 932,
      "ĠÐ¼ÐµÐ½ÑıÑİÑĤ": 933,
      "ĠÐ¼ÐµÐ½ÐµÐµ": 934,
      "ĠÐ¼Ð°ÑĤÐµÐ¼Ð°ÑĤÐ¸ÐºÐ¸": 935,
      "ĠÐ¼Ð°ÑĤÐµÐ¼Ð°ÑĤÐ¸ÑĩÐµÑģÐºÐ¸Ð¹": 936,
      "ĠÐ¾Ð´Ð½Ð¸Ð¼": 937,
      "ĠÐ¾Ð´Ð½Ð¾Ð¹": 938,
      "Ð¾Ð»ÑĮÐ·ÑĥÑİÑĤ": 939,
      "ĠÐ¿ÑĢÐ¸ÑĢÐ¾Ð´Ñĥ": 940,
      "ĠÐ¿ÑĢÐ¸ÑĢÐ¾Ð´Ð½ÑĭÐµ": 941,
      "ĠÐ·Ð°Ð´Ð°Ñĩ": 942,
      "ĠÐ·Ð°Ð´Ð°ÑĳÑĤ": 943,
      "ĠÐ¾ÑĤÐºÑĢÑĭÐ²": 944,
      "ĠÐ¾ÑĤÑĢÐ°Ð¶Ð°ÐµÑĤ": 945,
      "ĠÐ½Ð°ÑĥÐºÐ°": 946,
      "Ð¸ÑĤÐµÐ»ÑĮÐ½Ð°": 947,
      "ĠÐ³Ð»ÑĥÐ±Ð¸": 948,
      "ĠÐ³Ð»Ð°Ð²Ð½ÑĭÑħ": 949,
      "ĠÐ¶Ð¸Ð²ÑĭÐµ": 950,
      "ĠÐ¶Ð¸Ð²Ð¾Ð¿Ð¸ÑģÑĮ": 951,
      "ĠÐ»ÐµÑĩÐµÐ½Ð¸Ñı": 952,
      "ĠÐ»ÐµÑĩÐµÐ½Ð¸Ðµ": 953,
      "ĠÐ»ÑİÐ´ÐµÐ¹": 954,
      "ĠÐ»ÑİÐ´ÑĮÐ¼": 955,
      "ĠÐ¿ÑĢÐ¾ÑĪÐ»Ð¾Ð¼": 956,
      "ĠÐ¿ÑĢÐ¾ÑĪÐ»Ð¾Ð³Ð¾": 957,
      "ĠÑĩÐµÐ»Ð¾Ð²ÐµÑĩÐµÑģÐºÐ¾Ð¹": 958,
      "ĠÑĩÐµÐ»Ð¾Ð²ÐµÑĩÐµÑģÐºÐ¾Ð³Ð¾": 959,
      "Ð½ÑĥÑĤÑĮ": 960,
      "ĠÐ¿Ð¾Ð·Ð²Ð¾Ð»ÑıÑİÑĤ": 961,
      "ĠÐ¿Ð¾Ð·Ð²Ð¾Ð»ÑıÐµÑĤ": 962,
      "ĠÐ¾ÐºÑĢÑĥÐ¶Ð°ÑİÑīÐµÐ¹": 963,
      "ĠÐ¾ÐºÑĢÑĥÐ¶Ð°ÑİÑīÐµÐ³Ð¾": 964,
      "´ÐµÑĤÐµÐ»ÑĮÑģÑĤÐ²Ð°": 965,
      "ÐĿÐ°ÑĥÐº": 966,
      "ÐŃÐºÐ¾Ð½Ð¾Ð¼": 967,
      "ÐŁÑĢÐ¸ÑĢÐ¾Ð´Ð°": 968,
      "Ð¢ÐµÑħÐ½Ð¾Ð»Ð¾Ð³": 969,
      "Ð¤Ð¸Ð»Ð¾ÑģÐ¾ÑĦ": 970,
      "ĠÑħÐ¸Ð¼Ð¸Ñı": 971,
      "ĠÐ°Ð½Ð°ÑĤÐ¾Ð¼": 972,
      "ĠÑĢÐ°ÑģÐ¿ÑĢÐµÐ´ÐµÐ»ÐµÐ½Ð¸ÐµÐ¼": 973,
      "ĠÐ½Ð¾Ð²ÑĭÐµ": 974,
      "ĠÐ¾ÑĢÐ³Ð°Ð½Ð¸Ð·Ð¼Ñĭ": 975,
      "ÐµÐ¾Ð»Ð¾Ð³Ð¸ÑĩÐµÑģÐºÐ¸Ðµ": 976,
      "Ð°Ð»Ð¸ÑģÑĮ": 977,
      "ĠÐºÐ¾ÑĤÐ¾ÑĢ": 978,
      "ĠÐ£ÑĩÑĳÐ½ÑĭÐµ": 979,
      "ĠÐ¤Ð¸Ð·Ð¸ÐºÐ°": 980,
      "ĠÐ¥ÑĥÐ´Ð¾Ð¶": 981,
      "ĠÐ§Ð¸ÑģÐ»Ð°": 982,
      "ĠÐĲÐ»Ð³ÐµÐ±ÑĢÐ°": 983,
      "ĠÐĵÐ¾ÑĢÑĭ": 984,
      "ĠÐĹÐµÐ¼Ð»Ð¸": 985,
      "ĠÐĺÑģÑĤÐ¾ÑĢÐ¸ÐºÐ¸": 986,
      "ĠÐļÐ¾Ð¼Ð¿ÑĮÑİÑĤ": 987,
      "ĠÐĽÐ¸ÑĤÐµÑĢÐ°ÑĤÑĥÑĢÐ°": 988,
      "ĠÐľÑĭÑģÐ»Ð¸ÑĤÐµÐ»Ð¸": 989,
      "ĠÐŁÐ¾Ð½Ð¸Ð¼Ð°Ð½Ð¸Ðµ": 990,
      "ÑĢÐµÐ½Ð½Ð¸Ð¹": 991,
      "ÑĢÐ¾ÑģÑĭ": 992,
      "ÑıÑģÐ½ÑıÑİÑīÐ¸Ðµ": 993,
      "ÑĩÐµÐ²ÑĥÑİ": 994,
      "Ð°Ð¼ÐµÐ½ÑĤ": 995,
      "ĠÐ¸ÑģÑĤÐ¾ÑĩÐ½Ð¸ÐºÐ¸": 996,
      "ĠÐ¸ÑģÑĤÐ¸Ð½Ðµ": 997,
      "ĠÐ¸ÑģÐ¿Ð¾Ð»ÑĮÐ·ÑĥÑİÑĤ": 998,
      "ĠÐ¸ÑģÑĤÐ¾ÑĢÐ¸ÐµÐ¹": 999
    },
    "merges": [
      [
        "Ð",
        "¸"
      ],
      [
        "Ð",
        "µ"
      ],
      [
        "Ð",
        "¾"
      ],
      [
        "Ð",
        "°"
      ],
      [
        "Ð",
        "½"
      ],
      [
        "Ġ",
        "Ð"
      ],
      [
        "Ñ",
        "Ĥ"
      ],
      [
        "Ð¾",
        "Ð"
      ],
      [
        "Ñ",
        "Ģ"
      ],
      [
        "Ñ",
        "ģ"
      ],
      [
        "Ðµ",
        "Ð"
      ],
      [
        "Ð¸",
        "Ð"
      ],
      [
        "Ñ",
        "ĭ"
      ],
      [
        "Ñ",
        "ĥ"
      ],
      [
        "Ñ",
        "ı"
      ],
      [
        "Ð",
        "»"
      ],
      [
        "Ñ",
        "ĩ"
      ],
      [
        "Ð°",
        "Ð"
      ],
      [
        "Ġ",
        "Ð¸"
      ],
      [
        "Ðµ",
        "Ð½"
      ],
      [
        "Ñģ",
        "ÑĤ"
      ],
      [
        "Ð¾Ð",
        "²"
      ],
      [
        "Ð",
        "º"
      ],
      [
        "Ñ",
        "Į"
      ],
      [
        "Ñ",
        "İ"
      ],
      [
        "Ð",
        "²"
      ],
      [
        "ĠÐ",
        "¿"
      ],
      [
        "Ġ",
        "Ñģ"
      ],
      [
        "Ð¸",
        "Ñı"
      ],
      [
        "Ñ",
        "ħ"
      ],
      [
        "Ðµ",
        "ÑĤ"
      ],
      [
        "Ġ",
        "Ñ"
      ],
      [
        "Ð°",
        "ÑĤ"
      ],
      [
        "ÐµÐ",
        "»"
      ],
      [
        "Ð½",
        "Ð°"
      ],
      [
        "Ð½",
        "Ñĭ"
      ],
      [
        "ĠÐ",
        "²"
      ],
      [
        "ĠÐ",
        "¼"
      ],
      [
        "Ñİ",
        "ÑĤ"
      ],
      [
        "Ð",
        "¼"
      ],
      [
        "Ð¾",
        "ÑĢ"
      ],
      [
        "ÐµÐ",
        "¼"
      ],
      [
        "Ð¸Ð",
        "·"
      ],
      [
        "Ð½",
        "Ð¾Ð"
      ],
      [
        "Ġ",
        "Ð¾Ð"
      ],
      [
        "Ð¸",
        "ÑĢ"
      ],
      [
        "ĠÐ",
        "·"
      ],
      [
        "ÑĢ",
        "Ð°Ð"
      ],
      [
        "Ð",
        "´"
      ],
      [
        "Ð¾Ð",
        "³"
      ],
      [
        "Ð¾Ð",
        "»"
      ],
      [
        "Ð¸Ð",
        "º"
      ],
      [
        "Ñ",
        "Ī"
      ],
      [
        "Ð°",
        "Ð½"
      ],
      [
        "Ð°",
        "ÐµÑĤ"
      ],
      [
        "ĠÐ¿",
        "ÑĢ"
      ],
      [
        "ĠÐ·",
        "Ð°Ð"
      ],
      [
        "Ð",
        "¿"
      ],
      [
        "Ġ",
        "Ñĩ"
      ],
      [
        "Ð¸",
        "Ð¸"
      ],
      [
        "Ðµ",
        "ÑĢ"
      ],
      [
        "Ðµ",
        "Ñģ"
      ],
      [
        "Ðµ",
        "Ñĩ"
      ],
      [
        "ĠÐ",
        "´"
      ],
      [
        "ÐµÐ",
        "´"
      ],
      [
        "ÐµÐ½",
        "Ð¸Ñı"
      ],
      [
        "ÑģÑĤ",
        "Ð²"
      ],
      [
        "Ñ",
        "ī"
      ],
      [
        "Ġ",
        "Ð¾"
      ],
      [
        "Ð¸",
        "Ðµ"
      ],
      [
        "Ð½",
        "Ð¾"
      ],
      [
        "ÐµÐ",
        "¹"
      ],
      [
        "Ð»",
        "Ñı"
      ],
      [
        "ĠÑ",
        "Ħ"
      ],
      [
        "ĠÑ",
        "į"
      ],
      [
        "ÐµÐ»",
        "Ð¾Ð²"
      ],
      [
        "ĠÑĩ",
        "ÐµÐ»Ð¾Ð²"
      ],
      [
        "Ð",
        "³"
      ],
      [
        "Ġ",
        "Ð½Ð°"
      ],
      [
        "Ð¸",
        "ÑĤ"
      ],
      [
        "Ð¸",
        "Ñģ"
      ],
      [
        "Ð¾Ð",
        "·"
      ],
      [
        "ÑĢ",
        "Ð°"
      ],
      [
        "ÑĢ",
        "ÐµÐ¼"
      ],
      [
        "Ð½Ñĭ",
        "Ðµ"
      ],
      [
        "º",
        "Ð¾"
      ],
      [
        "Ġ",
        "Ñĥ"
      ],
      [
        "Ð°",
        "ÑİÑĤ"
      ],
      [
        "Ð½",
        "Ð¾Ð²"
      ],
      [
        "ĠÐ",
        "³"
      ],
      [
        "ĠÐ",
        "¶"
      ],
      [
        "ĠÐ",
        "»"
      ],
      [
        "Ð¾Ð",
        "´"
      ],
      [
        "Ð¾Ð",
        "¼"
      ],
      [
        "Ñģ",
        "Ð»"
      ],
      [
        "ÐµÐ",
        "²"
      ],
      [
        "Ð¸Ð",
        "²"
      ],
      [
        "Ð¸Ð",
        "¼"
      ],
      [
        "Ñĥ",
        "ÑİÑĤ"
      ],
      [
        "ÐµÐ½",
        "Ð½Ð¾Ð"
      ],
      [
        "ÑģÑĤ",
        "Ð¸"
      ],
      [
        "Ð¸Ðº",
        "Ð°"
      ],
      [
        "ÐµÑģ",
        "Ðº"
      ],
      [
        "·",
        "Ñĭ"
      ],
      [
        "Ñ",
        "Ĩ"
      ],
      [
        "â",
        "Ģ"
      ],
      [
        "Ġ",
        "Ð°"
      ],
      [
        "Ġ",
        "ÑĢ"
      ],
      [
        "Ġ",
        "Ñı"
      ],
      [
        "Ġ",
        "Ð¸Ð·"
      ],
      [
        "Ġ",
        "âĢ"
      ],
      [
        "Ð¸",
        "Ñĩ"
      ],
      [
        "Ð¸",
        "Ñħ"
      ],
      [
        "Ðµ",
        "ÑģÑĤÐ²"
      ],
      [
        "Ð½",
        "ÐµÐ¹"
      ],
      [
        "Ð¾Ð",
        "¹"
      ],
      [
        "ÑĢ",
        "Ñĥ"
      ],
      [
        "ÐµÐ",
        "º"
      ],
      [
        "Ð¸Ð",
        "¹"
      ],
      [
        "Ð¸Ð",
        "»"
      ],
      [
        "Ñĭ",
        "ÑģÐ»"
      ],
      [
        "Ð¾Ð²",
        "ÑĢÐµÐ¼"
      ],
      [
        "ĠÑģ",
        "Ð¾Ð²ÑĢÐµÐ¼"
      ],
      [
        "Ð½Ñĭ",
        "Ñħ"
      ],
      [
        "ĠÐ¼",
        "Ð¸ÑĢ"
      ],
      [
        "Ð¼",
        "Ð¸ÑĢ"
      ],
      [
        "Ð½Ð¾Ð",
        "¼"
      ],
      [
        "ĠÐ¾Ð",
        "±"
      ],
      [
        "ÑĢÐ°Ð",
        "²"
      ],
      [
        "ÑĢÐ°Ð",
        "·"
      ],
      [
        "Ð¾Ð»",
        "Ð¾Ð³"
      ],
      [
        "Ð¸Ðº",
        "Ð¸"
      ],
      [
        "ĠÐ¿ÑĢ",
        "Ð¾"
      ],
      [
        "ĠÐ·Ð°Ð",
        "ºÐ¾"
      ],
      [
        "ĠÑĦ",
        "Ð¾ÑĢ"
      ],
      [
        "ĠÑĩÐµÐ»Ð¾Ð²",
        "ÐµÑĩ"
      ],
      [
        "ĠâĢ",
        "Ķ"
      ],
      [
        "ĠÑģÐ¾Ð²ÑĢÐµÐ¼",
        "ÐµÐ½Ð½Ð¾Ð"
      ],
      [
        "º",
        "ÑĢÑĥ"
      ],
      [
        "Ð",
        "·Ñĭ"
      ],
      [
        "Ñ",
        "ĳ"
      ],
      [
        "Ġ",
        "ÑĤ"
      ],
      [
        "Ġ",
        "ÑģÑĤ"
      ],
      [
        "Ġ",
        "ÑĢÐ°Ð·"
      ],
      [
        "Ł",
        "ÑĢ"
      ],
      [
        "Ð¾",
        "Ñģ"
      ],
      [
        "Ð½",
        "Ð¸"
      ],
      [
        "Ð½",
        "Ð¸Ð¼"
      ],
      [
        "ĠÐ",
        "±"
      ],
      [
        "Ð¾Ð",
        "¶"
      ],
      [
        "ÑĢ",
        "ÐµÐ´"
      ],
      [
        "Ñģ",
        "Ñı"
      ],
      [
        "Ñģ",
        "Ðº"
      ],
      [
        "Ñģ",
        "Ð¿"
      ],
      [
        "Ñģ",
        "Ð½Ð¾Ð²"
      ],
      [
        "Ñĭ",
        "Ðµ"
      ],
      [
        "Ñĥ",
        "Ñģ"
      ],
      [
        "Ñĥ",
        "Ñĩ"
      ],
      [
        "Ñĥ",
        "Ðº"
      ],
      [
        "Ñı",
        "ÑĤ"
      ],
      [
        "Ð°Ð",
        "²"
      ],
      [
        "ÑģÑĤ",
        "Ð¾ÑĢ"
      ],
      [
        "Ñİ",
        "Ñī"
      ],
      [
        "Ð²",
        "Ð¸Ð"
      ],
      [
        "ĠÑģ",
        "Ð¾Ð·"
      ],
      [
        "Ð°ÑĤ",
        "ÐµÐ¼"
      ],
      [
        "ÐµÐ»",
        "ÑĮ"
      ],
      [
        "Ð¸ÑĢ",
        "Ð¾Ð´"
      ],
      [
        "ÑĪ",
        "Ð¸Ñħ"
      ],
      [
        "ĠÐ¾",
        "ÑģÐ½Ð¾Ð²"
      ],
      [
        "Ð½Ð¾",
        "ÑģÑĤÐ¸"
      ],
      [
        "Ð»Ñı",
        "ÐµÑĤ"
      ],
      [
        "ĠÑį",
        "Ðº"
      ],
      [
        "ĠÑĩÐµÐ»Ð¾Ð²",
        "ÐµÐº"
      ],
      [
        "Ð¸Ñģ",
        "ÑĮ"
      ],
      [
        "ĠÐ¶",
        "Ð¸Ð·"
      ],
      [
        "ĠÑı",
        "Ð²"
      ],
      [
        "Ð¸Ñĩ",
        "ÐµÑģÐº"
      ],
      [
        "ÐµÑģÑĤÐ²",
        "Ð°"
      ],
      [
        "Ð¼Ð¸ÑĢ",
        "ÑĥÑİÑĤ"
      ],
      [
        "ĠÑĦÐ¾ÑĢ",
        "Ð¼Ð¸ÑĢÑĥÑİÑĤ"
      ],
      [
        "Ð·Ñĭ",
        "Ðº"
      ],
      [
        "Ð°ÑĤÐµÐ¼",
        "Ð°ÑĤ"
      ],
      [
        "ĠÑĩÐµÐ»Ð¾Ð²ÐµÐº",
        "Ð°"
      ],
      [
        "³",
        "Ð¾"
      ],
      [
        "³",
        "ÑĢ"
      ],
      [
        "´",
        "Ð°"
      ],
      [
        "¶",
        "Ð°"
      ],
      [
        "Ð",
        "ĺ"
      ],
      [
        "Ð",
        "ľ"
      ],
      [
        "Ð",
        "¶Ð°"
      ],
      [
        "Ñ",
        "Ħ"
      ],
      [
        "Ġ",
        "Ð½"
      ],
      [
        "Ġ",
        "Ð¸Ð"
      ],
      [
        "Ð¸",
        "Ð¾Ð»Ð¾Ð³"
      ],
      [
        "Ðµ",
        "Ð°"
      ],
      [
        "Ðµ",
        "Ñħ"
      ],
      [
        "Ð¾",
        "ÑĤ"
      ],
      [
        "Ð¾",
        "Ñĩ"
      ],
      [
        "Ð¾",
        "Ñħ"
      ],
      [
        "Ð¾",
        "Ð½Ð¾Ð¼"
      ],
      [
        "Ð¾",
        "ÑĦ"
      ],
      [
        "Ð½",
        "ÑĤ"
      ],
      [
        "Ð½",
        "Ñĥ"
      ],
      [
        "Ð½",
        "Ð¸Ñı"
      ],
      [
        "Ð½",
        "Ð¸ÐºÐ¸"
      ],
      [
        "ĠÐ",
        "¡"
      ],
      [
        "ĠÐ",
        "º"
      ],
      [
        "ĠÐ",
        "Ĵ"
      ],
      [
        "ĠÐ",
        "ł"
      ],
      [
        "ĠÐ",
        "ŁÑĢ"
      ],
      [
        "ÑĤ",
        "Ð¾"
      ],
      [
        "ÑĤ",
        "Ñĭ"
      ],
      [
        "Ð¾Ð",
        "±"
      ],
      [
        "Ð¾Ð",
        "¿"
      ],
      [
        "Ñĭ",
        "ÑĤ"
      ],
      [
        "Ñĭ",
        "Ð²"
      ],
      [
        "Ñı",
        "ÑİÑĤ"
      ],
      [
        "Ð»",
        "ÑĮ"
      ],
      [
        "Ð°Ð",
        "¶"
      ],
      [
        "Ð°Ð",
        "º"
      ],
      [
        "ĠÐ¸",
        "Ð½ÑĤ"
      ],
      [
        "ÐµÐ½",
        "Ð¸Ðµ"
      ],
      [
        "Ðº",
        "Ð¸"
      ],
      [
        "Ñİ",
        "Ð´"
      ],
      [
        "Ð²",
        "Ð¾Ð»"
      ],
      [
        "ĠÐ¿",
        "Ð¾Ð·"
      ],
      [
        "ĠÑģ",
        "Ð¿"
      ],
      [
        "ĠÑģ",
        "ÑĢÐµÐ´"
      ],
      [
        "Ð°ÑĤ",
        "ÑĮ"
      ],
      [
        "ÐµÐ»",
        "Ð¸"
      ],
      [
        "Ð½Ð°",
        "Ð½Ð¸Ñı"
      ],
      [
        "ĠÐ²",
        "Ð°Ð¶"
      ],
      [
        "ĠÐ¼",
        "ÐµÐ½"
      ],
      [
        "ĠÐ¼",
        "ÑĭÑģÐ»"
      ],
      [
        "ĠÐ¼",
        "Ð°ÑĤÐµÐ¼Ð°ÑĤ"
      ],
      [
        "Ð¾ÑĢ",
        "Ð³"
      ],
      [
        "Ð½Ð¾Ð",
        "¹"
      ],
      [
        "ĠÐ¾Ð",
        "´"
      ],
      [
        "ĠÐ¾Ð",
        "ºÑĢÑĥ"
      ],
      [
        "ÑĢÐ°Ð",
        "¼"
      ],
      [
        "Ð´",
        "Ð°ÑİÑĤ"
      ],
      [
        "Ð¾Ð³",
        "Ð¾"
      ],
      [
        "Ð¾Ð»",
        "ÑĮ"
      ],
      [
        "ÑĪ",
        "Ð»"
      ],
      [
        "Ð°Ð½",
        "Ð¸Ðµ"
      ],
      [
        "ĠÐ¿ÑĢ",
        "Ð¸ÑĢÐ¾Ð´"
      ],
      [
        "ĠÐ·Ð°Ð",
        "´Ð°"
      ],
      [
        "ÐµÑĢ",
        "Ð½Ð¾ÑģÑĤÐ¸"
      ],
      [
        "ÑģÑĤÐ²",
        "Ð¾"
      ],
      [
        "Ñī",
        "ÐµÐ½Ð¸Ñı"
      ],
      [
        "ĠÐ¾",
        "ÑĤ"
      ],
      [
        "ĠÑį",
        "ÑĤÐ¾"
      ],
      [
        "ĠÐ½Ð°",
        "ÑĥÐº"
      ],
      [
        "Ð¸ÑĤ",
        "ÐµÐ»ÑĮ"
      ],
      [
        "ĠÐ³",
        "Ð»"
      ],
      [
        "ĠÐ¶",
        "Ð¸Ð²"
      ],
      [
        "ĠÐ»",
        "ÐµÑĩ"
      ],
      [
        "ĠÐ»",
        "ÑİÐ´"
      ],
      [
        "ÑĨ",
        "Ð¸Ð¸"
      ],
      [
        "ĠÐ¸Ð·",
        "ÑĥÑĩ"
      ],
      [
        "Ð½ÐµÐ¹",
        "ÑĪÐ¸Ñħ"
      ],
      [
        "ĠÐ¼Ð¸ÑĢ",
        "Ð°"
      ],
      [
        "Ð½Ð¾Ð¼",
        "ÐµÑĢÐ½Ð¾ÑģÑĤÐ¸"
      ],
      [
        "ĠÐ¿ÑĢÐ¾",
        "ÑĪÐ»"
      ],
      [
        "ĠÐ·Ð°ÐºÐ¾",
        "Ð½Ð¾Ð¼ÐµÑĢÐ½Ð¾ÑģÑĤÐ¸"
      ],
      [
        "ĠÑĩÐµÐ»Ð¾Ð²ÐµÑĩ",
        "ÐµÑģÐº"
      ],
      [
        "ĠÑĩÐµÐ»Ð¾Ð²ÐµÑĩ",
        "ÐµÑģÑĤÐ²Ð°"
      ],
      [
        "ĠÑģÐ¾Ð²ÑĢÐµÐ¼ÐµÐ½Ð½Ð¾Ð",
        "¹"
      ],
      [
        "ÑģÐº",
        "ÑĥÑģ"
      ],
      [
        "ĠÑģÐ¾Ð·",
        "Ð´Ð°ÑİÑĤ"
      ],
      [
        "Ð»ÑıÐµÑĤ",
        "ÑģÑı"
      ],
      [
        "ĠÐ¶Ð¸Ð·",
        "Ð½Ð¸"
      ],
      [
        "ĠÑıÐ²",
        "Ð»ÑıÐµÑĤÑģÑı"
      ],
      [
        "Ð¶Ð°",
        "ÑİÑī"
      ],
      [
        "Ð½Ñĥ",
        "ÑĤ"
      ],
      [
        "ĠÐ¿Ð¾Ð·",
        "Ð²Ð¾Ð»"
      ],
      [
        "ĠÐ¼ÑĭÑģÐ»",
        "Ð¸"
      ],
      [
        "ĠÐ¾ÐºÑĢÑĥ",
        "Ð¶Ð°ÑİÑī"
      ],
      [
        "ĠÐ¸Ð·ÑĥÑĩ",
        "Ð°ÐµÑĤ"
      ],
      [
        "¢",
        "ÐµÑħ"
      ],
      [
        "£",
        "Ñĩ"
      ],
      [
        "¤",
        "Ð¸Ð·"
      ],
      [
        "¤",
        "Ð¸Ð»"
      ],
      [
        "¥",
        "Ñĥ"
      ],
      [
        "§",
        "Ð¸Ñģ"
      ],
      [
        "¯",
        "Ð·ÑĭÐº"
      ],
      [
        "±",
        "Ð¸"
      ],
      [
        "±",
        "Ð¾Ð»"
      ],
      [
        "±",
        "ÑĢÐ°"
      ],
      [
        "³",
        "Ð»Ñı"
      ],
      [
        "³",
        "Ð°ÑİÑĤ"
      ],
      [
        "´",
        "Ðµ"
      ],
      [
        "´",
        "ÐµÑĤ"
      ],
      [
        "´",
        "Ð°ÐµÑĤ"
      ],
      [
        "¶",
        "Ð´"
      ],
      [
        "¶",
        "Ð°ÐµÑĤ"
      ],
      [
        "¶",
        "ÐµÐ½Ð¸Ñı"
      ],
      [
        "·",
        "ÑĥÑİÑĤ"
      ],
      [
        "·",
        "Ð½ÐµÐ¹"
      ],
      [
        "º",
        "ÐµÐ°"
      ],
      [
        "»",
        "Ð¾Ð³"
      ],
      [
        "¼",
        "ÐµÐ½"
      ],
      [
        "¿",
        "ÐµÑĩ"
      ],
      [
        "¿",
        "Ð¸Ñģ"
      ],
      [
        "¿",
        "Ð¾ÑĤ"
      ],
      [
        "Ð",
        "¹"
      ],
      [
        "Ð",
        "Ŀ"
      ],
      [
        "Ð",
        "Ń"
      ],
      [
        "Ð",
        "ŁÑĢ"
      ],
      [
        "Ð",
        "¢ÐµÑħ"
      ],
      [
        "Ð",
        "¤Ð¸Ð»"
      ],
      [
        "Ð",
        "¯Ð·ÑĭÐº"
      ],
      [
        "Ð",
        "±Ð¸"
      ],
      [
        "Ð",
        "·ÑĥÑİÑĤ"
      ],
      [
        "Ñ",
        "Ĭ"
      ],
      [
        "Ġ",
        "Ñħ"
      ],
      [
        "Ġ",
        "Ð°Ð½"
      ],
      [
        "Ġ",
        "ÑĢÐ°"
      ],
      [
        "Ġ",
        "Ð½Ð¾Ð²"
      ],
      [
        "Ġ",
        "Ð¾ÑĢÐ³"
      ],
      [
        "Ĩ",
        "Ð¸Ð²"
      ],
      [
        "Ĳ",
        "Ð»"
      ],
      [
        "ĵ",
        "Ð¾ÑĢ"
      ],
      [
        "Ĺ",
        "ÐµÐ¼"
      ],
      [
        "ĺ",
        "ÑģÑĤÐ¾ÑĢ"
      ],
      [
        "ļ",
        "Ð¾Ð¼"
      ],
      [
        "Ľ",
        "Ð¸ÑĤ"
      ],
      [
        "ľ",
        "ÑĭÑģÐ»"
      ],
      [
        "ŀ",
        "Ð½Ð°"
      ],
      [
        "Ł",
        "Ð¾"
      ],
      [
        "Ð¸",
        "ÑģÑĤ"
      ],
      [
        "Ð¸",
        "Ð½Ð°"
      ],
      [
        "Ð¸",
        "ÐµÐ¼"
      ],
      [
        "Ð¸",
        "ÐµÐ¹"
      ],
      [
        "Ð¸",
        "ÑĨ"
      ],
      [
        "Ð¸",
        "Ð½Ð¸Ð¼"
      ],
      [
        "Ðµ",
        "Ðµ"
      ],
      [
        "Ðµ",
        "ÑģÑĤ"
      ],
      [
        "Ðµ",
        "Ð¾ÑĢ"
      ],
      [
        "Ðµ",
        "ÑĪ"
      ],
      [
        "Ðµ",
        "Ñī"
      ],
      [
        "Ðµ",
        "Ð¾Ð¼"
      ],
      [
        "Ðµ",
        "Ð¾Ð»Ð¾Ð³"
      ],
      [
        "Ð¾",
        "Ð½"
      ],
      [
        "Ð¾",
        "ÑģÑĤ"
      ],
      [
        "Ð¾",
        "ÑģÑĤÐ¸"
      ],
      [
        "Ð¾",
        "ÑıÑĤ"
      ],
      [
        "Ð¾",
        "ÑĨÐ¸Ð¸"
      ],
      [
        "Ð°",
        "ÑĢ"
      ],
      [
        "Ð°",
        "Ñģ"
      ],
      [
        "Ð°",
        "Ð»"
      ],
      [
        "Ð°",
        "ÑĥÐº"
      ],
      [
        "Ð°",
        "ÑĨÐ¸Ð¸"
      ],
      [
        "Ð½",
        "Ðµ"
      ],
      [
        "Ð½",
        "Ñı"
      ],
      [
        "Ð½",
        "ÑĮ"
      ],
      [
        "Ð½",
        "ÐµÑĤ"
      ],
      [
        "Ð½",
        "Ð´"
      ],
      [
        "Ð½",
        "ÐµÐ½Ð¸Ñı"
      ],
      [
        "Ð½",
        "Ð¸ÐºÐ°"
      ],
      [
        "Ð½",
        "Ð¸Ð¹"
      ],
      [
        "Ð½",
        "ÐºÐ¸"
      ],
      [
        "ĠÐ",
        "ºÐ¾"
      ],
      [
        "ĠÐ",
        "£Ñĩ"
      ],
      [
        "ĠÐ",
        "¤Ð¸Ð·"
      ],
      [
        "ĠÐ",
        "¥Ñĥ"
      ],
      [
        "ĠÐ",
        "§Ð¸Ñģ"
      ],
      [
        "ĠÐ",
        "ĲÐ»"
      ],
      [
        "ĠÐ",
        "ĵÐ¾ÑĢ"
      ],
      [
        "ĠÐ",
        "ĹÐµÐ¼"
      ],
      [
        "ĠÐ",
        "ĺÑģÑĤÐ¾ÑĢ"
      ],
      [
        "ĠÐ",
        "ļÐ¾Ð¼"
      ],
      [
        "ĠÐ",
        "ĽÐ¸ÑĤ"
      ],
      [
        "ĠÐ",
        "ľÑĭÑģÐ»"
      ],
      [
        "ĠÐ",
        "ŀÐ½Ð°"
      ],
      [
        "ĠÐ",
        "ŁÐ¾"
      ],
      [
        "ÑĤ",
        "Ð¾ÑĢ"
      ],
      [
        "ÑĤ",
        "Ð¸ÐºÐ°"
      ],
      [
        "Ð¾Ð",
        "ºÑĢÑĥ"
      ],
      [
        "ÑĢ",
        "Ñģ"
      ],
      [
        "ÑĢ",
        "ÐµÐ½"
      ],
      [
        "ÑĢ",
        "Ð¸Ñı"
      ],
      [
        "ÑĢ",
        "Ñħ"
      ],
      [
        "ÑĢ",
        "Ð°Ð½"
      ],
      [
        "ÑĢ",
        "ÐµÐ²"
      ],
      [
        "ÑĢ",
        "Ð¾Ñģ"
      ],
      [
        "ÑĢ",
        "ÑĭÐ²"
      ],
      [
        "ÑĢ",
        "Ð¾ÑıÑĤ"
      ],
      [
        "Ñģ",
        "Ñĭ"
      ],
      [
        "Ñģ",
        "ÐµÐ»"
      ],
      [
        "Ñģ",
        "ÑģÐ»"
      ],
      [
        "Ñģ",
        "ÐµÑħ"
      ],
      [
        "Ñģ",
        "Ð¾ÑĤ"
      ],
      [
        "Ñģ",
        "Ð½Ñı"
      ],
      [
        "ÐµÐ",
        "·Ñĭ"
      ],
      [
        "ÐµÐ",
        "³Ð¾"
      ],
      [
        "ÐµÐ",
        "±ÑĢÐ°"
      ],
      [
        "ÐµÐ",
        "¶Ð´"
      ],
      [
        "ÐµÐ",
        "·Ð½ÐµÐ¹"
      ],
      [
        "Ð¸Ð",
        "¿Ð¾ÑĤ"
      ],
      [
        "Ñĭ",
        "Ðº"
      ],
      [
        "Ñĭ",
        "Ð´"
      ],
      [
        "Ñĭ",
        "Ð½Ð¸"
      ],
      [
        "Ñĭ",
        "Ð½ÐºÐ¸"
      ],
      [
        "Ñĥ",
        "Ð»"
      ],
      [
        "Ñĥ",
        "ÑģÑĤ"
      ],
      [
        "Ñĥ",
        "Ñİ"
      ],
      [
        "Ñĥ",
        "ÑĪ"
      ],
      [
        "Ñĥ",
        "ÑĢÐ°"
      ],
      [
        "Ñĥ",
        "Ð·ÑĭÐº"
      ],
      [
        "Ñĥ",
        "Ð±Ð¸"
      ],
      [
        "Ñĥ",
        "Ð½Ð´"
      ],
      [
        "Ñĥ",
        "ÑĢÑģ"
      ],
      [
        "Ñı",
        "ÐµÑĤ"
      ],
      [
        "Ñı",
        "ÑģÐ½Ñı"
      ],
      [
        "Ð»",
        "Ð¸"
      ],
      [
        "Ð»",
        "Ð°"
      ],
      [
        "Ð»",
        "Ð°Ð"
      ],
      [
        "Ð»",
        "Ð¾Ð²"
      ],
      [
        "Ð»",
        "Ñİ"
      ],
      [
        "Ð»",
        "Ð¸Ð·"
      ],
      [
        "Ð»",
        "ÐµÐ½Ð¸Ñı"
      ],
      [
        "Ð»",
        "ÐµÐ²"
      ],
      [
        "Ð»",
        "Ð¸Ð²"
      ],
      [
        "Ð»",
        "ÐµÐº"
      ],
      [
        "Ð»",
        "Ð¾Ð¶"
      ],
      [
        "Ð»",
        "ÑĥÑĩ"
      ],
      [
        "Ñĩ",
        "Ð¸"
      ],
      [
        "Ñĩ",
        "ÐµÐ²"
      ],
      [
        "Ð°Ð",
        "¼ÐµÐ½"
      ],
      [
        "ĠÐ¸",
        "ÑģÑĤ"
      ],
      [
        "ĠÐ¸",
        "Ñħ"
      ],
      [
        "ĠÐ¸",
        "ÑģÑĤÐ¸"
      ],
      [
        "ĠÐ¸",
        "ÑģÐ¿"
      ],
      [
        "ĠÐ¸",
        "ÑģÑĤÐ¾ÑĢ"
      ],
      [
        "ĠÐ¸",
        "ÑģÐºÑĥÑģ"
      ],
      [
        "ĠÐ¸",
        "ÑģÑģÐ»"
      ],
      [
        "ÐµÐ½",
        "ÑĮ"
      ],
      [
        "ÐµÐ½",
        "Ð½Ñĭ"
      ],
      [
        "ÐµÐ½",
        "Ð½ÑĭÐµ"
      ],
      [
        "ÐµÐ½",
        "Ð½ÑĭÑħ"
      ],
      [
        "ÐµÐ½",
        "ÑĤÑĭ"
      ],
      [
        "ÐµÐ½",
        "Ð¸ÐµÐ¼"
      ],
      [
        "ÑģÑĤ",
        "ÑĮ"
      ],
      [
        "Ð¾Ð²",
        "ÑĮ"
      ],
      [
        "Ð¾Ð²",
        "Ð»Ñı"
      ],
      [
        "Ð¾Ð²",
        "Ð¸ÑĤ"
      ],
      [
        "Ð¾Ð²",
        "Ð¾Ð´"
      ],
      [
        "Ð¾Ð²",
        "Ð°Ð½Ð¸Ðµ"
      ],
      [
        "Ðº",
        "Ð¾Ð½Ð¾Ð¼"
      ],
      [
        "Ðº",
        "ÑĢÑĭÐ²"
      ],
      [
        "ÑĮ",
        "ÑİÑĤ"
      ],
      [
        "ÑĮ",
        "Ð¼"
      ],
      [
        "ÑĮ",
        "Ð½ÑĭÐµ"
      ],
      [
        "Ð²",
        "ÐµÐ´"
      ],
      [
        "Ð²",
        "Ð¸ÑĤ"
      ],
      [
        "ĠÐ¿",
        "ÐµÑĢ"
      ],
      [
        "ĠÐ¿",
        "Ð¸Ñģ"
      ],
      [
        "ĠÐ¿",
        "Ð¾Ð¼"
      ],
      [
        "ĠÐ¿",
        "ÑĢÐ°Ð²"
      ],
      [
        "ĠÐ¿",
        "Ð¸ÑģÑĮ"
      ],
      [
        "ĠÐ¿",
        "ÑĭÑĤ"
      ],
      [
        "ĠÐ¿",
        "Ð¾Ð½"
      ],
      [
        "ĠÐ¿",
        "ÑĥÑģÑĤ"
      ],
      [
        "ĠÑģ",
        "Ð¼"
      ],
      [
        "ĠÑģ",
        "Ð²Ð¸Ð"
      ],
      [
        "ĠÑģ",
        "Ð¾Ð±"
      ],
      [
        "ĠÑģ",
        "Ð¾ÑģÑĤ"
      ],
      [
        "ĠÑģ",
        "Ð»Ð¾Ð¶"
      ],
      [
        "Ñħ",
        "Ð¾Ð´"
      ],
      [
        "ÐµÑĤ",
        "ÑĢÐ¸Ñı"
      ],
      [
        "ĠÑ",
        "ĨÐ¸Ð²"
      ],
      [
        "Ð°ÑĤ",
        "Ð¸Ðº"
      ],
      [
        "Ð°ÑĤ",
        "ÐµÑĢ"
      ],
      [
        "Ð°ÑĤ",
        "Ð¾Ð¼"
      ],
      [
        "Ð°ÑĤ",
        "Ð¾Ð¹"
      ],
      [
        "Ð°ÑĤ",
        "ÐµÐ»Ð¸"
      ],
      [
        "Ð°ÑĤ",
        "ÑĥÑĢÐ°"
      ],
      [
        "Ð°ÑĤ",
        "Ð»ÐµÐ²"
      ],
      [
        "ÐµÐ»",
        "Ð»ÐµÐº"
      ],
      [
        "ÐµÐ»",
        "ÐµÐ½Ð¸ÐµÐ¼"
      ],
      [
        "Ð½Ð°",
        "Ð»Ð¸Ð·"
      ],
      [
        "ĠÐ²",
        "Ð¾"
      ],
      [
        "ĠÐ²",
        "ÐµÑĩ"
      ],
      [
        "ĠÐ²",
        "Ð¾Ð·"
      ],
      [
        "ĠÐ²",
        "ÑĢÐµÐ¼"
      ],
      [
        "ĠÐ²",
        "Ð¾Ð¿"
      ],
      [
        "ĠÐ²",
        "Ð½ÑĥÑĤ"
      ],
      [
        "ĠÐ²",
        "ÐµÑī"
      ],
      [
        "ĠÐ²",
        "Ð¾ÐºÑĢÑĥ"
      ],
      [
        "ĠÐ²",
        "ÑģÐµÑħ"
      ],
      [
        "ĠÐ²",
        "ÑĭÐ´"
      ],
      [
        "ĠÐ¼",
        "ÐµÑģÑĤ"
      ],
      [
        "ĠÐ¼",
        "ÐµÐ¶Ð´"
      ],
      [
        "ĠÐ¼",
        "ÑĥÐ·ÑĭÐº"
      ],
      [
        "ĠÐ¼",
        "Ð°ÑĤÐµÑĢ"
      ],
      [
        "Ð¼",
        "Ñĭ"
      ],
      [
        "Ð¼",
        "Ð¾Ð¶"
      ],
      [
        "Ð¼",
        "Ð°Ðº"
      ],
      [
        "Ð¼",
        "Ð¾ÑĨÐ¸Ð¸"
      ],
      [
        "Ð¼",
        "ÑĥÐ»"
      ],
      [
        "Ð¼",
        "ÐµÐ½Ð½ÑĭÐµ"
      ],
      [
        "Ð¼",
        "Ð°ÑĤÐ¸Ðº"
      ],
      [
        "Ð¾ÑĢ",
        "Ð¾Ð²ÑĮ"
      ],
      [
        "ÐµÐ¼",
        "Ñĭ"
      ],
      [
        "Ð¸Ð·",
        "Ð¸Ð¾Ð»Ð¾Ð³"
      ],
      [
        "Ð¸Ð·",
        "Ð°ÑĨÐ¸Ð¸"
      ],
      [
        "Ð¸Ð·",
        "Ð²ÐµÐ´"
      ],
      [
        "Ð¸Ð·",
        "Ð¼Ñĭ"
      ],
      [
        "Ð½Ð¾Ð",
        "»Ð¾Ð³"
      ],
      [
        "ĠÐ¾Ð",
        "³ÑĢ"
      ],
      [
        "ĠÐ¾Ð",
        "ºÐµÐ°"
      ],
      [
        "ĠÐ¾Ð",
        "¿Ð¸Ñģ"
      ],
      [
        "ĠÐ·",
        "Ð´"
      ],
      [
        "ĠÐ·",
        "Ð½Ð°Ð½Ð¸Ñı"
      ],
      [
        "ÑĢÐ°Ð",
        "¶Ð°ÐµÑĤ"
      ],
      [
        "Ð´",
        "Ð¸Ð²"
      ],
      [
        "Ð´",
        "Ð¾Ð¶"
      ],
      [
        "Ð¾Ð³",
        "Ð°ÐµÑĤ"
      ],
      [
        "Ð¾Ð³",
        "ÑĢÐ°Ð¼"
      ],
      [
        "Ð¾Ð³",
        "Ð°ÑĤÐ¾Ð¹"
      ],
      [
        "Ð¾Ð»",
        "ÐµÐ·Ð½ÐµÐ¹"
      ],
      [
        "ÑĪ",
        "Ñĥ"
      ],
      [
        "ÑĪ",
        "Ð°ÐµÑĤ"
      ],
      [
        "Ð°Ð½",
        "Ð¸Ñĩ"
      ],
      [
        "Ð°Ð½",
        "Ð¸Ð¹"
      ],
      [
        "Ð°Ð½",
        "ÑĤÑĭ"
      ],
      [
        "Ð°Ð½",
        "Ð¾Ð²Ð¸ÑĤ"
      ],
      [
        "Ð°Ð½",
        "Ð¸Ð·Ð¼Ñĭ"
      ],
      [
        "ĠÐ¿ÑĢ",
        "ÐµÐ²"
      ],
      [
        "ĠÐ¿ÑĢ",
        "Ð¸Ð½Ð¸Ð¼"
      ],
      [
        "ĠÐ¿ÑĢ",
        "Ð¾Ð²Ð¾Ð´"
      ],
      [
        "ĠÐ·Ð°Ð",
        "±Ð¾Ð»"
      ],
      [
        "ĠÐ·Ð°Ð",
        "³Ð»Ñı"
      ],
      [
        "ĠÐ·Ð°Ð",
        "¿ÐµÑĩ"
      ],
      [
        "Ð¿",
        "ÑĢÐ°Ð²"
      ],
      [
        "Ð¿",
        "Ð¾Ñħ"
      ],
      [
        "Ð¿",
        "ÑĮÑİÑĤ"
      ],
      [
        "ĠÑĩ",
        "ÐµÐ¼"
      ],
      [
        "ÐµÑĢ",
        "Ñĭ"
      ],
      [
        "ÐµÑĢ",
        "Ð¸Ð¼"
      ],
      [
        "ÐµÑĢ",
        "Ð½ÐµÑĤ"
      ],
      [
        "ÐµÑĢ",
        "Ð°ÑĤÑĥÑĢÐ°"
      ],
      [
        "ÐµÑģ",
        "Ð°"
      ],
      [
        "ÐµÑģ",
        "ÑģÑĭ"
      ],
      [
        "ÐµÑģ",
        "ÑĥÑĢÑģ"
      ],
      [
        "ĠÐ´",
        "Ð¾"
      ],
      [
        "ĠÐ´",
        "Ð»Ñı"
      ],
      [
        "ĠÐ´",
        "Ð½ÐµÐ¹"
      ],
      [
        "ĠÐ´",
        "ÑĢÑĥ"
      ],
      [
        "ĠÐ´",
        "Ð²Ð¸Ð"
      ],
      [
        "ĠÐ´",
        "ÑĢÐµÐ²"
      ],
      [
        "ĠÐ´",
        "ÑĥÑĪ"
      ],
      [
        "ĠÐ´",
        "ÐµÐ½ÑĮ"
      ],
      [
        "ÐµÐ´",
        "Ð°ÑİÑĤ"
      ],
      [
        "ÐµÐ´",
        "ÑĥÑİÑĤ"
      ],
      [
        "ÐµÐ´",
        "Ð¸ÑĨ"
      ],
      [
        "ÐµÐ´",
        "Ð»Ð¸Ð²"
      ],
      [
        "ÑģÑĤÐ²",
        "Ð°"
      ],
      [
        "ÑģÑĤÐ²",
        "ÐµÐ½Ð½Ñĭ"
      ],
      [
        "Ñī",
        "ÐµÑģÑĤÐ²Ð°"
      ],
      [
        "Ð½Ð¾",
        "Ðµ"
      ],
      [
        "Ð½Ð¾",
        "Ð¾Ð±"
      ],
      [
        "Ð½Ð¾",
        "ÑģÑĤÑĮ"
      ],
      [
        "Ð»Ñı",
        "ÑİÑĤ"
      ],
      [
        "ĠÑĦ",
        "Ð°ÑĢ"
      ],
      [
        "ĠÑĦ",
        "ÑĥÐ½Ð´"
      ],
      [
        "ĠÑĦ",
        "Ð¸Ð·Ð¸Ð¾Ð»Ð¾Ð³"
      ],
      [
        "ĠÑį",
        "Ð¼Ð¾ÑĨÐ¸Ð¸"
      ],
      [
        "ĠÑį",
        "Ð¿Ð¾Ñħ"
      ],
      [
        "Ð³",
        "Ð¸"
      ],
      [
        "Ð³",
        "Ð¸Ðµ"
      ],
      [
        "Ð³",
        "ÐµÐ±ÑĢÐ°"
      ],
      [
        "ĠÐ½Ð°",
        "Ñģ"
      ],
      [
        "ĠÐ½Ð°",
        "ÑĪÐ¸Ñħ"
      ],
      [
        "ĠÐ½Ð°",
        "ÑħÐ¾Ð´"
      ],
      [
        "ĠÐ½Ð°",
        "ÑĪÑĥ"
      ],
      [
        "Ð¸ÑĤ",
        "ÐµÐ»Ð¸"
      ],
      [
        "ÑĢÐ°",
        "ÑīÐµÐ½Ð¸Ñı"
      ],
      [
        "ÑĢÐ°",
        "ÑģÐ¾ÑĤ"
      ],
      [
        "ÑĢÐ°",
        "ÑĩÐ¸"
      ],
      [
        "ÑĢÐµÐ¼",
        "Ð¸ÑĤÐµÐ»ÑĮ"
      ],
      [
        "ĠÑĥ",
        "ÑĢÐ°Ð²"
      ],
      [
        "ĠÑĥ",
        "Ð½Ð¸ÐºÐ°"
      ],
      [
        "ĠÑĥ",
        "Ð»ÑĥÑĩ"
      ],
      [
        "ĠÑĥ",
        "Ð´Ð¸Ð²"
      ],
      [
        "ĠÑĥ",
        "Ð¿ÑĢÐ°Ð²"
      ],
      [
        "ĠÐ³",
        "ÑĢÐ°Ð¼"
      ],
      [
        "ĠÐ³",
        "ÐµÐ¾Ð¼"
      ],
      [
        "ĠÐ³",
        "Ð¸Ð¿Ð¾ÑĤ"
      ],
      [
        "ĠÐ»",
        "ÐµÑģÐ°"
      ],
      [
        "ÐµÐ²",
        "Ð°Ð½Ð¸Ð¹"
      ],
      [
        "Ð¸Ð¼",
        "Ð¸Ñı"
      ],
      [
        "ÐµÐ½Ð½Ð¾Ð",
        "¹"
      ],
      [
        "ÑĨ",
        "ÐµÑģÑģÑĭ"
      ],
      [
        "ĠÐ°",
        "ÑĢÑħ"
      ],
      [
        "ĠÐ°",
        "Ð½Ð°Ð»Ð¸Ð·"
      ],
      [
        "ĠÑĢ",
        "ÐµÐ°"
      ],
      [
        "ĠÑĢ",
        "Ð¾Ð»ÑĮ"
      ],
      [
        "ĠÑĢ",
        "ÐµÑĪ"
      ],
      [
        "ĠÑĢ",
        "ÐµÑģÑĥÑĢÑģ"
      ],
      [
        "ĠÑı",
        "Ð·ÑĭÐº"
      ],
      [
        "Ð¸Ð»",
        "Ð°Ðº"
      ],
      [
        "Ð¸Ð»",
        "ÑĮÐ½ÑĭÐµ"
      ],
      [
        "Ð¸Ð»",
        "Ð¸Ð·Ð°ÑĨÐ¸Ð¸"
      ],
      [
        "ÑĭÑģÐ»",
        "Ðµ"
      ],
      [
        "ĠÐ¼Ð¸ÑĢ",
        "Ðµ"
      ],
      [
        "Ð¼Ð¸ÑĢ",
        "Ð¾Ð²Ð°Ð½Ð¸Ðµ"
      ],
      [
        "ĠÐ¾Ð±",
        "ÑīÐµÐ½Ð¸Ñı"
      ],
      [
        "ĠÐ¾Ð±",
        "ÑĬ"
      ],
      [
        "ĠÐ¾Ð±",
        "Ð»Ð°Ð"
      ],
      [
        "ĠÐ¾Ð±",
        "ÑīÐµÑģÑĤÐ²Ð°"
      ],
      [
        "ÑĢÐ°Ð²",
        "ÐµÐ´Ð»Ð¸Ð²"
      ],
      [
        "ÑĢÐ°Ð·",
        "Ð½Ð°"
      ],
      [
        "Ð¾Ð»Ð¾Ð³",
        "Ð¸Ð¸"
      ],
      [
        "ĠÐ¿ÑĢÐ¾",
        "Ð¸Ð·Ð²ÐµÐ´"
      ],
      [
        "ĠÐ¿ÑĢÐ¾",
        "ÑĨÐµÑģÑģÑĭ"
      ],
      [
        "ĠÐ·Ð°ÐºÐ¾",
        "Ð½Ñĭ"
      ],
      [
        "ĠÐ·Ð°ÐºÐ¾",
        "Ð½Ð¾Ð²"
      ],
      [
        "ĠÑĦÐ¾ÑĢ",
        "Ð¼ÑĥÐ»"
      ],
      [
        "ĠÑģÐ¾Ð²ÑĢÐµÐ¼ÐµÐ½Ð½Ð¾Ð",
        "¼"
      ],
      [
        "ĠÑģÐ¾Ð²ÑĢÐµÐ¼ÐµÐ½Ð½Ð¾Ð",
        "³Ð¾"
      ],
      [
        "Ñĳ",
        "Ð½"
      ],
      [
        "Ñĳ",
        "ÑĤ"
      ],
      [
        "Ñĳ",
        "Ð½ÑĭÐµ"
      ],
      [
        "ĠÑĤ",
        "Ð¾Ñĩ"
      ],
      [
        "ĠÑĤ",
        "Ð¾ÑĢÐ³"
      ],
      [
        "ĠÑĤ",
        "ÐµÐ¾ÑĢ"
      ],
      [
        "ĠÑģÑĤ",
        "ÑĢÐ¾ÑıÑĤ"
      ],
      [
        "ĠÑģÑĤ",
        "Ð°Ð½Ð¾Ð²Ð¸ÑĤ"
      ],
      [
        "ĠÑģÑĤ",
        "ÑĢÐµÐ¼Ð¸ÑĤÐµÐ»ÑĮ"
      ],
      [
        "ĠÑĢÐ°Ð·",
        "Ð½ÑĭÑħ"
      ],
      [
        "ĠÑĢÐ°Ð·",
        "Ð²Ð¸ÑĤ"
      ],
      [
        "ĠÑĢÐ°Ð·",
        "Ð½Ð¾Ð¾Ð±"
      ],
      [
        "Ð¾Ñģ",
        "Ð¾ÑĦ"
      ],
      [
        "Ð¾Ñģ",
        "Ð¸ÑģÑĤ"
      ],
      [
        "Ð½Ð¸Ð¼",
        "Ð°Ð½Ð¸Ðµ"
      ],
      [
        "ĠÐ±",
        "Ð¸Ð¾Ð»Ð¾Ð³"
      ],
      [
        "ĠÐ±",
        "Ð¾Ð³Ð°ÑĤÐ¾Ð¹"
      ],
      [
        "ĠÐ±",
        "Ð¾Ð»ÐµÐ·Ð½ÐµÐ¹"
      ],
      [
        "ÑĢÐµÐ´",
        "ÐµÐ»ÐµÐ½Ð¸ÐµÐ¼"
      ],
      [
        "ÑģÐº",
        "Ð¸Ð¹"
      ],
      [
        "ÑģÐ¿",
        "ÐµÑĢÐ¸Ð¼"
      ],
      [
        "ÑģÐ¿",
        "ÑĢÐµÐ´ÐµÐ»ÐµÐ½Ð¸ÐµÐ¼"
      ],
      [
        "ÑĥÑģ",
        "ÑģÐºÐ¸Ð¹"
      ],
      [
        "ÑıÑĤ",
        "ÑĮ"
      ],
      [
        "Ð°Ð²",
        "Ð½ÑĭÑħ"
      ],
      [
        "Ð°Ð²",
        "ÑĭÐº"
      ],
      [
        "Ð°Ð²",
        "Ð»ÑıÑİÑĤ"
      ],
      [
        "ÑģÑĤÐ¾ÑĢ",
        "Ð¸Ñı"
      ],
      [
        "ÑİÑī",
        "Ð¸Ðµ"
      ],
      [
        "Ð²Ð¸Ð",
        "³Ð°ÑİÑĤ"
      ],
      [
        "ĠÑģÐ¾Ð·",
        "Ð½Ð°Ð½Ð¸Ñı"
      ],
      [
        "ÐµÐ»ÑĮ",
        "ÑģÑĤÐ²Ð°"
      ],
      [
        "Ð¸ÑĢÐ¾Ð´",
        "Ð°"
      ],
      [
        "ĠÐ¾ÑģÐ½Ð¾Ð²",
        "Ñĥ"
      ],
      [
        "ĠÐ¾ÑģÐ½Ð¾Ð²",
        "Ð¾Ð¹"
      ],
      [
        "ĠÐ¾ÑģÐ½Ð¾Ð²",
        "Ð½Ð¾Ðµ"
      ],
      [
        "ĠÑįÐº",
        "Ð¾Ð½Ð¾Ð¼"
      ],
      [
        "ĠÑįÐº",
        "Ð¾ÑģÐ¸ÑģÑĤ"
      ],
      [
        "ĠÑįÐº",
        "ÑģÐ¿ÐµÑĢÐ¸Ð¼"
      ],
      [
        "ĠÐ¶Ð¸Ð·",
        "Ð½ÑĮ"
      ],
      [
        "ĠÑıÐ²",
        "Ð»ÐµÐ½Ð¸Ñı"
      ],
      [
        "Ð¸ÑĩÐµÑģÐº",
        "Ð¸Ðµ"
      ],
      [
        "Ð¸ÑĩÐµÑģÐº",
        "Ð¸Ñħ"
      ],
      [
        "Ð¸ÑĩÐµÑģÐº",
        "Ð¸Ð¹"
      ],
      [
        "Ð°ÑĤÐµÐ¼Ð°ÑĤ",
        "Ð¸ÐºÐ°"
      ],
      [
        "³ÑĢ",
        "Ð°ÐµÑĤ"
      ],
      [
        "Ðĺ",
        "ÑģÐºÑĥÑģ"
      ],
      [
        "Ðĺ",
        "ÑģÑĤÐ¾ÑĢÐ¸Ñı"
      ],
      [
        "Ðľ",
        "ÐµÐ´Ð¸ÑĨ"
      ],
      [
        "Ðľ",
        "Ð°ÑĤÐµÐ¼Ð°ÑĤÐ¸ÐºÐ°"
      ],
      [
        "ĠÐ½",
        "Ðµ"
      ],
      [
        "ĠÐ½",
        "Ð°Ð²ÑĭÐº"
      ],
      [
        "ĠÐ¸Ð",
        "´Ðµ"
      ],
      [
        "ĠÐ¸Ð",
        "³ÑĢÐ°ÐµÑĤ"
      ],
      [
        "Ð¾Ñĩ",
        "Ð½Ð¸ÐºÐ¸"
      ],
      [
        "Ð¾Ñħ",
        "ÑĢÐ°Ð½"
      ],
      [
        "Ð¾ÑĦ",
        "Ð¸Ð»Ð°Ðº"
      ],
      [
        "ĠÐ¡",
        "Ð»Ð¾Ð²"
      ],
      [
        "ĠÐ¡",
        "Ð¾ÑħÑĢÐ°Ð½"
      ],
      [
        "ĠÐº",
        "Ð»Ñİ"
      ],
      [
        "ĠÐº",
        "ÑĢÐ°ÑģÐ¾ÑĤ"
      ],
      [
        "ĠÐĴ",
        "ÑģÐµÐ»"
      ],
      [
        "ĠÐĴ",
        "ÑĢÐ°ÑĩÐ¸"
      ],
      [
        "ĠÐł",
        "ÑĭÐ½ÐºÐ¸"
      ],
      [
        "ĠÐł",
        "ÑĥÑģÑģÐºÐ¸Ð¹"
      ],
      [
        "ĠÐŁÑĢ",
        "Ð¾Ð³ÑĢÐ°Ð¼"
      ],
      [
        "ĠÐŁÑĢ",
        "Ð¾ÑĦÐ¸Ð»Ð°Ðº"
      ],
      [
        "Ð¾Ð¿",
        "Ð¸ÑģÑĮ"
      ],
      [
        "ÑĭÑĤ",
        "Ð¸Ñı"
      ],
      [
        "ÑĭÐ²",
        "Ð°ÑĤÑĮ"
      ],
      [
        "Ð»ÑĮ",
        "Ð½ÑĭÐµ"
      ],
      [
        "Ð»ÑĮ",
        "Ð½Ð¾ÑģÑĤÑĮ"
      ],
      [
        "ĠÐ¸Ð½ÑĤ",
        "ÐµÐ»Ð»ÐµÐº"
      ],
      [
        "ĠÐ¸Ð½ÑĤ",
        "ÐµÑĢÐ½ÐµÑĤ"
      ],
      [
        "ĠÑģÐ¿",
        "Ð°Ñģ"
      ],
      [
        "ĠÑģÐ¿",
        "ÑĢÐ°Ð²ÐµÐ´Ð»Ð¸Ð²"
      ],
      [
        "ĠÑģÑĢÐµÐ´",
        "Ñĭ"
      ],
      [
        "ĠÑģÑĢÐµÐ´",
        "ÑģÑĤÐ²Ð¾"
      ],
      [
        "ĠÐ²Ð°Ð¶",
        "Ð½Ð°"
      ],
      [
        "ĠÐ²Ð°Ð¶",
        "Ð½ÐµÐ¹ÑĪÐ¸Ñħ"
      ],
      [
        "ĠÐ¼ÐµÐ½",
        "ÑıÑİÑĤ"
      ],
      [
        "ĠÐ¼ÐµÐ½",
        "ÐµÐµ"
      ],
      [
        "ĠÐ¼Ð°ÑĤÐµÐ¼Ð°ÑĤ",
        "Ð¸ÐºÐ¸"
      ],
      [
        "ĠÐ¼Ð°ÑĤÐµÐ¼Ð°ÑĤ",
        "Ð¸ÑĩÐµÑģÐºÐ¸Ð¹"
      ],
      [
        "ĠÐ¾Ð´",
        "Ð½Ð¸Ð¼"
      ],
      [
        "ĠÐ¾Ð´",
        "Ð½Ð¾Ð¹"
      ],
      [
        "Ð¾Ð»ÑĮ",
        "Ð·ÑĥÑİÑĤ"
      ],
      [
        "ĠÐ¿ÑĢÐ¸ÑĢÐ¾Ð´",
        "Ñĥ"
      ],
      [
        "ĠÐ¿ÑĢÐ¸ÑĢÐ¾Ð´",
        "Ð½ÑĭÐµ"
      ],
      [
        "ĠÐ·Ð°Ð´Ð°",
        "Ñĩ"
      ],
      [
        "ĠÐ·Ð°Ð´Ð°",
        "ÑĳÑĤ"
      ],
      [
        "ĠÐ¾ÑĤ",
        "ÐºÑĢÑĭÐ²"
      ],
      [
        "ĠÐ¾ÑĤ",
        "ÑĢÐ°Ð¶Ð°ÐµÑĤ"
      ],
      [
        "ĠÐ½Ð°ÑĥÐº",
        "Ð°"
      ],
      [
        "Ð¸ÑĤÐµÐ»ÑĮ",
        "Ð½Ð°"
      ],
      [
        "ĠÐ³Ð»",
        "ÑĥÐ±Ð¸"
      ],
      [
        "ĠÐ³Ð»",
        "Ð°Ð²Ð½ÑĭÑħ"
      ],
      [
        "ĠÐ¶Ð¸Ð²",
        "ÑĭÐµ"
      ],
      [
        "ĠÐ¶Ð¸Ð²",
        "Ð¾Ð¿Ð¸ÑģÑĮ"
      ],
      [
        "ĠÐ»ÐµÑĩ",
        "ÐµÐ½Ð¸Ñı"
      ],
      [
        "ĠÐ»ÐµÑĩ",
        "ÐµÐ½Ð¸Ðµ"
      ],
      [
        "ĠÐ»ÑİÐ´",
        "ÐµÐ¹"
      ],
      [
        "ĠÐ»ÑİÐ´",
        "ÑĮÐ¼"
      ],
      [
        "ĠÐ¿ÑĢÐ¾ÑĪÐ»",
        "Ð¾Ð¼"
      ],
      [
        "ĠÐ¿ÑĢÐ¾ÑĪÐ»",
        "Ð¾Ð³Ð¾"
      ],
      [
        "ĠÑĩÐµÐ»Ð¾Ð²ÐµÑĩÐµÑģÐº",
        "Ð¾Ð¹"
      ],
      [
        "ĠÑĩÐµÐ»Ð¾Ð²ÐµÑĩÐµÑģÐº",
        "Ð¾Ð³Ð¾"
      ],
      [
        "Ð½ÑĥÑĤ",
        "ÑĮ"
      ],
      [
        "ĠÐ¿Ð¾Ð·Ð²Ð¾Ð»",
        "ÑıÑİÑĤ"
      ],
      [
        "ĠÐ¿Ð¾Ð·Ð²Ð¾Ð»",
        "ÑıÐµÑĤ"
      ],
      [
        "ĠÐ¾ÐºÑĢÑĥÐ¶Ð°ÑİÑī",
        "ÐµÐ¹"
      ],
      [
        "ĠÐ¾ÐºÑĢÑĥÐ¶Ð°ÑİÑī",
        "ÐµÐ³Ð¾"
      ],
      [
        "´ÐµÑĤ",
        "ÐµÐ»ÑĮÑģÑĤÐ²Ð°"
      ],
      [
        "ÐĿ",
        "Ð°ÑĥÐº"
      ],
      [
        "ÐŃ",
        "ÐºÐ¾Ð½Ð¾Ð¼"
      ],
      [
        "ÐŁÑĢ",
        "Ð¸ÑĢÐ¾Ð´Ð°"
      ],
      [
        "Ð¢ÐµÑħ",
        "Ð½Ð¾Ð»Ð¾Ð³"
      ],
      [
        "Ð¤Ð¸Ð»",
        "Ð¾ÑģÐ¾ÑĦ"
      ],
      [
        "ĠÑħ",
        "Ð¸Ð¼Ð¸Ñı"
      ],
      [
        "ĠÐ°Ð½",
        "Ð°ÑĤÐ¾Ð¼"
      ],
      [
        "ĠÑĢÐ°",
        "ÑģÐ¿ÑĢÐµÐ´ÐµÐ»ÐµÐ½Ð¸ÐµÐ¼"
      ],
      [
        "ĠÐ½Ð¾Ð²",
        "ÑĭÐµ"
      ],
      [
        "ĠÐ¾ÑĢÐ³",
        "Ð°Ð½Ð¸Ð·Ð¼Ñĭ"
      ],
      [
        "ÐµÐ¾Ð»Ð¾Ð³",
        "Ð¸ÑĩÐµÑģÐºÐ¸Ðµ"
      ],
      [
        "Ð°Ð»",
        "Ð¸ÑģÑĮ"
      ],
      [
        "ĠÐºÐ¾",
        "ÑĤÐ¾ÑĢ"
      ],
      [
        "ĠÐ£Ñĩ",
        "ÑĳÐ½ÑĭÐµ"
      ],
      [
        "ĠÐ¤Ð¸Ð·",
        "Ð¸ÐºÐ°"
      ],
      [
        "ĠÐ¥Ñĥ",
        "Ð´Ð¾Ð¶"
      ],
      [
        "ĠÐ§Ð¸Ñģ",
        "Ð»Ð°"
      ],
      [
        "ĠÐĲÐ»",
        "Ð³ÐµÐ±ÑĢÐ°"
      ],
      [
        "ĠÐĵÐ¾ÑĢ",
        "Ñĭ"
      ],
      [
        "ĠÐĹÐµÐ¼",
        "Ð»Ð¸"
      ],
      [
        "ĠÐĺÑģÑĤÐ¾ÑĢ",
        "Ð¸ÐºÐ¸"
      ],
      [
        "ĠÐļÐ¾Ð¼",
        "Ð¿ÑĮÑİÑĤ"
      ],
      [
        "ĠÐĽÐ¸ÑĤ",
        "ÐµÑĢÐ°ÑĤÑĥÑĢÐ°"
      ],
      [
        "ĠÐľÑĭÑģÐ»",
        "Ð¸ÑĤÐµÐ»Ð¸"
      ],
      [
        "ĠÐŁÐ¾",
        "Ð½Ð¸Ð¼Ð°Ð½Ð¸Ðµ"
      ],
      [
        "ÑĢÐµÐ½",
        "Ð½Ð¸Ð¹"
      ],
      [
        "ÑĢÐ¾Ñģ",
        "Ñĭ"
      ],
      [
        "ÑıÑģÐ½Ñı",
        "ÑİÑīÐ¸Ðµ"
      ],
      [
        "ÑĩÐµÐ²",
        "ÑĥÑİ"
      ],
      [
        "Ð°Ð¼ÐµÐ½",
        "ÑĤ"
      ],
      [
        "ĠÐ¸ÑģÑĤ",
        "Ð¾ÑĩÐ½Ð¸ÐºÐ¸"
      ],
      [
        "ĠÐ¸ÑģÑĤÐ¸",
        "Ð½Ðµ"
      ],
      [
        "ĠÐ¸ÑģÐ¿",
        "Ð¾Ð»ÑĮÐ·ÑĥÑİÑĤ"
      ],
      [
        "ĠÐ¸ÑģÑĤÐ¾ÑĢ",
        "Ð¸ÐµÐ¹"
      ]
    ]
  }
}