{
  "version": "1.0",
  "truncation": null,
  "padding": null,
  "added_tokens": [
    {
      "id": 0,
      "content": "<unk>",
      "single_word": false,
      "lstrip": false,
      "rstrip": false,
      "normalized": false,
      "special": true
    },
    {
      "id": 1,
      "content": "<s>",
      "single_word": false,
      "lstrip": false,
      "rstrip": false,
      "normalized": false,
      "special": true
    },
    {
      "id": 2,
      "content": "</s>",
      "single_word": false,
      "lstrip": false,
      "rstrip": false,
      "normalized": false,
      "special": true
    },
    {
      "id": 3,
      "content": "<pad>",
      "single_word": false,
      "lstrip": false,
      "rstrip": false,
      "normalized": false,
      "special": true
    },
    {
      "id": 4,
      "content": "<|im_start|>",
      "single_word": false,
      "lstrip": false,
      "rstrip": false,
      "normalized": false,
      "special": true
    },
    {
      "id": 5,
      "content": "<|im_end|>",
      "single_word": false,
      "lstrip": false,
      "rstrip": false,
      "normalized": false,
      "special": true
    }
  ],
  "normalizer": null,
  "pre_tokenizer": {
    "type": "ByteLevel",
    "add_prefix_space": false,
    "trim_offsets": true,
    "use_regex": true
  },
  "post_processor": {
    "type": "ByteLevel",
    "add_prefix_space": true,
    "trim_offsets": false,
    "use_regex": true
  },
  "decoder": {
    "type": "ByteLevel",
    "add_prefix_space": true,
    "trim_offsets": true,
    "use_regex": true
  },
  "model": {
    "type": "BPE",
    "dropout": null,
    "unk_token": "<unk>",
    "continuing_subword_prefix": null,
    "end_of_word_suffix": null,
    "fuse_unk": false,
    "byte_fallback": false,
    "ignore_merges": false,
    "vocab": {
      "<unk>": 0,
      "<s>": 1,
      "</s>": 2,
      "<pad>": 3,
      "<|im_start|>": 4,
      "<|im_end|>": 5,
      "\t": 6,
      "\n": 7,
      "\r": 8,
      " ": 9,
      "!": 10,
      "\"": 11,
      "#": 12,
      "$": 13,
      "%": 14,
      "&": 15,
      "'": 16,
      "(": 17,
      ")": 18,
      "*": 19,
      "+": 20,
      ",": 21,
      "-": 22,
      ".": 23,
      "/": 24,
      "0": 25,
      "1": 26,
      "2": 27,
      "3": 28,
      "4": 29,
      "5": 30,
      "6": 31,
      "7": 32,
      "8": 33,
      "9": 34,
      ":": 35,
      ";": 36,
      "<": 37,
      "=": 38,
      ">": 39,
      "?": 40,
      "@": 41,
      "A": 42,
      "B": 43,
      "C": 44,
      "D": 45,
      "E": 46,
      "F": 47,
      "G": 48,
      "H": 49,
      "I": 50,
      "J": 51,
      "K": 52,
      "L": 53,
      "M": 54,
      "N": 55,
      "O": 56,
      "P": 57,
      "Q": 58,
      "R": 59,
      "S": 60,
      "T": 61,
      "U": 62,
      "V": 63,
      "W": 64,
      "X": 65,
      "Y": 66,
      "Z": 67,
      "[": 68,
      "\\": 69,
      "]": 70,
      "^": 71,
      "_": 72,
      "`": 73,
      "a": 74,
      "b": 75,
      "c": 76,
      "d": 77,
      "e": 78,
      "f": 79,
      "g": 80,
      "h": 81,
      "i": 82,
      "j": 83,
      "k": 84,
      "l": 85,
      "m": 86,
      "n": 87,
      "o": 88,
      "p": 89,
      "q": 90,
      "r": 91,
      "s": 92,
      "t": 93,
      "u": 94,
      "v": 95,
      "w": 96,
      "x": 97,
      "y": 98,
      "z": 99,
      "{": 100,
      "|": 101,
      "}": 102,
      "~": 103,
      "¡": 104,
      "¢": 105,
      "£": 106,
      "¤": 107,
      "¥": 108,
      "¦": 109,
      "§": 110,
      "¨": 111,
      "©": 112,
      "ª": 113,
      "«": 114,
      "¬": 115,
      "®": 116,
      "¯": 117,
      "°": 118,
      "±": 119,
      "²": 120,
      "³": 121,
      "´": 122,
      "µ": 123,
      "¶": 124,
      "·": 125,
      "¸": 126,
      "¹": 127,
      "º": 128,
      "»": 129,
      "¼": 130,
      "½": 131,
      "¾": 132,
      "¿": 133,
      "Â": 134,
      "Ã": 135,
      "Ä": 136,
      "Å": 137,
      "Æ": 138,
      "Ç": 139,
      "È": 140,
      "É": 141,
      "Ê": 142,
      "Ë": 143,
      "Ì": 144,
      "Í": 145,
      "Î": 146,
      "Ï": 147,
      "Ð": 148,
      "Ñ": 149,
      "Ò": 150,
      "Ó": 151,
      "Ô": 152,
      "Õ": 153,
      "Ö": 154,
      "×": 155,
      "Ø": 156,
      "Ù": 157,
      "Ú": 158,
      "Û": 159,
      "Ü": 160,
      "Ý": 161,
      "Þ": 162,
      "ß": 163,
      "à": 164,
      "á": 165,
      "â": 166,
      "ã": 167,
      "ä": 168,
      "å": 169,
      "æ": 170,
      "ç": 171,
      "è": 172,
      "é": 173,
      "ê": 174,
      "ë": 175,
      "ì": 176,
      "í": 177,
      "î": 178,
      "ï": 179,
      "ð": 180,
      "ô": 181,
      "ĉ": 182,
      "Ċ": 183,
      "Ġ": 184,
      "Ģ": 185,
      "ģ": 186,
      "Ĥ": 187,
      "ĥ": 188,
      "Ħ": 189,
      "ħ": 190,
      "Ĩ": 191,
      "ĩ": 192,
      "Ī": 193,
      "ī": 194,
      "Ĭ": 195,
      "ĭ": 196,
      "Į": 197,
      "į": 198,
      "İ": 199,
      "ı": 200,
      "Ĳ": 201,
      "ĳ": 202,
      "Ĵ": 203,
      "ĵ": 204,
      "Ķ": 205,
      "ķ": 206,
      "ĸ": 207,
      "Ĺ": 208,
      "ĺ": 209,
      "Ļ": 210,
      "ļ": 211,
      "Ľ": 212,
      "ľ": 213,
      "Ŀ": 214,
      "ŀ": 215,
      "Ł": 216,
      "ł": 217,
      "Ń": 218,
      "Ё": 219,
      "А": 220,
      "Б": 221,
      "В": 222,
      "Г": 223,
      "Д": 224,
      "Е": 225,
      "Ж": 226,
      "З": 227,
      "И": 228,
      "Й": 229,
      "К": 230,
      "Л": 231,
      "М": 232,
      "Н": 233,
      "О": 234,
      "П": 235,
      "Р": 236,
      "С": 237,
      "Т": 238,
      "У": 239,
      "Ф": 240,
      "Х": 241,
      "Ц": 242,
      "Ч": 243,
      "Ш": 244,
      "Щ": 245,
      "Ъ": 246,
      "Ы": 247,
      "Ь": 248,
      "Э": 249,
      "Ю": 250,
      "Я": 251,
      "а": 252,
      "б": 253,
      "в": 254,
      "г": 255,
      "д": 256,
      "е": 257,
      "ж": 258,
      "з": 259,
      "и": 260,
      "й": 261,
      "к": 262,
      "л": 263,
      "м": 264,
      "н": 265,
      "о": 266,
      "п": 267,
      "р": 268,
      "с": 269,
      "т": 270,
      "у": 271,
      "ф": 272,
      "х": 273,
      "ц": 274,
      "ч": 275,
      "ш": 276,
      "щ": 277,
      "ъ": 278,
      "ы": 279,
      "ь": 280,
      "э": 281,
      "ю": 282,
      "я": 283,
      "ё": 284,
      "—": 285,
      "№": 286,
      "ĠÐ": 287,
      "Ð¾": 288,
      "Ðµ": 289,
      "Ð°": 290,
      "Ð¸": 291,
      "Ð½": 292,
      "ÑĤ": 293,
      "ÑĢ": 294,
      "Ñģ": 295,
      "Ð¾Ð": 296,
      "Ð»": 297,
      "Ðº": 298,
      "Ñĥ": 299,
      "Ð²": 300,
      "Ñı": 301,
      "Ñĭ": 302,
      "Ð¼": 303,
      "Ð´": 304,
      "ÑģÑĤ": 305,
      "ĠÐ¿": 306,
      "ÑĮ": 307,
      "ĠÐ²": 308,
      "ÐµÐ½": 309,
      "Ñĩ": 310,
      "ÑĢÐ°": 311,
      "Ð¾Ð²": 312,
      "ĠÑģ": 313,
      "Ð·": 314,
      "ĠÐ¸": 315,
      "Ñħ": 316,
      "Ð¹": 317,
      "Ð¿": 318,
      "ĠÐ½": 319,
      "ĠÐ¾": 320,
      "Ð³": 321,
      "ÐµÑĢ": 322,
      "ÑģÐº": 323,
      "Ð°Ð½": 324,
      "Ð±": 325,
      "Ð¾Ð´": 326,
      "Ð¾ÑĢ": 327,
      "Ð¾Ð»": 328,
      "ĠÐº": 329,
      "Ð°Ð»": 330,
      "Ð¾Ð¼": 331,
      "Ð½Ñĭ": 332,
      "ÑĢÐµ": 333,
      "ÑĨ": 334,
      "Ñİ": 335,
      "Ð¾Ð³": 336,
      "ÐµÐ»": 337,
      "ĠÐ´": 338,
      "Ð¾Ð¹": 339,
      "ÐµÑĤ": 340,
      "Âł": 341,
      "ÑĢÐ¸": 342,
      "Ð¶": 343,
      "ÑĪ": 344,
      "Ð¾Ð½": 345,
      "ĠÐ½Ð°": 346,
      "ĠÐ³": 347,
      "Ð¸Ñı": 348,
      "ĠÑĤ": 349,
      "Ð¸ÑĤ": 350,
      "ĠÐ¼": 351,
      "Ð¸Ð½": 352,
      "Ð°ÑĤ": 353,
      "âĢ": 354,
      "Ð¸Ðµ": 355,
      "ĠÐ±": 356,
      "Ð½Ð¾": 357,
      "ÑĦ": 358,
      "âĢĶ": 359,
      "Ð¾ÑĤ": 360,
      "Ð¸Ð»": 361,
      "Ð¾Ñģ": 362,
      "Ġ1": 363,
      "Ġ(": 364,
      "Ð¸Ð¸": 365,
      "Ð¾Ð³Ð¾": 366,
      "Ð¸Ð¹": 367,
      "Ð¸Ðº": 368,
      "ÑģÑĤÐ²": 369,
      "Ñī": 370,
      "Ð°Ðº": 371,
      "Ð°ÑĢ": 372,
      "ĠÐ·": 373,
      "Ñĳ": 374,
      "ÑģÑı": 375,
      "Ð»Ð°": 376,
      "ĠÑĥ": 377,
      "ĠÐ°": 378,
      "Â«": 379,
      "Â»": 380,
      "ÐµÐ¼": 381,
      "Ð¸Ð¼": 382,
      "ĠÂ«": 383,
      "Ð¸Ñĩ": 384,
      "ĠÑĩ": 385,
      "ĠÐ¡": 386,
      "ÐµÐ´": 387,
      "Ð°Ð¼": 388,
      "Ñį": 389,
      "ÑĢÑĥ": 390,
      "ÐµÐ¹": 391,
      "ĠÐĴ": 392,
      "ĠÑĢÐ°": 393,
      "Ð°Ñı": 394,
      "ÐµÐº": 395,
      "ĠÐ¿ÑĢ": 396,
      "Ð¾ÑģÑĤ": 397,
      "Ð¸Ñģ": 398,
      "Ð¾Ð±": 399,
      "Ð°Ð²": 400,
      "ÐµÐ²": 401,
      "ĠÐŁ": 402,
      "ĠÐļ": 403,
      "Ð¸Ð²": 404,
      "Ð»Ñı": 405,
      "Ð¸Ñħ": 406,
      "ÐµÐ»ÑĮ": 407,
      "Ð¾Ðº": 408,
      "ĠÐ¾Ð±": 409,
      "ĠÐ¾ÑĤ": 410,
      "Ð»Ð¸": 411,
      "ĠÑģÑĤ": 412,
      "ĠÐ³Ð¾Ð´": 413,
      "ĠÐ¿ÑĢÐ¸": 414,
      "Ð¾Ð»ÑĮ": 415,
      "ĠÐľ": 416,
      "ÐµÑģÐº": 417,
      "Ð¾Ð·": 418,
      "Ġ19": 419,
      "ĠÐ±Ñĭ": 420,
      "ĠÑį": 421,
      "ĠÐ»": 422,
      "ÐµÐ½Ð¸Ñı": 423,
      "Ð½Ð¾Ð¹": 424,
      "Ð½ÑĭÑħ": 425,
      "ĠÐ¸Ð·": 426,
      "Ġ2": 427,
      "ĠÐĲ": 428,
      "Ð¡": 429,
      "Ð¾Ð¶": 430,
      "Ð¸Ð·": 431,
      "ĠÑĦ": 432,
      "ĠÐ½Ðµ": 433,
      "ĠÐ¿Ð¾": 434,
      "Ð°Ð»ÑĮ": 435,
      "ĠÐµ": 436,
      "Ð³Ð¾": 437,
      "Ð¾Ð¿": 438,
      "ÐµÐ½Ð¸Ðµ": 439,
      "ÐºÐ°": 440,
      "ÑĤÐ¾": 441,
      "Ð½ÑĭÐµ": 442,
      "ÑĢÐµÐ´": 443,
      "Ð½Ð°": 444,
      "Ð½ÑĭÐ¹": 445,
      "Ð¸ÑĩÐµÑģÐº": 446,
      "ÑģÐ¿": 447,
      "ÑĢÐ¾Ð²": 448,
      "Ð½Ð¾Ð³Ð¾": 449,
      "ĠÐł": 450,
      "ÐŁ": 451,
      "ĠÐĳ": 452,
      "ĠÐ²Ñĭ": 453,
      "Ð½Ð¾ÑģÑĤ": 454,
      "ÑĥÑİ": 455,
      "ĠÐ¿ÐµÑĢ": 456,
      "ĠÐĿ": 457,
      "ÑĨÐ¸": 458,
      "ĠÐĵ": 459,
      "ÐµÐ½ÑĤ": 460,
      "ÐĴ": 461,
      "ÑĢÐ°Ð½": 462,
      "ÐµÑģÑĤ": 463,
      "Ð´Ð°": 464,
      "ĠÑĢÐµ": 465,
      "Ð»ÑĮ": 466,
      "ĠÐ·Ð°": 467,
      "ĠÐĶ": 468,
      "Ð¼Ð¸": 469,
      "ĠĊ": 470,
      "Ð½Ð¸Ðº": 471,
      "ÐµÑģ": 472,
      "ĠÐŀ": 473,
      "ÑıÑĤ": 474,
      "ĠÐ¶": 475,
      "ÐµÑģÑĤÐ²": 476,
      "ĠÑģÐ²": 477,
      "ÑģÐºÐ¸Ð¹": 478,
      "Ð¸ÑģÑĤ": 479,
      "Ð°Ñģ": 480,
      "ÐµÑĢÐ°": 481,
      "00": 482,
      "ĠÐ¢": 483,
      "ÐºÐ¸": 484,
      "ÑĥÑĢ": 485,
      "ÑĥÑĤ": 486,
      "ÑĢÐ°Ð²": 487,
      "ĠÐĺ": 488,
      "Ð¾ÑĤÐ¾ÑĢ": 489,
      "Ð¸Ð´": 490,
      "Ð¾Ñĩ": 491,
      "ĠÐ¿Ð¾Ð»": 492,
      "ÑĥÐ´": 493,
      "ÑģÐºÐ¾Ð¹": 494,
      "Ð°ÐµÑĤ": 495,
      "ÑĨÐ¸Ð¸": 496,
      "ÑİÑĤ": 497,
      "ÐµÐ·": 498,
      "Ð°ÑģÑĤ": 499,
      "ĠÑĢÐ°Ð·": 500,
      "Ð°Ð½Ð¸Ñı": 501,
      "Ð½Ð¸": 502,
      "ÑħÐ¾Ð´": 503,
      "ÑģÐºÐ¾Ð³Ð¾": 504,
      "ÐµÑĩ": 505,
      "Ð°ÑĤÑĮ": 506,
      "ĠÐĽ": 507,
      "ĠÐ³Ð¾Ð´Ð°": 508,
      "Ð¼ÐµÐ½": 509,
      "Ð°Ð´": 510,
      "ĠÐ±ÑĭÐ»": 511,
      "ĠÐ¿Ð¾Ð´": 512,
      "Ð½Ð°Ñı": 513,
      "Ð¶Ðµ": 514,
      "ÑĥÑĩ": 515,
      "ĠÑı": 516,
      "ĠÐ¿ÑĢÐ¾": 517,
      ").": 518,
      "Ð»ÐµÐ½": 519,
      "ĠÑĤÐ°Ðº": 520,
      "ÑĤÐ°": 521,
      "ÑĤÐ¾ÑĢ": 522,
      "ĠÐºÐ¾ÑĤÐ¾ÑĢ": 523,
      "ĠÑĢ": 524,
      "Ð»Ðµ": 525,
      "Ð·Ñĭ": 526,
      "Ð¾Ðµ": 527,
      "Ð°Ð¼Ð¸": 528,
      "),": 529,
      "Ðļ": 530,
      "Ð°Ñħ": 531,
      "ĠÑħ": 532,
      "ÐĲ": 533,
      "ĠÑĩÑĤÐ¾": 534,
      "Ð½Ð¾Ð²": 535,
      "ÐµÐµ": 536,
      "Ð¸ÑĤÐµÐ»ÑĮ": 537,
      "ÐºÑĤ": 538,
      "Ð½ÑĭÐ¼": 539,
      "ÑĭÑħ": 540,
      "Ð°Ð½Ð¸Ðµ": 541,
      "Ð¶Ð´": 542,
      "Ð°Ð¹": 543,
      "ÑĭÐµ": 544,
      "ĠÑĨ": 545,
      "Ð¸Ð»ÑĮ": 546,
      "Ð°Ð·": 547,
      "ĠÐ¿ÑĢÐµÐ´": 548,
      "ĠÐ¤": 549,
      "ÑĢÐ¾": 550,
      "Ðł": 551,
      "ĠÐ¿Ð¾Ñģ": 552,
      "Ð½Ð¾Ðµ": 553,
      "ÐºÐ¾Ð²": 554,
      "Ð¾ÑĢÐ¾Ð´": 555,
      "Ð½Ð¾Ð¼": 556,
      "ĠÐ´Ð»Ñı": 557,
      "ĠÐºÐ°Ðº": 558,
      "19": 559,
      "ÑĳÐ½": 560,
      "ĠÐ¾Ñģ": 561,
      "ÑĭÐ¹": 562,
      "Ð»ÐµÐ´": 563,
      "ĠÐ³Ð¾Ð´Ñĥ": 564,
      "ĠÑģÐ¾": 565,
      "ÑĥÐ±": 566,
      "ÑĥÑģ": 567,
      "ĠÑįÑĤ": 568,
      "Ð½Ñı": 569,
      "ÑĢÐ°Ð·": 570,
      "Ð¼ÐµÑĢ": 571,
      "Ð¸ÑĨ": 572,
      "Ð¸Ñİ": 573,
      "Ð³Ð¾Ð´": 574,
      "Ð²Ð°": 575,
      "ĠÐºÐ¾Ð½": 576,
      "ĠÐºÐ¾Ð¼": 577,
      "ÐĿ": 578,
      "ĠÑĪ": 579,
      "ĠÐ¾Ð´": 580,
      "Ð°Ð½Ð´": 581,
      "Â».": 582,
      "ĠÐ¸Ð¼": 583,
      "ÑĢÑĭ": 584,
      "ĠÐµÐ³Ð¾": 585,
      "Ð°Ð»Ð¸": 586,
      "ĠÐ¿ÑĢÐµ": 587,
      "Ð½Ð¾ÑģÑĤÐ¸": 588,
      "ÑĢÑı": 589,
      "Â»,": 590,
      "Ð½Ðµ": 591,
      "Ðŀ": 592,
      "Ð½Ð¾ÑģÑĤÑĮ": 593,
      "ÐºÐ¾": 594,
      "Ġ20": 595,
      "Ð¸ÑģÑĮ": 596,
      "ÑĢÐ°ÑĤ": 597,
      "Ð¸ÑĤÑĮ": 598,
      "ÑĢÑĥÐ³": 599,
      "ÐµÐºÑĤ": 600,
      "Ð¼Ð°": 601,
      "ÑİÑī": 602,
      "Ð¾Ñı": 603,
      "Ðľ": 604,
      "ÑĥÐ¿": 605,
      "ĠÐ²Ð¾": 606,
      "Ð¸ÑĢ": 607,
      "ÑģÐµ": 608,
      "Ð¸ÑĢÐ¾Ð²": 609,
      "ÑĥÐ½": 610,
      "ĠÑģÐ¿": 611,
      "Ð¾ÑģÑģ": 612,
      "Ð°Ð»Ð°": 613,
      "Ð»Ð¾Ð²": 614,
      "ĠÐ¸Ð½": 615,
      "Ðĺ": 616,
      "ĠÐ¾Ð¿": 617,
      "ÐµÑĤÑģÑı": 618,
      "ĠÐŃ": 619,
      "Ð¸Ð½Ð°": 620,
      "ĠÐ£": 621,
      "ÑģÑģ": 622,
      "ÑĥÑī": 623,
      "Ð»Ð°Ð²": 624,
      "ÐµÐ¿": 625,
      "Ð»Ñİ": 626,
      "ĠÐ´Ð¾": 627,
      "ĠÑģÐ¾ÑģÑĤ": 628,
      "Ġ200": 629,
      "Ð°Ð³": 630,
      "Ġ18": 631,
      "ÑĥÐ»ÑĮ": 632,
      "ÑģÑĤÐ²ÐµÐ½": 633,
      "Ð¾Ð½Ð°": 634,
      "ĠÐ²ÑĢÐµ": 635,
      "ĠÐĹ": 636,
      "ÐĶ": 637,
      "ĠÐ³Ð¾ÑĢÐ¾Ð´": 638,
      "ÑģÐºÐ°Ñı": 639,
      "Ð±Ð¾ÑĤ": 640,
      "ÑĥÐ¶": 641,
      "ÑĥÐ¼": 642,
      "Ð¾ÑĢÐ°": 643,
      "Ð°ÑĢÐ¸": 644,
      "er": 645,
      "Ð°Ð½Ð¾Ð²": 646,
      "Ð¸Ð»Ð¸": 647,
      "ĠâĢĶ": 648,
      "ĠÐ¥": 649,
      "ĠÑĤÐ°ÐºÐ¶Ðµ": 650,
      "ĠÐ²Ð¾Ð·": 651,
      "Ð°ÑĤÐµÐ»ÑĮ": 652,
      "ÐµÐ³": 653,
      "ÑģÑĤÐ²Ð°": 654,
      "ĠÐķ": 655,
      "Ð¾Ð»ÑĮÑĪ": 656,
      "ĠÑĥÑĩ": 657,
      "Ð¸Ð±": 658,
      "ĠÑĩÐ°ÑģÑĤ": 659,
      "Ð°ÑĢÑĤ": 660,
      "ĠI": 661,
      "Ġ3": 662,
      "ÑģÐºÐ¸Ñħ": 663,
      "ĠÐ´Ð²": 664,
      "Ð¸Ð³": 665,
      "Ð½Ð°Ñĩ": 666,
      "ĠÑģÐ¾Ð²": 667,
      "Ðĵ": 668,
      "ĠÑĢÑĥ": 669,
      "ÑĬ": 670,
      "Ð»Ð¾": 671,
      "ÑĨÐ¸Ð¾Ð½": 672,
      "ĠÐ¸ÑģÐ¿": 673,
      "Ð¢": 674,
      "ÑĨÐ¸Ñı": 675,
      "Ð°Ð±": 676,
      "ĠÑģÐ²Ð¾": 677,
      "ÑģÑĤÐ²Ð¾": 678,
      "Ð°Ð¿": 679,
      "ÑģÑĤÐ°Ð²": 680,
      "Ð°ÐµÑĤÑģÑı": 681,
      "ÑģÐºÐ¾Ð¼": 682,
      "ÐµÑħ": 683,
      "Ðĳ": 684,
      "Ð°Ð½Ð°": 685,
      "ÑĳÑĤ": 686,
      "ÐºÐµ": 687,
      "Ð½ÑĥÑİ": 688,
      "Ð°ÑĢÐ°": 689,
      "ĠÐ½Ð°Ñĩ": 690,
      "ÐµÐ±": 691,
      "ĠÐ°Ð²": 692,
      "ĠÐ¾Ð½": 693,
      "Ð»Ð°ÑģÑĤ": 694,
      "Ð¼Ñı": 695,
      "ĠÐ¿ÑĢÐ°Ð²": 696,
      "ĠÐ¸Ð»Ð¸": 697,
      "ĠÑģÐ°Ð¼": 698,
      "ÑĢÑĥÐ¿": 699,
      "Ð°Ð½ÑĤ": 700,
      "Ð´Ðµ": 701,
      "ÑĭÐ¼": 702,
      "Ð¾Ð»Ð¾Ð³": 703,
      "Ð¸ÐºÐ°": 704,
      "ÐºÑĥ": 705,
      "Ð¾Ð³ÑĢÐ°": 706,
      "ÐµÐ½Ð°": 707,
      "Ð½ÑĭÐ¼Ð¸": 708,
      "ĠÑģÐ»": 709,
      "ÐµÐ»Ñı": 710,
      "ĠÐ¾Ðº": 711,
      "Ð¸Ð¼Ð¸": 712,
      "Ð¸Ð¿": 713,
      "Ð²Ð»Ñı": 714,
      "ĠÐ¿ÐµÑĢÐ²": 715,
      "ĠÐ´ÑĢÑĥÐ³": 716,
      "ÐĽ": 717,
      "Ġ201": 718,
      "Ð¤": 719,
      "Ð»Ð°Ð´": 720,
      "in": 721,
      "ÑĤÑĥ": 722,
      "ĠÐ°ÑĢ": 723,
      "an": 724,
      "ĠÐłÐ¾ÑģÑģ": 725,
      "Ð¾Ð»ÑĮÐ·": 726,
      "ĠÐ§": 727,
      "ÐµÐ³Ð¾": 728,
      "Ð¼Ñĭ": 729,
      "ÑģÑĤÐ¾ÑĢ": 730,
      "ÐµÐ½ÑĮ": 731,
      "Ð¾ÑģÑĮ": 732,
      "ĠÐ¨": 733,
      "ÑĢÐ¾Ð¼": 734,
      "Ġ199": 735,
      "ÑİÑĤÑģÑı": 736,
      "on": 737,
      "Ð¸ÐºÐ¸": 738,
      "ĠÐ²ÑģÐµ": 739,
      "Ð°Ð½Ð¸Ð¸": 740,
      "Ð»ÐµÐº": 741,
      "ÐµÑĨ": 742,
      "ĠÐ¿Ð¾ÑģÑĤ": 743,
      "ÐµÑĢÐ¶": 744,
      "ÑĢÐ¾Ð´": 745,
      "ĠÑģÐ¾Ð±": 746,
      "ÐµÐ»Ð¸": 747,
      "Ð·Ð²": 748,
      "Ð¾Ð»ÑĮÐºÐ¾": 749,
      "ÑĥÑħ": 750,
      "ĠÐ±ÑĭÐ»Ð¸": 751,
      "ĠÐ½Ð°Ð¿": 752,
      "ĠÐ¾ÑģÐ½Ð¾Ð²": 753,
      "ÐµÑĤÐ°": 754,
      "ÑĥÐ»": 755,
      "ÑģÐ°": 756,
      "ÐµÑĢÐ²": 757,
      "ĠÐ±ÑĭÐ»Ð¾": 758,
      "ĠÐ²ÑĢÐµÐ¼Ñı": 759,
      "ĠS": 760,
      "ĠÐ¾ÑĢ": 761,
      "ÑģÐºÐ¸Ðµ": 762,
      "ĠÐ½Ð¾": 763,
      "ĠÐºÐ¾ÑĢ": 764,
      "ĠÑģÐ¾ÑģÑĤÐ°Ð²": 765,
      "ÐµÐ½Ð¸Ð¸": 766,
      "ÐµÑĢÑģ": 767,
      "ĠÐ²Ð¾Ð¹": 768,
      "Ð²Ð¾Ð´": 769,
      "ÐºÐ°Ð·": 770,
      "Ġ4": 771,
      "ÑĥÐ»ÑĮÑĤ": 772,
      "ÐµÐ¶": 773,
      "ÑĳÐ¼": 774,
      "ĠÐ±ÑĭÐ»Ð°": 775,
      "Ð½ÐµÐ¹": 776,
      "Ð»ÑİÑĩ": 777,
      "ÑĤÐ¸": 778,
      "ĠÑįÐº": 779,
      "ĠÑĢÐ°Ð±Ð¾ÑĤ": 780,
      "en": 781,
      "ÑĮÑİ": 782,
      "18": 783,
      "ĠÑıÐ²Ð»Ñı": 784,
      "Ð¾Ð·Ð´": 785,
      "ĠÐ°Ð½": 786,
      "ÐµÐ½Ñĭ": 787,
      "ĠÐ¾Ð±ÑĢÐ°Ð·": 788,
      "Ð»ÐµÐ½Ð¸Ñı": 789,
      "Ġ5": 790,
      "ÑĥÑģÑĤ": 791,
      "ĠÐ¼ÐµÑģÑĤ": 792,
      "ÑıÐ½": 793,
      "Ð¾Ð»ÐµÐµ": 794,
      "ÑĥÑīÐµÑģÑĤÐ²": 795,
      "ĠÐºÐ¾Ð¼Ð¿": 796,
      "Ð´ÐµÐ»": 797,
      "ÑĨÐ°": 798,
      "ÐµÐ½Ð¸Ð¹": 799,
      "ĠÐ¾Ð±Ñī": 800,
      "Ð½Ð°Ðº": 801,
      "ÑıÐ·": 802,
      "ĠÐ¿ÑĢÐ¾ÑĤ": 803,
      "ĠÐ¿ÑĢÐ¾Ð¸Ð·": 804,
      "ÐµÐ¶Ð´": 805,
      "ÑĥÐ·": 806,
      "ÑĢÐ¸ÑĤ": 807,
      "Ð¾ÑģÐº": 808,
      "ÑĳÑĢ": 809,
      "Ð¸Ð»Ð°": 810,
      "ĠÐ±Ð¾Ð»ÑĮÑĪ": 811,
      "ÑĢÐ°Ð¶": 812,
      "ĠX": 813,
      "ĠÑĢÐ°ÑģÐ¿": 814,
      "ÐµÐºÐ°": 815,
      "Ð¾Ð¼Ñĥ": 816,
      "ĠĠ": 817,
      "ĠÑĢÐ°Ð¹": 818,
      "ĠÐ·Ð°Ðº": 819,
      "ĠÐĲÐ½": 820,
      "ÑĢÐ¾Ð¿": 821,
      "Ð¾ÑģÑĥÐ´": 822,
      "Ð¾Ð³Ð´Ð°": 823,
      "Ð°Ñĩ": 824,
      "Ð¸Ð¾Ð½": 825,
      "Ð°ÑģÑĮ": 826,
      "ÑĥÑİÑī": 827,
      "Ð¾ÑĢÑĤ": 828,
      "Ð³Ð°Ð½": 829,
      "ĠÐ·Ð°Ð¿": 830,
      "ĠÐ¸ÑģÐ¿Ð¾Ð»ÑĮÐ·": 831,
      "ÑĤÑĮ": 832,
      "ĠÐºÐ¾Ð»": 833,
      "ĠÑģÐº": 834,
      "Ð²ÐµÑĢ": 835,
      "ÐµÐ»Ð¾Ð²": 836,
      "ÑĥÐº": 837,
      "ĠM": 838,
      "or": 839,
      "ÑĭÐ²": 840,
      "ar": 841,
      "ĠÐ¿Ð»": 842,
      "Ð²ÐµÑĤ": 843,
      "Ð»ÐµÐ½Ð¸Ðµ": 844,
      "es": 845,
      "Ð¾ÑģÑĥÐ´Ð°ÑĢ": 846,
      "Ð·Ð°": 847,
      "ÑĢÐ¸Ð¼": 848,
      "ÑĢÐ¾Ð½": 849,
      "ĠÐ¿Ð¾Ð»ÑĥÑĩ": 850,
      "Ð»Ð¸Ñĩ": 851,
      "Ð¾Ð²Ð°Ð½": 852,
      "Ð¾Ð»Ð¶": 853,
      "20": 854,
      "ĠC": 855,
      "II": 856,
      "ÑĥÑĪ": 857,
      "ÑĢÑĥÐ¿Ð¿": 858,
      "Ð°Ð»ÑģÑı": 859,
      "Ð³Ð°": 860,
      "Ð´Ð¸": 861,
      "ÑĳÐ»": 862,
      "ĠÐ¶Ðµ": 863,
      "ĠÐ¾Ð±ÑĬ": 864,
      "ĠA": 865,
      "Ð£": 866,
      "Ð³Ð¾Ð´Ð°": 867,
      "ĠÐ¸Ñħ": 868,
      "ĠÐ¡ÑĤ": 869,
      "ĠÐ·Ð°Ð²": 870,
      "Ð¼Ñĥ": 871,
      "ÑģÑĤÑĥÐ¿": 872,
      "Ð¸Ð½Ñĭ": 873,
      "ÐµÐ¹ÑģÑĤÐ²": 874,
      "Ð¾Ð»Ð½": 875,
      "ĠÐ½Ð¾Ð²": 876,
      "ĠÐ½Ð°Ñģ": 877,
      "Ð¸Ð»ÑģÑı": 878,
      "Ð¸Ð·Ð°": 879,
      "ÐµÑĢÐ½": 880,
      "Ð°ÑĪ": 881,
      "Ð½Ð¸Ð¼": 882,
      "ÑĦÐ¾ÑĢ": 883,
      "ÐĹ": 884,
      "ĠÑĤÐµÑĢ": 885,
      "Ð¨": 886,
      "ĠÐ¿ÑĢÐ¾Ð´": 887,
      "Ð²ÐµÐ´": 888,
      "ĠÑģÑĢÐµÐ´": 889,
      "ĠÐ¼Ð½": 890,
      "ÐµÑī": 891,
      "ĠÑĥÐ¿": 892,
      "Ð°Ð²ÑĪ": 893,
      "ÐµÑģÑĤÐ²ÐµÐ½": 894,
      "ĠÐ´Ðµ": 895,
      "ĠÐ¿Ð¾Ðº": 896,
      "Ìģ": 897,
      "Ð°Ð»Ð¾": 898,
      "ÑģÑĭ": 899,
      "ÑĭÑĪ": 900,
      "ÑĭÑĤ": 901,
      "ĠÐ¿Ð¾ÑģÐ»Ðµ": 902,
      "Ð¡Ðł": 903,
      "ĠÐ¿ÑĢÐ¾Ð²": 904,
      "ĠÐ¿Ð¾Ð²": 905,
      "Ð¾Ð¶Ð´": 906,
      "Ð»Ð°Ñģ": 907,
      "ÑĢÐ¾Ñģ": 908,
      "Ð³ÑĢÐ°": 909,
      "Ġ198": 910,
      "ĠÐ¾ÑģÑĤ": 911,
      "ĠÐĿÐ°": 912,
      "ĠÐ¾Ð±Ð»Ð°ÑģÑĤ": 913,
      "Ð·ÑĭÐ²": 914,
      "ĠP": 915,
      "ÐµÑĪ": 916,
      "Ð¾Ð³ÑĢÐ°ÑĦ": 917,
      "ÑıÐ±": 918,
      "ĠÑıÐ·Ñĭ": 919,
      "Ð½Ð¸ÐºÐ¾Ð²": 920,
      "ÐµÐ½Ð¸Ñİ": 921,
      "ĠÐ¼Ð¾Ð¶": 922,
      "ĠÐ²Ð¸Ð´": 923,
      "ÑĨÐ¸Ð°Ð»ÑĮ": 924,
      "Ð´Ð¸Ð½": 925,
      "ĠÑĩÐµÐ»Ð¾Ð²": 926,
      "ĠÐĶÐ¶": 927,
      "ĠÑĩÐ¸Ñģ": 928,
      "Ð¸ÑĢÐ°": 929,
      "ĠÐ¸ÑģÑĤÐ¾ÑĢ": 930,
      "Ð¸Ð¶": 931,
      "al": 932,
      "ĠT": 933,
      "Ð¸ÑģÑĤÐµÐ¼": 934,
      "ÑĮÑı": 935,
      "ĠÐ¦": 936,
      "Ð¸ÑĪ": 937,
      "ĠÑģÐµÑĢ": 938,
      "Ð°ÑİÑī": 939,
      "Ġ6": 940,
      "ÐµÐ»ÐµÐ¹": 941,
      "Ð¸ÐµÐ¹": 942,
      "ĠÑĥÑģÑĤ": 943,
      "Ð²ÐµÑģÑĤ": 944,
      "ÐŃ": 945,
      "Ð»ÐµÐºÑģ": 946,
      "ÐµÑģÑģ": 947,
      "Ð²Ð¾Ð»": 948,
      "ĠĊĠĊ": 949,
      "ĠÑĤÐ¾": 950,
      "Ð°ÑĢÑı": 951,
      "ĠÑĦÐ¸Ð»ÑĮ": 952,
      "Ð¸ÑĤÑģÑı": 953,
      "Ð¸ÑĩÐµÑģÐºÐ¸Ñħ": 954,
      "ĠÑįÑĤÐ¾": 955,
      "ĠÐ»Ñİ": 956,
      "ĠÐ¯": 957,
      "Ð¾ÑĦ": 958,
      "ĠÐ³ÑĢÑĥÐ¿Ð¿": 959,
      "ĠÐłÐ¾ÑģÑģÐ¸Ð¸": 960,
      "ÑģÐºÐ¾Ðµ": 961,
      "ĠÐµÑĳ": 962,
      "ĠÐ»ÐµÑĤ": 963,
      "Ð¾Ð²Ð°": 964,
      "ÑıÑī": 965,
      "Ð³Ð¾Ð´Ñĥ": 966,
      "Ð°Ð»Ð¸ÑģÑĮ": 967,
      "ĠÐ¼ÐµÐ¶Ð´": 968,
      "at": 969,
      "ÐµÐ´Ð¸Ð½": 970,
      "Ð¸ÑĩÐµÑģÐºÐ¾Ð¹": 971,
      "ÐµÐ½Ð¸ÐµÐ¼": 972,
      "he": 973,
      "ĠÐ¿ÑĢÐµÐ´ÑģÑĤÐ°Ð²": 974,
      "Ð¸Ð²ÑĪ": 975,
      "ĠÐ®": 976,
      "ÑĢÐ°Ñģ": 977,
      "ĠÐ½Ð°Ð·Ð²": 978,
      "Ð¸ÑģÑģ": 979,
      "Ð¾Ð½Ð¾Ð¼": 980,
      "Ð»Ð¸Ð½": 981,
      "Ġ17": 982,
      "Ð°ÑİÑĤ": 983,
      "ĠÐ²Ñģ": 984,
      "Ð¿ÑĢÐ¸": 985,
      "ĠÐ±Ð¾Ð»ÐµÐµ": 986,
      "Ġ197": 987,
      "Ð½Ð¸ÐºÐ¸": 988,
      "ĠÐ³Ð¾ÑģÑĥÐ´Ð°ÑĢ": 989,
      "Ð¸ÑĤÐµÑĢÐ°": 990,
      "ĠÐ²ÑĭÐ¿": 991,
      "ĠÐ¿Ð¾Ð¼": 992,
      "Ġ/": 993,
      "ĠÑĦÐ¾ÑĢ": 994,
      "ĠÑĢÐ°Ñģ": 995,
      "ĠB": 996,
      "ic": 997,
      "ÐµÑĢÐ³": 998,
      "ĠÑģÐ¸ÑģÑĤÐµÐ¼": 999,
      "Ð»ÐµÐ´Ð¾Ð²": 1000,
      "Ð¾Ñħ": 1001,
      "Ð³Ð¸": 1002,
      "ÑĨÑĭ": 1003,
      "ĠÑģÐ¾Ð·Ð´": 1004,
      "ÑĥÐ±Ð»": 1005,
      "ÑĢÐµÑĤ": 1006,
      "ĠÐ²ÑĭÑģ": 1007,
      "ĠÐ¾ÑĤÐ½Ð¾": 1008,
      "Ð¾ÑĪ": 1009,
      "ĠÐ¼Ð°ÑĤ": 1010,
      "ÐµÑĢÐ¸": 1011,
      "ÐµÑĢÑĤ": 1012,
      "ĠÑįÐ»": 1013,
      "Ð¾ÑģÑĤÐ¸": 1014,
      "ĠÐ¸Ñİ": 1015,
      "Ð±Ð¾ÑĢ": 1016,
      "is": 1017,
      "ĠÐ¼ÐµÑĤ": 1018,
      "Ġ194": 1019,
      "ÑıÐ²": 1020,
      "Ð¼Ð¸Ð½": 1021,
      "Ġ196": 1022,
      "Ð¸ÑģÐº": 1023,
      "Ð¾Ð½Ðµ": 1024,
      "ĠÐ¿ÑĢÐ¾ÑĤÐ¸Ð²": 1025,
      "ÑĢÐµÐ±": 1026,
      "ÑģÐºÐ¸Ð¼": 1027,
      "Ð¾Ð±Ñĭ": 1028,
      "Ð¸ÑĩÐµÑģÐºÐ¸Ðµ": 1029,
      "ÑĢÐµÐ²": 1030,
      "Ð¸ÑĦ": 1031,
      "ĠÐ¿Ð¾ÑĤ": 1032,
      "ĠÑĢÑĥÑģ": 1033,
      "ĠÐ¾ÑĢÐ³Ð°Ð½": 1034,
      "ĠÐºÐ¾ÑĤÐ¾ÑĢÑĭÐ¹": 1035,
      "ĊĠ": 1036,
      "ĠÐ´Ð¾ÑģÑĤ": 1037,
      "ĠÑıÐ²Ð»ÑıÐµÑĤÑģÑı": 1038,
      "Ð¼ÐµÑģÑĤ": 1039,
      "ÑĩÐµÑģÐº": 1040,
      "Ð½Ð°ÐºÐ¾": 1041,
      "ÑĩÐ¸ÑĤ": 1042,
      "Ġ7": 1043,
      "ÐµÑĢÐ±": 1044,
      "Ð³Ð»": 1045,
      "Ð¡Ð¡Ðł": 1046,
      "ÑĨÐµÐ²": 1047,
      "ĠÑĤÐ¾Ð»ÑĮÐºÐ¾": 1048,
      "ÑĢÐµÐ¼ÐµÐ½": 1049,
      "ĠÑĢÐ¾Ð´": 1050,
      "ĠÑĤÐµ": 1051,
      "ĠÐľÐ¾ÑģÐº": 1052,
      "ÐµÐ»Ð¸Ðº": 1053,
      "ÐµÐ²ÐµÑĢ": 1054,
      "Ð³Ð¾Ð²": 1055,
      "ĠÐ°ÐºÑĤ": 1056,
      "ĠÐ¿Ð¾Ð¿": 1057,
      "ĠÐ¿Ð¾Ð·": 1058,
      "ĠÑģÐ²ÑıÐ·": 1059,
      "ĠÑİ": 1060,
      "ÑģÐ¾Ð²": 1061,
      "ĠÑĤÐ¾Ð¼": 1062,
      "ĠÑĢÐµÐ·": 1063,
      "Ð°ÐºÑĤ": 1064,
      "ÑĨÐ¸Ñİ": 1065,
      "ĠÐ¸Ð¼Ðµ": 1066,
      "Ð¼Ð°ÑĤ": 1067,
      "ÐºÐ¾Ð¼": 1068,
      "ĠD": 1069,
      "ÐºÐ¾Ð¹": 1070,
      "ÑĢÐ¸Ð¼ÐµÑĩ": 1071,
      "Ð¼Ð°Ð½": 1072,
      "ĠÐ´ÐµÐ»": 1073,
      "Ð½Ð¸Ðµ": 1074,
      "Ð¸ÑĩÐµÑģÐºÐ¸Ð¹": 1075,
      "ÑĥÐµÑĤ": 1076,
      "ĠÐ²Ð¾Ñģ": 1077,
      "ÑĢÐ¸ÑģÑĤ": 1078,
      "ÑĢÐ¸ÑĤÐ¾ÑĢ": 1079,
      "Ð¸ÑĢÑĥ": 1080,
      "ÑĢÑĥÐ´": 1081,
      "ÐºÑĢÑĭ": 1082,
      "ÐµÐ½Ð¾": 1083,
      "ĠÑĢÐ°Ð·Ð²": 1084,
      "ĠÑĩÐµÐ¼": 1085,
      "ÐµÑģÑĤÐ²Ð¾": 1086,
      "ĠÐ³ÑĢÐ°": 1087,
      "Ð°ÑĤÐ°": 1088,
      "ĠÐ½Ð°ÑħÐ¾Ð´": 1089,
      "ÑıÑĤÑĮ": 1090,
      "Ð¸ÑĩÐµÑģÐºÐ¾Ð³Ð¾": 1091,
      "ÑĢÐ°Ñī": 1092,
      "Ð°Ð»Ð¾ÑģÑĮ": 1093,
      "Ð½Ð¸ÐºÐ°": 1094,
      "Ġ8": 1095,
      "ĠÑĨÐµÐ½ÑĤ": 1096,
      "Ð²Ð¾ÑĢ": 1097,
      "ÐµÑģÐ¿": 1098,
      "Ð¾Ð»Ð¾Ð¶": 1099,
      "ĠÐ¸ÑģÐº": 1100,
      "ĠÐ¸Ð¼Ð¿": 1101,
      "Ð¼Ðµ": 1102,
      "Ð¾Ñī": 1103,
      "ĠÑģÐ¾Ð²ÐµÑĤ": 1104,
      "Ð¼ÐµÐ½Ð¸": 1105,
      "ÑĭÑģ": 1106,
      "ĠÐºÐ¾Ð½ÑĨ": 1107,
      "ĠÑĤÐµÐ¼": 1108,
      "Ð°Ð»Ðµ": 1109,
      "Ġ9": 1110,
      "ÐµÐ½Ð½Ð¾": 1111,
      "ĠÐ·Ð°Ð¼": 1112,
      "ĠÐ³Ð»Ð°Ð²": 1113,
      "ÐµÑģÑĤÐ²Ð°": 1114,
      "ĠÐºÐ¾ÑĤÐ¾ÑĢÑĭÐµ": 1115,
      "ĠÐĲÐ»ÐµÐºÑģ": 1116,
      "ĠÐ¿ÐµÑĢÐµÐ´": 1117,
      "ÑĨÐµÐ½": 1118,
      "ĠÐ¼Ñĥ": 1119,
      "ĠÐ·Ð°Ð½": 1120,
      ".,": 1121,
      "Ð¾Ð½Ñĭ": 1122,
      "ĠÐ¡Ð¡Ð¡Ðł": 1123,
      "Ġâ": 1124,
      "ĠR": 1125,
      "ĠÐ¸Ð³": 1126,
      "ĠÐ¼Ð¾Ð³": 1127,
      "Ġ15": 1128,
      "ĠÐ´ÐµÐ¹ÑģÑĤÐ²": 1129,
      "ĠÐ³Ð´Ðµ": 1130,
      "ĠÐ·Ð½Ð°Ñĩ": 1131,
      "ÑĤÐµÑĢ": 1132,
      "ĠÑĥÐ½": 1133,
      "Ġ193": 1134,
      "ĠÐŁÑĢÐ¸": 1135,
      "ÑıÐ´": 1136,
      "ĠL": 1137,
      "it": 1138,
      "ĠÐĸ": 1139,
      "Ð¨ÐĲ": 1140,
      "ĠÑĤÐµÐ»": 1141,
      "ÐŁÑĢÐ¸Ð¼ÐµÑĩ": 1142,
      "ÑģÐºÐ°": 1143,
      "Ð¾Ð²Ð°Ð½Ð¸Ðµ": 1144,
      "ĠÐ±ÐµÐ·": 1145,
      "ÑĢÐµÐ½": 1146,
      "ĠÐ¾Ñĩ": 1147,
      "ÐŁÑĢÐ¸Ð¼ÐµÑĩÐ°Ð½Ð¸Ñı": 1148,
      "ÐµÑĢÑħ": 1149,
      "ĠÐ¾Ð±Ð»Ð°ÑģÑĤÐ¸": 1150,
      "ÐµÑĢÑĪ": 1151,
      "ĠÑĥÐ´": 1152,
      "Ð¸ÐºÐ¾Ð²": 1153,
      "ĠÐ³Ð¾ÑĢÐ¾Ð´Ð°": 1154,
      "17": 1155,
      "ÑıÐ±ÑĢÑı": 1156,
      "Ð¼Ð¾Ð¶": 1157,
      "ÑıÑĤÐµÐ»ÑĮ": 1158,
      "Ð¸ÐºÐ°Ð½": 1159,
      "ĠÑĤÐ¾Ð³Ð¾": 1160,
      "ÐµÑĤÑĭ": 1161,
      "ĠÐ°Ð¿": 1162,
      "ĠÐ½ÐµÐº": 1163,
      "ÑĥÑĢÐ³": 1164,
      "ÑĤÑĥÑĢÐ°": 1165,
      "ĠÐ¼ÐµÐ¶Ð´Ñĥ": 1166,
      "Ġ10": 1167,
      "ĠÑĥÑģ": 1168,
      "ÑģÑĤÑĮ": 1169,
      "ĠÐŁÐ¾": 1170,
      "ÑĤÐ¾ÑĢÐ°": 1171,
      "Ð°ÑĤÑĮÑģÑı": 1172,
      "ĠÐ²Ð¾Ð´": 1173,
      "ÑĢÐ¾Ðº": 1174,
      "Ð¸ÑĢÐ¾Ð²Ð°Ð½": 1175,
      "ĠÐ¶Ð¸Ð·": 1176,
      "ĠÐ¼Ð°ÑĢ": 1177,
      "ĠÐ¡Ð¨ÐĲ": 1178,
      "ĠÐĲÑĢ": 1179,
      "Ð½Ð¾Ð¼Ñĥ": 1180,
      "ÐºÐ»ÑİÑĩ": 1181,
      "ĠÑĤÐµÑĢÑĢÐ¸ÑĤÐ¾ÑĢ": 1182,
      "ÑĥÑĢÑĭ": 1183,
      "ÑįÑĤ": 1184,
      "ĠÑĥÑĩÐ°ÑģÑĤ": 1185,
      "ĠÑģÑĥÑīÐµÑģÑĤÐ²": 1186,
      "ĠÐ´Ð°Ð½": 1187,
      "ĠÐ½ÐµÑģÐº": 1188,
      "Ð¸Ð»Ð¸ÑģÑĮ": 1189,
      "ĠÐ½Ð°Ð´": 1190,
      "Ġ195": 1191,
      "Ð±Ñĭ": 1192,
      "ĠÐ¸Ð·Ð²ÐµÑģÑĤ": 1193,
      "ĠÑĢÐµÑĪ": 1194,
      "ĠÑģÐ¾ÑģÑĤÐ¾Ñı": 1195,
      "Ð°ÑĤÑĭ": 1196,
      "Ġ16": 1197,
      "Ð¾ÑģÑĤÑĮ": 1198,
      "ĠÐ·Ð²": 1199,
      "Ð¾ÑĢÐ¾Ð½": 1200,
      "ÐºÑĢÐ°": 1201,
      "ÐºÐ¾Ð»": 1202,
      "ĠÐķÐ²": 1203,
      "ĠÐ½ÐµÐ¼": 1204,
      "Ð½Ñĥ": 1205,
      "ÐµÑĢÐµÐ·": 1206,
      "Ð½ÐµÐµ": 1207,
      "ÑĢÑĥÐ¶": 1208,
      "ĠÐ±ÑĥÐ´": 1209,
      "ÑĥÐ»Ñı": 1210,
      "Ð¾ÑģÐ»Ðµ": 1211,
      "Ð°Ð»Ð°ÑģÑĮ": 1212,
      "ĠÐ´Ð¾Ð¼": 1213,
      "Ħĸ": 1214,
      "ĠÑģÐ»Ð¾Ð²": 1215,
      "ĠÐ²Ð¿": 1216,
      "ĠÑģÐµÐ¼": 1217,
      "ÑĤÐ¾Ð¼": 1218,
      "Ð¾Ð½Ñĩ": 1219,
      "Ð¾Ð²Ð°Ð½Ð¸Ñı": 1220,
      "Ð°ÑĢÐ´": 1221,
      "ĠÐ¢Ð°Ðº": 1222,
      "ÐµÐ½ÑĤÐ°": 1223,
      "ĠF": 1224,
      "Ġ,": 1225,
      "Ð§": 1226,
      "Ð°Ð¶": 1227,
      "ĠÐ²ÑĤÐ¾ÑĢ": 1228,
      "Ð¾ÑĤÐ¾Ð²": 1229,
      "ĠG": 1230,
      "Ð¥": 1231,
      "ĠÐ¼Ð¾Ð½": 1232,
      "ĠÑģÑĤÐ°Ð»": 1233,
      "el": 1234,
      "Ð¸Ñī": 1235,
      "ĠÑįÑĤÐ¾Ð³Ð¾": 1236,
      "ÑĨÐ¸Ð¹": 1237,
      "ĠÐ´Ð¾Ð»Ð¶": 1238,
      "Ð»Ð¾Ð¶": 1239,
      "Ð½ÑĥÑĤ": 1240,
      "Ð»ÐµÑĤ": 1241,
      "Ð¸Ð²ÐµÑĢÑģ": 1242,
      "ĠÐ¾Ð½Ð¸": 1243,
      "ĠÑģÑĭ": 1244,
      "ĠÐ¿ÑĢÐ¾Ð¸Ð·Ð²Ð¾Ð´": 1245,
      "Ð·Ð½Ð°Ñĩ": 1246,
      "Ð½Ð¾ÑģÑĤÑĮÑİ": 1247,
      "ÑĨÐ¸Ð¾Ð½Ð°Ð»ÑĮ": 1248,
      "ĠÐĲÐ»ÐµÐºÑģÐ°Ð½Ð´": 1249,
      "ĠÐ¿Ð¾Ð»Ð¸ÑĤ": 1250,
      "Ð¾Ð²Ð¾Ð¹": 1251,
      "Ð»Ð¸Ð²": 1252,
      "ĠN": 1253,
      "ĠÑįÑĤÐ¾Ð¼": 1254,
      "ĠÑĤÐµÑħ": 1255,
      "ĊĊ": 1256,
      "ĠÐŀÐ´": 1257,
      "ÑĢÐ°Ð»ÑĮ": 1258,
      "ĠV": 1259,
      "ĠÐ¾ÑĤÐºÑĢÑĭ": 1260,
      "ĠâĦĸ": 1261,
      "ĠÐ²ÐµÐºÐ°": 1262,
      "ol": 1263,
      "ĠÐ¿Ð¾ÑĢ": 1264,
      "Ð°Ð½Ñĭ": 1265,
      "ÑĢÐ¾Ð¹": 1266,
      "10": 1267,
      "Ð´ÐµÑĢÐ¶": 1268,
      "ĠÑģÐ»ÐµÐ´": 1269,
      "ÐµÐ·Ð´": 1270,
      "ĠH": 1271,
      "ĠÐ¼Ð¾Ð¶ÐµÑĤ": 1272,
      "ÑĦÐ¸": 1273,
      "Ð¾Ð½Ð¾Ð²": 1274,
      "ÑģÑĭÐ»": 1275,
      "ÑīÑĳ": 1276,
      "ÑĪÐ¸Ð¹": 1277,
      "ĠÐ´ÐµÐº": 1278,
      "ĠÐ¼Ð½Ð¾Ð³": 1279,
      "Ð´Ð¶": 1280,
      "ĠÐ¼Ð¸Ð½": 1281,
      "ÑĢÐµÐ¹": 1282,
      "ÑĢÐ¾ÑģÑĤ": 1283,
      "ĠÑģÑĤÑĢÐ°": 1284,
      "ĠÑĩÐµÐ»Ð¾Ð²ÐµÐº": 1285,
      "Ð°ÑĢÐ¾Ð´": 1286,
      "ĠE": 1287,
      "Ð¾Ð²Ð¾ÑĢ": 1288,
      "ÑħÐ¾Ð´Ð¸ÑĤ": 1289,
      "ÑĥÑİÑĤ": 1290,
      "ĠÐ´Ð¸": 1291,
      "ÑĢÐ°Ð±Ð¾ÑĤ": 1292,
      "Ð°ÑĢÑĮ": 1293,
      "ĠÐ½Ð°ÑģÐµÐ»": 1294,
      "200": 1295,
      "ĠÐºÐ¸Ð½": 1296,
      "ÑĥÑģÐº": 1297,
      "ĠÐ¿Ð¾ÑģÐ»ÐµÐ´": 1298,
      "ĠÐļÐ¾Ð½": 1299,
      "us": 1300,
      "Ð¸Ð½Ðµ": 1301,
      "Ð¾Ð»Ð¾": 1302,
      "ĠÐ¿ÑĢÐ¸Ð½": 1303,
      "Ð¾ÑģÑģÐ¸Ð¹": 1304,
      "ĠÐĿÐ¸Ðº": 1305,
      "Ðķ": 1306,
      "ÑĢÐµÐ´ÐµÐ»": 1307,
      "ĠÐŀÑĤ": 1308,
      "ĠÐĺÐ½": 1309,
      "ĠÐºÐ¾Ð½ÑĤ": 1310,
      "16": 1311,
      "Ð¸Ð¾Ð´": 1312,
      "ĠÐĵÐµÑĢ": 1313,
      "ĠÐ¿Ð¸Ñģ": 1314,
      "ÑĪÐ¸Ñħ": 1315,
      "et": 1316,
      "ĠÑĤÑĢÐ°": 1317,
      "ĠÑģÐ»ÑĥÑĩ": 1318,
      "ĠÑģÐµÐ±": 1319,
      "ĠÐ½ÐµÐºÐ¾ÑĤÐ¾ÑĢ": 1320,
      "ĠÐ¡Ð¾Ð²": 1321,
      "Ð¸ÑĤÐµÐ»ÑĮÐ½Ð¾": 1322,
      "ĠÐ·ÐµÐ¼": 1323,
      "ĠÐ´ÐµÑĤ": 1324,
      "ĠÑĩÑĤ": 1325,
      "ur": 1326,
      "ĠÐºÐ¾Ð¼Ð°Ð½Ð´": 1327,
      "Ð»Ð°ÑģÑģ": 1328,
      "ĠÐ¾Ð´Ð¸Ð½": 1329,
      ");": 1330,
      "Ð¾Ð»Ñı": 1331,
      "Ð¸Ð²ÐµÑĢÑģÐ¸ÑĤ": 1332,
      "Ð¾ÑģÐ¾Ð±": 1333,
      "ĠÐ¶ÐµÐ»": 1334,
      "Ð¸Ð»Ð¾": 1335,
      "ĠÐ³Ð¾Ð»": 1336,
      "ÐµÐ²Ð¸Ñĩ": 1337,
      "Ð¸ÐºÐµ": 1338,
      "Ð¾ÑĢÐµ": 1339,
      "ĠÐ¤ÑĢÐ°Ð½": 1340,
      "ÐµÑģÑĤÐ²Ðµ": 1341,
      "ĠÐ²Ð·": 1342,
      "Ð½Ð¸Ð¹": 1343,
      "Ð¾Ð³Ð»Ð°Ñģ": 1344,
      "Ð¾Ð±Ñī": 1345,
      "ÑĢÐµÐ¿": 1346,
      "Ð»Ð¸Ð·": 1347,
      "ĠÐºÐ¾ÑĤÐ¾ÑĢÑĭÑħ": 1348,
      "ÑģÑĭÐ»ÐºÐ¸": 1349,
      "ĠÐ¿Ð°ÑĢ": 1350,
      "ĠÐ´Ð¾Ðº": 1351,
      "ĠÐ¿ÐµÑĢÐ¸Ð¾Ð´": 1352,
      "Ð»Ñĥ": 1353,
      "15": 1354,
      "ĠÑģÑĩÐ¸ÑĤ": 1355,
      "Ð¸Ð½Ð³": 1356,
      "ch": 1357,
      "ĠÑĨÐµÑĢ": 1358,
      "ÐºÐ°Ñħ": 1359,
      "ĠÐºÐ°": 1360,
      "Ġ12": 1361,
      "ĠÐ½Ð°ÑĢÐ¾Ð´": 1362,
      "ÐµÑĢÐµÐ²": 1363,
      "12": 1364,
      "ĠW": 1365,
      "ÑģÑĤÑĢÐµ": 1366,
      "Ð¸ÑĢÐ¸": 1367,
      "ÐµÑĢÐµ": 1368,
      "ÑĭÐ¼Ð¸": 1369,
      "Ð¸ÑĤÐ°": 1370,
      "Ð·Ð¸Ð´": 1371,
      "il": 1372,
      "ĠÐ·Ð´": 1373,
      "ĠÐ²Ð¾Ð¹Ð½Ñĭ": 1374,
      "ÐºÐ¸Ð¹": 1375,
      "Ð´Ñĭ": 1376,
      "ĠÐ°ÑĢÑħ": 1377,
      "ÐµÑĢÑĭ": 1378,
      "Ð¼Ð¾ÑĤ": 1379,
      "ĠÐºÐ¾Ð³Ð´Ð°": 1380,
      "Ð¸ÑĩÐµÑģÐºÐ°Ñı": 1381,
      "Ð¾Ð±ÑĢÐ°Ð·": 1382,
      "om": 1383,
      "ÐµÐ½ÐµÑĢÐ°": 1384,
      "Ġ192": 1385,
      "ĠÐºÐ½Ð¸": 1386,
      "ĠÐ¼Ð°Ñģ": 1387,
      "ÐµÐ¼Ñĥ": 1388,
      "ÑĥÐ´Ð¾Ð¶": 1389,
      "ÑĭÑĩ": 1390,
      "ĠÐ¼ÑĥÐ·Ñĭ": 1391,
      "Ð³ÑĥÑģÑĤ": 1392,
      "ÑģÐ»Ð¸": 1393,
      "as": 1394,
      "Ð¾ÑĢÐ¾Ð²": 1395,
      "ĠÐ¿Ð°ÑĢÑĤ": 1396,
      "ÑģÑĤÑĢÑĥ": 1397,
      "ĠÐ¿Ð¾Ð±": 1398,
      "ÑģÑĤÐ¸ÑĤ": 1399,
      "Ð¡ÑģÑĭÐ»ÐºÐ¸": 1400,
      "Ð°Ð½Ð¾": 1401,
      "Ð°ÑĤÐµ": 1402,
      "ĠÐ¶ÐµÐ½": 1403,
      "ĠÐ¿ÑĥÑĤ": 1404,
      "ĠÐĺÐ·": 1405,
      "ĠÑĥÐ±": 1406,
      "ÐµÐ½Ð½ÑĭÐ¹": 1407,
      "Ð»Ð¾ÑĤ": 1408,
      "ĠÑĢÐµÐ·ÑĥÐ»ÑĮÑĤ": 1409,
      "Ð°Ð»Ð¸ÑģÑĤ": 1410,
      "ion": 1411,
      "Ð¸Ð»Ð°ÑģÑĮ": 1412,
      "Ð»ÑĮÐ±": 1413,
      "Ð¾Ð³ÑĢÐ°Ð¼": 1414,
      "ĠÐ¿Ð¾Ñĩ": 1415,
      "Ð¸Ð·Ð°ÑĨÐ¸Ð¸": 1416,
      "ĠÐ¿ÐµÑĢÐµÐ²": 1417,
      "Ð²Ð¸": 1418,
      "Ð¼ÐµÑĢÐ¸ÐºÐ°Ð½": 1419,
      "ĠÑįÐ»ÐµÐºÑĤ": 1420,
      "Ġd": 1421,
      "ÐµÐ½Ð½ÑĭÑħ": 1422,
      "Ð¼ÐµÑĤ": 1423,
      "ĠÐ¸Ð·Ð´": 1424,
      "ĠÐ²ÐºÐ»ÑİÑĩ": 1425,
      "ÑĮÐµ": 1426,
      "Ð°ÑİÑĤÑģÑı": 1427,
      "ĠÑģÑĤÑĢÐ¾": 1428,
      "ÐµÐ½Ð½ÑĭÐµ": 1429,
      "Ð·ÑĭÐ²Ð°": 1430,
      "ĠÐ·Ð°ÑĤ": 1431,
      "ĠÑĢÐ°Ð·Ð²Ð¸ÑĤ": 1432,
      "Ð»ÑĥÐ±": 1433,
      "ÑģÐºÑĥÑİ": 1434,
      "ĠÐ¼Ð¾Ð»": 1435,
      "Ð²Ðµ": 1436,
      "ĠÐµÑīÑĳ": 1437,
      "ĠÐ¾ÑģÐ¾Ð±": 1438,
      "ÑįÐ½": 1439,
      "ĠÑĩÑĤÐ¾Ð±Ñĭ": 1440,
      "ĠÑĩÐµÑĢÐµÐ·": 1441,
      "ĠÐ»ÑİÐ±": 1442,
      "ĠÑĢÐ°Ð·Ð»Ð¸Ñĩ": 1443,
      "ĠÐ²Ð¾Ð·Ð¼Ð¾Ð¶": 1444,
      "ĠÑĥÑĤ": 1445,
      "ĠÐºÐ°Ñĩ": 1446,
      "Ġ14": 1447,
      "ĠÐ¿ÑĢÐ¸Ð·": 1448,
      "Ð°ÑĢÐ°ÐºÑĤ": 1449,
      "ĠÑģÐ¸Ð»": 1450,
      "ĠÑĤÑĢÐ¸": 1451,
      "ĠÐ´ÑĢÑĥÐ³Ð¸Ñħ": 1452,
      "ĠÑĢÐµÐ³": 1453,
      "ĠÐĴÐµÐ»Ð¸Ðº": 1454,
      "ÑģÑĤÐ²Ð¾Ð¼": 1455,
      "Ð¸ÑĩÐµÑģÐºÐ¸": 1456,
      "ĠÐ¼ÐµÐ´": 1457,
      "ĠÐµÐ´Ð¸Ð½": 1458,
      "ĠÐ³Ð¾ÑĢ": 1459,
      "ĠÐºÐ°ÑĤ": 1460,
      "ĠÐ¿ÑĢÐ¾ÑĨ": 1461,
      "Ð¸ÐµÐ¼": 1462,
      "ÑıÐ¼": 1463,
      "ĠÐ¾Ð½Ð°": 1464,
      "ÐºÐ°Ð´": 1465,
      "Ð¸Ð·Ð¼": 1466,
      "Ð¸ÑĤÐµÐ»ÐµÐ¹": 1467,
      "ÑĢÐµÑģÑĤ": 1468,
      "ĠÑĥÐ½Ð¸Ð²ÐµÑĢÑģÐ¸ÑĤ": 1469,
      "ĠÑģÑĥÐ´": 1470,
      "ÐĿÐ°": 1471,
      "ĠÑįÐºÑģÐ¿": 1472,
      "ÑģÑĤÐ²Ðµ": 1473,
      "Ð¾Ð»ÐµÐ²": 1474,
      "ĠÐ¿ÑĢÐ¾ÑģÑĤ": 1475,
      "ĠÐ²Ð»Ð°ÑģÑĤ": 1476,
      "ĠÑıÐ½": 1477,
      "ĠÐŁÐµÑĤ": 1478,
      "ĠÐ½ÐµÐ´": 1479,
      "Ð»ÑıÐµÑĤ": 1480,
      "ĠÐ¿ÑĢÐ¾Ð¸Ñģ": 1481,
      "Ð¼ÐµÐ½ÑĤ": 1482,
      "Ð¾Ð²Ð°Ð»": 1483,
      "ĠÐµÑģÑĤÑĮ": 1484,
      "ĠÐŀÐ±": 1485,
      "ĠÐ¸ÑģÑģ": 1486,
      "Ð½Ð¸Ñħ": 1487,
      "ĠÑĪÐºÐ¾Ð»": 1488,
      "Ġt": 1489,
      "Ġ(Â«": 1490,
      "ĠÑĩÐ°ÑģÑĤÑĮ": 1491,
      "Ð»Ð°Ð³": 1492,
      "ĠÐ´ÐµÐºÐ°Ð±": 1493,
      "ĠÐ¶Ð¸Ð²": 1494,
      "ĠÐ¾Ð³": 1495,
      "ĠÐ½Ð°Ð·Ð²Ð°Ð½Ð¸Ðµ": 1496,
      "ĠÐĿÐ¾Ð²": 1497,
      "ÑıÑģ": 1498,
      "ÑĤÐµ": 1499,
      "ĠÐ³ÐµÑĢ": 1500,
      "ĠÑĥÐ¶Ðµ": 1501,
      "ĠÐ°Ð´": 1502,
      "Ð¼Ð¸Ð¸": 1503,
      "ĠÐºÐ¾ÑĤÐ¾ÑĢÐ¾Ð¹": 1504,
      "ro": 1505,
      "Ð°Ð»ÑĮÐ½Ð¾Ð¹": 1506,
      "14": 1507,
      "ĠÐ¸ÑģÑĤ": 1508,
      "ÑĢÑĳ": 1509,
      "Ð¸Ð¹ÑģÐºÐ¾Ð¹": 1510,
      "ĠÑģÐ¾Ð¾ÑĤ": 1511,
      "ĠÐ½ÐµÑģÐºÐ¾Ð»ÑĮÐºÐ¾": 1512,
      "ÐºÐ¾Ð²Ð¾Ð´": 1513,
      "Ġ13": 1514,
      "ĠÐ½Ð°ÑģÑĤ": 1515,
      "ÐµÐ´ÐµÑĢÐ°": 1516,
      "ÐµÐ½Ð´": 1517,
      "ĠÐ³Ð¾ÑģÑĥÐ´Ð°ÑĢÑģÑĤÐ²ÐµÐ½": 1518,
      "ĠÐ±ÑĭÑĤÑĮ": 1519,
      "ĠÐºÐ¾ÑĤ": 1520,
      "ĠÐ½Ð¸Ñħ": 1521,
      "ĠÐ´ÐµÑıÑĤÐµÐ»ÑĮ": 1522,
      "ĠÐºÑĢÑĥÐ¿": 1523,
      "ĠÐ´Ð¾Ð»": 1524,
      "ĠĠĠĠ": 1525,
      "ÐµÑģÑĮ": 1526,
      "ĠÑĤÐ¸Ð¿": 1527,
      "ĠÑģÐµÐ½ÑĤ": 1528,
      "Ð²Ñĭ": 1529,
      "Ð¿Ð¾Ð»": 1530,
      "Ð¾Ñİ": 1531,
      "ĠÐ¿ÑĢÐ¸Ñģ": 1532,
      "ĠÐ¾ÐºÑĤ": 1533,
      "Ð½ÐµÐ²": 1534,
      "ĠÑĢÐ¾ÑģÑģÐ¸Ð¹": 1535,
      "ĠÐ¡Ð²": 1536,
      "Ð¿ÑĢÐ°Ð²": 1537,
      "ÑĢÐ¸Ð³": 1538,
      "Ð¸Ð½Ñĥ": 1539,
      "ÑĪÐµ": 1540,
      "Ð½ÐµÐ³Ð¾": 1541,
      "of": 1542,
      "Ð¾Ð¼Ð¸Ð½": 1543,
      "ĠÑĦÐ¸Ð»ÑĮÐ¼": 1544,
      "ĠÐ¼ÐµÐ½": 1545,
      "ÑĥÑĢÐ°": 1546,
      "Ð¾ÐµÐ²": 1547,
      "Ð¿Ð¸Ñģ": 1548,
      "ĠÐ²ÐµÐº": 1549,
      "Ð»Ð¸Ñı": 1550,
      "ĠÐĺÐ²": 1551,
      "ĠÑģÐ¼": 1552,
      "ÑıÐ¶": 1553,
      "ĠÑĩÐ»ÐµÐ½": 1554,
      "ĠÐ°Ð¼ÐµÑĢÐ¸ÐºÐ°Ð½": 1555,
      "Ð»ÐµÐ¼": 1556,
      "ĠÐ²ÑģÐµÑħ": 1557,
      "Ð¸Ð°Ð½": 1558,
      "Ð°Ñī": 1559,
      "ĠĊĊ": 1560,
      "ÑħÑĢÐ°Ð½": 1561,
      "le": 1562,
      "ÑĨÐ¸Ð¿": 1563,
      "ĠÐĲÐ²": 1564,
      "ĠÐ¾ÐºÐ¾Ð»Ð¾": 1565,
      "Ð±Ð°": 1566,
      "ÑĦÑĦ": 1567,
      "ĠÑģÐ»ÑĥÐ¶": 1568,
      "ÑĥÐ½Ðº": 1569,
      "re": 1570,
      "Ð»ÐµÐ¹": 1571,
      "ÑĥÑĢÐ½": 1572,
      "un": 1573,
      "Ð°ÑĢÐ°ÐºÑĤÐµÑĢ": 1574,
      "Ð²ÐµÐ»": 1575,
      "ĠÐ´Ð°": 1576,
      "ÑĥÐ³": 1577,
      "ĠÐŀÐ½": 1578,
      "ĠÑģÐ¿Ðµ": 1579,
      "ÑĢÐ¾ÑĤ": 1580,
      "ĠÑĢÐµÐ¶": 1581,
      "ÐµÑĢÐ¾Ð²": 1582,
      "199": 1583,
      "am": 1584,
      "13": 1585,
      "ĠÑģÑĤÑĢÐ°Ð½": 1586,
      "ÑĩÐ¸Ð½": 1587,
      "Ð°Ð´Ð°": 1588,
      "ĠÑĥÑģÑĤÐ°Ð½Ð¾Ð²": 1589,
      "ĠÐ°Ð²Ð³ÑĥÑģÑĤ": 1590,
      "ĠÐ»Ð¸ÑĪ": 1591,
      "ÐµÑĢÐµÐ´": 1592,
      "ĠÑģÐ¾Ð²ÑĢÐµÐ¼ÐµÐ½": 1593,
      "ĠÑĤÐµÑĢÑĢÐ¸ÑĤÐ¾ÑĢÐ¸Ð¸": 1594,
      "ĠÐºÐ»Ð°ÑģÑģ": 1595,
      "ĠÐ´Ð²ÑĥÑħ": 1596,
      "Ð¿Ð¾Ð´": 1597,
      "ÑĢÐµÐ¼": 1598,
      "ÑĢÑĮ": 1599,
      "Ð¼Ð¸Ð½Ð¸ÑģÑĤ": 1600,
      "Ð¸ÑĨÑĭ": 1601,
      "ĠÐ¿ÐµÑĢÐµ": 1602,
      "ÑĢÐ°ÐºÑĤ": 1603,
      "Ð»Ð¾Ñī": 1604,
      "Ġ.": 1605,
      "ÐºÐ¸Ñħ": 1606,
      "ĠÑĩÐ°ÑģÑĤÐ¸": 1607,
      "Ð¸ÑĨÐ°": 1608,
      "ĠÐ¾ÑĤÐ½Ð¾ÑĪ": 1609,
      "Ð¾Ð´ÐµÑĢÐ¶": 1610,
      "ĠÐ¿Ð¾Ð³": 1611,
      "Ġ//": 1612,
      "ÑĤÐ¾Ð²": 1613,
      "Ġ()": 1614,
      "ĠÐ¾ÑĤÐ´": 1615,
      "ĠÐ´Ð²Ð°": 1616,
      "ĠÐ¿Ð¾Ð¼Ð¾Ñī": 1617,
      "ĠÐ»Ð¸ÑĤÐµÑĢÐ°": 1618,
      "Ð»Ð°Ð½Ð´": 1619,
      "Ð¸ÑĤÐµÐ»Ñı": 1620,
      "ĠÐ¶Ð¸Ð·Ð½Ð¸": 1621,
      "ĠÑģÑĤÐ°Ð½": 1622,
      "ĠÐľÐ°ÑĢ": 1623,
      "ĠÐ¼Ð¾Ð´": 1624,
      "ĠÐ²Ð¼ÐµÑģÑĤ": 1625,
      "ÑĢÑĥÐ·": 1626,
      "Ð°ÑĢÐ¾Ð²": 1627,
      "Ð½ÑĮ": 1628,
      "ĠÐ¿ÐµÑģ": 1629,
      "ĠÐ²ÑĢÐµÐ¼ÐµÐ½Ð¸": 1630,
      "ÐµÐ½Ð½Ð¾Ð¹": 1631,
      "Ð¾ÑĢÐ°Ñı": 1632,
      "Ð°Ð»Ð¾Ð³": 1633,
      "ÐµÐ»ÐµÐ¼": 1634,
      "ĠÐĴÐ»Ð°Ð´": 1635,
      "ÐµÑĦ": 1636,
      "ĠÐ¼Ð¾ÑĢ": 1637,
      "ĠÑĢÐ°ÑģÐ¿Ð¾Ð»Ð¾Ð¶": 1638,
      "ĠÑĥÐ¿ÑĢÐ°Ð²": 1639,
      "Ð°Ð»ÑĮÐ½ÑĭÑħ": 1640,
      "Ð¾Ð±Ð¾Ð´": 1641,
      "ĠÐºÑĥÐ»ÑĮÑĤ": 1642,
      "ĠÐµÐ¼Ñĥ": 1643,
      "ĠÐµÐ²": 1644,
      "Ð¾ÑıÐ±": 1645,
      "ĠÐºÐ½Ñı": 1646,
      "ĠÐ°Ð¿ÑĢÐµ": 1647,
      "Ð°Ð½Ð¸Ð¹": 1648,
      "ĠÐļÐ°ÑĢ": 1649,
      "ĠÑħÑĥÐ´Ð¾Ð¶": 1650,
      "Ð°ÑĤÐ¾ÑĢ": 1651,
      "ĠÐ¿ÑĢÐ¾Ð³ÑĢÐ°Ð¼": 1652,
      "Ð¾Ð»Ð¾ÑĤ": 1653,
      "Ð°Ð¼ÑıÑĤ": 1654,
      "Ð´ÐµÐ½": 1655,
      "ĠÐ²ÑĭÑģÐ¾Ðº": 1656,
      "ĠÐ»Ð¸Ð½": 1657,
      "ĠÑģÐ¿Ð¾ÑģÐ¾Ð±": 1658,
      "ÐºÐ°Ð´ÐµÐ¼": 1659,
      "ĠÑģÐ¾Ð¾ÑĤÐ²ÐµÑĤ": 1660,
      "ĠÐ¿Ð¾Ð´Ð´ÐµÑĢÐ¶": 1661,
      "ĠÑģÐ¼ÐµÑĢ": 1662,
      "ĠÑĦÑĢÐ°Ð½": 1663,
      "Ð»Ð¸Ð¼": 1664,
      "ĠÐ¿ÑĢÐ¾Ð´Ð¾Ð»Ð¶": 1665,
      "ĠÐ³Ð¾Ð´Ñĭ": 1666,
      "Ð°Ð»ÑĮÐ½ÑĭÐ¹": 1667,
      "ĠÐ½Ð¾ÑıÐ±": 1668,
      "ĠÐºÐ¾ÑĤÐ¾ÑĢÐ°Ñı": 1669,
      "âĢ¦": 1670,
      "ĠÑĤÐ¾Ñĩ": 1671,
      "ĠÐ´ÐµÑĢÐµÐ²": 1672,
      "ĠÐ½Ð°Ð¿ÑĢÐ°Ð²": 1673,
      "ĠÐºÑĢÐ°": 1674,
      "Ð´Ñĥ": 1675,
      "ĠÐ°Ð»": 1676,
      "ĠÐ¾Ð¿ÑĢÐµÐ´ÐµÐ»": 1677,
      "Ð°Ð»ÑĮÐ½Ð¾": 1678,
      "ÐµÐºÑĤÐ¸Ð²": 1679,
      "Ð¾Ð»Ð°": 1680,
      "ĠÐ¿Ð¾Ð½": 1681,
      "ĠÐ¼Ð¾Ð¶Ð½Ð¾": 1682,
      "and": 1683,
      "ĠÐ¿ÑĢÐ¸Ð¼ÐµÐ½": 1684,
      "ÑĢÐ¸Ð¼ÐµÑĢ": 1685,
      "ĠÑģÐ²Ð¾ÐµÐ¹": 1686,
      "ĠÑĢÐµÐ´": 1687,
      "ÑĨÑĥÐ·": 1688,
      "Ð¾ÑģÑĤÐ¾Ñĩ": 1689,
      "ĠÐ²ÑĭÑģÑĤÑĥÐ¿": 1690,
      "ĠII": 1691,
      "Ð¸ÑģÐ¸Ð¼": 1692,
      "ĠÐ¼ÐµÑģÑĤÐ¾": 1693,
      "ĠÐŀÑģ": 1694,
      "ĠÐ¾ÑĤÐ»Ð¸Ñĩ": 1695,
      "ÐĽÐ¸ÑĤÐµÑĢÐ°": 1696,
      "Ð¿Ð¸Ð¾Ð½": 1697,
      "Ð°Ð»ÑĮÐ½ÑĭÐµ": 1698,
      "Ð²Ð¸Ð½": 1699,
      "ĠÐºÐ¾ÑĤÐ¾ÑĢÐ¾Ð³Ð¾": 1700,
      "Ð¾Ð³ÑĢÐ°ÑĦÐ¸Ñı": 1701,
      "ĠÑĤÐ¾ÑĢ": 1702,
      "ÑĢÐ¾ÑģÑĤÑĢÐ°Ð½": 1703,
      "ÑĢÐ¸Ð¹": 1704,
      "ĠÐ·Ð°Ð½Ð¸Ð¼": 1705,
      "ÐµÐ½Ð¸": 1706,
      "ĠÑģÐµÐ²ÐµÑĢ": 1707,
      "ĠÐ´Ð¾Ð±": 1708,
      "ĠÐ¸Ð·Ð¼ÐµÐ½": 1709,
      "Ð¸Ð»Ð¾ÑģÑĮ": 1710,
      "ĠÐ¸Ð¼ÐµÐ½": 1711,
      "ÑĪÐ¸Ðµ": 1712,
      "ÑĢÑĳÑħ": 1713,
      "ĠÐŁÐµÑĢÐ²": 1714,
      "ÑģÑĥ": 1715,
      "ĠÐ¾Ð´Ð½Ð°ÐºÐ¾": 1716,
      "Ð½Ð°Ð´": 1717,
      "ÑĥÐ»ÑıÑĢ": 1718,
      "ĠÐ¸ÑģÐ¿Ð¾Ð»ÑĮÐ·Ð¾Ð²": 1719,
      "ÐºÐ¾Ð½": 1720,
      ".:": 1721,
      "Ð°ÑĤÐµÐ»Ñı": 1722,
      "ÑģÑıÑĩ": 1723,
      "Ð¡Ð¼": 1724,
      "Ð»Ð¾Ð¼": 1725,
      "ĠÑįÐºÐ¾Ð½Ð¾Ð¼": 1726,
      "Ð°Ð»Ð¸Ð·": 1727,
      "ĠÐ¸ÑģÐºÑĥÑģ": 1728,
      "Ð¸ÑĤÐµÐ»Ð¸": 1729,
      "ÐµÐ²Ð°": 1730,
      "Ð¾Ð±ÑĢÐ°Ð¶": 1731,
      "ĠÑĤÑĭ": 1732,
      "ĠÐŀÐ´Ð½Ð°ÐºÐ¾": 1733,
      "ÑĤÑĭ": 1734,
      "ÑĤÑĥÑĢ": 1735,
      "Ð²Ð°ÑĤ": 1736,
      "ĠÐ³ÑĢÑĥÐ¿Ð¿Ñĭ": 1737,
      "Ð°ÑĢÑħ": 1738,
      "ĠÐļÐ¾ÑĢ": 1739,
      "ĠÐ³Ð°Ð·": 1740,
      "Ð¾Ð»Ð¾Ð³Ð¸Ð¸": 1741,
      "ĠÑħÐ°ÑĢÐ°ÐºÑĤÐµÑĢ": 1742,
      "Ð°ÐºÑģ": 1743,
      "ÐµÑĢÐ¸Ð¸": 1744,
      "ĠÑģÐ¾Ð´ÐµÑĢÐ¶": 1745,
      "ĠÐ´ÑĢÐµÐ²": 1746,
      "ĠÑıÐ½Ð²": 1747,
      "ÑĥÐ½Ð°ÑĢÐ¾Ð´": 1748,
      "Ð»Ð°Ð½": 1749,
      "ĠÐ´Ð¾ÑĢ": 1750,
      "ĠÐºÐ¾Ð»Ð¸Ñĩ": 1751,
      "ĠXV": 1752,
      "ĠÑĢÐ°Ð¹Ð¾Ð½": 1753,
      "ĠÐŁÐ¾ÑģÐ»Ðµ": 1754,
      "Ð¾ÐºÐ°": 1755,
      "ĠÑģÐ²Ð¾Ðµ": 1756,
      "ĠÑĢÑĥÐºÐ¾Ð²Ð¾Ð´": 1757,
      "Ð¾ÑĢÑĮ": 1758,
      "Ð¸Ð½Ð¾Ð²": 1759,
      "ĠÑģÑĤÐ°ÑĢ": 1760,
      "ĠÑģÐµÐ±Ñı": 1761,
      "ĠÑĤÑĢÐ°Ð½": 1762,
      "Ð»Ð¾Ð½": 1763,
      "Ð¿Ð¾Ð½": 1764,
      "ÑĥÑĤÑģÑĤÐ²": 1765,
      "Ð¿ÐµÑĢÐ°": 1766,
      "ĠÐ²ÑģÐµÐ³Ð¾": 1767,
      "ĠÑĦÐµÐ²": 1768,
      "ĠÑĢÐ°ÑģÑģ": 1769,
      "ÑĳÐ½Ð½ÑĭÑħ": 1770,
      "Ġof": 1771,
      "ÑĢÐ¾Ð¼Ðµ": 1772,
      "ÑĥÐ´Ð°": 1773,
      "ĠÐ´Ð²Ð¸Ð¶": 1774,
      "ÑģÑĤÐ¾ÑĢÐ¸Ñı": 1775,
      "ing": 1776,
      "ĠÐ¾ÑģÑĤÑĢÐ¾Ð²": 1777,
      "Ð¸ÑĤÑĮÑģÑı": 1778,
      "ĠÑįÐ½": 1779,
      "ĠÐ¿ÑĢÐ¾ÑĦ": 1780,
      "Ð»ÑĮÐ±Ð¾Ð¼": 1781,
      "ÑĢÑĥÑĪ": 1782,
      "ĠÐºÐ°Ð¼": 1783,
      "Ð¸ÑıÑħ": 1784,
      "ÑĳÐ²": 1785,
      "ĠÑįÐ¿": 1786,
      "ĠÐ¿Ð¾ÑįÑĤ": 1787,
      "ĠÑģÐ¾ÑħÑĢÐ°Ð½": 1788,
      "ĠÑĩÐ¸ÑģÐ»Ðµ": 1789,
      "ĠÑģÑĤÐ¾Ð»": 1790,
      "Ð¾ÑĢÑĥÐ¶": 1791,
      "ĠÐ¿Ð¾ÑıÐ²": 1792,
      "ĠÐºÐ°ÑĩÐµÑģÑĤÐ²Ðµ": 1793,
      "ÐĽÐ¸ÑĤÐµÑĢÐ°ÑĤÑĥÑĢÐ°": 1794,
      "ĠÐ³ÐµÐ½ÐµÑĢÐ°": 1795,
      "ĠÐ¸Ð½ÑĤ": 1796,
      "ÐºÐ°Ð¼Ð¸": 1797,
      "ĠÐ¶ÐµÐ»ÐµÐ·": 1798,
      "ĠÐ¼Ð°Ñı": 1799,
      "ĠÐ¿ÑĢÐ¾Ð¼": 1800,
      "ĠÐ¸ÑģÑĤÐ¾ÑĢÐ¸Ð¸": 1801,
      "st": 1802,
      "ĠÐľÐ¸Ñħ": 1803,
      "ÑĪÐµÐ¹": 1804,
      "Ð»ÑĥÐ¶": 1805,
      "Ð¶Ð´Ð°Ð½": 1806,
      "ĠÑįÑĤÐ¾Ð¹": 1807,
      "ĠÐ³ÑĢÐ°Ð½": 1808,
      "Ð»ÑģÑı": 1809,
      "ĠÑģÐ»ÐµÐ´ÑĥÑİÑī": 1810,
      "ĠÐ½Ð°Ð±": 1811,
      "ĠÐĳÐµÐ»": 1812,
      "ed": 1813,
      "ĠÐ¸Ð·Ð±": 1814,
      "Â»)": 1815,
      "ĠÐķÐ²ÑĢÐ¾Ð¿": 1816,
      "ĠÐ¼Ð¸ÑĢÐ°": 1817,
      "ĠÐ£ÐºÑĢÐ°": 1818,
      "ÑĢÐ°Ð¼": 1819,
      "ÑģÐºÐ¾Ð¼Ñĥ": 1820,
      "ĠÐ¸ÑģÑģÐ»ÐµÐ´Ð¾Ð²": 1821,
      "ĠÐ±Ð¾Ð³": 1822,
      "ĠO": 1823,
      "Ð°Ð»ÑĮÐ½Ð¾Ð³Ð¾": 1824,
      "ĠÑıÐ½Ð²Ð°ÑĢÑı": 1825,
      "22": 1826,
      "Ð°ÐµÐ¼": 1827,
      "ĠÑĦÐµÐ²ÑĢÐ°": 1828,
      "ĠÐ´ÐµÐºÐ°Ð±ÑĢÑı": 1829,
      "ÑĥÐµÑĤÑģÑı": 1830,
      "ĠÑģÐµÐº": 1831,
      "Ð½Ð¸ÐºÐ¾Ð¼": 1832,
      "ĠÐ·Ð°Ð²Ð¾Ð´": 1833,
      "Ð¾ÑĢÐ¾Ð½Ñĭ": 1834,
      "ÑĨÐ¸ÐµÐ¹": 1835,
      "Ð¸ÑĩÐµÑģÐºÐ¾Ðµ": 1836,
      "ÑĦÐ¸ÑĨÐ¸Ð°Ð»ÑĮ": 1837,
      "ra": 1838,
      "ĠÐºÐ°Ð½": 1839,
      "000": 1840,
      "ĠÐ»ÑĥÑĩ": 1841,
      "Ð¼Ð¸ÑĢÐ¾Ð²": 1842,
      "ÑĦÐ¾ÑĢÐ¼Ð°": 1843,
      "11": 1844,
      "ÐµÐºÑģÑĤ": 1845,
      "Ð°ÑģÑģ": 1846,
      "Ð¡ÑĤ": 1847,
      "Ð¾Ð½Ð´": 1848,
      "Ð³Ð¾ÑĤÐ¾Ð²": 1849,
      "Ð¤Ð¸Ð»ÑĮ": 1850,
      "ĠÐ²Ð¾Ð»": 1851,
      "Ð°Ð½Ð¸Ñİ": 1852,
      "ÐµÐ½ÑĤÐ¾Ð²": 1853,
      "ÑģÑĤÐ¸ÑĤÑĥÑĤ": 1854,
      "ĠÑĦÐ¸Ð½": 1855,
      "Ð»Ð¾ÑīÐ°Ð´": 1856,
      "Ð¾ÑıÐ½": 1857,
      "ĠÐ¼Ð°ÑĤÐµÑĢÐ¸": 1858,
      "ÑĪÐµÐ³Ð¾": 1859,
      "Ð»ÐµÐ½Ñĭ": 1860,
      "ĠÐºÐ°Ð¶Ð´": 1861,
      "ĠÑģÐµÐ½ÑĤÑıÐ±ÑĢÑı": 1862,
      "ĠÐ¼Ð½Ð¾Ð³Ð¾": 1863,
      "ĠÐ¿Ð»Ð°Ð½": 1864,
      "ĠÐ¶ÑĥÑĢÐ½": 1865,
      "ĠÐ³Ð¾Ð´Ð¾Ð²": 1866,
      "Ġ0": 1867,
      "ĠÐ¿ÑĢÐ°Ð²Ð¸ÑĤÐµÐ»ÑĮ": 1868,
      "Ġ190": 1869,
      "ĠÑĢÐ°Ð¹Ð¾Ð½Ð°": 1870,
      "ĠÐ¿Ð¾ÑģÑĤÑĢÐ¾": 1871,
      "Ð¾ÑģÐ»ÐµÐ´": 1872,
      "Ð¸ÑĤÑĥ": 1873,
      "ĠÑģÐ¾Ð±ÑģÑĤÐ²ÐµÐ½": 1874,
      "ĠÑĢÐ°Ð¹Ð¾Ð½Ðµ": 1875,
      "ĠÐ²ÐµÑĢ": 1876,
      "Ð½ÐµÑģ": 1877,
      "Ð¾Ð³Ð»Ð°ÑģÐ½Ð¾": 1878,
      "ĠÑĢÐ°ÑģÐ¿ÑĢÐ¾ÑģÑĤÑĢÐ°Ð½": 1879,
      "ĠÐłÐ¾ÑģÑģÐ¸Ð¹ÑģÐºÐ¾Ð¹": 1880,
      "ÑģÑıÑĤ": 1881,
      "ĠÐ¸ÑİÐ»Ñı": 1882,
      "ĠÐ½Ð°ÑĥÑĩ": 1883,
      "ÐŁÐ¾": 1884,
      "Ð¾ÑıÑī": 1885,
      "ĠÑĤÐµÐ¾ÑĢ": 1886,
      "Ð½ÐµÐ¼": 1887,
      "ĠÐ¾ÐºÑĤÑıÐ±ÑĢÑı": 1888,
      "ĠÑĥÑĢÐ¾Ð²": 1889,
      "ÑģÐºÐ¾": 1890,
      "Ð°Ð¿Ð°Ð´": 1891,
      "ÑĳÐ·": 1892,
      "ÑģÑĤÑĢÐµÑĩ": 1893,
      "Ð³Ðµ": 1894,
      "ĠÐ³Ð¾Ð´Ð°Ñħ": 1895,
      "ĠÐ¾Ð±ÑĢÐ°Ð·Ð¾Ð¼": 1896,
      "Ð¾Ð¶Ð´ÐµÐ½Ð¸Ñı": 1897,
      "ĠÑĦÑĥÐ½Ðº": 1898,
      "ĠÐ²Ð¾Ð¿": 1899,
      "ÑıÑħ": 1900,
      "ĠÐ¿Ð¾Ð»Ð¾Ð¶": 1901,
      "ĠÐ¼Ð°ÑĢÑĤÐ°": 1902,
      "ĠÑģÑĤÐ°ÑĤ": 1903,
      "Ð¸Ð»Ð¾Ñģ": 1904,
      "ent": 1905,
      "ĠÐ¡Ð°Ð½": 1906,
      "ĠÑģÐ¾Ð·": 1907,
      "Ð´Ð¾Ð²": 1908,
      "ĠÐŃÑĤÐ¾": 1909,
      "ÑĥÑĢÐµ": 1910,
      "ĠÑĤÐµÐ°ÑĤ": 1911,
      "Ð¾ÐºÑĢÐ°ÑĤ": 1912,
      "ÑĢÐ°Ð»": 1913,
      "ÑĢÐµÑģÑģ": 1914,
      "ĠÐ´ÑĢÑĥÐ³Ð¸Ðµ": 1915,
      "ĠÐ°ÐºÑĤÐ¸Ð²": 1916,
      "ĠÐŀÑĢ": 1917,
      "ĠÑģÐ¸Ð¼": 1918,
      "ĠÑĢÑıÐ´": 1919,
      "ĠÑĤÑĢÐµ": 1920,
      "ÑĳÐ½Ð½ÑĭÐµ": 1921,
      "ĠÐ½Ð¸": 1922,
      "ĠÐ¾Ð¿ÐµÑĢÐ°": 1923,
      "ĠÑĢÐ¾Ð¼": 1924,
      "ĠÐ½ÐµÐ¼ÐµÑĨ": 1925,
      "ĠÐ°Ð²ÑĤÐ¾ÑĢ": 1926,
      "ĠÐ¸Ð¼ÐµÐµÑĤ": 1927,
      "ĠÐ´ÐµÐ½ÑĮ": 1928,
      "ĠÐ¸ÑİÐ½Ñı": 1929,
      "Ð¿Ð°": 1930,
      "ĠâĢ": 1931,
      "ĠÑģÐ¾Ð¾Ð±Ñī": 1932,
      "ÑĭÑĪÐ»ÐµÐ½": 1933,
      "ÑĥÐ²": 1934,
      "ĠXI": 1935,
      "ĠÐ½Ð°ÑģÐµÐ»ÐµÐ½Ð¸Ñı": 1936,
      "ĠÑĢÐ°Ð²": 1937,
      "ĠThe": 1938,
      "ÐµÑĩÐµÐ½Ð¸Ðµ": 1939,
      "ĠÑģÐ²Ð¾Ð¹": 1940,
      "ĠÐ½ÐµÐ±": 1941,
      "ĠÐ¿Ð¾Ð·Ð²Ð¾Ð»": 1942,
      "ÐµÑģÑĤÑĮ": 1943,
      "ĠÐ°Ð²Ð³ÑĥÑģÑĤÐ°": 1944,
      "Ġ25": 1945,
      "ÐºÐ¾Ð³Ð¾": 1946,
      "ĠÐ¿Ñģ": 1947,
      "Ð¾Ð½ÑĤ": 1948,
      "ÑĢÐ°Ð±": 1949,
      "ĠÑģÐ²Ð¾ÐµÐ³Ð¾": 1950,
      "Ð¸Ð½ÑģÐºÐ¸Ð¹": 1951,
      "ĠÐŁÐ¾Ð»": 1952,
      "Ð½Ð°Ð¼": 1953,
      "Ð´ÐµÐ¹": 1954,
      "Ð¾ÑĤÐ°": 1955,
      "ÐµÐ½Ð½Ð¾Ð³Ð¾": 1956,
      "ÑĨÐµ": 1957,
      "ĠÐ¿ÑĢÐ¾Ð¸Ð·Ð²ÐµÐ´": 1958,
      "ÑĦÐµÑĢ": 1959,
      "ĠÑĦÑĢÐ°Ð½ÑĨÑĥÐ·": 1960,
      "ĠÐ²ÐµÐ´": 1961,
      "ĠÑģÐ²Ð¾Ñİ": 1962,
      "ĠÐ²Ð½ÑĥÑĤ": 1963,
      "ĠÐ´Ð¾Ð¿": 1964,
      "Ðĸ": 1965,
      "Ð¾ÑģÐ»Ð°Ð²": 1966,
      "ĠÐ½Ð°Ð·ÑĭÐ²": 1967,
      "ĠK": 1968,
      "ĠÐ±ÐµÑĢ": 1969,
      "ĠÑĥÑģÐ¿": 1970,
      "ĠÐ¼Ð¾Ð³ÑĥÑĤ": 1971,
      "ĠÐ¾Ð±ÑĭÑĩ": 1972,
      "Ġ30": 1973,
      "ĠÑĥÐ³": 1974,
      "ĠÑģÐ²ÑıÐ·Ð¸": 1975,
      "ĠÑģÐ¾Ð¾ÑĤÐ²ÐµÑĤÑģÑĤÐ²": 1976,
      "Ð°Ð»Ð¾Ð²": 1977,
      "ĠÑģÐ´ÐµÐ»": 1978,
      "Ð°Ðµ": 1979,
      "Ð¸Ð±Ð¾Ð»ÐµÐµ": 1980,
      "ĠÑĦÐ¸Ð·": 1981,
      "ĠÐ²Ð¸Ð´Ðµ": 1982,
      "ĠÐĲÐ½Ð´": 1983,
      "Ð°ÑĤÐ¾Ð²": 1984,
      "ĠÐłÑĥÑģ": 1985,
      "ĠÐ¿ÑĢÐµÐ·Ð¸Ð´": 1986,
      "ĠÐ»Ð¸ÑĪÑĮ": 1987,
      "ĠÑħÐ¾ÑĤ": 1988,
      "ĠÐ¾ÑģÑĤÐ°Ð²": 1989,
      "ĠÑĥÑģÐ»Ð¾Ð²": 1990,
      "ĠÐ°Ð»ÑĮÐ±Ð¾Ð¼": 1991,
      "ĠÐ¿ÑĢÐ¾Ð±": 1992,
      "ĠÑĩÐµÐ¼Ð¿Ð¸Ð¾Ð½": 1993,
      "ÐµÑĤÐµ": 1994,
      "ĠÐ¸ÑĤ": 1995,
      "ĠÐ°Ð¿ÑĢÐµÐ»Ñı": 1996,
      "ĠÑħÐ¾Ð´": 1997,
      "ĠÐ½Ð°Ð¿Ð¸Ñģ": 1998,
      "ĠÐ¸Ð¼Ð¿ÐµÑĢÐ°": 1999,
      "Ð¸ÐµÐ²": 2000,
      "ÑĢÐ°Ð·Ð´": 2001,
      "Ð¾Ð»Ð¾Ð²": 2002,
      "ĠÑĤÑĭÑģÑıÑĩ": 2003,
      "Ð¦": 2004,
      "ÐµÐ»Ð°": 2005,
      "ĠÑģÑĤÐµÐ¿": 2006,
      "Ð¸Ð»Ð¾ÑģÐ¾ÑĦ": 2007,
      "ĠÐ¾Ð¿Ð¸Ñģ": 2008,
      "Ð±Ñĥ": 2009,
      "ĠÐ¾ÑĤÐºÑĢÑĭÑĤ": 2010,
      "ÑĭÐ½": 2011,
      "ĠÐ²Ð¾ÑģÑģÑĤ": 2012,
      "ĠÐļÐ¾Ð¼": 2013,
      "ĠÐ¿ÑĢÐµÐ´Ð¿ÑĢÐ¸": 2014,
      "ĠÐ°Ð½Ð³Ð»": 2015,
      "Ð°ÑĤÐµÐ»Ð¸": 2016,
      "198": 2017,
      "ÑĢÐ°ÑģÑĤ": 2018,
      "ĠÐ°Ð½ÑĤ": 2019,
      "ÐµÑģÑĤÐ¸": 2020,
      "ĠÑįÑĤÐ¾ÑĤ": 2021,
      "ĠÑģÐ¾Ð¿": 2022,
      "ĠÐ·Ð°Ñī": 2023,
      "ĠÐ¸Ð¼ÐµÐ½Ð¸": 2024,
      "ÐµÑĢÐ¾Ð¼": 2025,
      "ĠÐºÐ°ÑĢÑĤ": 2026,
      "ĠÐ½Ð¾ÑıÐ±ÑĢÑı": 2027,
      "Ġ-": 2028,
      "Ð¾Ð·Ñı": 2029,
      "ĠÑĢÐ°Ð±Ð¾ÑĤÑĭ": 2030,
      "ac": 2031,
      "ĠÐ¿Ð¾Ð»ÑĥÑĩÐ¸Ð»": 2032,
      "ĠÐ³Ð¾ÑĢÐ¾Ð´Ðµ": 2033,
      "Ð½ÑıÑı": 2034,
      "ĠÐ¿ÑĢÐ¸Ð²": 2035,
      "Ð¾Ð²ÑĭÑħ": 2036,
      "ĠÐ²ÐµÑĢÑģ": 2037,
      "ĠÐ¸Ð½ÑĤÐµÑĢ": 2038,
      "ĠÐ´Ð°Ð¶Ðµ": 2039,
      "ĠÐĴÐ¾": 2040,
      "ĠÐ¡Ð¾Ð²ÐµÑĤ": 2041,
      "ĠÐ²ÑĭÑĪ": 2042,
      "21": 2043,
      "ĠÑģÐ¾Ð²ÐµÑĢÑĪ": 2044,
      "ĠÐ¿ÑĢÐ¸Ð½Ñı": 2045,
      "ĠÑģÐµÐ»ÑĮ": 2046,
      "ÐµÐ½ÐºÐ¾": 2047,
      "ĠÑĢÐ°Ð·ÑĢÐ°Ð±Ð¾ÑĤ": 2048,
      "III": 2049,
      "ig": 2050,
      "ĠÐ½Ð°Ð·Ð½Ð°Ñĩ": 2051,
      "ÐºÐ¸Ð½": 2052,
      "ÑĢÐ°Ð²Ð½": 2053,
      "Ð¯": 2054,
      "id": 2055,
      "Ð²Ð¸Ð´": 2056,
      "ĠÑģÐ±Ð¾ÑĢ": 2057,
      "ĠÑģÐ¾Ð±Ð¾Ð¹": 2058,
      "ĠÐ½ÐµÐ·": 2059,
      "ÑģÐµÐ´": 2060,
      "ĠU": 2061,
      "ÑĩÑĳÑĤ": 2062,
      "Ð³Ð¾ÑĢÐ¾Ð´": 2063,
      "ĠÐºÐ²": 2064,
      "ĠÐ²Ð»Ð¸Ñı": 2065,
      "ĠÐ²ÑģÑĤÑĢÐµÑĩ": 2066,
      "ĠÐ·Ð°ÑĤÐµÐ¼": 2067,
      "ĠÐĲÐ»": 2068,
      "ÑĢÐ°ÑĤÐ¸Ð²": 2069,
      "ĠÐ¼ÑĥÐ·ÑĭÐº": 2070,
      "ĠÐºÐ¾Ð½ÑĨÐµ": 2071,
      "Ð»ÐµÐ¶": 2072,
      "ĠÐ¿Ð°Ð¼ÑıÑĤ": 2073,
      "Ð¤Ð¸Ð»ÑĮÐ¼Ñĭ": 2074,
      "ĠÑĤÐµÑħÐ½": 2075,
      "ÑĢÐ°Ð½Ð¸Ñĩ": 2076,
      "ĠÐ¿ÑĢÐ°ÐºÑĤ": 2077,
      "ĠÐ½ÐµÐ¿": 2078,
      "Ð¸Ð´Ð°": 2079,
      "ÑĢÐ¾Ð»": 2080,
      "ĠÐ½Ð°ÑĩÐ°Ð»Ðµ": 2081,
      "ĠÑģÐ²Ð¾Ð¸Ñħ": 2082,
      "ĠÐ´Ð¾ÑĢÐ¾Ð³": 2083,
      "Ġ189": 2084,
      "ĠÑģÐºÐ¾ÑĢ": 2085,
      "ĠÑĢÐµÐ·ÑĥÐ»ÑĮÑĤÐ°ÑĤÐµ": 2086,
      "ĠÐ½ÐµÐ³Ð¾": 2087,
      "30": 2088,
      "Ġp": 2089,
      "Ð²ÑĢÐ°Ñī": 2090,
      "ĠÑģÑĤÑĢÐ¾Ð¸ÑĤÐµÐ»ÑĮ": 2091,
      "um": 2092,
      "Ð²Ð¾Ð»Ñİ": 2093,
      "ĠÐ½Ð°Ð·ÑĭÐ²Ð°": 2094,
      "ÐµÑĤÑĮ": 2095,
      "Ð»Ñĭ": 2096,
      "ÐŁÑĢÐ¸": 2097,
      "Ð¼Ð¸ÑĤ": 2098,
      "ĠÐ²Ð¼ÐµÑģÑĤÐµ": 2099,
      "ĠÐĵÐµÑĢÐ¼": 2100,
      "Ð°Ð»Ñĭ": 2101,
      "ĠÐ¼ÑĥÐ¶": 2102,
      "ĠÐ²Ð¾Ð·Ð´": 2103,
      "ĠÐ¡ÐµÐ²ÐµÑĢ": 2104,
      "ÑĤÐ¾Ð½": 2105,
      "Ð°ÑĤÐ¸Ð²": 2106,
      "ÑģÐºÐ¸Ð¼Ð¸": 2107,
      "ĠÐ½ÐµÐ¾Ð±": 2108,
      "ÑıÐ»": 2109,
      "ÑħÐ¾Ð´Ð¸Ð¼": 2110,
      "ĠÐ½ÐµÐ¹": 2111,
      "ĠÐ³Ð¾Ð²Ð¾ÑĢ": 2112,
      "ĠJ": 2113,
      "ÐŀÐ±": 2114,
      "ĠÐ¡Ð°Ð¼": 2115,
      "ĠÑģÐ¸ÑģÑĤÐµÐ¼Ñĭ": 2116,
      "ĠÐ¾ÑĤÐ½Ð¾Ñģ": 2117,
      "ĠÐ¾ÐºÐ¾Ð½Ñĩ": 2118,
      "ĠÐ·Ð°Ð±": 2119,
      "Ð¾Ð·Ð½Ð°Ñĩ": 2120,
      "ĠÐ¤ÐµÐ´ÐµÑĢÐ°": 2121,
      "ÑıÑĤÑģÑı": 2122,
      "ÐµÐ½ÑĤÑĭ": 2123,
      "Ð¸ÑĢÐ¾Ðº": 2124,
      "âĢĻ": 2125,
      "ĠÑĢÐ°Ð½": 2126,
      "Ð¸ÑĢÐµ": 2127,
      "ĠÐ¾Ð´Ð½Ð¾Ð¹": 2128,
      "ĠÐºÐ°Ð·": 2129,
      "ĠÐ¿Ð¾Ð±ÐµÐ´": 2130,
      "ĠÑĢÐ°Ð´Ð¸": 2131,
      "194": 2132,
      "Ð¸ÑģÐ»ÐµÐ½": 2133,
      "ÑģÐ¾Ð½": 2134,
      "ĠÐ¿ÑĢÐ¾ÑĦÐµÑģÑģ": 2135,
      "ĠÐ¾ÑĩÐµÐ½ÑĮ": 2136,
      "ĠÐ°ÑĤ": 2137,
      "ĠÑģÐ¸Ð½": 2138,
      "ĠÐ³ÑĢÐ°Ð¶Ð´Ð°Ð½": 2139,
      "ÐµÐ¼Ð°ÑĤ": 2140,
      "ĠÐ¿Ð¾ÐºÐ°Ð·": 2141,
      "ĠÐ±ÐµÐ»": 2142,
      "ÐµÑĢÐ²ÑĭÐµ": 2143,
      "ĠÐ¿ÑĢÐ¾Ð²Ð¾Ð´": 2144,
      "50": 2145,
      "ĠÑĩÐµÑĤÑĭ": 2146,
      "ĠÑĢÐ¾Ð»ÑĮ": 2147,
      "ĠÐ·Ð°ÐºÐ»ÑİÑĩ": 2148,
      "ĠÐ¼Ð°Ð³": 2149,
      "ĠÑĥÐ»Ð¸": 2150,
      "ĠÑģÐ°Ð¹": 2151,
      "Ð½Ð¸Ñĩ": 2152,
      "ĠÐ¿ÑĢÐ¾ÐµÐºÑĤ": 2153,
      "ĠÐļÑĢÐ°Ñģ": 2154,
      "ĠÐ¸ÑģÐ¿Ð¾Ð»Ð½": 2155,
      "ĠÐ¿Ð»Ð¾ÑīÐ°Ð´": 2156,
      "ĠÐ²Ð¾Ð¿ÑĢÐ¾Ñģ": 2157,
      "Ð¸ÐºÑĥ": 2158,
      "ĠÑģÑĢÐµÐ´Ð¸": 2159,
      "Ð¸ÐµÑģÑı": 2160,
      "Ð°ÐºÐ¾Ð²": 2161,
      "Ð°Ð½Ð½ÑĭÐµ": 2162,
      "Ð°ÑĤÐµÐ»ÐµÐ¹": 2163,
      "Ð²Ð¾": 2164,
      "ÑĢÐ¸Ð¸": 2165,
      "ÐµÑĢÐ±ÑĥÑĢÐ³": 2166,
      "Ð°Ð½Ð³": 2167,
      "Ð»Ð°ÑģÑĮ": 2168,
      "ĠÐ°Ð²ÑĤÐ¾Ð¼": 2169,
      "Ð»ÐµÑĢ": 2170,
      "ĠÐľÐ¾ÑģÐºÐ¾Ð²": 2171,
      "ĠÐ¾Ð±ÐµÑģÐ¿": 2172,
      "ter": 2173,
      "ÑĩÐ°ÑģÑĤ": 2174,
      "Ð¸ÑħÑģÑı": 2175,
      "ĠÑģÑĤÐ°Ð»Ð¸": 2176,
      "Ð¸ÑĤÑĭ": 2177,
      "ĠÑĦÐµÐ²ÑĢÐ°Ð»Ñı": 2178,
      "ĠÐ¼Ð¾Ð¼": 2179,
      "Ð¸Ð·Ð¼Ð°": 2180,
      "ĠÑıÐ²Ð»ÑıÑİÑĤÑģÑı": 2181,
      "ÐĺÑģÑĤÐ¾ÑĢÐ¸Ñı": 2182,
      "ÑĢÐ°Ðº": 2183,
      "ĠÐ²ÑħÐ¾Ð´": 2184,
      "ĠÐ¸Ð³ÑĢÐ°": 2185,
      "ĠÑĩÐµÐ»Ð¾Ð²ÐµÐºÐ°": 2186,
      "ĠÐ°Ðº": 2187,
      "Ð½ÐµÑĪ": 2188,
      "ĠÐ¾ÐºÑĢÑĥÐ³": 2189,
      "ĠÐµÑģÐ»Ð¸": 2190,
      "23": 2191,
      "ĠÑĤÑĢÐµÐ±": 2192,
      "ĠÐ¼Ð¸ÑĢÐ¾Ð²": 2193,
      "Ð¸ÑĩÐµÑģÐºÐ¸Ð¼": 2194,
      "ĠÑĢÐ°Ð±": 2195,
      "Ð°Ð½Ð¸ÐµÐ¼": 2196,
      "ĠÐ³ÑĢÐ°ÑĦ": 2197,
      "ĠÑįÐ»ÐµÐ¼": 2198,
      "ĠÐĽÑİ": 2199,
      "Ð½Ñİ": 2200,
      "197": 2201,
      "ĠXX": 2202,
      "Ð¸Ð±Ð»Ð¸": 2203,
      "ÐµÐ»Ð¾": 2204,
      "ĠÐĽÐµÐ½": 2205,
      "ia": 2206,
      "ĠÐ°ÐºÐ°Ð´ÐµÐ¼": 2207,
      "ĠÐ¸Ñģ": 2208,
      "Ð°Ð½ÑĮ": 2209,
      "ĠÐ°Ð²ÑĤ": 2210,
      "ÑĢÐ¸Ð´": 2211,
      "ĠÑĨÐµÐ»": 2212,
      "Ð¾Ð²Ð¾Ð³Ð¾": 2213,
      "ĠÐ¿ÐµÑĢÐ²ÑĭÐ¹": 2214,
      "ĠÐ¾ÐºÐ°Ð·": 2215,
      "Ð¾ÑģÐ¿": 2216,
      "Ð°Ð»ÑĮÐ½Ð°Ñı": 2217,
      "ÑıÐ¼Ð¸": 2218,
      "ÑıÑĤÐ¸Ñı": 2219,
      "ĠÐºÑĢÐ¸ÑĤ": 2220,
      "Ð¾ÑģÐ¼": 2221,
      "ĠÐ¾ÑĤÑģ": 2222,
      "ĠÐĴÐ°Ñģ": 2223,
      "Ð¸Ð²Ð°ÐµÑĤ": 2224,
      "ĠÑģÐ¸Ð»ÑĮ": 2225,
      "ÑĢÐ¾Ð±": 2226,
      "ĠÐ¡ÑĢÐµÐ´": 2227,
      "ĠÐ¼Ð°Ð»": 2228,
      "ad": 2229,
      "ĠÐ»Ð¸Ñĩ": 2230,
      "Ð¼Ð»": 2231,
      "ĠÐºÐ¼": 2232,
      "Ð¸ÑĨÐ¸Ð¸": 2233,
      "Ġ11": 2234,
      "Ð¸ÑģÐ¸": 2235,
      "ĠÑģÐ¾ÑĤ": 2236,
      "ĠÐ½Ð°ÑĨÐ¸Ð¾Ð½Ð°Ð»ÑĮ": 2237,
      "ĠÑĤÑĢÑĥÐ´": 2238,
      "ÐŁÐµÑĤ": 2239,
      "ĠÐºÐ½ÑıÐ·": 2240,
      "Ð¾Ð´Ð°": 2241,
      "ÑĢÐ¸Ð²": 2242,
      "ĠÑĢÐµÐ¶Ð¸ÑģÑģ": 2243,
      "ÑĢÐ¾ÑĦ": 2244,
      "ÑĢÐµÐº": 2245,
      "Ð¸ÑĤÐ¾Ð²": 2246,
      "ĠÐ¿ÑĢÐ¸Ð·Ð½": 2247,
      "ĠÐ±ÑĭÐ²": 2248,
      "ĠÐ¿Ð°ÑĢÐ°": 2249,
      "ĠÐ¸Ð´Ðµ": 2250,
      "ĠÐ»ÐµÐ³": 2251,
      "ĠÑģÑĨÐµÐ½": 2252,
      "ĠÑĥÐ·": 2253,
      "Ð»ÐµÐ½Ð°": 2254,
      "Ð¾Ð»Ð¾Ð³Ð¸Ñı": 2255,
      "ĠÐºÐ¾ÑĤÐ¾ÑĢÐ¾Ð¼": 2256,
      "Ð¾Ð·ÑıÐ¹": 2257,
      "ÐºÐ²Ð¸": 2258,
      "ÐºÐ¾ÑĢ": 2259,
      "ĠÐ´ÐµÐ¿": 2260,
      "ie": 2261,
      "Ð»Ð°ÑĪ": 2262,
      "ÑĢÐ¸Ð½": 2263,
      "ÑĪÐ¸Ð¼": 2264,
      "ĠÐ²ÑĢÐµÐ¼ÐµÐ½": 2265,
      "Ð°Ð»Ð¸Ð¸": 2266,
      "ut": 2267,
      "ĠÐ½ÐµÐ¾Ð±ÑħÐ¾Ð´Ð¸Ð¼": 2268,
      "ĠÑģÑĤÑĢÐ°Ð½Ñĭ": 2269,
      "ĠÐ³ÑĥÐ±": 2270,
      "ĠÐ²ÑĭÐ±": 2271,
      "ĠÐ¸Ð·Ð¾Ð±ÑĢÐ°Ð¶": 2272,
      "ĠÐľÐ¸Ð½": 2273,
      "Ð°Ð½Ðµ": 2274,
      "ÑĢÐµÐ¶Ð´": 2275,
      "ĠÐ²Ð¾Ð¹ÑģÐº": 2276,
      "ĠÐ»Ð¸ÑĨ": 2277,
      "ĠÐ³Ð°Ð»": 2278,
      "Ð³Ñĥ": 2279,
      "ÑĥÑģÐ°": 2280,
      "ĠÐŁÐ¾Ð´": 2281,
      "Ð¸Ð¼Ð°": 2282,
      "ÑģÑĤÑĢÑĥÐº": 2283,
      "ĠÐ¡Ð¿": 2284,
      "Ð²ÐµÑĢÐ¶Ð´": 2285,
      "ĠÐ¾ÑĤÐ¿ÑĢÐ°Ð²": 2286,
      "Ġthe": 2287,
      "ĠÐ²Ð¾Ð·Ð½Ð¸Ðº": 2288,
      "ĠÐ²ÐµÑī": 2289,
      "ĠÐ¾Ð±ÑĬÐµÐºÑĤ": 2290,
      "ĠÐ·Ð°Ð¿Ð°Ð´": 2291,
      "ĠÐĽÑĥ": 2292,
      "ot": 2293,
      "ÐµÑģÐ¿ÑĥÐ±Ð»": 2294,
      "ĠÐ¿ÑĢÐ¾ÑĪ": 2295,
      "ÑĥÐ¼Ð°": 2296,
      "ĠÐºÐ»ÑĥÐ±": 2297,
      "ĠÑģÑĤÐ°Ð»Ð°": 2298,
      "ĠÐ½Ð°ÑģÑĤÐ¾ÑıÑī": 2299,
      "im": 2300,
      "Ð¾Ð»Ð¸": 2301,
      ".)": 2302,
      "ÑĩÐ¸Ð²": 2303,
      "ĠÐľÐ°ÑĢÐ¸": 2304,
      "ĠÐ¸ÑģÑĤÐ¾Ñĩ": 2305,
      "Ð°Ð½Ñģ": 2306,
      "ĠÑĤÐµÐºÑģÑĤ": 2307,
      "ÑĪÐ°Ñı": 2308,
      "ĠÐ²ÑĭÑħÐ¾Ð´": 2309,
      "ĠÐ¡ÐµÑĢÐ³": 2310,
      "ĠÑģÐ»Ð¾Ð¶": 2311,
      "ÑĥÑĤÐ±": 2312,
      "ĠÐ´Ð²Ð¾ÑĢ": 2313,
      "Ð°ÑĦ": 2314,
      "ĠÑģÐ²Ð¾Ð±Ð¾Ð´": 2315,
      "ĠÑĪÐ¸ÑĢÐ¾Ðº": 2316,
      "ĠÐļÐ¾Ð»": 2317,
      "ĠÐ°Ð´Ð¼Ð¸Ð½Ð¸ÑģÑĤ": 2318,
      "ĠÑĪÑĤ": 2319,
      "ÐºÐ°Ð½": 2320,
      "ÑĢÐ°ÑĤÑĮ": 2321,
      "iv": 2322,
      "ĠÑįÑĤÐ¸Ñħ": 2323,
      "ĠÐ¼ÐµÐ½ÐµÐµ": 2324,
      "Ð¾ÑĢÐ¾Ð¶": 2325,
      "Ġ188": 2326,
      "ĠÑģÑĤÐ¾ÑĢÐ¾Ð½": 2327,
      "ĠÐ¿ÑĢÐ¾Ð¼ÑĭÑĪÐ»ÐµÐ½": 2328,
      "ĠÐºÐ°Ð¿": 2329,
      "ĠÐ·Ð°Ñı": 2330,
      "ĠÐ¾Ð±ÑĬÐµÐ´Ð¸Ð½": 2331,
      "ÑĨÐ¾Ð²": 2332,
      "ĠÐ½Ð°Ð¿ÑĢÐ¸Ð¼ÐµÑĢ": 2333,
      "ÑĢÑĭÐ²": 2334,
      "Ð»ÐµÐ½Ð¸Ð¸": 2335,
      "ĠÐ¾ÑĤÐ´ÐµÐ»ÑĮ": 2336,
      "ĠÑįÑĤÐ°": 2337,
      "ÑİÑīÐ¸Ð¹": 2338,
      "Ð¾ÑģÑĤÐ¾Ðº": 2339,
      "ÐµÑı": 2340,
      "ÑĢÑĥÐºÑĤ": 2341,
      "ĠÑĦÐ¸Ð»Ð¾ÑģÐ¾ÑĦ": 2342,
      "ĠÐ½Ð°ÑĩÐ°Ð»": 2343,
      "ÑĩÐ¸": 2344,
      "196": 2345,
      "25": 2346,
      "ĠÐ½Ð¸Ðº": 2347,
      "ĠÐ²ÑģÑĳ": 2348,
      "Ġ:": 2349,
      "Ð¾ÑģÑĤÐ°Ð²": 2350,
      "ĠÐŁÐµÑĢ": 2351,
      "ĠÐ²ÐµÐ»": 2352,
      "ĠÐ¿ÑĢÐµÐ´Ð»Ð¾Ð¶": 2353,
      "ĠÑģÐ¾ÑģÑĤÐ°Ð²Ð»Ñı": 2354,
      "ĠÑģÐ¼ÐµÑĢÑĤÐ¸": 2355,
      "ĠÐ½Ð¾Ñģ": 2356,
      "Ð½Ð°ÑĢ": 2357,
      "ÑĢÐ¸ÑģÑĤÐ¸Ð°Ð½": 2358,
      "ÑģÑĤÐ²Ñĥ": 2359,
      "ĠÐ°ÑĢÑĤ": 2360,
      "ĠÐłÐµÑģÐ¿ÑĥÐ±Ð»": 2361,
      "Ġs": 2362,
      "Ð°ÑĨÐ¸Ð¸": 2363,
      "ĠÐ¾ÑĤÐ´ÐµÐ»": 2364,
      "ĠÑģÑĤÐ¾ÑĢÐ¾Ð½Ñĭ": 2365,
      "ĠÐĲÐ»ÐµÐºÑģÐ°Ð½Ð´ÑĢ": 2366,
      "ĠÐ¿ÑģÐ¸Ñħ": 2367,
      "ĠÑģÐ¾Ñĩ": 2368,
      "ĠÑĥÐ½Ð¸Ð²ÐµÑĢÑģÐ¸ÑĤÐµÑĤÐ°": 2369,
      "ÐºÐ°Ð·ÑĭÐ²": 2370,
      "Ð²ÐµÐ»Ð¸Ñĩ": 2371,
      "Ð°Ð²Ð¸ÑģÐ¸Ð¼": 2372,
      "Ð¼ÐµÑĩ": 2373,
      "ÐµÐ¾ÑĢ": 2374,
      "Ð±Ð¾": 2375,
      "Ð¸Ð¹ÑģÐºÐ¸Ð¹": 2376,
      "ĠÐĴÐ»Ð°Ð´Ð¸Ð¼": 2377,
      "ĠÑģÐ¿ÐµÑĨÐ¸Ð°Ð»ÑĮ": 2378,
      "Ð°Ð»Ð»": 2379,
      "ĠÑĤÑĥÑĢ": 2380,
      "ĠÑĢÐ°ÑģÑĤ": 2381,
      "ÐµÑħÐ°Ð½": 2382,
      "Ð¸Ð»Ð»Ð¸": 2383,
      "ĠÐ½ÐµÐ²": 2384,
      "ĠÑĩÐ°ÑģÑĤÐ¾": 2385,
      "ÐµÐ½Ð½Ð°Ñı": 2386,
      "Ġ2006": 2387,
      "ÑĳÐ½Ð½ÑĭÐ¹": 2388,
      "Ð¸Ð·Ð°ÑĨÐ¸Ñı": 2389,
      "ĠÐ²Ð°Ð¶": 2390,
      "ĠÑģÑĤÐ°ÑĤÑĮ": 2391,
      "SB": 2392,
      "ĠÐĲÐ·": 2393,
      "Ġc": 2394,
      "ĠÐ¿Ð¾Ð»ÑĮÐ·": 2395,
      "ĠÐ±Ð°Ð·": 2396,
      "ĠÐºÑĥÑĢ": 2397,
      "ĠÐĲÑĦ": 2398,
      "ĠÐ¾ÑĦÐ¸ÑĨÐ¸Ð°Ð»ÑĮ": 2399,
      "ĠÐ²Ð»Ð°ÑģÑĤÐ¸": 2400,
      "ĠÑĤÐ¾ÑĢÐ³Ð¾Ð²": 2401,
      "ĠÐ²ÑĤÐ¾ÑĢÐ¾Ð¹": 2402,
      "ÑĥÐ½Ð´": 2403,
      "ĠÐ¸Ð½ÑģÑĤÐ¸ÑĤÑĥÑĤ": 2404,
      "ÑĢÐ°Ñħ": 2405,
      "ĠÐ¸Ð½ÑĦÐ¾ÑĢÐ¼Ð°": 2406,
      "ĠÐŁÑĢÐµ": 2407,
      "os": 2408,
      "Ð¿Ð¸ÑģÐº": 2409,
      "ĠÐ·Ð°ÐºÐ¾Ð½": 2410,
      "ÐµÑģÑı": 2411,
      "ĠÐĳÐ¾Ð»ÑĮÑĪ": 2412,
      "Ð»Ð°Ð³Ð¾Ð´": 2413,
      "Ð¾Ð²ÑĭÐµ": 2414,
      "ĠÐ½ÐµÑģ": 2415,
      "em": 2416,
      "Ġ186": 2417,
      "ĠÐ¸Ð½Ð´": 2418,
      "ÑĢÐ¸Ñı": 2419,
      "ĠÐ¾Ð±ÐµÑģÐ¿ÐµÑĩ": 2420,
      "ir": 2421,
      "Ġ24": 2422,
      "ĠÐ¾ÑģÑĥÑīÐµÑģÑĤÐ²": 2423,
      "ÐµÐ·Ð´Ð°": 2424,
      "ĠÐ´Ð°Ð»ÑĮ": 2425,
      "ĠÐ»Ð¸Ð±": 2426,
      "Ð³Ð¾ÑĢ": 2427,
      "ĠÐ¼ÑĥÐ·": 2428,
      "ĠÑĩÐ¸ÑģÐ»Ð¾": 2429,
      "ĠÑĤÐ¾ÑĤ": 2430,
      "ec": 2431,
      "Ð»Ð°ÑĤ": 2432,
      "Ġ2010": 2433,
      "ĠÑĢÐ¸": 2434,
      "ĠÐ½Ð°ÑħÐ¾Ð´Ð¸ÑĤÑģÑı": 2435,
      "Ð»ÐµÐ½Ð¸ÐµÐ¼": 2436,
      "ĠÐľÐ°Ðº": 2437,
      "ĠÐ·Ð°Ñħ": 2438,
      "Ð°Ð½Ðº": 2439,
      "Ġ2000": 2440,
      "ÑĢÐ¾Ð·": 2441,
      "op": 2442,
      "ĠÐ¼Ð¾Ð»Ð¾Ð´": 2443,
      "Ð½Ð¾ÑģÑĤÐµÐ¹": 2444,
      "ÐµÐºÑĤÐ°": 2445,
      "ĠÑĤÑĢÑĳÑħ": 2446,
      "ÑİÐ·": 2447,
      "ĠÐĴÑģ": 2448,
      "Ð°Ð½Ð½ÑĭÑħ": 2449,
      "Ð°Ð½Ð½ÑĭÐ¹": 2450,
      "Ð¾ÑĢÐ°Ð±": 2451,
      "ĠÐĳÐ¾Ð³": 2452,
      "ĠÐ¼ÐµÑĤÐ¾Ð´": 2453,
      "ÐµÐ½Ðµ": 2454,
      "ĠÐºÐ¾": 2455,
      "Ġ187": 2456,
      "ĠÐºÑĢÐ°Ñģ": 2457,
      "ĠÐ°ÑĢÐ¼Ð¸Ð¸": 2458,
      "Ð»ÑİÐ´": 2459,
      "ĠÐ¤ÑĢÐ°Ð½ÑĨÐ¸Ð¸": 2460,
      "ÑģÑĤÐ²Ð¾Ð²": 2461,
      "ĠÐ±ÑĥÐ´ÐµÑĤ": 2462,
      "ĠÐ¸Ð¼Ð¿ÐµÑĢÐ¸Ð¸": 2463,
      "ĠÐ¿ÐµÑĢÐµÐ²Ð¾Ð´": 2464,
      "ĠÐºÐ°ÑĢ": 2465,
      "ĠÐ¿ÑıÑĤ": 2466,
      "ĠÐĳÐµÑĢ": 2467,
      "ÐµÐ½Ñģ": 2468,
      "ÐºÐ¼": 2469,
      "ĠÐ¼Ð¸ÑĢ": 2470,
      "ĠÑħÐ¾ÑĢ": 2471,
      "Ð°Ð»ÑĮÐ½Ð¾Ðµ": 2472,
      "ĠÐ¾Ð±Ð¾Ð·Ð½Ð°Ñĩ": 2473,
      "ÐµÑĩÐ°ÑĤ": 2474,
      "ĠÑĥÑĩÑĳ": 2475,
      "Ð¸Ð½Ð¾": 2476,
      "ĠÐ²Ð¾ÑģÐ¿": 2477,
      "Ġ2005": 2478,
      "ÑĢÐ¸ÑĤÐ°Ð½": 2479,
      "ĠÐĿÐ¸ÐºÐ¾Ð»": 2480,
      "ĠÑĢÐµÐ»Ð¸": 2481,
      "ĠSt": 2482,
      "ÑģÐ¿Ð¾ÑĢÑĤ": 2483,
      "ĠÐ¾Ð´Ð½Ð¸Ð¼": 2484,
      "Ġ[": 2485,
      "ĠÐĶÐ»Ñı": 2486,
      "ĠÐºÐ¾Ð¼Ð¿Ð¾Ð·": 2487,
      "ĠÐ´ÑĥÑħ": 2488,
      "ĠÐ¾ÑģÐ²": 2489,
      "ĠÑıÐ·ÑĭÐºÐµ": 2490,
      "ÑĢÐ¸Ñħ": 2491,
      "ÐµÐ½Ð³": 2492,
      "la": 2493,
      "ĠÐļÐ°Ð·": 2494,
      "Ð¸Ð½ÑģÐºÐ¾Ð³Ð¾": 2495,
      "ĠÑĥÐºÐ°Ð·": 2496,
      "ĠÑĨÐµÑĢÐºÐ¾Ð²": 2497,
      "ĠÐ²ÑĭÐ´": 2498,
      "ĠÐ¿ÑĢÐ¾ÑĨÐµÑģÑģ": 2499,
      "Ð»Ð¸Ðº": 2500,
      "Ð¸ÑģÐ°": 2501,
      "Â»).": 2502,
      "ĠÐ¼Ð°ÑĪ": 2503,
      "ÐºÑģ": 2504,
      "Ð¸Ð½ÑģÐºÐ¾Ð¹": 2505,
      "ÑĮÑİÑĤ": 2506,
      "ĠÐ´ÐµÐ¼": 2507,
      "Ð¾ÑĢÑĤÐ°": 2508,
      "ĠÑģÐ¾Ð²ÐµÑĤÑģÐºÐ¸Ð¹": 2509,
      "ÐµÐ¹Ð½": 2510,
      "Ð½Ð¾Ñģ": 2511,
      "ĠIn": 2512,
      "Ð°ÑĤÑĢÐ¸": 2513,
      "ÑĢÐ°Ñĩ": 2514,
      "ĠÐ´Ð°Ð²": 2515,
      "ation": 2516,
      "Ð½Ð¸ÑĨ": 2517,
      "ÐŁÐ¾ÑģÐ»Ðµ": 2518,
      "ĠÐ¿Ð¾ÑģÐµÐ»": 2519,
      "ĠÐ±Ð¾Ð»ÑĮÑĪÐ¸Ð½": 2520,
      "ĠÑĦÐ°Ðº": 2521,
      "ĠÑģÑĤÑĥÐ´": 2522,
      "ĠÐ½Ð°ÑĩÐ°Ð»Ð°": 2523,
      "ĠÐ¿ÑĢÐ¸Ð¼ÐµÑĢ": 2524,
      "ĠÐ¾Ð±ÑīÐµÑģÑĤÐ²ÐµÐ½": 2525,
      "ĠĊĠĊĠĊĠĊ": 2526,
      "Ð»ÐµÐºÑĤ": 2527,
      "ĠÑģÑĤÐ°Ð½Ð¾Ð²": 2528,
      "ĠÐ¢Ð°ÐºÐ¶Ðµ": 2529,
      "ĠÑĢÑĥÐ±": 2530,
      "ÑģÑĤÑĢÐ¾": 2531,
      "ÑģÐºÐ°Ð·": 2532,
      "ÑıÐ²Ð»Ñı": 2533,
      "Ð½Ð´": 2534,
      "ĠÐĺÑĤ": 2535,
      "ĠÐ½Ð°ÑĥÐº": 2536,
      "ĠÐ¿ÑĢÐ¾Ð¿": 2537,
      "ÑįÐ¹": 2538,
      "Ð¿Ð¸ÑģÐºÐ¾Ð¿": 2539,
      "ĠÐ³Ðµ": 2540,
      "Ð°ÑĤÐ¾Ñĩ": 2541,
      "Ð½Ð°Ð´Ð»ÐµÐ¶": 2542,
      "ÐºÐ¸Ðµ": 2543,
      "ÑģÐ¾Ð½Ð°": 2544,
      "ÑİÐ¶": 2545,
      "ĠÐĿÐ¾": 2546,
      "Ð¾Ð²Ð¸Ñĩ": 2547,
      "ÐŀÑģ": 2548,
      "ĠÐ·Ð½Ð°Ðº": 2549,
      "Ġ2008": 2550,
      "ÑıÐµÑĤ": 2551,
      "Ð½Ð°ÑĢÑĥÐ¶": 2552,
      "ĠÐ²ÐµÑĢÐ½": 2553,
      "ĠÐ¼ÐµÐ¶Ð´ÑĥÐ½Ð°ÑĢÐ¾Ð´": 2554,
      "ĠÑĥÐ²ÐµÐ»Ð¸Ñĩ": 2555,
      "ĠÐ¼Ð½Ð¾Ð¶": 2556,
      "ĠÐ¤ÐµÐ´ÐµÑĢÐ°ÑĨÐ¸Ð¸": 2557,
      "ĠÐ»ÑİÐ´ÐµÐ¹": 2558,
      "Ð»Ð¾Ðº": 2559,
      "ow": 2560,
      "ĠÐ´Ð¾Ñĩ": 2561,
      "ĠÑģÐ»ÑĥÑĩÐ°Ðµ": 2562,
      "ĠÐ¾Ñħ": 2563,
      "ĠÐ¾Ð·": 2564,
      "ĠÐĳÐ¾ÑĢ": 2565,
      "ĠÑģÐµÐ·": 2566,
      "ĠXIX": 2567,
      "Ġ1990": 2568,
      "ĠÐ¿Ð¾ÑģÑĳÐ»": 2569,
      "ĠÑģÐ²ÐµÑĤ": 2570,
      "Ð°Ð²ÑĪÐ¸Ð¹": 2571,
      "Ð¾Ð»ÑĮÐºÑĥ": 2572,
      "ÐµÐ½Ð¸ÑıÑħ": 2573,
      "ĠÐŁÐ°Ð²": 2574,
      "ĠÐ½Ð°Ð¸Ð±Ð¾Ð»ÐµÐµ": 2575,
      "ĠÐ¿Ð¾Ð»Ð¾Ð²": 2576,
      "ĠÐ°ÑĢÑħÐ¸ÑĤ": 2577,
      "ÑĭÐ¿": 2578,
      "Ð¾ÑıÑĤ": 2579,
      "24": 2580,
      "Ð½Ð¸ÑĨÐ°": 2581,
      "ĠÐ·Ð°Ñģ": 2582,
      "Ð½Ð¾Ð´": 2583,
      "ĠÑģÐ¾Ñģ": 2584,
      "ĠÐ´Ð¾ÑģÑĤÐ¸Ð³": 2585,
      "SBN": 2586,
      "ĠÑĩÐ°Ñģ": 2587,
      "ĠÐ³ÑĥÐ±ÐµÑĢÐ½": 2588,
      "Ð°ÑĢÐµ": 2589,
      "ĠÐ½Ð°ÑĩÐ¸Ð½": 2590,
      "od": 2591,
      "ÐµÐºÑģ": 2592,
      "Ð°ÑģÑĤÑĭ": 2593,
      "Ġ2007": 2594,
      "ĠÐºÐ¾ÑĢÐ°Ð±": 2595,
      "ĠÑĢÐ°Ð·Ð´ÐµÐ»": 2596,
      "ĠÐ¾Ð´Ð½Ð¾": 2597,
      "Ð¾ÑģÑĥÐ´Ð°ÑĢÑģÑĤÐ²ÐµÐ½": 2598,
      "ĠÑģÑĬ": 2599,
      "ĠÑıÐ·ÑĭÐº": 2600,
      "ĠÑģÐ½": 2601,
      "ĠÐ¸Ð·ÑĥÑĩ": 2602,
      "ĠÐ¿Ð¸ÑģÑĮ": 2603,
      "Ð¾Ð»Ð¸ÑĤ": 2604,
      "GC": 2605,
      "ÑĢÐ¸ÑĢÐ¾Ð²": 2606,
      "ĠÐľÐ¸ÑħÐ°": 2607,
      "Ð´Ð¾": 2608,
      "ĠÐ¿ÑĢÐ¸Ð½Ð°Ð´Ð»ÐµÐ¶": 2609,
      "ĠÑģÐ¾ÑģÑĤÐ°Ð²Ðµ": 2610,
      "ĠÐ¿ÑĢÐ¸Ð±": 2611,
      "ĠÑĦÐ¸Ð»ÑĮÐ¼Ð°": 2612,
      "ĠÐ¿ÑĢÐ¾Ð²ÐµÐ´": 2613,
      "ĠÑĦÑĥÑĤÐ±": 2614,
      "ĠÑģÐ¾ÐµÐ´Ð¸Ð½": 2615,
      "ĠÑĥÐ¼ÐµÑĢ": 2616,
      "ĠÐ¸ÑģÐºÐ»ÑİÑĩ": 2617,
      "ÑģÑĤÐ²ÐµÐ½Ð½Ð¾": 2618,
      "ĠÑĤÐ²Ð¾ÑĢ": 2619,
      "Ð¸Ð¼Ð¾": 2620,
      "ÑĢÑıÐ´": 2621,
      "Ð¾Ð»Ð´": 2622,
      "ĠÐ¿ÑĢÐ¸ÑĢÐ¾Ð´": 2623,
      "ĠÐ±ÐµÑĢÐµÐ³": 2624,
      "ĠIII": 2625,
      "ĠÑįÐ½ÐµÑĢÐ³": 2626,
      "Ð¾ÑĤÑĭ": 2627,
      "ĠÐ´ÑĢ": 2628,
      "Ð»ÑĥÑĩ": 2629,
      "ĠÐ²Ð¾Ðº": 2630,
      "ĠÑĤÐµÑĩÐµÐ½Ð¸Ðµ": 2631,
      "ÑĳÑĤÑģÑı": 2632,
      "ĠÑĢÐ°Ð±Ð¾Ñĩ": 2633,
      "ĠÐ·Ð°Ð»": 2634,
      "ĠÑģÐ²Ð¾Ð¸": 2635,
      "ĠÐ»ÐµÑģ": 2636,
      "Ġ2004": 2637,
      "ĠÑįÑĤÐ¸": 2638,
      "ĠÐºÐ¾ÑĤÐ¾ÑĢÐ¾Ðµ": 2639,
      "ĠÑĩÐ°ÑģÑĤÐ½Ð¾ÑģÑĤÐ¸": 2640,
      "ÑĢÑİ": 2641,
      "ĠÐĵÐµÑĢÐ¼Ð°Ð½Ð¸Ð¸": 2642,
      "Ð¾Ð»Ð¾Ð´": 2643,
      "ĠÐ¾ÑĨÐµÐ½": 2644,
      "Ð°Ð¼Ð±": 2645,
      "ĠÑħÐ¾ÑĤÑı": 2646,
      "ĠISBN": 2647,
      "Ġ23": 2648,
      "Ð¾Ð²ÐµÐ´": 2649,
      "ĠÐ²Ð»Ð°Ð´": 2650,
      "Ð¿Ð¾": 2651,
      "Ð¶ÐµÐ½": 2652,
      "ĠÐ¿Ð¾ÑģÑĤÐ¾ÑıÐ½": 2653,
      "ĠÐ±Ð¾Ð»ÑĮÑĪÐµ": 2654,
      "Ð¸ÐºÐ»": 2655,
      "ĠÐ¿ÑĢÐ¸Ñĩ": 2656,
      "ĠÐ¶ÐµÐ½Ñī": 2657,
      "ĠÐ·Ð°ÑıÐ²": 2658,
      "Ð¾ÐµÐ´Ð¸Ð½": 2659,
      "ĠÑįÑĦÑĦ": 2660,
      "Ð³ÑĢÐ°Ð´": 2661,
      "ĠÐ¿ÑĢÐ¾Ð±Ð»ÐµÐ¼": 2662,
      "ĠÑĥÐºÑĢÐ°": 2663,
      "ĠÐ¿Ð¾ÑĩÑĤÐ¸": 2664,
      "ĠÑĨÐµÑĢÐºÐ²Ð¸": 2665,
      "Ð¼Ð¾ÑĤÑĢÑı": 2666,
      "ĠÑģÐºÐ°Ð·": 2667,
      "ÑİÑīÐ¸Ñħ": 2668,
      "ĠÐĲÐ´": 2669,
      "ÑĩÐ¸Ðº": 2670,
      "ĠÐ¿ÑĢÐ¸Ð½Ð¸Ð¼": 2671,
      "ĠÐ¿ÐµÑĢÐ²Ð¾Ð¹": 2672,
      "ĠÐ¿ÑĢÐ¸ÑĪ": 2673,
      "ĠÑĢÐµÐ²Ð¾Ð»Ñİ": 2674,
      "ĠÐķÐ³Ð¾": 2675,
      "ĠÐ·Ð½Ð°ÑĩÐ¸ÑĤÐµÐ»ÑĮ": 2676,
      "ĠÐºÐ¾ÑĢÐ¾Ð»ÐµÐ²": 2677,
      "ĠÐ±Ð¸": 2678,
      "ĠÑģÐ¾Ð±ÑĭÑĤ": 2679,
      "ĠÐ½ÐµÐºÐ¾ÑĤÐ¾ÑĢÑĭÑħ": 2680,
      "Ð°ÑĤÐµÐ»ÑĮÐ½Ð¾": 2681,
      "ĠÑĢÐµÐºÐ¸": 2682,
      "ÑİÑĢ": 2683,
      "ÑĢÐ¾Ð¿ÐµÐ¹": 2684,
      "ĠÑĤÐ°Ð½": 2685,
      "ĠÐ¸Ð¼Ñı": 2686,
      "ĠÐºÑĥÐ»ÑĮÑĤÑĥÑĢÑĭ": 2687,
      "ĠÐ¿ÑĢÐµÐ²": 2688,
      "ĠÐ½ÐµÐ±Ð¾Ð»ÑĮÑĪ": 2689,
      "ĠÐ¡Ð°Ð½ÐºÑĤ": 2690,
      "ĠÐ·Ð°Ð´": 2691,
      "ĠÐ±Ð»Ð¸Ð·": 2692,
      "193": 2693,
      "ĠÑĩÐµÐ³Ð¾": 2694,
      "ĠÑģÐ¾ÑĨÐ¸Ð°Ð»ÑĮ": 2695,
      "Ġ2009": 2696,
      "Ð²ÑıÑī": 2697,
      "ĠÐĺÑģÐ¿": 2698,
      "ÑĢÑĭÑĤ": 2699,
      "ĠÐ¼ÐµÑģÑı": 2700,
      "ĠÐ¼Ð¾Ð¼ÐµÐ½ÑĤ": 2701,
      "ag": 2702,
      "Ð¸ÑĤÐ°Ð¹": 2703,
      "ÑĥÑĤÑĮ": 2704,
      "ĠÐ¡Ð¾Ñİ": 2705,
      "ĠÐ¾Ð´Ð½Ð¾Ð³Ð¾": 2706,
      "ÑĭÐ²Ð°": 2707,
      "ĠÐºÐ¾Ð»Ð¸ÑĩÐµÑģÑĤÐ²Ð¾": 2708,
      "Ġ28": 2709,
      "ĠÐ´Ð²Ðµ": 2710,
      "Ġm": 2711,
      "ĠÑĤÑĢÐ°Ð´Ð¸": 2712,
      "ĠÐ¾Ð±Ð½Ð°ÑĢÑĥÐ¶": 2713,
      "Ð°ÑĢÑĭ": 2714,
      "ĠÐ´Ð¾Ð³": 2715,
      "Ġ2011": 2716,
      "ÑģÑĮ": 2717,
      "ĠÑģÐ¾ÑģÑĤÐ°Ð²Ð»ÑıÐµÑĤ": 2718,
      "ĠÐ¦ÐµÐ½ÑĤ": 2719,
      "Ġ100": 2720,
      "ĠÐĲÐ±": 2721,
      "Ð¾ÑĢÐ¾ÑĤ": 2722,
      "ÑİÑīÐ¸Ðµ": 2723,
      "ĠÑĢÐµÑģÐ¿": 2724,
      "ÑĨÐ¸Ð°Ð»Ð¸ÑģÑĤ": 2725,
      "ĠÑĨÐ°ÑĢ": 2726,
      "ĠÐ½Ð¾Ð¼": 2727,
      "ÐµÐ½Ð·": 2728,
      "ĠÐºÐ¸Ð½Ð¾": 2729,
      "ĠÐ¿ÑĢÑıÐ¼": 2730,
      "Ð¾Ð±ÑĢÐ¸ÑĤ": 2731,
      "Ð»Ð°Ð¼": 2732,
      "Ð¾ÐºÑģ": 2733,
      "Ġ26": 2734,
      "ĠÑıÐ·ÑĭÐºÐ°": 2735,
      "ĠÐ½ÐµÐ·Ð°Ð²Ð¸ÑģÐ¸Ð¼": 2736,
      "ĠÐłÐ¸Ð¼": 2737,
      "Ð¸ÑĩÐµÑģÐºÑĥÑİ": 2738,
      "ĠÐ¿ÑĢÐµÐ¼": 2739,
      "Ð¸Ð»Ð¸Ñī": 2740,
      "ĠÐ¿Ð¾Ð·Ð´": 2741,
      "Ð±Ðµ": 2742,
      "Ð»Ð¸Ð¼Ð¿": 2743,
      "ĠÐĺÐ²Ð°Ð½Ð¾Ð²": 2744,
      "ĠÑģÐ°Ð¼Ð¾Ð»": 2745,
      "ĠÑĤÐµÐ¿": 2746,
      "ĠÐ²Ð¾Ð·ÑĢÐ°ÑģÑĤ": 2747,
      "âĢľ": 2748,
      "Ð¾Ð»Ð½Ñı": 2749,
      "78": 2750,
      "ĠÑĢÐµÐ³Ð¸Ð¾Ð½": 2751,
      "ĠÐ´ÐµÐ²": 2752,
      "ÑģÑĤÐ°Ð½ÑĤ": 2753,
      "Ð¸ÑĩÐµÑģÐºÐ¾Ð¼": 2754,
      "ĠÐ´ÑĢÐ°": 2755,
      "Ð®": 2756,
      "ĠÐĴÐ»Ð°Ð´Ð¸Ð¼Ð¸ÑĢ": 2757,
      "ĠÐ´Ð¾ÐºÑĥÐ¼": 2758,
      "ĠÐ¸Ð´": 2759,
      "ĠÐ¾Ð±ÑĬÑıÐ²": 2760,
      "ĠÐ¾ÑĤÐºÐ°Ð·": 2761,
      "ÐºÐ°ÑĤ": 2762,
      "ĠÐĴÐµÑĢÑħ": 2763,
      "ÑĢÐ¸ÑĩÐµÑģÐº": 2764,
      "ĠÐ°Ð²Ð¸": 2765,
      "ĠÐ¼Ð¸Ð½Ð¸ÑģÑĤ": 2766,
      "ÑĤÑĥÑĢÐµ": 2767,
      "ÑĥÐ»Ð¸": 2768,
      "ÑĳÐ´": 2769,
      "ĠÐ¾ÑĤÐ¼ÐµÑĩ": 2770,
      "ĠÑĥÑĤÐ²ÐµÑĢÐ¶Ð´": 2771,
      "ĠÑģÐ¸Ð¼Ð²Ð¾Ð»": 2772,
      "Ġ22": 2773,
      "ĠÐ½ÐµÑģÐºÐ¾Ð»ÑĮ": 2774,
      "ĠÐ³ÑĢÑĥÐ¿Ð¿Ð°": 2775,
      "ĠÐ¾ÑĤÐ²ÐµÑĤ": 2776,
      "ĠÑģÑĤÐµÐ¿ÐµÐ½Ð¸": 2777,
      "Ð¸Ð¹ÑģÐºÐ¾Ð³Ð¾": 2778,
      "ĠÑĤÑĭÑģ": 2779,
      "ĠÑĥÑĩÐ°": 2780,
      "ĠÐ½Ð¸Ð·": 2781,
      "Ġand": 2782,
      "ĠÑĢÐµÐ´Ð°Ðº": 2783,
      "ĠÑĢÑĭ": 2784,
      "Ð¾ÑĢÑĭ": 2785,
      "ĠÑĦÐ¾ÑĢÐ¼": 2786,
      "Ð°Ð½Ð¸": 2787,
      "ĠÐºÐ¾ÑģÐ¼": 2788,
      "ĠÐºÐ¾ÑĢÐ¿": 2789,
      "ÐµÐ½Ð½ÑĭÐ¼": 2790,
      "Â°": 2791,
      "Ġ27": 2792,
      "ĠÑģÑĤÑĢÑĥÐºÑĤ": 2793,
      "ĠÐ¿Ð°ÑĢÑĤÐ¸Ð¸": 2794,
      "40": 2795,
      "ÑĢÐµÑģ": 2796,
      "ĠÐ¡Ð²ÑıÑĤ": 2797,
      "ĠÐ¾Ð³ÑĢÐ°Ð½Ð¸Ñĩ": 2798,
      "Ð¼Ð¾Ð½": 2799,
      "ĠÐ±Ð¾ÑĢÑĮ": 2800,
      "ĠÐ³ÑĢÐµ": 2801,
      "ĠÐ²Ð¿ÐµÑĢÐ²ÑĭÐµ": 2802,
      "ĠÐ²Ð°ÑĢÐ¸": 2803,
      "ĠÐĴÐ°Ð»": 2804,
      "ĠÑĢÐµÑģÐ¿ÑĥÐ±Ð»": 2805,
      "Ð»Ð°Ð²Ð°": 2806,
      "ĠÐ°Ð±": 2807,
      "ĠÐ¾ÑĢÐ³Ð°Ð½Ð¸Ð·": 2808,
      "Ġf": 2809,
      "ĠÑĤÐ¸Ð¿Ð°": 2810,
      "ĠÐ¿ÐµÑĢÐµÐ¿": 2811,
      "ĠÐºÐ¾Ð¼Ð¿Ð°Ð½Ð¸Ð¸": 2812,
      "ÐºÐ°Ñı": 2813,
      "ĠÐĽÐµ": 2814,
      "Ð»Ð¸ÑģÑĮ": 2815,
      "ĠÐ²Ð½ÑĥÑĤÑĢÐµÐ½": 2816,
      "ĠÐ¿ÑĢÐµÐ·Ð¸Ð´ÐµÐ½ÑĤ": 2817,
      "Ð¾ÐºÐ¾Ð¼": 2818,
      "ul": 2819,
      "Ð¾Ð·Ð²": 2820,
      "ĠÐ¼ÐµÑħÐ°Ð½": 2821,
      "Ð²Ð¸Ð³": 2822,
      "ĠÐĵÐµÐ½": 2823,
      "ÑĥÐºÐ°": 2824,
      "Ð¸ÑĨÐµ": 2825,
      "ÐµÐ½Ð½Ð¾Ðµ": 2826,
      "Ġ50": 2827,
      "Ð¾Ð½Ð°Ñĩ": 2828,
      "ÑĥÐ½ÐºÑĤ": 2829,
      "ÑĤÐ¾ÑĤ": 2830,
      "ĠÑģÑĤÐ¸Ñħ": 2831,
      "ĠÐ¿Ð¾ÑģÑĤÐ°Ð²": 2832,
      "ĠÐ¿Ð¾ÑĢÑĤ": 2833,
      "og": 2834,
      "ĠÑĨÐ²ÐµÑĤ": 2835,
      "Ð»Ð°Ð³Ð¾Ð´Ð°ÑĢÑı": 2836,
      "ĠÑģÐ¾ÑĤÑĢÑĥÐ´": 2837,
      "ĠÐĴÐ¾Ð»": 2838,
      "ÑĢÐ°Ð³": 2839,
      "Ð»Ð»": 2840,
      "ÐµÑģÑĤÐ²ÐµÐ½Ð½Ð¾Ð¹": 2841,
      "Ð¸Ð²Ð°Ð»": 2842,
      "ĠÐ¾Ð±ÑıÐ·": 2843,
      "Ð¸Ð»Ð¸Ñı": 2844,
      "ers": 2845,
      "ĠÐ²Ð¾ÑĪ": 2846,
      "ĠÑıÐ²": 2847,
      "Ð¾ÑģÑĤÐ¾": 2848,
      "ĠÑĨÐµÐ½ÑĤÑĢ": 2849,
      "Ġ2012": 2850,
      "Ġ2003": 2851,
      "ĠÐ¾ÑĤÑģÑĥÑĤÑģÑĤÐ²": 2852,
      "ĠÑĤÐµÐ¼Ð¿ÐµÑĢÐ°": 2853,
      "Ð»Ð¾ÑģÑĮ": 2854,
      "ĠÐ½ÐµÑĤ": 2855,
      "ĠÐ°Ð³": 2856,
      "Ð¾Ð¶Ð´ÐµÐ½Ð¸Ðµ": 2857,
      "ÑĢÐ¸Ð·": 2858,
      "ĠÐ²ÐµÑĢÑħ": 2859,
      "ĠÐ·Ð½": 2860,
      "Ð½Ð¸ÑĤ": 2861,
      "Ð¸Ð½Ð°Ð¼": 2862,
      "ÑĤÐ¾ÑĢÐ¾Ð¼": 2863,
      "ĠÑĤÐ¾Ð½": 2864,
      "ĠÐ¿Ð¾Ð¿ÑĥÐ»ÑıÑĢ": 2865,
      "28": 2866,
      "ĠÐ¿ÑĢÐ¾Ñģ": 2867,
      "Ð¾ÑģÐ»ÐµÐ´ÑģÑĤÐ²": 2868,
      "Ð°ÑĤÐ¾Ð¼": 2869,
      "ĠÐ²ÑĭÐ¿Ð¾Ð»Ð½": 2870,
      "ĠÐ±Ð¾Ð»": 2871,
      "Ð¸Ð»Ñı": 2872,
      "ÐĲÐ½": 2873,
      "ĠÐºÐ¾Ð½ÑĦ": 2874,
      "ĠÑĥÑĩÐ°ÑģÑĤÐ¸Ðµ": 2875,
      "ÑĳÑĤÐ°": 2876,
      "ÑģÐºÐµ": 2877,
      "Ð¾Ð¼ÐµÑĤ": 2878,
      "Ð¾Ð²Ð¾Ð»ÑĮ": 2879,
      "ĠÐ¿ÐµÑĢÐµÑģ": 2880,
      "Ð°ÐºÑģÐ¸Ð¼": 2881,
      "ĠÐ¿ÑĢÐµÐº": 2882,
      "ĠâĢŀ": 2883,
      "ÑĩÐ°": 2884,
      "Ð²Ð¸Ð¶": 2885,
      "ĠÐ¾Ð±ÑĭÑĩÐ½Ð¾": 2886,
      "ĠÐ¾ÐºÑĢÑĥÐ¶": 2887,
      "ĠÐ½Ð°Ð»": 2888,
      "ĠÐ¿Ð¾Ñħ": 2889,
      "ĊĠĊ": 2890,
      "ĠÐĿÐ°Ð¿": 2891,
      "Ð¾Ð²Ð°Ñı": 2892,
      "ÐµÐ²Ð¾Ð¹": 2893,
      "ĠÐ¢Ð¾Ð¼": 2894,
      "26": 2895,
      "ĠÐ¿ÐµÑĢÐµÐ¼": 2896,
      "ĠÑģÑĥÐ¼": 2897,
      "Ð½Ð¸Ñı": 2898,
      "ĠÐ¼Ð¾Ñī": 2899,
      "ĠÑĤÐ°Ð¼": 2900,
      "ÑĢÐ¾Ñĩ": 2901,
      "ĠÐ®Ð¶": 2902,
      "ĠÐ¾ÑĩÐµÑĢÐµÐ´": 2903,
      "ĠÐ½Ð¾ÑĢ": 2904,
      "Ð½Ð¾Ð²Ð°": 2905,
      "Ð¶Ð¸": 2906,
      "ÐŁÐµÑĤÐµÑĢÐ±ÑĥÑĢÐ³": 2907,
      "ĠÑħÐ¸Ð¼": 2908,
      "ÐµÐ½Ð¸ÑıÐ¼Ð¸": 2909,
      "ĠÐ¿ÑĢÐ¾ÑħÐ¾Ð´": 2910,
      "Ð¸ÑģÑĤÐ¾Ð²": 2911,
      "ĠÐ£ÐºÑĢÐ°Ð¸Ð½Ñĭ": 2912,
      "ĠÐ¼Ð½Ð¾Ð³Ð¸Ñħ": 2913,
      "27": 2914,
      "ÑĮÐ¸": 2915,
      "ĠÐ²Ð½ÐµÑĪ": 2916,
      "ĠÑĤÑıÐ¶": 2917,
      "Ð½Ð¸ÐºÐ°Ð¼Ð¸": 2918,
      "ĠÐ³Ð¾ÑģÑĥÐ´Ð°ÑĢÑģÑĤÐ²Ð°": 2919,
      "Ð¸ÑĤÐµÐ»ÐµÐ¼": 2920,
      "ĠÐ¿ÑĢÐµÐ´ÑģÑĤÐ°Ð²Ð»Ñı": 2921,
      "ĠÐ³ÐµÐ½ÐµÑĢÐ°Ð»": 2922,
      "Ð½Ð¸ÑĨÐ¸Ð¿": 2923,
      "ĠÐ½Ð¸Ð¼": 2924,
      "ĠÐ²ÐµÑĤ": 2925,
      "Ð¾ÑģÐ»ÐµÐ´ÑģÑĤÐ²Ð¸Ð¸": 2926,
      "ÑĳÐ½Ð½Ð¾Ð¹": 2927,
      "ĠÑĤÑĢÑĥ": 2928,
      "Ð¸Ð²Ð°ÐµÑĤÑģÑı": 2929,
      "Â»),": 2930,
      "ÐºÐ»Ð°Ð´": 2931,
      "ÑĢÐµÐ¶": 2932,
      "ĠÐ¿ÑĥÐ½ÐºÑĤ": 2933,
      "ĠÐĴÐµÐ»Ð¸ÐºÐ¾Ð±ÑĢÐ¸ÑĤ": 2934,
      "Ð¼ÑĥÐ½": 2935,
      "ĠÐºÑĢÐµÐ¿": 2936,
      "ĠÑģÑĤÐ°Ð»Ð¾": 2937,
      "ĠÐĴÐ¸Ðº": 2938,
      "ĠÐ¼Ð¾Ð½Ð°ÑģÑĤÑĭ": 2939,
      "ÑģÐ¼": 2940,
      "ĠÑĢÐ¸Ð¼": 2941,
      "Ð°Ð´Ñĭ": 2942,
      "ĠÑĦÐ¾ÑĤ": 2943,
      "ĠÐ¿Ð¾Ð¼Ð¾ÑīÑĮÑİ": 2944,
      "Ð¸ÑĦÐ¸ÐºÐ°": 2945,
      "ĠÐ¸Ð¼ÐµÑİÑĤ": 2946,
      "ĠÐ¶Ð¸Ð²Ð¾ÑĤ": 2947,
      "ĠÑĦÐ°ÐºÑĤ": 2948,
      "ÑĪÑĤ": 2949,
      "ist": 2950,
      "ĠÐ¸Ð½ÑĤÐµÑĢÐµÑģ": 2951,
      "ĠÑĤÐ°ÐºÐ¸Ñħ": 2952,
      "ĠÐľÐ°Ð»": 2953,
      "ĠÐ±ÑĢÐ°ÑĤ": 2954,
      "ĠÑĢÐ°Ð·Ð²Ð¸ÑĤÐ¸Ñı": 2955,
      "ĠÐ¿Ð¸ÑģÐ°ÑĤÐµÐ»ÑĮ": 2956,
      "ÐµÑĢÑĮ": 2957,
      "Ð¸Ð»ÑĮÐ¼": 2958,
      "Ð»ÐµÐ³": 2959,
      "ĠÐ²ÐµÐ»Ð¸Ðº": 2960,
      "ĠÐ½ÐµÐºÐ¾ÑĤÐ¾ÑĢÑĭÐµ": 2961,
      "ĠÐ»Ð¸Ð±Ð¾": 2962,
      "ĠÑħÑĢÐ¸ÑģÑĤÐ¸Ð°Ð½": 2963,
      "ĠÑģÑĢÐ°Ð²Ð½": 2964,
      "ĠÑĢÐ°Ð·Ð»Ð¸ÑĩÐ½ÑĭÑħ": 2965,
      "Ġin": 2966,
      "ÑĢÐµÑĪ": 2967,
      "ĠÐ²ÑĭÐ¿ÑĥÑģÐº": 2968,
      "ĠÑİÐ¶": 2969,
      "ĠÐ¼Ð¸ÑĢÐµ": 2970,
      "195": 2971,
      "ĠÐ´Ð¾Ð¿Ð¾Ð»Ð½": 2972,
      "oc": 2973,
      "ĠÑģÐ²Ð¾Ñĳ": 2974,
      "Ð³Ð»Ð°Ð²": 2975,
      "Ġ2002": 2976,
      "ÑĢÐ°ÑĨÐ¸Ð¸": 2977,
      "Ġ21": 2978,
      "ĠÐľÐ¾ÑģÐºÐ²Ðµ": 2979,
      "ĠÐ¶Ð¸Ð·Ð½ÑĮ": 2980,
      "ĠÑģÐ²ÑıÑĤ": 2981,
      "ĠÑģÑĭÐ½": 2982,
      "Ð³Ð¸Ð¿": 2983,
      "ĠÐºÐ¾Ð½Ðº": 2984,
      "Ð±ÑĥÑĢÐ³": 2985,
      "ÑĢÐ°Ð¹": 2986,
      "ÑĨÐ°Ð¼Ð¸": 2987,
      "Ð½Ð¾ÑĪ": 2988,
      "Ð¸ÑĩÐ°": 2989,
      "ĠÐ·Ð°Ð²ÐµÑĢÑĪ": 2990,
      "ĠÑģÐµÐ±Ðµ": 2991,
      "ÑĢÐµÐ·": 2992,
      "Ð¾Ð²Ð°Ð½Ð¸ÐµÐ¼": 2993,
      "ĠÐ²Ð»Ð¸ÑıÐ½Ð¸Ðµ": 2994,
      "ĠÐ¿Ð¾Ð¿ÑĭÑĤ": 2995,
      "Ð²ÐµÐ¹": 2996,
      "ĠÐ·Ð¾Ð»Ð¾ÑĤ": 2997,
      "Ð¾Ð²Ð°ÑĤÑĮ": 2998,
      "ĠÐ¿Ð¾ÑĢÑıÐ´": 2999,
      "Ð¾Ð²ÑģÐºÐ¸Ð¹": 3000,
      "Ð»Ð°Ð´Ð°": 3001,
      "Ð¸Ð²ÑĪÐ¸Ð¹": 3002,
      "Ð¸Ð±Ð»Ð¸Ð¾ÑĤ": 3003,
      "ĠÐ±Ð¾ÐµÐ²": 3004,
      "Ġ2014": 3005,
      "ĠÐ°ÑĢÐ¼": 3006,
      "ĠÐ¾Ð¿ÑĥÐ±Ð»": 3007,
      "Ð½Ð¾Ð³": 3008,
      "Ð¸Ð½Ð¾Ð¹": 3009,
      "ĠÐ¿ÑĢÐ¾Ð¸Ð·Ð¾ÑĪ": 3010,
      "ÑĢÐ¾ÑĤÐ¸Ð²": 3011,
      "Ð»ÐµÐ½Ð¾": 3012,
      "ÐŀÑĤ": 3013,
      "ÑĢÐ¾Ð¸Ð·": 3014,
      "Ð¾Ð³ÑĢÐ°ÑĦÐ¸Ð¸": 3015,
      "ĠÑģÐµÑĤ": 3016,
      "ĠÐ¸Ð³ÑĢÑĭ": 3017,
      "ÑĢÐµÐ½Ð¸Ñı": 3018,
      "Ð¼Ð»Ð½": 3019,
      "ĠÐļÑĢÐ¾Ð¼Ðµ": 3020,
      "ÐµÐ½Ð¸ÑĤ": 3021,
      "ĠÐ¾ÑĢÐ³Ð°Ð½Ð¸Ð·Ð°ÑĨÐ¸Ð¸": 3022,
      "Ð°ÑģÐ¿": 3023,
      "ĠÑĤÐ¾Ð³Ð´Ð°": 3024,
      "ĠÑħÐ¾ÑĢÐ¾ÑĪ": 3025,
      "ĠÑģÐ¾ÑİÐ·": 3026,
      "29": 3027,
      "ĠÑıÐ´": 3028,
      "Ð¸ÑīÐµ": 3029,
      "ĠÑĢÐ°Ð·Ð¼": 3030,
      "ÐºÐ¸Ð¼": 3031,
      "Ð¾Ð¸ÑĤ": 3032,
      "ĠÐ¼Ð½Ð¾Ð³Ð¸Ðµ": 3033,
      "Ð°ÑģÑģÐ°": 3034,
      "ĠÐĹÐµÐ¼": 3035,
      "Ð½Ð°Ñħ": 3036,
      "ĠÐ¿Ð¾Ð»Ð½Ð¾ÑģÑĤÑĮÑİ": 3037,
      "Ġ2001": 3038,
      "ĠÐ²Ð¾Ð¾ÑĢÑĥÐ¶": 3039,
      "ÑĥÑį": 3040,
      "ĠÐ¾Ð±ÑĢÐ°ÑĤ": 3041,
      "ĠÑħÐ¾Ð´Ðµ": 3042,
      "ĠÐ´Ð»Ð¸Ð½": 3043,
      "Ð¾ÑĤÐ²Ð¾ÑĢ": 3044,
      "ĠÐ²ÑģÑĤÑĥÐ¿": 3045,
      "ĠÑħÐ¾Ð·ÑıÐ¹": 3046,
      "ĠÐĶÐ¶Ð¾Ð½": 3047,
      "ÑĢÐ¾Ð³": 3048,
      "ÑĥÑİÑĤÑģÑı": 3049,
      "ĠÐ²Ð·Ð°": 3050,
      "Ð»Ð¸Ð¶": 3051,
      "ĠÐ²ÑĭÑĢÐ°Ð¶": 3052,
      "ĠÐļÐ¾Ð½ÑģÑĤÐ°Ð½ÑĤ": 3053,
      "ĠÐ¾ÑģÐ½Ð¾Ð²Ð½Ð¾Ð¼": 3054,
      "ht": 3055,
      "ÑıÐµÑĤÑģÑı": 3056,
      "ÑĮÐµÑĢ": 3057,
      "ĠÐĶÐ¼Ð¸ÑĤ": 3058,
      "ĠÐļÐ°Ð½": 3059,
      "Ð¸ÐºÐ¾": 3060,
      "ÑıÑĤÐ¸Ðµ": 3061,
      "Ð¾ÑģÐ»Ð¾Ð²": 3062,
      "ĠÐ²ÐµÑģ": 3063,
      "ĠÐ¿Ð¾ÑģÐ»ÐµÐ´Ð¾Ð²": 3064,
      "ĠÐ¿ÑĢÐµÐ¼Ð¸Ð¸": 3065,
      "Ð¸Ð¾Ð³ÑĢÐ°ÑĦÐ¸Ñı": 3066,
      "Ð¶Ð°": 3067,
      "Ð¾ÑĢÑĥÑģ": 3068,
      "ĠÐĹÐ°": 3069,
      "Ð¸ÑĤÐ¾ÑĢ": 3070,
      "Ð¡Ð¿": 3071,
      "Ð¾ÑĢÐ´": 3072,
      "ĠÐ¾ÑģÐ½Ð¾Ð²Ðµ": 3073,
      "ĠÐ´Ð°Ð»": 3074,
      "ĠÑĨÐµÐ»ÑĮ": 3075,
      "ĠÐ¿ÑĢÐµÐ´Ð¿": 3076,
      "ĠÐ±ÑĢÐ°": 3077,
      "ĠÐ²ÐµÐºÐµ": 3078,
      "ÐĲÑĢ": 3079,
      "ÑĦÐ°": 3080,
      "Ġ29": 3081,
      "ÐļÐ¾Ð¼": 3082,
      "Ġ2013": 3083,
      "ĠÑģÑĤÑĢÐµ": 3084,
      "ĠÑĦÐ¾Ð½": 3085,
      "ÑĤÑĥÑĢÑĭ": 3086,
      "ĠÐ±Ð°Ð»": 3087,
      "ĠÐ¿ÑĢÐ¸Ð²Ð¾Ð´": 3088,
      "ÐµÑĢÐµÐ¶": 3089,
      "ĠÐ³Ð¾Ð»Ð¾Ð²": 3090,
      "ÐĺÐ·": 3091,
      "ĠÐ±ÑĢÐ¸ÑĤÐ°Ð½": 3092,
      "ĠÐ¿Ð¾Ð²ÐµÑĢÑħ": 3093,
      "ĠÐŁÑĢÐ°Ð²": 3094,
      "Ð¸ÑĨÐ¸Ñı": 3095,
      "Ð¾Ð»Ðµ": 3096,
      "Ð¾Ð¿Ð°Ñģ": 3097,
      "ÑģÐºÐ¾ÑĢÐµ": 3098,
      "ÂŃ": 3099,
      "190": 3100,
      "ĠÐ¼ÐµÐ½ÑĮ": 3101,
      "ĠÐļÐ°Ð»": 3102,
      "ÑĤÐ¾ÑĢÐ¾Ð²": 3103,
      "ÑģÑĤÐ°Ð½": 3104,
      "Ð°Ð²Ð°Ð»": 3105,
      "ĠÐ½Ð°ÑģÑĤÐ¾ÑıÑīÐµÐµ": 3106,
      "ÐºÐ¾Ð²Ð°": 3107,
      "ĠÐ´ÑĢÑĥÐ³Ð¾Ð¹": 3108,
      "Ð¿Ð°ÑĢÐ°ÑĤ": 3109,
      "Ġ(,": 3110,
      "ĠÐ·Ð°Ð´Ð°": 3111,
      "ĠÐ¿Ð¾ÑģÐ²ÑıÑī": 3112,
      "ĠÐ¼Ð¸Ð»Ð»Ð¸": 3113,
      "ĠÐ¿ÑĢÐ¾Ð²Ð¸Ð½": 3114,
      "ĠÐ¿Ð¾Ñį": 3115,
      "Ð¸Ð¼ÐµÐ½": 3116,
      "Ð°ÐºÐ°": 3117,
      "ÑĳÑĢÐ°": 3118,
      "Ġ1991": 3119,
      "ĠÐ¿ÑĢÐ¾Ð¸ÑģÑħ": 3120,
      "ĠÐ¿ÑĢÐ¾ÑģÑĤÑĢÐ°Ð½": 3121,
      "ĠÐ¿ÑĢÐ¸ÑħÐ¾Ð´": 3122,
      "Ð»Ð°Ð·": 3123,
      "ĠÐ¼Ð°ÑģÑĤ": 3124,
      "ĠÐ¿Ð¾Ð´Ð³Ð¾ÑĤÐ¾Ð²": 3125,
      "ĠÐºÐ°Ð¿Ð¸ÑĤ": 3126,
      "ĠÐºÑĢÐ¾Ð²": 3127,
      "ÑĳÐ½Ð½Ð¾Ð³Ð¾": 3128,
      "ĠÐ¸ÑģÐ¿Ð¾Ð»ÑĮÐ·ÑĥÐµÑĤÑģÑı": 3129,
      "ÑĪÐ¸ÑĢ": 3130,
      "ĠÑĢÐ¾ÑģÑģÐ¸Ð¹ÑģÐºÐ¸Ð¹": 3131,
      "ĠÐ°Ð¼ÐµÑĢÐ¸ÐºÐ°Ð½ÑģÐºÐ¸Ð¹": 3132,
      "ÐµÑĢÐ¸Ñı": 3133,
      "Ð¾Ð²Ð°Ð»Ð¸": 3134,
      "ĠÐºÐ¾Ð½Ñģ": 3135,
      "ĠÑģÑĩÑĳÑĤ": 3136,
      "Ð²ÑĳÑĢ": 3137,
      "ĠÐ´ÐµÑĤÐµÐ¹": 3138,
      "ĠÐ´Ð¸Ð²": 3139,
      "ĠÐºÑĢÑĭ": 3140,
      "Ġb": 3141,
      "ÑĨÐ¸ÑĦ": 3142,
      "ĠÐ¿Ð»Ð°ÑĤ": 3143,
      "ÐºÐ°Ð¼": 3144,
      "ÑĩÐ¸ÑģÐ»ÐµÐ½": 3145,
      "ĠÐļÐ°Ð¼": 3146,
      "ĠÐ¾Ð±ÑĢÐ°Ð·Ð¾Ð²Ð°Ð½Ð¸Ñı": 3147,
      "ĠÐĺÐ¼": 3148,
      "ĠÐĵÐ¾ÑģÑĥÐ´Ð°ÑĢÑģÑĤÐ²ÐµÐ½": 3149,
      "ÑıÐ±ÑĢÐµ": 3150,
      "ĠÑģÐ¸ÑģÑĤÐµÐ¼Ð°": 3151,
      "ÑİÐ¶ÐµÑĤ": 3152,
      "ĠÐĹÐ°Ð¿Ð°Ð´": 3153,
      "ÑĢÐ¸Ð³Ð¸Ð½": 3154,
      "Ð»Ð¾ÑĢ": 3155,
      "ĠÐ²Ð½": 3156,
      "Ð¸ÑĤÐµÐ»ÑĮÐ½ÑĭÐµ": 3157,
      "ĠÐ¿ÑĢÐ¸Ð½ÑĨÐ¸Ð¿": 3158,
      "ĠÐ²Ð¾Ð·Ð²ÑĢÐ°Ñī": 3159,
      "ĠÐ¿ÑĢÐ¾Ñĩ": 3160,
      "Ã©": 3161,
      "Ð°Ð¹Ð»Ð¾Ð²": 3162,
      "ÑĢÐµÐ´ÐµÐ»Ñı": 3163,
      "Ð°ÑĢÐº": 3164,
      "ĠÐ¿Ð¾ÑģÑĤÑĥÐ¿": 3165,
      "ÐĴÐ¾": 3166,
      "Ð»ÐµÐ½Ð¸Ð¹": 3167,
      "ĠÐ¿Ð¾ÐºÐ°": 3168,
      "ĠÐŁÑĢÐµÐ´": 3169,
      "ĠÐ¾Ð±Ð»Ð°ÑģÑĤÑĮ": 3170,
      "ÑģÐ¸": 3171,
      "ĠÐ´Ð²Ð¸Ð³": 3172,
      "ĠÐ³Ð»ÑĥÐ±": 3173,
      "ĠÐ¿ÑĢÐ¾Ð¸ÑģÑħÐ¾Ð´Ð¸ÑĤ": 3174,
      "ĠÑĩÐµÑģÑĤÑĮ": 3175,
      "ĠÐłÐ¾Ð±": 3176,
      "ĠÐĿÐµ": 3177,
      "ĠÐ³Ð°Ð»Ð°ÐºÑĤ": 3178,
      "ÑĤÐ¾ÑĢÑĭ": 3179,
      "ĠÐ¿Ð¾Ð´Ð¿Ð¸Ñģ": 3180,
      "ĠÐĲÐ²ÑģÑĤ": 3181,
      "ĠÐ°Ð»ÑĮ": 3182,
      "ĠÐ½Ð°Ð·ÑĭÐ²Ð°ÐµÐ¼": 3183,
      "ÐµÐ³Ð¾ÑĢ": 3184,
      "ÑĭÐ²Ð°ÐµÑĤ": 3185,
      "Ð¸ÑģÑĤÑĭ": 3186,
      "Ð¼Ð°ÑĤÑĢÐ¸Ð²": 3187,
      "ĠÐ¸ÑĤÐ¾Ð³": 3188,
      "ĠÐ¿ÐµÑĢÐµÑħÐ¾Ð´": 3189,
      "ĠÐ¿Ð¾ÑģÐº": 3190,
      "ÑĥÐ¶Ð´": 3191,
      "ĠÐłÐ°Ð·": 3192,
      "ĠÑĥÐ¿ÑĢÐ°Ð²Ð»ÐµÐ½Ð¸Ñı": 3193,
      "ĠÐ²Ð¾ÑģÑģÑĤÐ°Ð½Ð¾Ð²": 3194,
      "ĠÐ·Ð´ÐµÑģÑĮ": 3195,
      "ĠÑģÐ²Ð¾Ð¸Ð¼": 3196,
      "ĠÐľÐ°Ð¹": 3197,
      "ĠÐ°Ð´Ð¼Ð¸Ð½Ð¸ÑģÑĤÑĢÐ°ÑĤÐ¸Ð²": 3198,
      "80": 3199,
      "ĠÐ¾ÑĢÑĥÐ¶": 3200,
      "ĠÑĢÑĥÑģÑģÐºÐ¸Ð¹": 3201,
      "ĠÐ¾Ð´Ð½Ð°": 3202,
      "ĠÐºÐ¸Ñģ": 3203,
      "ĠÐļÑĥÐ±": 3204,
      "ĠÑģÐ»Ð°Ð²": 3205,
      "ĠÐµÐ´Ð¸Ð½ÑģÑĤÐ²ÐµÐ½": 3206,
      "ÑĪÐµÐµ": 3207,
      "Ð°Ð½Ð´Ð°ÑĢÑĤ": 3208,
      "Ġ40": 3209,
      "ÑĤÐµÐ½": 3210,
      "ĠÑģÑĨÐµÐ½Ð°ÑĢÐ¸": 3211,
      "ĠÑĥÑģÑĤÑĢÐ¾Ð¹": 3212,
      "ĠÐľÐ¾ÑĢ": 3213,
      "ĠÐ¿Ð¾Ð¶": 3214,
      "ĠÐ¸Ð³ÑĢÐ¾Ðº": 3215,
      "Ġ\"": 3216,
      "ĠÐ½Ð°ÑģÐ»ÐµÐ´": 3217,
      "ÑģÐºÐ¸": 3218,
      "ĠÐ¾Ð±ÑīÐµÑģÑĤÐ²Ð°": 3219,
      "ĠÐ°Ð²ÑĤÐ¾Ð¼Ð¾Ð±": 3220,
      "ĠÑĤÐ°ÐºÐ¸Ðµ": 3221,
      "Ð³Ð»Ñı": 3222,
      "ĠÐ¿Ð¾ÑģÐºÐ¾Ð»ÑĮÐºÑĥ": 3223,
      "ĠÐ´ÐµÐ¹ÑģÑĤÐ²Ð¸Ñı": 3224,
      "ĠÐ½ÐµÑģÐºÐ¾Ð»ÑĮÐºÐ¸Ñħ": 3225,
      "ĠÑģÑĤÐ°Ð½ÑĨÐ¸Ð¸": 3226,
      "ĠÑĥÑĩÑĢÐµÐ¶Ð´": 3227,
      "ĠÐ´ÐµÑıÑĤÐµÐ»ÑĮÐ½Ð¾ÑģÑĤÐ¸": 3228,
      "Ð¼Ð¾": 3229,
      "ĠÑĤÑĢÐµÑĤÑĮ": 3230,
      "ĠÐ¿Ð»ÐµÐ¼": 3231,
      "Ð°ÑĤÐµÐ»ÐµÐ¼": 3232,
      "Ð°Ð»ÑĮÑıÐ½": 3233,
      "60": 3234,
      "Ġ185": 3235,
      "Ð»ÑıÐµÑĤÑģÑı": 3236,
      "ĠÑģÐ»Ð¾Ð²Ð°": 3237,
      "Ð¸ÑĤÐµÑĤ": 3238,
      "ĠÐºÐ¾Ð»Ð¾Ð½": 3239,
      "ĠÑĤÐ¾Ð¿": 3240,
      "ĠÐ±ÑĥÐ´ÑĥÑī": 3241,
      "ÐŁÐµÑĢÐ²": 3242,
      "ÐµÑħÐ½": 3243,
      "ÑįÐº": 3244,
      "ĠÐ²ÑģÐµÐ¼": 3245,
      "ÑĥÑİÑīÐ¸Ñħ": 3246,
      "Ð½Ð¾ÑģÑĤÑĢÐ°Ð½": 3247,
      "Ñĸ": 3248,
      "ĠÐĳÑĭ": 3249,
      "ĠÐ¼Ð¸Ðº": 3250,
      "ÐµÑĢÑĤÐ°": 3251,
      "ĠÐŁÐ°ÑĢÐ¸": 3252,
      "Ð¾Ð²Ð°Ð½Ð¸Ð¹": 3253,
      "ĠÑĨÐµÐ½ÑĤÑĢÐ°Ð»ÑĮ": 3254,
      "Ð·ÐµÐ¼": 3255,
      "ĠÐ»Ð¸Ð½Ð¸Ð¸": 3256,
      "ĠÐ³Ð¾Ð»Ð¾Ñģ": 3257,
      "):": 3258,
      "Ð°Ð½Ð½Ð°Ñı": 3259,
      "Ð½Ð¾Ð´Ð¾ÑĢÐ¾Ð¶": 3260,
      "ov": 3261,
      "Ð¸ÑĢÐ¾Ð²Ð°ÑĤÑĮ": 3262,
      "ĠÐ²ÑĭÐ·Ð²": 3263,
      "ĠÐ¿Ð°Ð»": 3264,
      "Ð¸ÑĤÐµÐ»ÑĮÐ½ÑĭÐ¹": 3265,
      "ĠÐ±Ð¾Ð»ÑĮ": 3266,
      "ri": 3267,
      "Ġ2016": 3268,
      "ĠÑĩÐµÑĤ": 3269,
      "ĠÐ¿Ð¾Ð´Ð¾Ð±": 3270,
      "Ð¸ÑĩÐµÑģÐºÐ¸Ð¼Ð¸": 3271,
      "ĠÐ¿ÑĢÐµÐ´ÑģÐµÐ´": 3272,
      "Ð¾Ð»Ð°Ð³": 3273,
      "Ġ2015": 3274,
      "ĠĠĠĠĠĠĠĠ": 3275,
      "ĠÑģÐ¾Ð²Ð¼ÐµÑģÑĤ": 3276,
      "Ð¾Ð·Ð¼Ð¾Ð¶": 3277,
      "ÑĪÐµÐ¼": 3278,
      "ĠÐ´Ð°Ð½Ð½ÑĭÐ¼": 3279,
      "ÐµÐ»Ðµ": 3280,
      "Ð±Ð¸Ð½": 3281,
      "ĠÐºÑĥÐ»ÑĮÑĤÑĥÑĢ": 3282,
      "Ð¾Ñĥ": 3283,
      "Ð°Ð½Ð´Ð°": 3284,
      "ÐµÑĢÐº": 3285,
      "ĠÑģÐ¿Ð¾ÑĢÑĤ": 3286,
      "ĠÐ¡Ð¾Ð²ÐµÑĤÐ°": 3287,
      "ÑĥÐºÐ¸": 3288,
      "Ð²Ð°ÑĢÐ´": 3289,
      "ĠÐ·Ð°Ð¿Ð¸Ñģ": 3290,
      "ĠÐĴÑģÐµ": 3291,
      "Ð¾Ð²ÑĭÐ¹": 3292,
      "ĠÐ¾Ð±ÑĢÐ°Ñī": 3293,
      "ĠÑĢÐ°ÑģÑģÑĤ": 3294,
      "Ġ2017": 3295,
      "ĠÑģÑĥÐ±": 3296,
      "ĠÐ²ÑĭÐ±Ð¾ÑĢ": 3297,
      "ÐµÐ»Ñİ": 3298,
      "Ð½Ð¾Ð²ÑĮ": 3299,
      "ĠÐ¼ÐµÑģÑĤÐµ": 3300,
      "ard": 3301,
      "ĠÑįÐ¿Ð¾Ñħ": 3302,
      "ÐºÑĢÐµÐ¿": 3303,
      "ĠÐºÑĢÑĥÐ³": 3304,
      "Ð¾Ð½Ð¸Ð¼": 3305,
      "Ð¼ÑĭÑģ": 3306,
      "Ð¾Ð´ÐµÐ¹ÑģÑĤÐ²": 3307,
      "ĠÐ´Ð²Ð¸Ð¶ÐµÐ½Ð¸Ñı": 3308,
      "ĠÐ¿Ð¾ÑįÑĤÐ¾Ð¼Ñĥ": 3309,
      "ĠÐ½ÑĳÐ¼": 3310,
      "Ġ1980": 3311,
      "ĠÑģÐ¾Ð³Ð»Ð°Ñģ": 3312,
      "ĠÐ¼Ð¸ÑĢÐ¾Ð²Ð¾Ð¹": 3313,
      "ĠÐ´Ð¸ÑģÐº": 3314,
      "ĠÐ´Ð¸Ð²Ð¸Ð·": 3315,
      "Ð¸ÑĢÐ¾Ð²Ð°Ð½Ð¸Ñı": 3316,
      "ĠÑĪÐºÐ¾Ð»Ñĭ": 3317,
      "ĠÐ¿ÑĢÐ°Ð²Ð¾ÑģÐ»Ð°Ð²": 3318,
      "ĠÐľÐµÐ¶Ð´": 3319,
      "ÑĩÐ°ÑĤ": 3320,
      "ĠÐºÑĢÐ°Ð¹": 3321,
      "ĠÐľÐ¾Ð½": 3322,
      "ÐłÐ¾Ð´": 3323,
      "ĠÐ¿ÐµÑĢÐ²Ð¾Ð³Ð¾": 3324,
      "Ġ(),": 3325,
      "ĠÐ¡Ðº": 3326,
      "ĠÐ²Ð¾Ð¹ÑģÐºÐ°": 3327,
      "ĠÐ¼Ð½ÐµÐ½Ð¸Ñİ": 3328,
      "ĠÐĿÐ¸ÐºÐ¾Ð»Ð°": 3329,
      "Ġ1999": 3330,
      "ĠÐĴÑĭ": 3331,
      "Ð°Ð½Ð½Ð¾Ð¹": 3332,
      "Ð»ÐµÐ²": 3333,
      "Ð°ÑģÐµÐ»": 3334,
      "ĠÐ²Ð·Ð°Ð¸Ð¼": 3335,
      "Ð°ÐºÐ¸": 3336,
      "Ð°ÑİÑīÐ¸Ñħ": 3337,
      "ĠÐ¿ÑĢÐ¾Ð¶": 3338,
      "Ð²ÐµÑĢÐ³": 3339,
      "ĠÐĺÐ½Ð´": 3340,
      "ĠÐºÐ¾Ð¼Ð¿ÑĮÑİÑĤ": 3341,
      "ÐµÐ½Ð½Ð¾ÑģÑĤÐ¸": 3342,
      "ĠÐļÐ°Ðº": 3343,
      "ĠÐ¸Ð¼ÐµÐ½Ð½Ð¾": 3344,
      "ĠÐ¾ÑĢÐ¸Ð³Ð¸Ð½": 3345,
      "ĠÐ²ÐµÐ»Ð¸Ñĩ": 3346,
      "ĠÐ´ÑĥÑħÐ¾Ð²": 3347,
      "ĠÐ±Ð¾Ð»ÑĮÑĪÐ¾Ð¹": 3348,
      "Ð±Ð¸": 3349,
      "ĠÐ¯Ð¿Ð¾Ð½": 3350,
      "Ð½Ð¾Ð²ÑĢÐµÐ¼ÐµÐ½": 3351,
      "ÑĤÐ¾Ð¶": 3352,
      "Ġ=": 3353,
      "ÑıÑĩ": 3354,
      "ĠÐĲÐ»ÑĮ": 3355,
      "ĠÐºÐ¾Ð½ÑĤÑĢ": 3356,
      "ĠÐ²ÐµÑĢÑģÐ¸Ð¸": 3357,
      "ÐĹÐ°": 3358,
      "ÐµÐ²Ð¸Ð´": 3359,
      "ĠÐķÐ²ÑĢÐ¾Ð¿Ñĭ": 3360,
      "ÑĥÐºÐ¾Ð²": 3361,
      "ĠÑĥÐ½Ð¸Ð²ÐµÑĢÑģÐ¸ÑĤÐµÑĤ": 3362,
      "ĠÐ¼ÑĥÐ½Ð¸ÑĨÐ¸Ð¿": 3363,
      "ĠÑĥÐ¿Ð¾Ð¼Ð¸Ð½": 3364,
      "ĠÐ²Ð¾ÑģÑĤÐ¾Ñĩ": 3365,
      "ĠÐ½Ð°Ð¹": 3366,
      "ce": 3367,
      "Ð¸ÑĨÐµÐ¹": 3368,
      "ĠÐ¿ÑĢÐ°Ð²Ð°": 3369,
      "ĠÑĢÐ°Ð¼": 3370,
      "ĠÐ±Ð¸ÑĤ": 3371,
      "ĠÐ¿Ð¾ÑĤÑĢÐµÐ±": 3372,
      "ÐĺÐ½": 3373,
      "ĠY": 3374,
      "ÐµÑĢÑĥ": 3375,
      "ĠÑĦÑĢÐ¾Ð½": 3376,
      "ĠÐĲÐ½Ð³Ð»": 3377,
      "ĠÐ¼Ð°ÑĤÐµÐ¼Ð°ÑĤ": 3378,
      "Ð¸Ð¾": 3379,
      "ĠÑĤÑĥ": 3380,
      "ĠÐ°ÐºÑĤÑĢÐ¸": 3381,
      "Ð°Ð»ÑĮÐ½ÑĭÐ¼": 3382,
      "Ð¸Ð¹ÑģÐºÐ¸Ñħ": 3383,
      "ĠÐ²Ð²ÐµÐ´": 3384,
      "Ð°Ð²Ð»Ð¸Ð²": 3385,
      "ĠÐ±ÑĥÐº": 3386,
      "ÑĢÐ´": 3387,
      "ĠÐ´Ð°Ð»ÑĮÐ½ÐµÐ¹": 3388,
      "ĠÐ½Ð°Ð±Ð»ÑİÐ´": 3389,
      "Ġ1992": 3390,
      "ĠÐłÐ¾Ð´": 3391,
      "ĠÐ²Ð½Ð¾Ð²ÑĮ": 3392,
      "ĠÐ¡ÐµÐ¼": 3393,
      "ĠÑģÐ¾Ð±ÑĢÐ°Ð½": 3394,
      "ĠÐĲÐ»ÐµÐºÑģÐ°Ð½Ð´ÑĢÐ°": 3395,
      "ĠÐ¿ÑĢÐ¾ÑĨÐµÑģ": 3396,
      "Ð¸ÑĤÐµÐ»ÑĮÐ½Ð¾Ð¹": 3397,
      "ĠÐµÐ²ÑĢÐ¾Ð¿ÐµÐ¹": 3398,
      "ĠÑĤÐµÑĢÐ¼Ð¸Ð½": 3399,
      "ĠÐ´ÐµÑģÑıÑĤ": 3400,
      "ĠÐłÐ¡": 3401,
      "ĠÐºÑĢÐµ": 3402,
      "Ð¾Ð°Ð½": 3403,
      "ĠÐ¿Ð¾Ð»ÑĮ": 3404,
      "ĠÐŃÐ½": 3405,
      "Ð»Ð°Ð±": 3406,
      "ĠÐºÐ¾ÑĤÐ¾ÑĢÑĥÑİ": 3407,
      "ĠÐ¸ÑģÑģÐ»ÐµÐ´Ð¾Ð²Ð°Ð½Ð¸Ñı": 3408,
      "ĠÑģÐ±": 3409,
      "ĠÑģÐ²Ð¸Ð´": 3410,
      "Ġ184": 3411,
      "ĠÐĵÐ°Ð»": 3412,
      "ĠÐ´Ð½ÐµÐ¹": 3413,
      "Ð¸ÑĤÐµÐ»ÑĮÐ½ÑĭÑħ": 3414,
      "ess": 3415,
      "Ð¸ÐºÑģ": 3416,
      "ĠÑģÐ°Ð¼ÑĭÑħ": 3417,
      "ÐµÐ¹Ð¼": 3418,
      "ĠÐ¿ÑĢÐ¸Ð½ÑıÑĤ": 3419,
      "ru": 3420,
      "ÑĨÑĥ": 3421,
      "ĠÑĦÐ»Ð¾ÑĤ": 3422,
      "Ð¸Ð»Ð»": 3423,
      "ĠÐ²Ð´": 3424,
      "ĠÐ¾Ð¿ÑĢÐµÐ´ÐµÐ»Ñı": 3425,
      "Ġa": 3426,
      "Ð¸Ð½Ð´": 3427,
      "Ð¸ÑĩÑĤÐ¾Ð¶": 3428,
      "ĠÐ»Ð¸ÑĤÐµÑĢÐ°ÑĤÑĥÑĢ": 3429,
      "ĠÑĢÐµÑĪÐµÐ½Ð¸Ðµ": 3430,
      "ĠÐ°ÑģÑĤ": 3431,
      "ÑģÑĤÐ¸ÑĤÑĥ": 3432,
      "th": 3433,
      "ĠÑģÐ°Ð¼Ð¾": 3434,
      "Ð°ÑĥÑĢÐµ": 3435,
      "Ġ2018": 3436,
      "Ð³Ð´Ð°": 3437,
      "Ð¾ÑĤÑĢÐµÐ±": 3438,
      "ĠÐĽÐµÐ½Ð¸Ð½": 3439,
      "Ġde": 3440,
      "ĠÐĻ": 3441,
      "Â»;": 3442,
      "Ð¾Ð·Ð°": 3443,
      "ĠÐłÐµÑģÐ¿ÑĥÐ±Ð»Ð¸ÐºÐ¸": 3444,
      "ĠÐ¿ÐµÑĢÑģÐ¾Ð½Ð°": 3445,
      "ĠÑĢÐ°Ð±Ð¾ÑĤÑĥ": 3446,
      "ĠÐ¼Ð°ÑĢÑĪ": 3447,
      "ĠÐĳÐ°ÑĢ": 3448,
      "ĠÐºÑĥÐ»ÑĮ": 3449,
      "ĠÐ¿ÑĭÑĤ": 3450,
      "ÑĤÐ¾Ñĩ": 3451,
      "Ð¾Ð±ÑĢÐµÑĤ": 3452,
      "Ġ2020": 3453,
      "ĠÐºÑĥÐ¿": 3454,
      "ÑıÐ³": 3455,
      "ÐĵÐ¾ÑĢÐ¾Ð´": 3456,
      "ĠÐ´Ð¸ÑĢÐµÐº": 3457,
      "ĠÐ²ÐµÑģÑĮ": 3458,
      "ĠÑĢÐµÐº": 3459,
      "ĠÐ¿ÑĢÐ¸ÑģÑĥÑĤÑģÑĤÐ²": 3460,
      "ĠÐ°ÑģÑģ": 3461,
      "ÑĨÐ¸Ð¾Ð½Ð½ÑĭÑħ": 3462,
      "ĠÐ·Ð½Ð°ÑĩÐµÐ½Ð¸Ðµ": 3463,
      "ĠÐ½Ð¾Ñĩ": 3464,
      "ĠÑįÑĤÐ¸Ð¼": 3465,
      "ĠÐ¿ÑĢÐµÐ¿Ð¾Ð´": 3466,
      "ĠÑĢÐµÐ°Ðº": 3467,
      "ĠÐĺÐ²Ð°Ð½": 3468,
      "Ð¾ÑĢÐ°Ñħ": 3469,
      "ĠÐ¡Ð¾": 3470,
      "ÑĳÑģ": 3471,
      "ĠÐ¿Ð¾Ð»Ñı": 3472,
      "ĠÐ°ÐºÑĤÑĳÑĢ": 3473,
      "ÑĥÑĢÐ¸": 3474,
      "ÑĥÑİÑīÐ¸Ðµ": 3475,
      "ĠÑĢÐ°Ð·Ð¼ÐµÑĢ": 3476,
      "ĠÐ¿Ð¾Ð³Ð¸Ð±": 3477,
      "ÑĦÐ¾ÑĢÐ¼": 3478,
      "ĠÐ¼ÐµÐ»": 3479,
      "ĠÐ¾Ð±ÑĢÐ°Ð·Ð¾Ð²": 3480,
      "ĠÐŀÐ½Ð¸": 3481,
      "ĠÐ¿Ð¾ÑĢÐ°Ð¶": 3482,
      "ÐºÐ¾Ð¿": 3483,
      "ĠÐ´Ð¾Ð»Ð¶ÐµÐ½": 3484,
      "ÐµÐ½Ð½": 3485,
      "ĠÐ¿ÑĥÐ±Ð»": 3486,
      "ĠÐ³Ð¸Ð¿": 3487,
      "ĠÐ¿ÐµÑĢÐµÐ½": 3488,
      "ĠÑĥÑģÐ¿ÐµÑħ": 3489,
      "ĠÐľÐ°ÑĤ": 3490,
      "Ð¾Ð»Ñİ": 3491,
      "ÑĥÐºÑĤ": 3492,
      "ĠÐºÐ¾ÑĢÐ¾Ð»Ñı": 3493,
      "ĠÐļÑĥÑĢ": 3494,
      "ĠÐ²Ð¾Ð´Ñĭ": 3495,
      "ĠÐ²Ð°ÑĢÐ¸Ð°Ð½ÑĤ": 3496,
      "ĠÐ±ÐµÑģÐ¿": 3497,
      "ĠÐ¼Ñĭ": 3498,
      "ĠÐľÐµÐ´": 3499,
      "Ð¾ÑģÑı": 3500,
      "ĠÐ¼Ð°ÑĤÑĩ": 3501,
      "Ġ+": 3502,
      "Ð¸Ð»Ðµ": 3503,
      "ĠÐ¾Ð±Ð¾ÑĢ": 3504,
      "ĠÐ±Ð¸Ð±Ð»Ð¸Ð¾ÑĤ": 3505,
      "ÐµÑĤÐµÐ»ÑĮ": 3506,
      "ĠÑĢÐ°ÑģÐº": 3507,
      "Ġ1998": 3508,
      "ÐµÑĢÐ¸Ð¼": 3509,
      "Ð°Ð½ÑĤÐ°": 3510,
      "ĠÐ¿Ð¾ÑĤÐµÑĢ": 3511,
      "ÑĨÐ¾Ð³": 3512,
      "Ð°ÑĢÐ¸Ð¸": 3513,
      "ĠÑĤÑĢÐµÐ½": 3514,
      "ĠÐºÑĢÐµÑģÑĤ": 3515,
      "ĠÐĴÑĤÐ¾ÑĢ": 3516,
      "Ð»ÐµÑĩ": 3517,
      "ĠÐ´ÐµÐ¿ÑĥÑĤ": 3518,
      "ĠÐ¿Ð¾ÑĤÐ¾Ð¼": 3519,
      "ĠÑĢÐ°ÑģÐ¿Ð¾Ð»Ð°Ð³": 3520,
      "ÐµÐ½ÑĨÐ¸Ð¸": 3521,
      "Ð°ÐºÐ¾Ð½": 3522,
      "Ġ1970": 3523,
      "Ð¾ÑĢÐ¸": 3524,
      "ĠÐ½Ð°ÑĪ": 3525,
      "ÑİÑīÐµÐ¹": 3526,
      "ĠÐ°Ñį": 3527,
      "ĠÐŀÑģÐ½Ð¾Ð²": 3528,
      "ÐµÑĢÐ¾": 3529,
      "Ġv": 3530,
      "ĠÑĢÐ¾Ð»Ð¸": 3531,
      "ÑĨÐ¸ÑĢÐ¾Ð²": 3532,
      "ĠÐ¢ÑĥÑĢ": 3533,
      "ÑİÑīÐ°Ñı": 3534,
      "ĠÐ·ÐµÐ¼Ð»Ð¸": 3535,
      "ĠÐ¡Ð¾ÑİÐ·Ð°": 3536,
      "ĠÐ¸Ð¼ÐµÐ»": 3537,
      "ĠÐĲÐ½Ð´ÑĢÐµ": 3538,
      "ĠÑĢÑı": 3539,
      "Ð¿Ð¿": 3540,
      "189": 3541,
      "Ð»ÐµÐ½Ð¸Ñİ": 3542,
      "ÑĤÐ°Ð±": 3543,
      "ĠÑģÑħ": 3544,
      "ĠÐµÐ¿Ð¸ÑģÐºÐ¾Ð¿": 3545,
      "ĠÐ²ÑģÐµÐ¹": 3546,
      "ĠÐ´Ð»": 3547,
      "ĠÐ¾ÑģÐ¾Ð±ÐµÐ½Ð½Ð¾": 3548,
      "ĠÐ´Ð¾ÑģÑĤÐ°ÑĤÐ¾Ñĩ": 3549,
      "Ġ1995": 3550,
      "ÑħÐ°": 3551,
      "Ð¸Ð¼ÑĥÑīÐµÑģÑĤÐ²": 3552,
      "ĠÐ²Ð½Ð¸Ð¼": 3553,
      "ĠÑĢÐ°Ð½ÐµÐµ": 3554,
      "ĠÑģÐ°Ð¹ÑĤÐµ": 3555,
      "ĠÑĤÐ¸ÑĤ": 3556,
      "Ð¾ÑħÑĢÐ°Ð½": 3557,
      "ÑĦÐ°Ð²": 3558,
      "ĠÐ¿ÐµÑĢÐ²ÑĭÑħ": 3559,
      "Ð³Ð¸Ð¾Ð·": 3560,
      "ĠÐľÐ¸ÑħÐ°Ð¸Ð»": 3561,
      "Ġn": 3562,
      "ÑģÐ»ÑĥÐ¶": 3563,
      "Ġ1993": 3564,
      "Ð¸ÑıÐ¼Ð¸": 3565,
      "ĠÐĵÐ¾ÑĢ": 3566,
      "Ð¸ÐºÐ¾Ð¹": 3567,
      "ĠÐŀÑĤÐµÑĩ": 3568,
      "ĠÑĢÐµÐ¿": 3569,
      "Ġ1994": 3570,
      "Ð¾Ð»ÐµÑĤ": 3571,
      "Ð°ÑİÑīÐ¸Ð¹": 3572,
      "ÐŃÐº": 3573,
      "ĠÑĤÑĢÐ°Ð½ÑģÐ¿Ð¾ÑĢÑĤ": 3574,
      "ĠÐĿÐ¸ÐºÐ¾Ð»Ð°Ð¹": 3575,
      "ĠÐ§ÐµÑĢ": 3576,
      "Ð»ÐµÐºÑģÐµ": 3577,
      "ĠÐ¿ÑĢÐ¾Ð¸Ð·Ð²Ð¾Ð´ÑģÑĤÐ²Ð°": 3578,
      "ĠÐ»Ð¸Ð´": 3579,
      "ĠÐ²ÑĭÐ¿ÑĥÑī": 3580,
      "ĠÐ¾Ð±ÑĥÑĩ": 3581,
      "ĠÑĤÐ¾Ð¼Ñĥ": 3582,
      "ĠÐĶÐ¾Ð½": 3583,
      "ÑĳÐ·Ð´": 3584,
      "ĠÐ±ÑĢÐ¾Ð½": 3585,
      "ĠÐ²ÑħÐ¾Ð´Ð¸ÑĤ": 3586,
      "est": 3587,
      "ÐŀÑģÐ½Ð¾Ð²": 3588,
      "ĠÐ²Ð¸Ð´Ð¾Ð²": 3589,
      "ĠÐĴÐµÐ»Ð¸ÐºÐ¾Ð±ÑĢÐ¸ÑĤÐ°Ð½Ð¸Ð¸": 3590,
      "Ð¸ÑĤÐµÐ»ÑĮÐ½Ð¾Ð³Ð¾": 3591,
      "ĠÐ¾ÑĦ": 3592,
      "ÑĢÐ¸Ðº": 3593,
      "ĠÐ¿ÐµÑĢÐ²ÑĭÐ¼": 3594,
      "ĠÐ¸Ð½Ð¾ÑģÑĤÑĢÐ°Ð½": 3595,
      "35": 3596,
      "ĠÐºÐ¾Ð½ÑģÑĤÑĢÑĥÐº": 3597,
      "ĠÑĢÐµÐ¹": 3598,
      "ÑĨÐ¸Ð¾Ð½Ð½Ð¾Ð¹": 3599,
      "ÐĳÐ¸Ð¾Ð³ÑĢÐ°ÑĦÐ¸Ñı": 3600,
      "ĠÐĲÐ¼ÐµÑĢ": 3601,
      "ĠÐºÐ»Ð°Ð´": 3602,
      "ĠÐ¼Ð°Ð½": 3603,
      "ĠÑĢÐ°Ðº": 3604,
      "ĠÐ¼Ð¾ÑģÑĤ": 3605,
      "Ð¸Ð±Ð¸ÑĢ": 3606,
      "ĠÐ½ÐµÐ¸Ð·": 3607,
      "ĠÑĥÐ½Ð¸ÑĩÑĤÐ¾Ð¶": 3608,
      "ĠÐ½Ð¾Ð²ÑĭÐ¹": 3609,
      "ĠÐ´Ð¾Ð¼Ð°": 3610,
      "Ġ)": 3611,
      "Ð¸Ð»ÐµÑĤ": 3612,
      "ÑĢÐ°Ð´": 3613,
      "Ġ2019": 3614,
      "ĠÐºÑĢÑĥÐ¿Ð½ÐµÐ¹": 3615,
      "ĠÑĤÐµÐ¾ÑĢÐ¸Ð¸": 3616,
      "ÑĢÐ¸ÑĨ": 3617,
      "ÑİÑģ": 3618,
      "ÑīÐ¸Ðº": 3619,
      "Ð¿ÑĢÐ¸Ð¼ÐµÑĢ": 3620,
      "Ð°Ð½ÑģÐ¾Ð²": 3621,
      "ub": 3622,
      "ÑĥÑı": 3623,
      "ĠÑĢÐ°Ð·Ð²Ð¸ÑĤÐ¸Ðµ": 3624,
      "Ð¾ÑģÑĤÑĮÑİ": 3625,
      "ĠÐļÐ°": 3626,
      "ÑĦÐ¾ÑĢÐ¼Ð¸ÑĢÐ¾Ð²": 3627,
      "ĠÐŁÑĢÐµÐ·Ð¸Ð´": 3628,
      "ĠÐ´Ð°Ð½Ð½ÑĭÑħ": 3629,
      "Ġ1996": 3630,
      "ĠÐ½Ð°Ð·Ð²Ð°Ð½Ð¸ÐµÐ¼": 3631,
      "Ð°Ð»Ð¾Ð¼": 3632,
      "ĠIV": 3633,
      "ĠÐºÐ¾Ð¼Ð¿Ð»ÐµÐºÑģ": 3634,
      "Ð²ÐµÑĢÐ´": 3635,
      "ĠÐ¿Ð¾Ð²ÑĭÑĪ": 3636,
      "Ð°Ð½ÑģÐºÐ¸Ð¹": 3637,
      "Ð°ÑıÑģÑĮ": 3638,
      "ÑĢÐµÐ³": 3639,
      "Ð¾ÑģÐºÐ¾Ð²": 3640,
      "ĠÐ¿Ð¾Ð»ÑĮÐ·Ð¾Ð²": 3641,
      "ĠÐĵÐµÐ¾ÑĢ": 3642,
      "Ð¸Ð²Ð°": 3643,
      "ĠÐ±Ð»Ð°Ð³Ð¾Ð´Ð°ÑĢÑı": 3644,
      "ĠÐ´ÐµÑıÑĤÐµÐ»ÑĮÐ½Ð¾ÑģÑĤÑĮ": 3645,
      "ĠÐ¿ÑĢÐ°Ð²Ð¾": 3646,
      "Ð´ÐµÐ½Ð°": 3647,
      "Ð¾ÑĤÐµ": 3648,
      "Ð²Ñĥ": 3649,
      "ĠÐ´Ð½Ñı": 3650,
      "ĠÐ¿Ð¾Ð·Ð¶Ðµ": 3651,
      "ĠÑģÐ¾ÑĩÐ¸Ð½": 3652,
      "ĠÐ¿Ð¾Ð»Ñĥ": 3653,
      "ÐĲÐŀ": 3654,
      "Ġ1997": 3655,
      "ĠÐ°Ð»ÑĦÐ°Ð²": 3656,
      "ĠÐ³Ð¸Ð´": 3657,
      "Ð°Ð¼ÑıÑĤÑĮ": 3658,
      "ĠÐ´Ð¾Ð»Ð»": 3659,
      "Ġ1960": 3660,
      "ĠÑĢÐ°Ð·Ð½ÑĭÑħ": 3661,
      "ĠÐĿÐ°ÑĨÐ¸Ð¾Ð½Ð°Ð»ÑĮ": 3662,
      "Ð±Ð¸ÑĤ": 3663,
      "ĠÐ·Ð½Ð°Ð¼": 3664,
      "ĠÐ³Ð¾ÑĤÐ¾Ð²": 3665,
      "ĠÐ¿ÑĢÐ¸ÐºÐ°Ð·": 3666,
      "ĠÐĲÐ¼": 3667,
      "ĠÐ¿Ð¾Ð´ÑĩÐ¸Ð½": 3668,
      "Ð°ÑģÐº": 3669,
      "Ð³Ð³": 3670,
      "ÑĥÑĢÑĥ": 3671,
      "Ð¾ÑĢÐ²": 3672,
      "Ð¸ÑĢÐ¾Ð²Ð°Ð»": 3673,
      "ÑĢÐ°ÑĦ": 3674,
      "ĠÑģÐ¾Ðº": 3675,
      "ĠÐ²Ð¾Ð·Ð¼Ð¾Ð¶Ð½Ð¾ÑģÑĤÑĮ": 3676,
      "Ð°Ð²ÑĪÐ¸Ñħ": 3677,
      "ĠÐ¿ÑĢÐ°ÐºÑĤÐ¸ÑĩÐµÑģÐºÐ¸": 3678,
      "ĠÐºÐ¾ÑĤÐ¾ÑĢÑĭÐ¼": 3679,
      "ĠÑĦÐ¸Ð»ÑĮÐ¼Ðµ": 3680,
      "Ð½Ð¾Ð²ÑĢÐµÐ¼ÐµÐ½Ð½Ð¾": 3681,
      "ĠÐ·Ð°Ð²Ð¸ÑģÐ¸Ð¼": 3682,
      "ÐµÐ´ÐµÐ½Ð¸Ñı": 3683,
      "ay": 3684,
      "ĠCh": 3685,
      "ĠÑħÑĥÐ´Ð¾Ð¶ÐµÑģÑĤÐ²ÐµÐ½": 3686,
      "ĠÐºÐ¾Ð¼Ð¸ÑģÑģ": 3687,
      "ĠÐ¼ÐµÐ´Ð¸ÑĨ": 3688,
      "ÑģÑĤÐ²Ð¾Ð²Ð°Ð»": 3689,
      "Ð¸ÑģÐ¿": 3690,
      "ĠÐ¿Ð¾ÑģÑĤÐ°Ð½Ð¾Ð²": 3691,
      "ĠÑĤÐ¾Ð²": 3692,
      "ĠÐ¿ÐµÑĢÐµÐ´Ð°Ñĩ": 3693,
      "ĠÑĢÐ°Ð·ÑĢÑĥÑĪ": 3694,
      "ĠÐ¼Ð°ÑģÑģÐ¾Ð²": 3695,
      "ÐµÐ¼ÑĭÑħ": 3696,
      "ĠÑĢÐ¾Ð´Ð°": 3697,
      "Ð¸Ð²Ð°ÑİÑĤ": 3698,
      "Ð¾ÑģÐ°": 3699,
      "Ġ().": 3700,
      "ĠÐĵÐ»Ð°Ð²": 3701,
      "ÐºÑĥÐ¿": 3702,
      "ĠÐ¿ÑĢÐ¸ÑĩÐ¸Ð½": 3703,
      "Ð·ÑĭÐ²Ð°ÐµÑĤ": 3704,
      "ĠÐ½Ð¾Ð²Ð¾Ð³Ð¾": 3705,
      "ĠÑĩÐ¸ÑģÐ»Ð°": 3706,
      "Ð¼Ð¼": 3707,
      "und": 3708,
      "Ġl": 3709,
      "ĠÑģÐ°Ð¼Ð¾Ð»ÑĳÑĤ": 3710,
      "ĠÐłÐ¾Ð¼": 3711,
      "ĠÐĴÐµÑĢÑħÐ¾Ð²": 3712,
      "ĠÐ°ÐºÐ°Ð´ÐµÐ¼Ð¸Ð¸": 3713,
      "ĠÑģÐ¾Ð³Ð»Ð°ÑģÐ½Ð¾": 3714,
      "70": 3715,
      "ĠÑĤÐ¾Ð»": 3716,
      "ĠÑĢÐµÐ»Ð¸Ð³Ð¸Ð¾Ð·": 3717,
      "ĠÐºÐ¾Ð½ÑĨÐ°": 3718,
      "Ġ1941": 3719,
      "ÑĨÐ¸ÐºÐ»": 3720,
      "ĠÐºÐ½Ð¸Ð³Ð¸": 3721,
      "Ð³Ð»Ð°ÑĪ": 3722,
      "ĠÑĩÐµÐ»Ð¾Ð²ÐµÑĩ": 3723,
      "ÐµÑĢÑģÐ¾Ð½": 3724,
      "ĠÑĥÑĩÐµÐ±": 3725,
      "ĠÐºÐ¾Ð¼Ð¿Ð°Ð½Ð¸Ñı": 3726,
      "ĠÐ´Ð¾ÑģÑĤÑĥÐ¿": 3727,
      "Ð¿Ð¾Ð»Ð°Ð³": 3728,
      "ĠÐ¸ÑĤÐ°Ð»ÑĮÑıÐ½": 3729,
      "ĠÑĢÐ¾ÑģÑĤ": 3730,
      "ĠÐ½ÐµÐ´Ð¾ÑģÑĤ": 3731,
      "ap": 3732,
      "ĠÐ¿Ð¾ÑħÐ¾Ð´": 3733,
      "ĠÑĦÑĥÑĤÐ±Ð¾Ð»": 3734,
      "ĠZ": 3735,
      "Ð¼ÐµÐ½ÑĮ": 3736,
      "Ð¸ÑĩÐ½Ð¾": 3737,
      "ĠÑģÐµÑĢÐ¸Ð¸": 3738,
      "Ð¾Ð²Ð°Ð½Ñĭ": 3739,
      "ĠÐ¸Ð½Ð¾Ð³Ð´Ð°": 3740,
      ".).": 3741,
      "ĠÑĥÐ´Ð°Ð»Ð¾ÑģÑĮ": 3742,
      "ĠÐ¿Ð»Ð¾": 3743,
      "ĠÐ¼Ð¾ÑĢÑı": 3744,
      "ĠÐ½Ð°Ð³ÑĢÐ°": 3745,
      "Ð°ÑĨÐ¸Ñı": 3746,
      "ĠÐ½Ð¾Ð²ÑĭÑħ": 3747,
      "Ð±ÐµÑĢÐ³": 3748,
      "ĠÐ¿ÑĢÐ¸ÑģÐ¾ÐµÐ´Ð¸Ð½": 3749,
      "Ð¤Ð¡Ðł": 3750,
      "ÐµÐ½ÑģÐºÐ¸Ð¹": 3751,
      "ĠÐ¿ÐµÑĢÐµÑĪ": 3752,
      "ÑģÐ¾Ð¼": 3753,
      "ĠÐ¿Ð¾Ð´ÑĤ": 3754,
      "ĠÑįÐ»ÐµÐºÑĤÑĢÐ¾Ð½": 3755,
      "ĠÐ²Ð¾Ð·Ð³Ð»Ð°Ð²": 3756,
      "ĠÑģÑĤÐ°Ð²": 3757,
      "ĠÐ²ÑģÐ¿": 3758,
      "ÑĢÐº": 3759,
      "ÐµÐ³Ð¾ÑģÑı": 3760,
      "Ð¸Ð½Ð¸": 3761,
      "Ð¸Ð»Ð¸Ð¹": 3762,
      "ĠÐ½Ð°ÑĩÐ°Ð»ÑĮ": 3763,
      "ĠÑģÐ¸Ð»Ñĭ": 3764,
      "ĠÐ¿Ð°Ð¿": 3765,
      "ĠÐ´Ð¾Ð±Ð°Ð²": 3766,
      "ĠÑĥÐ¼": 3767,
      "ĠÐ¸Ð¼Ð¿ÐµÑĢÐ°ÑĤÐ¾ÑĢ": 3768,
      "ĠÑĩÐµÑĤÑĭÑĢÐµ": 3769,
      "ĠÐ½ÐµÑĦ": 3770,
      "ĠÐ¿ÐµÐ²": 3771,
      "Ð°ÑĤÐ¸": 3772,
      "Ġ180": 3773,
      "ĠÐ°Ð¼": 3774,
      "Ð°Ð¹ÑĤ": 3775,
      "ÐĲÐ²": 3776,
      "ÑĥÐ·Ñĭ": 3777,
      "ĠÑĢÐ¾Ð¼Ð°Ð½": 3778,
      "ĠÐ¢ÐµÐ¼": 3779,
      "ĠÐ¾Ð±Ð²Ð¸Ð½": 3780,
      "ĠÑĥÐ±Ð¸Ð¹": 3781,
      "ĠÐ¾ÑĤÐ½Ð¾ÑĪÐµÐ½Ð¸Ñı": 3782,
      "Ġ1989": 3783,
      "Ð½Ð¸ÑĨÑĭ": 3784,
      "ĠÐ¦ÐµÐ½ÑĤÑĢÐ°Ð»ÑĮ": 3785,
      "ĠÐ¾Ð±ÑĬÑıÑģ": 3786,
      "ĠÑĩÑĥÐ²": 3787,
      "ÐµÐºÐ¾ÑĤÐ¾ÑĢ": 3788,
      "ÑĳÐ³": 3789,
      "ĠÐķÑģÐ»Ð¸": 3790,
      "ÐµÐ´Ð¸Ð¸": 3791,
      "ÐµÐ»ÐµÐ²": 3792,
      "Ð½Ð¸Ñİ": 3793,
      "Ð°ÐºÑĥ": 3794,
      "Ð°Ð¹Ð½": 3795,
      "ĠÑĨÐµÐ»ÑĮÑİ": 3796,
      "ĠÐ±ÐµÐ·Ð¾Ð¿Ð°Ñģ": 3797,
      "ĠÑģÐ°Ð¼ÑĭÐ¼": 3798,
      "ct": 3799,
      "ĠÐ½Ð°ÑĢÑĥÑĪ": 3800,
      "ĠÐĺÑĤÐ°Ð»Ð¸Ð¸": 3801,
      "ĠÐ¿ÑĢÐµÑģ": 3802,
      "ĠÐ¸ÑģÐºÑĥÑģÑģÑĤÐ²Ð°": 3803,
      "ĠÐ·Ð°Ð¼ÐµÐ½": 3804,
      "ĠÑī": 3805,
      "ĠÐ¶Ð¸ÑĤÐµÐ»ÐµÐ¹": 3806,
      "ĠÐłÐ¤": 3807,
      "ÐĻ": 3808,
      "Ð³Ð¾Ð²Ð¾ÑĢ": 3809,
      "ĠÐ±Ð»Ð°Ð³": 3810,
      "Ð²ÐµÑĢÐ¶": 3811,
      "ĠÐ´Ð¸Ð½": 3812,
      "ĠÐ¼Ð¸ÑĦ": 3813,
      "ĠÑĢÐ°Ð·ÑĢÐµÑĪ": 3814,
      "ĠÑģÐµÐ¼ÐµÐ¹": 3815,
      "ud": 3816,
      "ĠÐ½Ð°ÑĩÐ°Ð»Ð¾": 3817,
      "ĠÐ¿Ð¾Ð¼ÐµÑī": 3818,
      "ĠÑĦÐµÐ´ÐµÑĢÐ°": 3819,
      "ĠÐ³ÑĢÑĥÐ·": 3820,
      "Ð¾ÑģÑĢÐµÐ´": 3821,
      "ĠÐ²Ð¾Ð·Ð´ÑĥÑħ": 3822,
      "ĠÐ¶ÐµÐ»ÐµÐ·Ð½Ð¾Ð´Ð¾ÑĢÐ¾Ð¶": 3823,
      "ĠÐ»Ð°ÑĤ": 3824,
      "ĠÐłÐ¡Ð¤Ð¡Ðł": 3825,
      "Ð¾Ð¿ÑĢÐ¸": 3826,
      "ÐºÐ°ÑĤÐµÑĢ": 3827,
      "ĠÐ¿ÑĢÐ¾Ðº": 3828,
      "ĠÑģÑĤÐ°Ð½Ð¾Ð²Ð¸ÑĤÑģÑı": 3829,
      "ĠÐ°ÑĢÑħÐ¸ÑĤÐµÐºÑĤ": 3830,
      "ĠÐ¡ÐŁ": 3831,
      "ĠÐ´Ð¾Ð³Ð¾Ð²Ð¾ÑĢ": 3832,
      "Ð¿Ð¾Ð·": 3833,
      "ĠÐºÐ»ÐµÑĤ": 3834,
      "Ð½Ð¸Ð¶": 3835,
      "ÑĢÐ¸Ð¿": 3836,
      "Ð°Ð½Ð´Ð¸Ð´": 3837,
      "ĠÐľÐ¾ÑģÐºÐ²Ñĭ": 3838,
      "ĠÐ²Ð»Ð°ÑģÑĤÑĮ": 3839,
      "ĠÑĤÐ²Ð¾ÑĢÑĩ": 3840,
      "Ð¸Ð²Ð°ÑĤÑĮ": 3841,
      "ĠÑĤÐ°ÐºÐ¸Ð¼": 3842,
      "ÑĳÐ½Ð½Ð°Ñı": 3843,
      "ÐµÑģÑĤÐ²Ð¾Ð¼": 3844,
      "ĠÑħÑĢÐ°Ð½": 3845,
      "Ð»Ð°Ð¼ÐµÐ½ÑĤ": 3846,
      "ab": 3847,
      "ÐºÐ¸Ð½Ð°": 3848,
      "ĠÑģÐ¼Ð¾Ð³": 3849,
      "Ð¼ÑıÐ½": 3850,
      "ĠÐ¾ÑĤÐ»Ð¸ÑĩÐ¸Ðµ": 3851,
      "ĠÐ¾Ð·Ð½Ð°Ñĩ": 3852,
      "ĠÑıÐ¿Ð¾Ð½": 3853,
      "Ġ60": 3854,
      "Ð¶Ð´Ñĭ": 3855,
      "ĠÑģÑĤÐ°ÑĤÑĥÑģ": 3856,
      "ĠÐ´ÑĢÑĥÐ³Ð¸Ð¼Ð¸": 3857,
      "ĠÑĢÐ°Ð¼ÐºÐ°Ñħ": 3858,
      "Ð°Ð²ÐºÐ°Ð·": 3859,
      "34": 3860,
      "ĠÑĩÑĳÑĢ": 3861,
      "ÑĨÐµÐ½ÑĤ": 3862,
      "Ð½Ð°Ð¿ÑĢÐ¸Ð¼ÐµÑĢ": 3863,
      "ĠÑĢÐ°ÑģÑģÐºÐ°Ð·": 3864,
      "ĠÐľÐ¾ÑģÐºÐ²Ð°": 3865,
      "ĠÐ¿ÑĢÐµÐ´Ð¾ÑģÑĤÐ°Ð²": 3866,
      "ÑģÑĤÐ²Ð¸Ðµ": 3867,
      "ÑĥÐ¹": 3868,
      "ĠÐ¿ÑĢÐµÐ´ÐµÐ»": 3869,
      "ĠÐĴÐ¾ÑģÑĤÐ¾Ñĩ": 3870,
      "ĠÐºÑĤÐ¾": 3871,
      "ĠÐĳÐ°Ð»": 3872,
      "ĠÐ´Ð°ÑĤ": 3873,
      "ĠÐ²ÑģÐµÐ³Ð´Ð°": 3874,
      "ew": 3875,
      "Ð·Ð²ÐµÑģÑĤ": 3876,
      "ĠÐĲÐ½ÑĤ": 3877,
      "ĠÑģÑĤÐ°Ð½Ð´Ð°ÑĢÑĤ": 3878,
      "ÑĥÐ»ÑģÑı": 3879,
      "ĠÐ¸ÑģÐ¿ÑĭÑĤ": 3880,
      "ĠÐ²ÑĭÐ´ÐµÐ»": 3881,
      "ÑıÑģÑĮ": 3882,
      "ĠÐĵÑĢÐ¸Ð³": 3883,
      "ĠÐ¸Ð·Ð±ÑĢÐ°Ð½": 3884,
      "ĠÐ¿ÑĢÐ¾Ð³": 3885,
      "ĠÐ²ÐµÑĢÐ¾ÑıÑĤ": 3886,
      "ĠÐŁÐ¾Ð»ÑĮÑĪ": 3887,
      "ĠÐ¿ÑĢÐ¾Ð³ÑĢÐ°Ð¼Ð¼": 3888,
      "ĠÐºÐ¾Ð´": 3889,
      "ĠÑĢÐµÐ¶Ð¸ÑģÑģÑĳÑĢ": 3890,
      "ĠÑĦÐ°ÐºÑĥÐ»ÑĮÑĤ": 3891,
      "ĠÐ³Ð°": 3892,
      "ĠÐºÐ½ÑıÐ¶": 3893,
      "ĠÐ¾Ð±ÑīÐµÐ³Ð¾": 3894,
      "ĠÐ¿ÑĢÐ°Ð·Ð´": 3895,
      "ĠÑģÑĢÐ°Ð¶": 3896,
      "ÑĤÐµÑĢÐ½": 3897,
      "ÐµÑģÐ°": 3898,
      "ĠÐ¡ÐµÑĢÐ³ÐµÐ¹": 3899,
      "ÐŀÐ´": 3900,
      "Ð¸ÑĢÐ¾Ð²Ð°Ð½Ð¸Ðµ": 3901,
      "ĠÑģÑĤÐ°Ð´": 3902,
      "ĠÐ¿Ð¾Ð½Ð¸Ð¼": 3903,
      "Ð¢Ð°Ðº": 3904,
      "ĠÐĿÑĮÑİ": 3905,
      "ĠÐ¿ÑĥÑĤÐ¸": 3906,
      "ĠÐ¿ÑĢÐµÐ´ÑģÑĤÐ°Ð²Ð»ÑıÐµÑĤ": 3907,
      "ÑĢÑĥÑģ": 3908,
      "ĠÐ¿ÑĢÐ°Ð²Ð¸Ð»Ð¾": 3909,
      "ĠÐ´Ð¾Ð»Ð¶Ð½Ñĭ": 3910,
      "ĠÐ¿ÑĢÐ¾Ð¸ÑģÑħÐ¾Ð´": 3911,
      "90": 3912,
      "ĠÐ¤ÑĳÐ´": 3913,
      "ĠÐ°Ð½Ð°Ð»Ð¾Ð³": 3914,
      "ÑĳÐ¶": 3915,
      "ĠÐ¡Ð°": 3916,
      "ĠÐŀÑģÑĤ": 3917,
      "ĠÑĩÐµÑĤÑĭÑĢÑĳÑħ": 3918,
      "ĠÐ¿Ð°": 3919,
      "Ð¾Ð²ÑĭÐ¼": 3920,
      "ĠÐ»ÐµÐ²": 3921,
      "Ð²ÐµÐºÐ°": 3922,
      "ord": 3923,
      "ĠÐĵÐµÐ¾ÑĢÐ³": 3924,
      "ĠÐ¿Ð»Ð¾ÑĤ": 3925,
      "ÑĢÑĥÐ³Ð¸Ðµ": 3926,
      "ĠXVIII": 3927,
      "ĠÑģÐ²ÑıÑī": 3928,
      "36": 3929,
      "ĠÐ¿ÑĢÐ¾ÑĤÑıÐ¶": 3930,
      "ĠÑģÑĥÐ¿": 3931,
      "ĠÐ¿ÑĢÐµÐ¸Ð¼ÑĥÑīÐµÑģÑĤÐ²": 3932,
      "ĠÐ½Ð°Ð½": 3933,
      "ĠÐ¾ÑĢÐ´ÐµÐ½": 3934,
      "ĠÐŀÐŀ": 3935,
      "ÑĥÑİÑīÐ¸Ð¹": 3936,
      "ĠÐ½Ð°Ð·Ð²Ð°Ð½Ð¸Ñı": 3937,
      "ĠÑıÐ·ÑĭÐºÐ¾Ð²": 3938,
      "ĠÐ¼Ð¾ÑĤ": 3939,
      "ÑĥÐ»ÑĮÐ¿": 3940,
      "ĠÐ½ÐµÑĳ": 3941,
      "ĠÐŀÐ½Ð°": 3942,
      "Ð±ÐµÑĢ": 3943,
      "Ð°Ð³Ð¾Ð³": 3944,
      "ĠÐ¿ÐµÑģÐ½Ð¸": 3945,
      "ĠÐ¶Ð¸Ð»": 3946,
      "ÑĨÐ¸Ð¾Ð½Ð½ÑĭÐ¹": 3947,
      "ĠÐĴÐµÐ»Ð¸ÐºÐ¾Ð¹": 3948,
      "ĠÐ²Ð¿Ð¾ÑģÐ»ÐµÐ´ÑģÑĤÐ²Ð¸Ð¸": 3949,
      "ĠÐºÐ¾Ð¿": 3950,
      "ÐµÐ½Ð½ÑĥÑİ": 3951,
      "ĠÐ·Ð°ÑīÐ¸ÑĤ": 3952,
      "Ð°ÑģÑģÐ°Ð¶": 3953,
      "ÑıÐ±ÑĢÑĮ": 3954,
      "ĠÑĤÑĥÑĢÐ½Ð¸": 3955,
      "ĠÐ¾ÑģÑĤÑĢÐ¾Ð²Ð°": 3956,
      "ÑĢÐ°Ð·Ñĥ": 3957,
      "Ð¸Ð²Ð°Ð½Ð¸Ñı": 3958,
      "ĠÐ¿ÐµÑĢÐ²ÑĭÐµ": 3959,
      "Ð¸Ð°ÑĤ": 3960,
      "ĠÐ¾ÐºÑĢÑĥÐ³Ð°": 3961,
      "ĠÐŁÐµÑĤÑĢÐ¾Ð²": 3962,
      "ĠÐ²ÑĭÑĪÐµ": 3963,
      "ĠÐ¿Ð¾Ð¼Ð¾ÑīÐ¸": 3964,
      "ĠÐĴÐ¸Ð»ÑĮ": 3965,
      "ĠÐĲÐ»ÐµÐºÑģÐµ": 3966,
      "ĠÐ·Ð°Ð³": 3967,
      "ÐłÑĥÑģ": 3968,
      "ĠÐ¾ÑĩÐµÑĢÐµÐ´ÑĮ": 3969,
      "Ð°Ð½ÑģÐºÐ¾Ð¹": 3970,
      "ĠÐ·Ð°ÑħÐ²Ð°ÑĤ": 3971,
      "ĠÐ¿ÑĢÐ¸Ð´": 3972,
      "ĠÐ´Ð²ÑĥÐ¼": 3973,
      "Ð°ÑĢÐ´Ð°": 3974,
      "ĠÑģÐµÐ²ÐµÑĢÐ¾": 3975,
      "Ð¾ÑģÑĤÑĢÐ¾": 3976,
      "Ð»Ð¸Ð±Ð¾": 3977,
      "ĠÑĥÑģÐ¿ÐµÑĪ": 3978,
      "ĠÐ¿ÑĢÐµÐ¾Ð±ÑĢÐ°Ð·": 3979,
      "ÐµÐ²ÑģÐºÐ¸Ð¹": 3980,
      "37": 3981,
      "ĠÐ½Ð°Ð»Ð¸Ñĩ": 3982,
      "ÐµÐ´Ð¸Ð½Ðµ": 3983,
      "ĠÑĤÐµÐ°ÑĤÑĢÐ°": 3984,
      "ÑĨÐ¸ÐºÐ»Ð¾Ð¿": 3985,
      "ĠÐ¾Ð¿Ð°Ñģ": 3986,
      "Ð°Ð¼Ð°": 3987,
      "Ð¾Ð·Ñĭ": 3988,
      "ĠÐºÐ½Ð¸Ð³": 3989,
      "ĠÑĪÐ°Ñħ": 3990,
      "ĠÐ¦ÐµÑĢ": 3991,
      "ĠÐ¾ÑģÐ²Ð¾Ð±": 3992,
      "Ð°Ð½Ð½Ð¾Ð³Ð¾": 3993,
      "ĠÑĢÐ°Ð±Ð¾ÑĤÐ°Ð»": 3994,
      "ĠÐ·Ð¸Ð¼": 3995,
      "Ð»ÑıÑĤÑĮ": 3996,
      "ĠÑģÐ¸ÑĤÑĥ": 3997,
      "ĠÐ±Ñİ": 3998,
      "ĠÐ¶Ð°Ð½": 3999,
      "Ð°Ð½ÑģÐºÐ¾Ð³Ð¾": 4000,
      "ÑģÑĤÑĮÑıÐ½": 4001,
      "ĠÐ¡Ð¼": 4002,
      "ĠÐļÑĢÑĭ": 4003,
      "ÑĪÐ¸": 4004,
      "ÑįÐ¼": 4005,
      "ĠÐ²Ð¸Ð·": 4006,
      "ĠÑģÑĥÑīÐµÑģÑĤÐ²ÑĥÐµÑĤ": 4007,
      "ÑĥÐ½Ð°": 4008,
      "av": 4009,
      "Ð½ÑĥÐ¶Ð´": 4010,
      "ĠÑĦÐ¾ÑĢÐ¼Ñĭ": 4011,
      "ĠÐľÐµÐ¶Ð´ÑĥÐ½Ð°ÑĢÐ¾Ð´": 4012,
      "ĠÐ¼Ð½Ð¾Ð¶ÐµÑģÑĤÐ²Ð¾": 4013,
      "ÑıÐ»Ð¸": 4014,
      "ĠÑĦÐ¾ÑĢÐ¼Ð¸ÑĢÐ¾Ð²": 4015,
      "ĠÑģÑĢÐµÐ´ÑģÑĤÐ²": 4016,
      "ĠÐĲÐ»ÐµÐºÑģÐ°Ð½Ð´ÑĢÐ¾Ð²": 4017,
      "ĠÐ³Ð»Ð°Ð²Ðµ": 4018,
      "ĠÐ¾ÑĢÐ³Ð°Ð½Ð¸Ð·Ð°": 4019,
      "ĠÐ¼ÑĥÐ·ÐµÐ¹": 4020,
      "ÐµÐ´Ð°Ð³Ð¾Ð³": 4021,
      "ĠÑįÑĤÐ¾Ð¼Ñĥ": 4022,
      "ĠÑĢÑĭÐ½": 4023,
      "ĠÑģÐ¾ÑģÑĤÐ¾Ð¸ÑĤ": 4024,
      "ĠÑĦÐ¸Ð³": 4025,
      "ĠÑģÑĤÑĢÐ°Ð½Ðµ": 4026,
      "ĠÑģÐ¾Ð¾ÑĢÑĥÐ¶": 4027,
      "ĠÑĩÐ¸ÑģÐ»ÐµÐ½": 4028,
      "ĠÐķÐºÐ°ÑĤÐµÑĢ": 4029,
      "Ð²Ð¾Ð¹": 4030,
      "ĠÐĳÐ¾ÑĢÐ¸Ñģ": 4031,
      "ÑģÑĤÑĢÐ°": 4032,
      "ĠÐ²ÐºÐ»ÑİÑĩÐ°Ñı": 4033,
      "ĠÐ¼Ð°ÑĪÐ¸Ð½": 4034,
      "ĠÐĽÐµÐ¾Ð½": 4035,
      "ÐµÑģÐ¼Ð¾ÑĤÑĢÑı": 4036,
      "Ġ2021": 4037,
      "ĠÑĪÐºÐ¾Ð»Ð°": 4038,
      "ĠÐ³ÐµÑĢÑĨÐ¾Ð³": 4039,
      "ĠÐ»Ð¸": 4040,
      "ÐµÑĢÐ¼": 4041,
      "ĠÐ¿ÐµÑĢÐµÐ³": 4042,
      "Ð¾Ð½Ð¾Ñģ": 4043,
      "31": 4044,
      "ĠÐļÐŁ": 4045,
      "Ð²ÐµÑĤÐ°": 4046,
      "ÑĭÐ¿ÑĥÑģÐº": 4047,
      "ÑĭÐ²Ð°ÐµÑĤÑģÑı": 4048,
      "ÑĢÐ¾Ð¸Ð·Ð²Ð¾Ð´": 4049,
      "ÑĥÐ¼Ð°Ð½": 4050,
      "ine": 4051,
      "Ð°ÑİÑīÐ¸Ðµ": 4052,
      "Ð½ÑİÑİ": 4053,
      "ĠÐŀÐ»Ð¸Ð¼Ð¿": 4054,
      "ĠÐ³Ð¾ÑĢÐ¾Ð´ÑģÐºÐ¾Ð³Ð¾": 4055,
      "ĠÑģÐ²Ð¸Ð´ÐµÑĤÐµÐ»ÑĮ": 4056,
      "ÑģÑĤÑĢÑĥÐ¼ÐµÐ½ÑĤ": 4057,
      "ĠÐ¿Ð¾ÑıÐ²Ð»Ñı": 4058,
      "Ð¾Ð²Ð¾": 4059,
      "ill": 4060,
      "Ð¾ÑĤÐ»Ð°Ð½Ð´": 4061,
      "ÐºÐ¾Ðµ": 4062,
      "ĠÐ¸Ð½ÑĦ": 4063,
      "ĠÐĳÐ¾Ð»": 4064,
      "ĠÐ½Ð°ÑģÑĤÑĥÐ¿": 4065,
      "ge": 4066,
      "ĠÐ±Ð¾Ñı": 4067,
      "ĠÐ³Ð¾ÑĢÐ¾Ð´Ð¾Ð²": 4068,
      "ÑĢÐ¾Ð¶": 4069,
      "ĠÐºÐ°ÑĢÑĮ": 4070,
      "ÐµÐ¾Ð´": 4071,
      "ant": 4072,
      "ĠÐĵÐ¾Ð»": 4073,
      "ĠÑģÐ¾Ð·Ð´Ð°Ð½Ð¸Ñı": 4074,
      "qu": 4075,
      "ĠÐ¿ÑĢÐµÑģÑĤ": 4076,
      "38": 4077,
      "Ð¼Ð¸Ñİ": 4078,
      "ĠÐ¼ÐµÑģÑĤÐ°": 4079,
      "ĠÑģÑĢÐ¾Ðº": 4080,
      "Ð¾Ð½Ð¸Ð¸": 4081,
      "ĠÑģÐµÐºÑĢÐµÑĤ": 4082,
      "ĠÑģÐµÐ»Ð¾": 4083,
      "ĠÑĥÑĢÐ¾Ð²Ð½Ñı": 4084,
      "ĠÑĥÑģÐ¸Ð»": 4085,
      "ĠÐ°ÑĢÐµÑģÑĤ": 4086,
      "ĠÐ²ÐµÑĩ": 4087,
      "ĠÑģÐ²Ð¾ÑĳÐ¼": 4088,
      "Ð¾ÑĢÑĤÑĥ": 4089,
      ".),": 4090,
      "Ð°Ð»ÑĮÐ½Ð¾Ð¼": 4091,
      "Ð¾ÑģÐ½Ð¾Ð²": 4092,
      "ĠÐĴÐ°ÑģÐ¸Ð»ÑĮ": 4093,
      "ÐµÐºÐ¾ÑĤÐ¾ÑĢÑĭÐµ": 4094,
      "Ð¸Ð´Ñĭ": 4095,
      "ĠÐ¤Ð¸Ð»Ð¸": 4096,
      "Ġ2022": 4097,
      "ĠÐŀÐ±Ñī": 4098,
      "ĠÑģÐ¾Ð»Ð´": 4099,
      "Ð°Ð½Ð¾Ð¼": 4100,
      "ĠÐºÐ¾ÑĢÐ¾Ð»ÑĮ": 4101,
      "Ð¾ÑģÑĤÐ¾ÑıÑĤÐµÐ»ÑĮ": 4102,
      "ĠÐ½ÑĥÐ¶": 4103,
      "ĠÑĨÐµÑĢÐºÐ¾Ð²ÑĮ": 4104,
      "ĠÐ°ÐºÑĤÑĢÐ¸ÑģÐ°": 4105,
      "Ð¾ÑĨÐ¸": 4106,
      "ĠÐĴÑĭÑģ": 4107,
      "Ð³Ð½": 4108,
      "ÑĩÐ°Ñģ": 4109,
      "ÑĢÑĥÑĩ": 4110,
      "Ð·Ð°Ð¿Ð°Ð´": 4111,
      "ĠÑģÐ°Ð¼Ð¾Ð³Ð¾": 4112,
      "Ð¼Ð°ÑĢ": 4113,
      "ĠÐļÐ°ÑĤ": 4114,
      "Ġ|": 4115,
      "ĠÐºÐ°Ð±": 4116,
      "ĠÐĵÑĢÐµ": 4117,
      "Ð»Ð¾Ð³": 4118,
      "ĠÑĢÐ°Ð·Ð±": 4119,
      "ĠÐ¿Ð¸ÑģÐ°Ð»": 4120,
      "ÑĨÐ¸Ð¾Ð½Ð½ÑĭÐµ": 4121,
      "ĠÐĴÐ¸ÐºÑĤÐ¾ÑĢ": 4122,
      "ĠÐĲÐºÐ°Ð´ÐµÐ¼": 4123,
      "ĠÑĦÐ¾ÑĢÐ¼Ñĥ": 4124,
      "ĠÐ²ÑĭÑĪÐµÐ»": 4125,
      "Ð¸ÑĢÑĥÐµÑĤ": 4126,
      "ĠÐ¸ÑģÑģÐ»ÐµÐ´": 4127,
      "ĠÐ±Ð°Ð½": 4128,
      "ĠÐ³Ð¸Ð¼": 4129,
      "Ð²ÐµÐ½": 4130,
      "Ð½Ð¸Ð¸": 4131,
      "ÐĿÐ°ÑģÐµÐ»": 4132,
      "ĠÐºÐ»Ð°Ð´Ð±": 4133,
      "ĠÐ²ÑĭÐ²Ð¾Ð´": 4134,
      "ĠÐºÐ°ÑĤÐµÐ³Ð¾ÑĢ": 4135,
      "Ð·Ðµ": 4136,
      "Ð¾Ð¼Ð±": 4137,
      "ÑĢÑĥÑĤ": 4138,
      "ĠÐ·Ð°Ð¼ÐµÑĤ": 4139,
      "Ð¾Ð³Ð»Ð°ÑĪ": 4140,
      "ĠÐĵÐ°ÑĢ": 4141,
      "ĠÐ¿ÑĢÐ°Ð²Ð¸ÑĤÐµÐ»ÑĮÑģÑĤÐ²Ð°": 4142,
      "Ð¼ÐµÐ½ÑĮÑĪ": 4143,
      "ĠÑĥÑĩÐµÐ½": 4144,
      "Ð°ÑĢÑĤÐµ": 4145,
      "188": 4146,
      "ĠÑĢÐµÑĩ": 4147,
      "ĠÐ´Ð¸Ð½Ð°ÑģÑĤ": 4148,
      "ĠÐ¿Ð¾Ð»ÑĥÑĩÐ¸Ð»Ð°": 4149,
      "Ġ1930": 4150,
      "ĠÐ¼Ð°ÑģÑģ": 4151,
      "ĠÐ»ÑİÐ´Ð¸": 4152,
      "ĠÐ¾Ð±ÑĢÐ°Ð·Ð¾Ð²Ð°Ð½": 4153,
      "Ð¾Ð¿Ð¾Ð»ÑĮ": 4154,
      "ÑĳÐ½Ð½ÑĭÐ¼": 4155,
      "ĠÐ¼Ð½Ð¾Ð³Ð¾ÑĩÐ¸ÑģÐ»ÐµÐ½": 4156,
      "ĠÐ±Ð»Ð¾Ðº": 4157,
      "ÑĥÐ³Ð¾Ð»ÑĮ": 4158,
      "ĠÐ¡Ð¸Ð¼": 4159,
      "if": 4160,
      "ĠÑĤÐ°Ð¹": 4161,
      "Ð¸Ð½ÑģÐºÐ°Ñı": 4162,
      "ĠÐ¿ÑĢÐ¸Ð½ÑıÐ»": 4163,
      "ĠÐ¡Ð¾Ð³Ð»Ð°ÑģÐ½Ð¾": 4164,
      "ind": 4165,
      "Ð¸Ð³Ð½": 4166,
      "ĠÑĥÑģÐ»Ð¾Ð²Ð¸ÑıÑħ": 4167,
      "ÑĨÐ¸Ð¾Ð½Ð½Ð¾Ð³Ð¾": 4168,
      "ĠÐ¿ÑĢÐµÑģÑĤÑĥÐ¿": 4169,
      "75": 4170,
      "ĠÐ¿Ð¾ÑģÑĳÐ»Ð¾Ðº": 4171,
      "ĠÐļÐ¾Ð½ÑģÑĤÐ°Ð½ÑĤÐ¸Ð½": 4172,
      "Ð¾ÑĢÐ¾Ð¼": 4173,
      "ĠÑĢÐ°ÑģÑģÐ¼Ð°ÑĤÑĢÐ¸Ð²": 4174,
      "ĠÐµÑģÑĤ": 4175,
      "ĠÑģÑĥ": 4176,
      "ĠÑĥÐ´Ð°": 4177,
      "ÐµÐ½ÑĤÐ¾Ð¼": 4178,
      "Ð¾Ð´Ñĭ": 4179,
      "Ð¾Ð½Ñĥ": 4180,
      "ĠÑĥÐºÑĢÐµÐ¿": 4181,
      "ÐļÐ¾Ð½": 4182,
      "ĠÐ¿ÑĢÐ¸Ð¼ÐµÑĢÐ½Ð¾": 4183,
      "Ð¸ÑĤÐ°ÑĢ": 4184,
      "ĠÑĤÐ¾ÑĩÐºÐ¸": 4185,
      "ÑĢÐ°Ð½Ð°": 4186,
      "ÐµÐ»ÐµÐ½": 4187,
      "Â²": 4188,
      "ÐĶÐ¶": 4189,
      "Ð³Ð¾Ðµ": 4190,
      "ĠÐ¡Ð¾Ð±": 4191,
      "ĠÑĤÐ°ÐºÐ¾Ð¹": 4192,
      "ĠÐłÐ¾ÑģÑģÐ¸Ñı": 4193,
      "Ð¸ÑĤÐµÐ»ÑĮÐ½Ð¾Ðµ": 4194,
      "ĠÐŃÐ´": 4195,
      "Ġ31": 4196,
      "ĠÐ¼ÑĭÑģ": 4197,
      "Ġ179": 4198,
      "ĠĊĠ": 4199,
      "ĠÐŁÐ¾Ð¼": 4200,
      "Ð¿ÐµÑĢ": 4201,
      "ĠÐ½Ð¾Ð²ÑĭÐµ": 4202,
      "Ð¾Ð¿Ð¸Ñģ": 4203,
      "Ð¸Ð¿Ð»Ð¾Ð¼": 4204,
      "ĠÐ±Ð¾Ð»ÐµÐ·": 4205,
      "ÑıÑĤÐ¸Ð¹": 4206,
      "ĠÐµÐ¹": 4207,
      "ĠÑĩÐ°ÑģÑĤÑĮÑİ": 4208,
      "Ð½Ð¸ÐºÐµ": 4209,
      "ÑĤÐ¸Ð²": 4210,
      "ĠÑįÐºÑģÐ¿ÐµÑĢÐ¸Ð¼": 4211,
      "32": 4212,
      "ÑĥÐµÐ¼": 4213,
      "Ð»ÐµÐºÑĤÐ¸Ð²": 4214,
      "all": 4215,
      "ell": 4216,
      "ĠÐŀÑĢÐ´ÐµÐ½": 4217,
      "ĠÐ¿ÑĢÐ¾Ð´ÑĥÐºÑĤ": 4218,
      "45": 4219,
      "ĠÐĺÐ¾Ð°Ð½": 4220,
      "ĠÑĦÐ¸Ð½Ð°Ð½ÑģÐ¾Ð²": 4221,
      "ĠÐ¾Ð´Ð½Ð¾Ð¼": 4222,
      "ĠÐºÐ¾Ð½ÑĦÐ»Ð¸Ðº": 4223,
      "Ð°Ð·Ð²": 4224,
      "ĠÑįÑĤÑĥ": 4225,
      "Ð¾ÑĩÑĳÑĤ": 4226,
      "39": 4227,
      "ĠÑĨÐµÐ½ÑĤÑĢÐ°": 4228,
      "ÑĢÐµÑī": 4229,
      "ĠÐĽÐµÐ²": 4230,
      "ÑĢÑıÐ¶": 4231,
      "ĠÑĤÐ°Ð±": 4232,
      "ĠÐ´Ð¾Ð»Ð»Ð°ÑĢÐ¾Ð²": 4233,
      "ĠÐ´Ð¾ÑģÑĤÐ°ÑĤÐ¾ÑĩÐ½Ð¾": 4234,
      "ĠÐľÐ¸ÑħÐ°Ð¹Ð»Ð¾Ð²": 4235,
      "ĠÐ³Ð»Ð°Ð²Ð½ÑĭÐ¼": 4236,
      "Ð¸ÑĨÑĥ": 4237,
      "Ġ1988": 4238,
      "ĠÐºÐ°Ð½Ð´Ð¸Ð´": 4239,
      "ik": 4240,
      "ĠÑģÐµÑĢÐµÐ´Ð¸Ð½Ðµ": 4241,
      "ĠÐ¿ÑĤ": 4242,
      "ÐµÑģÑĤÐ¸Ð²": 4243,
      "ĠÐ²Ð¾Ð¹Ð½Ð°": 4244,
      "Ð°Ð½Ð°Ð²Ð»Ð¸Ð²": 4245,
      "ĠAn": 4246,
      "ĠÐ²Ð¾Ð¹Ð½Ðµ": 4247,
      "ĠÐ±Ð°ÑĢ": 4248,
      "ĠÐ¾Ð±ÑĢÐ°Ð·Ð¾Ð²Ð°Ð½Ð¸Ðµ": 4249,
      "ĠÑģÐ¿ÐµÐºÑĤ": 4250,
      "ÑĪÐ¸Ð±": 4251,
      "ÐµÐºÐ¸": 4252,
      "ĠÑĤÐµÐ»Ð°": 4253,
      "..": 4254,
      "ĠÑĥÐ¿Ð¾ÑĤÑĢÐµÐ±": 4255,
      "ĠÐ¼Ð¸Ð½ÑĥÑĤ": 4256,
      "ĠÑģÐ¼ÑĭÑģ": 4257,
      "ÐµÑĢÐ¸Ð¹": 4258,
      "ÐĶÐ»Ñı": 4259,
      "ÑĥÑģÐºÐ°": 4260,
      "ĠÐ²ÑĭÑģÑĤÐ°Ð²": 4261,
      "ĠÐºÐ¾Ð¼Ð°Ð½Ð´Ñĭ": 4262,
      "Ð¡Ð¾Ð²": 4263,
      "Ð°Ð´Ðµ": 4264,
      "Ġ1920": 4265,
      "ĠÐ²ÑģÑı": 4266,
      "ĠÑĢÑĥÑģÑģÐºÐ¾Ð¹": 4267,
      "ĠÐ³ÑĢÐµÑĩÐµÑģÐº": 4268,
      "Ð°Ð½ÑĤÑĭ": 4269,
      "ĠÐ¿ÐµÑĢÐµÑĩ": 4270,
      "ĠÐºÐ¾Ð½ÑĨÐµÑĢÑĤ": 4271,
      "ĠÑĢÐ°Ð·Ð´": 4272,
      "Ð°ÑĤÐµÐ»ÑĮÐ½ÑĭÑħ": 4273,
      "Ð°ÐµÐ²": 4274,
      "ĠÐºÑĢÐ¾Ð¼Ðµ": 4275,
      "ĠÐºÐ¸ÑģÐ»Ð¾ÑĤ": 4276,
      "ĠÐĴÐ¿": 4277,
      "ĠÐºÐ¸ÑĤÐ°Ð¹": 4278,
      "ĠÐĲÑĢÑħ": 4279,
      "ÑģÑĤÐ²ÐµÐ½Ð½ÑĭÑħ": 4280,
      "Ð¾ÑĨ": 4281,
      "ÑĥÑĢÐ³Ð°": 4282,
      "ĠÐ¾Ð¶": 4283,
      "ĠÐ¿ÑĢÐ¸Ð±Ñĭ": 4284,
      "ĠÐ¾ÑĤÐ½Ð¾ÑģÐ¸ÑĤÐµÐ»ÑĮÐ½Ð¾": 4285,
      "ĠÐ¸ÑģÐ¿Ð¾Ð»ÑĮÐ·Ð¾Ð²Ð°ÑĤÑĮ": 4286,
      "Ð¸ÑĤÐµÐ»ÑıÐ¼Ð¸": 4287,
      "ĠÐĶÐ¾Ð¼": 4288,
      "ÐµÐºÐ¾Ð¼": 4289,
      "ĠÐ¼ÐµÑĢ": 4290,
      "ĠÐ¿ÑĢÐµÐ´Ð¿Ð¾Ð»Ð°Ð³": 4291,
      "ĠÐ½Ð°Ð·Ð½Ð°ÑĩÐµÐ½": 4292,
      "ĠÐ¾ÑĤÐ½Ð¾ÑģÑıÑĤ": 4293,
      "ÐµÐ¶Ð¸ÑģÑģ": 4294,
      "ĠÑģÑĤÑĢÐµÐ¼": 4295,
      "ĠÐ³Ð¾ÑģÑĥÐ´Ð°ÑĢÑģÑĤÐ²ÐµÐ½Ð½ÑĭÐ¹": 4296,
      "ĠÑģÑĤÑĢÐ°Ð½Ð°Ñħ": 4297,
      "art": 4298,
      "ÑĪÑĥÑİ": 4299,
      "Ð°ÑĢÐ°Ð±": 4300,
      "Ġ(;": 4301,
      "ĠÐ¾Ð½Ð¾": 4302,
      "Ð¸ÐºÐ¾Ð¼": 4303,
      "ĠÐ²Ð¼ÐµÑģÑĤÐ¾": 4304,
      "ĠÐķÐ²ÑĢÐ¾Ð¿Ðµ": 4305,
      "ĠÐľÐ°Ð½": 4306,
      "ĠÑĩÐ°ÑģÐ¾Ð²": 4307,
      "ÐŃÐ¡": 4308,
      "ÑĤÑĢÐ¸": 4309,
      "ĠÐŀÑĤÐµÑĩÐµÑģÑĤÐ²ÐµÐ½Ð½Ð¾Ð¹": 4310,
      "ĠÑģÐ¼ÐµÐ½": 4311,
      "ÑĮÐµÐ²": 4312,
      "ÐµÑĢÐ°Ð»ÑĮ": 4313,
      "ĠÐ¼ÐµÑĩ": 4314,
      "ev": 4315,
      "ĠÐ¤Ð¸Ð½": 4316,
      "ĠÐ¾Ð±Ð¾ÑĢÑĥÐ´": 4317,
      "ĠÐ¸Ð½Ð¶ÐµÐ½": 4318,
      "ĠÑģÑĩÐ¸ÑĤÐ°ÐµÑĤÑģÑı": 4319,
      "ĠÐĴÑĤÐ¾ÑĢÐ¾Ð¹": 4320,
      "Ġ1918": 4321,
      "ĠÐºÐ¾Ð½ÐºÑĥÑĢ": 4322,
      "ĠÐ²Ð¾Ð·Ð¼Ð¾Ð¶Ð½Ð¾": 4323,
      "ĠÐ°Ð½Ð³Ð»Ð¸Ð¹": 4324,
      "ÑİÑīÐ¸Ð¼": 4325,
      "Ð´Ð°ÐµÑĤÑģÑı": 4326,
      "Ð°Ð¹Ð´Ð¶": 4327,
      "ĠÑģÐ»Ð¾Ð²Ð¾": 4328,
      "ÑĢÐ¾ÑĪ": 4329,
      "ĠÐ¿Ð¸Ñī": 4330,
      "ÐºÐ¸Ð¼Ð¸": 4331,
      "ÑĥÐ»Ñĭ": 4332,
      "ÑĤÐ°Ñħ": 4333,
      "ĠÐĶÑį": 4334,
      "ĠÐ½ÐµÐ¿Ð¾ÑģÑĢÐµÐ´": 4335,
      "ph": 4336,
      "Ð¾ÑģÐ¿Ð¾Ð´": 4337,
      "ĠÑĢÐ°ÑģÐ¿Ð¾Ð»Ð¾Ð¶ÐµÐ½": 4338,
      "ĠÐºÐ¾ÑĢÐ¾ÑĤ": 4339,
      "ÑıÑİÑĤ": 4340,
      "ÑĨÐ¸ÑģÑĤ": 4341,
      "our": 4342,
      "ĠÐłÐ°Ð´": 4343,
      "ĠÐļÐ¸ÐµÐ²": 4344,
      "eg": 4345,
      "Ð¾ÑģÑĤÐ¾ÐºÐµ": 4346,
      "ĠÑĦÑĥÐ½ÐºÑĨÐ¸Ð¸": 4347,
      "Ð¸Ð»Ð¸Ð¸": 4348,
      "ĠÐ°Ð»ÑĮÐ±Ð¾Ð¼Ð°": 4349,
      "Ð°Ð±ÑĢÐ¸": 4350,
      "ĠÐºÐ¾Ð½ÐµÑĩ": 4351,
      "Ð³Ð°ÑĢ": 4352,
      "ib": 4353,
      "ĠÐ¿Ð°ÑģÑģÐ°Ð¶": 4354,
      "ĠÐ´ÑĥÑĪ": 4355,
      "ak": 4356,
      "ĠÐ±Ð¾Ð»ÑĮÑĪÐ¸Ð½ÑģÑĤÐ²Ð¾": 4357,
      "ÑĢÐ¾Ð²Ð°": 4358,
      "ĠÐ¾Ð±ÑĬÑĳÐ¼": 4359,
      "ĠÐ¿Ð¾Ð·Ð²Ð¾Ð»ÑıÐµÑĤ": 4360,
      "ĠÐ¿Ð»Ð°ÑģÑĤ": 4361,
      "ĠÐ³ÐµÐ½": 4362,
      "Ð°Ð½ÑĤÐ°ÑģÑĤ": 4363,
      "ĠÐ²ÑĭÐ¸Ð³": 4364,
      "ĠÐ¼Ð¸ÑĤ": 4365,
      "Ð°Ð³ÑĢÐ°": 4366,
      "Ð¾ÑģÑĦ": 4367,
      "ĠÑģÑĭÐ½Ð°": 4368,
      "Ġ80": 4369,
      "ĠÑĥÐ´Ð°ÑĢ": 4370,
      "ĠÐ½Ñĭ": 4371,
      "ĠÐ±Ð°ÑĪ": 4372,
      "ÑĭÐ´": 4373,
      "ĠÐ¿ÑĢÐ¾ÑĦÐµÑģÑģÐ¸Ð¾Ð½": 4374,
      "Ð·Ð¸Ð¸": 4375,
      "ĠÐĺÐ»ÑĮ": 4376,
      "Ð¾ÑĤÑı": 4377,
      "ĠÑĥÐ¼ÐµÐ½ÑĮÑĪ": 4378,
      "ĠÑģÐ¾Ð·Ð²": 4379,
      "ĠÐĲÐ½Ð³Ð»Ð¸Ð¸": 4380,
      "ĠÐ´Ð¾ÐºÑĥÐ¼ÐµÐ½ÑĤ": 4381,
      "ÐµÐºÑĤÐ¾ÑĢ": 4382,
      "ĠÑĥÑģÑĤÐ°Ð½Ð¾Ð²Ð»ÐµÐ½": 4383,
      "ĠÐ²ÑĭÐ½ÑĥÐ¶Ð´": 4384,
      "ĠÐ°Ð·": 4385,
      "ĠÑģÐ°Ð¼Ð¾ÑģÑĤÐ¾ÑıÑĤÐµÐ»ÑĮ": 4386,
      "ĠÐ¾ÑĤÑĨÐ°": 4387,
      "ÐŁÐ¾Ð´": 4388,
      "Ð¾Ð·Ð½": 4389,
      "ĠÑİÐ³Ð¾": 4390,
      "ĠÑıÑĢ": 4391,
      "ou": 4392,
      "ĠÐ²Ð¸Ð½": 4393,
      "Ð¸Ð´Ð¾Ð²": 4394,
      "ÐµÑĩÐµÐ½Ð¸Ñı": 4395,
      "ĠÑģÑĦ": 4396,
      "ĠÐ¾ÑĤÑĢÐ°Ð¶": 4397,
      "Ð¿ÑĢÐµ": 4398,
      "ĠÑģÐ»ÑĥÑĩÐ°Ð¹": 4399,
      "Ð»ÐµÐ±": 4400,
      "Ð¾Ð±ÑĥÑģ": 4401,
      "ĠÑģÐ»ÐµÐ´ÑĥÐµÑĤ": 4402,
      "ÑĢÐ¾Ð½Ð¾Ð¼": 4403,
      "ĠÐ¿Ð°ÑĤ": 4404,
      "ĠÐ½Ð¾Ð²Ð¾Ð¹": 4405,
      "ĠÐ·Ð½Ð°ÑĩÐµÐ½Ð¸Ñı": 4406,
      "Ð°Ð²ÑĪÐ¸Ðµ": 4407,
      "ĠÐ¾Ð¿ÑĭÑĤ": 4408,
      "ĠÐ¿ÑĢÐ¾Ð³ÑĢÐ°Ð¼Ð¼Ñĭ": 4409,
      "Ð´Ð°ÐµÑĤ": 4410,
      "ĠÐ¿ÑĢÐ°Ð²Ð¸ÑĤÐµÐ»ÑĮÑģÑĤÐ²Ð¾": 4411,
      "ĠÑĨÐµÐ½": 4412,
      "Ð°Ð»ÑĮÐ½ÑĥÑİ": 4413,
      "ĠÐ¾Ð³ÑĢÐ¾Ð¼": 4414,
      "Ð°ÑİÑīÐµÐ¹": 4415,
      "ÐµÐ´Ð¸Ñı": 4416,
      "ĠÐĽÐ¾Ð½Ð´": 4417,
      "ĠÐľÐ¸Ð½Ð¸ÑģÑĤ": 4418,
      "ĠÐ¸Ð½ÑĦÐ¾ÑĢÐ¼Ð°ÑĨÐ¸Ð¸": 4419,
      "ÑĨÐµÐ¼": 4420,
      "ĠÑĩÐµÑĢ": 4421,
      "ÑıÑĤÑĮÑģÑı": 4422,
      "Ð¾Ð²ÐµÑĢ": 4423,
      "Ð¸ÑĢÐ°ÑĤ": 4424,
      "ÐµÐ»Ð»": 4425,
      "ĠÐ¿ÑĢÐ¾ÐµÐºÑĤÐ°": 4426,
      "Ð½ÐµÑĢ": 4427,
      "ÑĤÐ¸Ð¼": 4428,
      "Ð°ÑģÐ°": 4429,
      "ran": 4430,
      "ĠÐ¸Ð½ÑģÑĤÑĢÑĥÐ¼ÐµÐ½ÑĤ": 4431,
      "Ð°ÑĤÐ¾ÑĢÐ°": 4432,
      "ÐµÐ´Ð°": 4433,
      "ĠÑĤÑİ": 4434,
      "ÑĪÐ°": 4435,
      "ĠÐ¿ÑĢÐµÐ·Ð¸Ð´ÐµÐ½ÑĤÐ°": 4436,
      "ĠÐ¿ÑĢÐ¾Ð¸Ð·Ð²Ð¾Ð´ÑģÑĤÐ²Ð¾": 4437,
      "ĠÐºÐ²Ð°ÑĢÑĤ": 4438,
      "ÑĭÐ²Ð°ÑĤÑĮ": 4439,
      "ĠÐ´ÐµÑĢÐ¶": 4440,
      "ĠÐºÐ¾ÑĤÐ¾ÑĢÐ¾Ð¼Ñĥ": 4441,
      "Ð°Ð¼Ð¿": 4442,
      "ĠÐ¿ÐµÑĢÐ²ÑĥÑİ": 4443,
      "ĠÐ½Ð¸Ð¶": 4444,
      "ĠÐ¡Ð¸Ð½": 4445,
      "ĠÐ¸Ð³ÑĢ": 4446,
      "ĠÐŃÑĤÐ¾ÑĤ": 4447,
      "ĠÐ¡ÑĤÐ°ÑĢ": 4448,
      "ĠÐ¼ÐµÑĤÐ°Ð»Ð»": 4449,
      "ĠÐ½Ð°Ð·ÑĭÐ²Ð°ÐµÑĤÑģÑı": 4450,
      "Ġ35": 4451,
      "ĠÑĩÐ¸ÑģÑĤ": 4452,
      "ĠÐĵÐ¾ÑĢÐ¾Ð´": 4453,
      "Ð¾ÑĩÐ½ÑĭÑħ": 4454,
      "ĠÐ¾ÑĢÐ´ÐµÐ½Ð°": 4455,
      "ÐµÑĢÐ±Ð°Ð¹Ð´Ð¶": 4456,
      "ÑĬÑĳÐ¼": 4457,
      "ĠÑģÐµÑĢÐµÐ±": 4458,
      "ĠÐ´ÐµÑĢÐµÐ²Ð½Ñı": 4459,
      "ĠÐ³Ð»": 4460,
      "ĠÐķÐ³Ð¸Ð¿": 4461,
      "ĠÐĺÑģ": 4462,
      "ÑĥÑģÑĤÑı": 4463,
      "ĠÑĩÐ¸ÑĤ": 4464,
      "ĠÐºÑĢÐµÑģÑĤÑĮÑıÐ½": 4465,
      "76": 4466,
      "Ġw": 4467,
      "ĠÑĦÐ°Ð¼": 4468,
      "ĠÑĥÐ³Ð»": 4469,
      "ĠÑĤÑıÐ¶ÑĳÐ»": 4470,
      "ĠÑĨÐµÐ»Ð¾Ð¼": 4471,
      "ob": 4472,
      "ĠÐ²ÑģÑĤ": 4473,
      "ĠUn": 4474,
      "ĠÑģÐµÑĢÐ´": 4475,
      "ĠÐ¾ÑĦÐ¸ÑĨ": 4476,
      "33": 4477,
      "ĠÑĢÐ°ÑģÑģÐºÐ°": 4478,
      "Ð°ÑĨ": 4479,
      "ÐµÐµÐ²": 4480,
      "ĠÐ¿Ð»Ð¾ÑīÐ°Ð´Ð¸": 4481,
      "ĠÑģÐ¾Ð³Ð»Ð°ÑĪ": 4482,
      "ĠÑħÑĢÐ°Ð¼": 4483,
      "ĠÑģÑĬÑĳÐ¼": 4484,
      "ĠÐ·ÑĢÐµÐ½Ð¸Ñı": 4485,
      "ĠÐ²ÑģÐºÐ¾ÑĢÐµ": 4486,
      "ĠÑĨÐµÐ½ÑĤÑĢÐ¾Ð¼": 4487,
      "ĠÐ¸Ð·Ð¼ÐµÑĢ": 4488,
      "ĠÐ´Ð²ÑĥÐ¼Ñı": 4489,
      "ÐĲÐĿ": 4490,
      "48": 4491,
      "ĠÑģÑĤÑĢÐ¾Ð¸ÑĤÐµÐ»ÑĮÑģÑĤÐ²Ð¾": 4492,
      "ĠÑįÐºÑģÐ¿Ð»Ñĥ": 4493,
      "ĠÑģÐ°Ð¹ÑĤ": 4494,
      "ĠÐ´ÐµÐ½": 4495,
      "ĠÐ¾ÑĤÐ²": 4496,
      "ĠÐ´Ð¾ÑĢÐ¾Ð³Ð¸": 4497,
      "ÐºÐ²": 4498,
      "The": 4499,
      "ĠÐ¿Ð¾Ð»Ðµ": 4500,
      "ÑĩÐ¸Ñģ": 4501,
      "Ð¸ÑĤÐµÑĤÐ°": 4502,
      "ĠÐ¾Ð±Ð»Ð°Ð´Ð°": 4503,
      "ĠÑĢÐ°Ð±Ð¾ÑĤÐµ": 4504,
      "ĠÐĿÐ°Ð¿ÑĢÐ¸Ð¼ÐµÑĢ": 4505,
      "Â»:": 4506,
      "ĠÐ·Ð°Ð²Ð¸ÑģÐ¸Ð¼Ð¾ÑģÑĤÐ¸": 4507,
      "ĠÐºÐ°ÑĦ": 4508,
      "Ð¸ÑĢÑĥÐµÑĤÑģÑı": 4509,
      "ĠÐ·Ð½Ð°ÑĩÐ¸ÑĤÐµÐ»ÑĮÐ½Ð¾": 4510,
      "ĠÐ»Ð¾Ð³": 4511,
      "Ð¾ÐºÐ¾Ð»": 4512,
      "ĠÐºÐ¾Ð»Ð»ÐµÐºÑĤÐ¸Ð²": 4513,
      "ĪĴ": 4514,
      "Ð¾Ð¶Ðµ": 4515,
      "Ð²Ð°ÑĢÐµ": 4516,
      "Ġ1917": 4517,
      "ĠÑģÐ¼ÐµÑĢÑĤ": 4518,
      "Ġ1944": 4519,
      "ĠÐ¶ÑĥÑĢÐ½Ð°Ð»Ð¸ÑģÑĤ": 4520,
      "ĠÐ°ÑĤÐ¾Ð¼": 4521,
      "ĠÑĢÐ°Ð·Ð»Ð¸ÑĩÐ½ÑĭÐµ": 4522,
      "ĠÐºÐ°Ð»": 4523,
      "ÐµÐ½Ð¸ÑıÐ¼": 4524,
      "ĠÑĢÐ°ÑģÑĤÐ²": 4525,
      "ÐºÐ»": 4526,
      "ĠÐŁÑĢÐ¾": 4527,
      "ĠÐ°ÑĢÑĤÐ¸ÑģÑĤ": 4528,
      "ĠÐ¿ÑĢÐ°Ð²Ð»ÐµÐ½Ð¸Ñı": 4529,
      "ĠÐ¿Ð°Ð´": 4530,
      "Ġ1987": 4531,
      "ĠÐ¼Ð°ÑģÑĤÐµÑĢ": 4532,
      "ĠÐ´Ð¾ÑĩÑĮ": 4533,
      "ÐµÐ½Ð½Ð¾Ð¼": 4534,
      "ex": 4535,
      "Ġ70": 4536,
      "ĠÑģÑĤÐ°Ð½ÑĨÐ¸Ñı": 4537,
      "ĠÐļÐ¾Ð³Ð´Ð°": 4538,
      "ÐµÐ¼Ð°": 4539,
      "ĠÐ¾ÑĪÐ¸Ð±": 4540,
      "Ð¡Ð¡": 4541,
      "ĠÐ¢Ð°ÐºÐ¸Ð¼": 4542,
      "ĠÐµÐ²ÑĢÐµÐ¹": 4543,
      "ĠÐºÐ°ÑĤÐ°Ð»Ð¾Ð³": 4544,
      "Ġ1950": 4545,
      "ĠÑģÐ»Ð¾Ð²Ð°Ð¼": 4546,
      "ÐĻÐ¾ÑĢ": 4547,
      "ĠÐ¿Ð¸ÑĤ": 4548,
      "ĠÐ²ÑĢÐ°": 4549,
      "ĠÐ±ÑĭÑģÑĤÑĢÐ¾": 4550,
      "Ð¾Ð²ÑģÐºÐ¾Ð³Ð¾": 4551,
      "ĠÑģÐ¾Ð¿ÑĢÐ¾Ð²": 4552,
      "ian": 4553,
      "Ð°Ð½Ð½Ð¾Ðµ": 4554,
      "ok": 4555,
      "ĠÐ½Ð°Ð·ÑĭÐ²Ð°ÑİÑĤ": 4556,
      "ĠÐ¢ÐµÑĢ": 4557,
      "ĠÐ±Ð¾Ð³Ð°ÑĤ": 4558,
      "ĠÐ¿Ð¾Ð´ÑĢÐ°Ð·": 4559,
      "ĠÐķÐ²Ð³": 4560,
      "ĠÐ¿ÑĢÐ¸ÑĤ": 4561,
      "ĠÑĥÐ»Ð¸ÑĨÐ°": 4562,
      "ĠÑĤÐµÑħÐ½Ð¾Ð»Ð¾Ð³": 4563,
      "ĠÐ½Ð°ÑģÐµÐ»ÐµÐ½Ð¸Ðµ": 4564,
      "ĠÐ¸Ð¼Ð¿ÐµÑĢÐ°ÑĤÐ¾ÑĢÐ°": 4565,
      "ĠÑģÐ¸Ð»ÑĮÐ½Ð¾": 4566,
      "Ð»ÑĥÐ³Ð¸": 4567,
      "ĠÑĩÐ»ÐµÐ½Ð¾Ð²": 4568,
      "ĠÑģÑĢÐ°Ð·Ñĥ": 4569,
      "ĠÐ³ÐµÑĢÐ±": 4570,
      "64": 4571,
      "ĠÑĢÐµÐ²Ð¾Ð»ÑİÑĨÐ¸Ð¸": 4572,
      "ĠÐ¿ÑĥÑĤÐµÑĪ": 4573,
      "ĠÑģÐ¾Ð»Ð½": 4574,
      "ĠÑĢÑĥÐºÐ¾Ð²Ð¾Ð´ÑģÑĤÐ²Ð¾Ð¼": 4575,
      "ĠÐ¿ÐµÑĢÑģÐ¾Ð½Ð°Ð¶": 4576,
      "ĠÑģÐ¿ÑĢÐ°Ð²": 4577,
      "ĠÐ¼Ð¾Ð³Ð»Ð¸": 4578,
      "ÐĴÑĭÐ¿ÑĥÑģÐº": 4579,
      "ĠÑħÐ¾ÑĢÐ¾ÑĪÐ¾": 4580,
      "Ð¾ÑĢÑĦ": 4581,
      "ĠÐĲÑĤ": 4582,
      "ĠÐ¿Ð¾Ð²ÑĤÐ¾ÑĢ": 4583,
      "ĠÐ¶ÐµÑĢÑĤ": 4584,
      "Ð½Ð¾Ð¶": 4585,
      "Ð¸Ð½Ð¾Ð¼": 4586,
      "ĠÐ¸Ð·Ð³Ð¾ÑĤÐ¾Ð²": 4587,
      "ĠÐ¿Ð¾Ð¸ÑģÐº": 4588,
      "ĠÐ½Ð°ÑĥÐºÐ¸": 4589,
      "Ð½Ð°Ð·Ð½Ð°Ñĩ": 4590,
      "Ð°Ð½Ð¸ÐµÐ¹": 4591,
      "ĠÐ½ÐµÐ¼ÐµÑĨÐºÐ¸Ð¹": 4592,
      "Ð³ÐµÐ»ÑĮ": 4593,
      "ĠÐĴÐ°ÑĢ": 4594,
      "ĠÐ¿Ð¾Ð´ÑħÐ¾Ð´": 4595,
      "%,": 4596,
      "ĠÐ²ÐµÐ´ÑĥÑī": 4597,
      "ĠÐ¯Ð¿Ð¾Ð½Ð¸Ð¸": 4598,
      "ĠÑģÐ¾Ð²ÐµÑĤÐ°": 4599,
      "ĠÐŁÐ°Ð»": 4600,
      "ÐµÐ¾Ð»Ð¾Ð³": 4601,
      "Ð°Ð»Ð¸Ð·Ð°ÑĨÐ¸Ð¸": 4602,
      "ÑİÑīÐµÐ³Ð¾": 4603,
      "ĠÐ¿Ð¾ÑĤÐ¾Ð¼Ñĥ": 4604,
      "ĠÑĢÑĥÑģÑģÐºÐ¾Ð³Ð¾": 4605,
      "ÐŁÑĢÐµÐ´": 4606,
      "ĠÐĺÐ·ÑĢÐ°": 4607,
      "ĠÑħÑĥÐ´Ð¾Ð¶Ð½Ð¸Ðº": 4608,
      "ĠÐ¾Ð´Ð½Ð¾Ð²ÑĢÐµÐ¼ÐµÐ½Ð½Ð¾": 4609,
      "ĠÐ¿ÐµÑĢÐ²Ð°Ñı": 4610,
      "ÐµÑĢÐ°Ð¼Ð¸": 4611,
      "ÐºÐ¾Ð»ÑĮ": 4612,
      "ĠCom": 4613,
      "ĠÑģÐ¾Ð¾ÑĤÐ²ÐµÑĤÑģÑĤÐ²Ð¸Ð¸": 4614,
      "Ð½Ð°ÑĩÐ°Ð»Ð°": 4615,
      "ĠÐ³Ð¾ÑģÑĥÐ´Ð°ÑĢÑģÑĤÐ²": 4616,
      "ĠÑįÑĦÑĦÐµÐºÑĤÐ¸Ð²": 4617,
      "ÑĭÐ»": 4618,
      "ĠÐ¼Ð»": 4619,
      "Ð¾Ð¸": 4620,
      "ĠÐ»Ð¸ÑĤÐµÑĢÐ°ÑĤÑĥÑĢÑĭ": 4621,
      "ĠÐ¿Ð¾Ð»ÑĥÑĩÐ¸Ð»Ð¸": 4622,
      "ĠÐ·Ð½Ð°Ð¼ÐµÐ½Ð¸ÑĤ": 4623,
      "ĠÐ¿Ð°ÑĤÑĢÐ¸": 4624,
      "ĠÐ¿ÑĢÐ¾Ð´ÑĥÐº": 4625,
      "ĠÐ¿ÐµÐ´Ð°Ð³Ð¾Ð³": 4626,
      "ÐµÐ½Ð½ÑĭÐ¼Ð¸": 4627,
      "ÑĢÐ¾Ð¿Ð¾Ð»Ð¸ÑĤ": 4628,
      "ĠÐĲÑĦÑĢÐ¸": 4629,
      "ĠÑģÐ¾ÑĢ": 4630,
      "ĠÐ¼Ð»Ð°Ð´": 4631,
      "io": 4632,
      "ĠÐ¾Ð´Ð½": 4633,
      "ĠÑģÑĤÐµÐ½": 4634,
      "ĠÐ¼ÑĥÐ»ÑĮÑĤ": 4635,
      "ĠÑĥÑĩÐ¸Ð»Ð¸Ñī": 4636,
      "ĠXVII": 4637,
      "ĠÐ½Ð°Ð¿Ð¸ÑģÐ°Ð»": 4638,
      "ĠÐ½Ð¸ÐºÐ°Ðº": 4639,
      "ĠÐ²ÑĢÐ°Ñĩ": 4640,
      "ĠÐ¸Ð»": 4641,
      "ĠÑĢÐµÐ¶Ð¸Ð¼": 4642,
      "Ġ1945": 4643,
      "Ġ1986": 4644,
      "ĠÐºÐ»Ð°Ð´Ð±Ð¸ÑīÐµ": 4645,
      "ÑĨÐµÐ¿": 4646,
      "55": 4647,
      "Ð°Ð´Ð°ÐµÑĤ": 4648,
      "Ð°ÑĤÐµÐ»ÑĮÑģÑĤÐ²Ð¾": 4649,
      "ĠÐŃÑĢ": 4650,
      "ĠÐ³Ð¸Ð±": 4651,
      "Ð²ÐµÐº": 4652,
      "Ð°Ð»Ñĥ": 4653,
      "ĠÑĢÑĥÑģÑģÐºÐ¸Ñħ": 4654,
      "Ð¸Ð»Ð»ÐµÑĢ": 4655,
      "ĠÐĶÐ¾": 4656,
      "Ð¿ÐµÑĢÐ°ÑĤÐ¾ÑĢ": 4657,
      "ĠÐ°Ð¿Ð¿Ð°ÑĢÐ°ÑĤ": 4658,
      "ĠÐ¸Ð½Ð¸": 4659,
      "Ð¸Ð²ÑĪÐ¸ÐµÑģÑı": 4660,
      "ĠÐºÐ°ÑĤÐ¾Ð»": 4661,
      "Ð¾ÑİÐ·": 4662,
      "ĠÐ¿ÑĮ": 4663,
      "ĠÐ¿ÑĥÑģÑĤ": 4664,
      "Ð¸Ð¼Ð¾ÑģÑĤÐ¸": 4665,
      "ĠÐ¿ÐµÑģÐµÐ½": 4666,
      "ĠÐ´Ð¸Ð¿Ð»Ð¾Ð¼": 4667,
      "ĠÐ¿Ð¾Ð»Ð¾Ð¶ÐµÐ½Ð¸Ðµ": 4668,
      "ĠÑħÐ°ÑĢÐ°ÐºÑĤÐµÑĢÐ¸ÑģÑĤ": 4669,
      "ĠÑĦÐ¸Ð»ÑĮÐ¼Ñĭ": 4670,
      "ĠÐ·Ð°ÐºÐ¾Ð½Ñĩ": 4671,
      "ĠÑģÐµÑĢÑĮ": 4672,
      "Ð»Ð¾Ð´": 4673,
      "ĠÑģÐ½Ð¸Ð¶": 4674,
      "ĠÑĢÑıÐ´Ð°": 4675,
      "ĠÐ¿Ð¾Ð¼Ð¾Ð³": 4676,
      "ĠÑĦÑĢÐ°Ð½ÑĨÑĥÐ·ÑģÐºÐ¸Ð¹": 4677,
      "ĠÐ¼Ð°ÐºÑģÐ¸Ð¼": 4678,
      "ĠÐ¾ÑĤÐµÑĨ": 4679,
      "ĠÐ»Ð°Ð³": 4680,
      "ĠÑģÐµÐ¼ÑĮÐµ": 4681,
      "ÐµÑīÐµÐ½Ð¸Ñı": 4682,
      "ĠÐ¸ÑģÑħÐ¾Ð´": 4683,
      "ĠÐ¿ÐµÑĢÐµÑģÑĤ": 4684,
      "ĠÑģÑĤÐ¾": 4685,
      "ĠÐĽÑĮ": 4686,
      "Ð¸Ð¼Ð¾ÑģÑĤÑĮ": 4687,
      "ĠÐĺÐ²Ð°Ð½Ð¾Ð²Ð¸Ñĩ": 4688,
      "ĠÐ¿ÑĥÑĤÑĳÐ¼": 4689,
      "ĠÐ¾Ð²": 4690,
      "ĠÐ¿Ð¾Ð»Ð½Ð¾Ð¼": 4691,
      "ĠÐĹÐ´": 4692,
      "ÑģÐµÐ¼": 4693,
      "ĠÑģÐµÑģÑĤ": 4694,
      "Ð¸Ð³Ð¸": 4695,
      "ĠÐ¿ÑĢÐ¾ÑģÑĤÐ¾": 4696,
      "ĠÐĴÐ¸ÑĤ": 4697,
      "Ð°ÑĤÐ°Ð»ÑĮ": 4698,
      "ĠÐ¸ÑģÑĤÐ¾ÑĢÐ¸Ñı": 4699,
      "ĠÐ½Ð¸Ñĩ": 4700,
      "ĠÐ²Ð¾ÑģÐ¿ÑĢÐ¸": 4701,
      "ĠÐľÐ°ÑĢÑĤ": 4702,
      "ĠÑįÐºÐ·": 4703,
      "ĠÐ²ÑĤÐ¾ÑĢÐ¾Ð³Ð¾": 4704,
      "ĠÐ¼ÐµÑĤÐ°Ð»": 4705,
      "ĠÐ¿ÐµÑĩÐ°ÑĤ": 4706,
      "ĠÐ³ÑĥÐ±ÐµÑĢÐ½Ð¸Ð¸": 4707,
      "ÑĢÐ¾ÑĢ": 4708,
      "ĠÐ²Ð½Ð¸Ð¼Ð°Ð½Ð¸Ðµ": 4709,
      "ĠÑģÑĥÑīÐµÑģÑĤÐ²Ð¾Ð²": 4710,
      "ĠÑģÐ¸ÑģÑĤÐµÐ¼Ðµ": 4711,
      "ĠÑįÐºÑģÐ¿ÐµÐ´": 4712,
      "ĠÐ¿ÑĢÐµÐ´Ð¿Ð¾Ð»Ð¾Ð¶": 4713,
      "44": 4714,
      "ĠÐ»ÑĳÐ³": 4715,
      "ĠÑģÐ½Ð¾Ð²Ð°": 4716,
      "ĠÑģÐ¿Ð°Ñģ": 4717,
      "ĠÐ»ÐµÐº": 4718,
      "ÑģÐµÐ½": 4719,
      "ĠÐºÐ¾ÑģÑĤ": 4720,
      "ĠÐ¶Ð¸Ð²Ð¾ÑĤÐ½ÑĭÑħ": 4721,
      "ĠÐ³Ð¾Ð½": 4722,
      "Ġ978": 4723,
      "ĠÐ¿ÐµÑĢÐ¸Ð¾Ð´Ð°": 4724,
      "ĠÐ¿Ð¾Ð´Ð²ÐµÑĢÐ³": 4725,
      "ĠÐŀÑĦÐ¸ÑĨÐ¸Ð°Ð»ÑĮ": 4726,
      "ĠÑģÐ»ÑĥÑĩÐ°Ñı": 4727,
      "ĠXVI": 4728,
      "ÐµÐ»Ñĳ": 4729,
      "ĠÐ¿Ð»ÐµÐ½": 4730,
      "ĠÐ²ÑĭÐ´ÐµÐ»Ñı": 4731,
      "ĠÐĴÐµÑĢ": 4732,
      "ĠÑģÐ¾ÑĤÑĢÑĥÐ´Ð½Ð¸Ñĩ": 4733,
      "85": 4734,
      "ĠÐ´ÑĢÑĥÐ³Ð¸Ð¼": 4735,
      "65": 4736,
      "%.": 4737,
      "ĠÐĺÐ½ÑģÑĤÐ¸ÑĤÑĥÑĤ": 4738,
      "ĠÐ¼ÐµÑĤÑĢÐ¾Ð²": 4739,
      "Ð´Ð¾Ð¼": 4740,
      "ĠÐĴÐ»Ð°Ð´Ð¸Ð¼Ð¸": 4741,
      "ĠÐ¿ÑĢÐ¾Ð¼ÑĭÑĪÐ»ÐµÐ½Ð½Ð¾ÑģÑĤÐ¸": 4742,
      "ĠÐ¡ÐŁÐ±": 4743,
      "ĠÐ²Ð¾ÐºÑĢÑĥÐ³": 4744,
      "ÐºÐ½Ð¾Ð²": 4745,
      "Ð°Ð½Ð¸ÑıÑħ": 4746,
      "ens": 4747,
      "ÑģÐ¾Ð»": 4748,
      "ÑĢÐµÑĤÑĮ": 4749,
      "ĠÑįÐ¿Ð¸Ð·": 4750,
      "Ġ1984": 4751,
      "ĠÐ¿Ð¾Ð·Ð´Ð½ÐµÐµ": 4752,
      "Ð¸Ð·Ð´": 4753,
      "ĠÐ´Ð²Ð¸Ð¶ÐµÐ½Ð¸Ðµ": 4754,
      "ĠÐ½Ð°ÑĩÐ°Ð»Ð¸": 4755,
      "Ð¸ÑĤÐµÐ»ÑĮÐ½Ð¾ÑģÑĤÐ¸": 4756,
      "ĠÐŁÐ¾Ñģ": 4757,
      "Ġ1940": 4758,
      "Ð¶Ð´Ðµ": 4759,
      "ĠÐ±Ð¾Ð»ÑĮÑĪÐ¾Ðµ": 4760,
      "ĠÑģÐ¿Ð¾ÑĢÑĤÐ¸Ð²": 4761,
      "Ð°Ð½Ð¾Ð²Ð°": 4762,
      "ĠÐ¾ÑĤÐ¼ÐµÑĤ": 4763,
      "ĠÑĤÐ¾Ð½Ð½": 4764,
      "ĠÐ¾ÐºÐ°Ð·ÑĭÐ²": 4765,
      "Ð»ÑĮÐ½Ð¾Ð³Ð¾": 4766,
      "ĠÐ²Ð¾ÐµÐ½Ð½Ð¾": 4767,
      "ĠÑįÑĦÑĦÐµÐºÑĤ": 4768,
      "ĠÐ¾ÑĢÐ³": 4769,
      "Ð±ÐµÐº": 4770,
      "Ð¸ÑģÐ¾Ðº": 4771,
      "ĠÐºÐ¾ÑĢÐ¿ÑĥÑģ": 4772,
      "ÑĢÑĥÐ±": 4773,
      "ĠÐ¿ÑĢÐ¾Ð¸Ð·Ð²ÐµÐ´ÐµÐ½Ð¸Ñı": 4774,
      "ĠÑģÐ°Ð¼Ð¾Ð¹": 4775,
      "ĠÑħÑĢÐ°": 4776,
      "Ð²Ð°ÑİÑĤ": 4777,
      "ĠÐ²Ð·Ð°Ð¸Ð¼Ð¾Ð´ÐµÐ¹ÑģÑĤÐ²": 4778,
      "ĠÐ³Ð¾ÑģÑĥÐ´Ð°ÑĢÑģÑĤÐ²ÐµÐ½Ð½Ð¾Ð³Ð¾": 4779,
      "Ð¸Ð´ÐµÑĢ": 4780,
      "ĠÐ¿ÑĢÐ¸Ð²ÐµÐ»": 4781,
      "ĠÐºÐ¾Ð½ÑĤÑĢÐ¾Ð»": 4782,
      "ĠÑĤÑĢÐ°Ð½Ñģ": 4783,
      "Ð»ÑıÐ½": 4784,
      "ĠÐ½ÐµÐ¿ÑĢÐ¸": 4785,
      "ĠÐ´Ð¾ÑģÑĤÐ¸Ð¶": 4786,
      "Ġ1943": 4787,
      "ÐĴÑĭÐ¿ÑĥÑģÐºÐ½Ð¸ÐºÐ¸": 4788,
      "ĠÐ¥ÑĢÐ¸ÑģÑĤ": 4789,
      "Ð»Ð¸ÑĢÐ¾Ð²": 4790,
      "ĠÐ·Ð²ÑĳÐ·Ð´": 4791,
      "ÐļÐ¾ÑĢ": 4792,
      "ĠÑĩÐµÑĢÑĤ": 4793,
      "Ð²ÐµÑģÑĤÐ¸": 4794,
      "ĠÐĲÐ·Ð¸Ð¸": 4795,
      "ÑĤÐ¾ÑĢÐ°Ñı": 4796,
      "ĠÐ¼ÑĭÑĪ": 4797,
      "Ġ1985": 4798,
      "ÑĤÐµÐ·": 4799,
      "ĠÐ°ÑĢÐ°Ð±": 4800,
      "ĠÐ¾ÐºÐµ": 4801,
      "ÑįÐ»ÑĮ": 4802,
      "Ð³Ð¾Ð´Ð°Ñħ": 4803,
      "ity": 4804,
      "Ð¸Ð²Ð°Ð»Ð¸": 4805,
      "ÑģÑĤÐ¾": 4806,
      "ĠÐºÐ½Ð¸Ð³Ðµ": 4807,
      "ĠÑįÐ»ÐµÐ¼ÐµÐ½ÑĤ": 4808,
      "Ð°Ð´Ð¶": 4809,
      "Ð°ÑĤÐµÐ¼": 4810,
      "ĠÐ¿ÑĢÐ¾Ð¸ÑģÑħÐ¾Ð¶Ð´ÐµÐ½Ð¸Ñı": 4811,
      "ĠÑģÐºÑĥÐ»ÑĮÐ¿": 4812,
      "ĠÑģÐ¾ÑģÐµÐ´": 4813,
      "ÑıÑİÑĤÑģÑı": 4814,
      "ĠÑĢÐµÐ¼": 4815,
      "ĠÐ·Ð°Ð±Ð¾Ð»ÐµÐ²": 4816,
      "ĠÑģÑĭÐ³ÑĢÐ°": 4817,
      "ĠÐ¿ÑıÑĤÑĮ": 4818,
      "Ð¸Ð´Ñĥ": 4819,
      "ĠÑĨÐ¸ÑĦ": 4820,
      "ÐµÐ½ÑģÐºÐ¾Ð³Ð¾": 4821,
      "ĠÐ²ÑģÑİ": 4822,
      "Ð¸Ð½ÑģÐºÐ¸Ñħ": 4823,
      "end": 4824,
      "Ð¸ÐºÐ°ÑĨÐ¸Ð¸": 4825,
      "ĠÐ²ÑĭÐ¿ÑĥÑģÑĤ": 4826,
      "Ð»Ð¸ÑĪ": 4827,
      "ĠÑĦÐ¾ÑĢÐ¼Ðµ": 4828,
      "ÑĢÑĥÐ½": 4829,
      "ep": 4830,
      "eb": 4831,
      "ĠÐ²ÑĭÐ´Ð°": 4832,
      "ÐĵÐ£": 4833,
      "ĠÐ±ÐµÐ·Ð¾Ð¿Ð°ÑģÐ½Ð¾ÑģÑĤÐ¸": 4834,
      "ĠÐ¸ÑģÐ¿Ð¾Ð»ÑĮÐ·Ð¾Ð²Ð°Ð½Ð¸Ñı": 4835,
      "ĠÑģÑĤÐ¾ÑĢ": 4836,
      "ĠÑģÐ¾Ð²ÑĢÐµÐ¼ÐµÐ½Ð½Ð¾Ð¹": 4837,
      "ĠÐ¾Ð¿ÑĥÐ±Ð»Ð¸Ðº": 4838,
      "ĠÐĿÐ¾Ð²Ð³Ð¾ÑĢÐ¾Ð´": 4839,
      "ĠÐ¼ÐµÑĢÐµ": 4840,
      "ĠÑģÐ°Ð´": 4841,
      "ÑĢÐ¸Ñģ": 4842,
      "ÑĭÐ²Ð°Ð»": 4843,
      "ĠÐ·Ð°Ð²Ð¾ÐµÐ²": 4844,
      "ĠÐ¸Ð½ÑĤÐµÑĢÐ²": 4845,
      "ĠÐľÐ¾ÑģÐºÐ¾Ð²ÑģÐºÐ¾Ð³Ð¾": 4846,
      "Ð½ÐµÐ²ÐµÐº": 4847,
      "ĠÐ¿ÑĥÐ±": 4848,
      "Ð»Ð¸Ð½Ð°": 4849,
      "ĠÐľÐ°Ð³": 4850,
      "Ð¶ÐµÐ³Ð¾Ð´": 4851,
      "ĠÐĲÐ³": 4852,
      "68": 4853,
      "ĠÐ¸ÑģÐ¿Ð¾Ð»ÑĮÐ·ÑĥÑİÑĤÑģÑı": 4854,
      "ĠÑĢÐµÐ±": 4855,
      "ÑįÑĢ": 4856,
      "ĠÐ±ÐµÑĢÐµÐ³Ñĥ": 4857,
      "ĠÐ½Ð°ÑħÐ¾Ð´ÑıÑĤÑģÑı": 4858,
      "Ð¾Ð²ÑģÐºÐ¾Ð¹": 4859,
      "ĠÐºÐ»ÑİÑĩ": 4860,
      "ĠÐ²ÐºÐ»Ð°Ð´": 4861,
      "ĠÑģÐ¿Ð¸ÑģÐº": 4862,
      "ĠÐ½Ð°Ð³": 4863,
      "ĠÑĩÐµÐ»Ð¾Ð²ÐµÑĩÐµÑģÐº": 4864,
      "Ð½ÐµÑĤ": 4865,
      "ĠAl": 4866,
      "Ð¸Ð»ÐµÐ¹": 4867,
      "ĠÐĲÐ½Ð´ÑĢÐµÐ¹": 4868,
      "ĠÐ´Ð¾ÐºÐ°Ð·": 4869,
      "ĠÐ¿ÑĢÐµÐ´Ð¼ÐµÑĤ": 4870,
      "ĠÐļÐ°Ð¿": 4871,
      "ĠÐļÐ°ÑĢÐ»": 4872,
      "ĠÑģÐµÐ¹": 4873,
      "ĠÐ´Ð¾Ð²Ð¾Ð»ÑĮ": 4874,
      "ĠÐ´ÑĢÐ°Ð¼Ð°ÑĤ": 4875,
      "ĠÐ¡Ð¾Ð²ÐµÑĤÑģÐºÐ¾Ð³Ð¾": 4876,
      "ĠÐ¿ÑĢÐµÐ´Ð½Ð°Ð·Ð½Ð°Ñĩ": 4877,
      "Ð»ÑıÐ½Ð´": 4878,
      "ĠÑģÐ¸Ð³Ð½": 4879,
      "ĠÑĢÐ°ÑģÑĪÐ¸ÑĢ": 4880,
      "Ð·Ð°Ð´": 4881,
      "ĠÐĲÐ½ÑĤÐ¾Ð½": 4882,
      "ĠÑĢÐ°Ð´": 4883,
      "ÐµÐ³Ð¾Ð´": 4884,
      "ĠÑįÑĤÐ°Ð¿": 4885,
      "Ð°ÑĢÐ¼": 4886,
      "ĠÐ¿Ð°ÑĢÐ»Ð°Ð¼ÐµÐ½ÑĤ": 4887,
      "Ð°ÑīÐµ": 4888,
      "ip": 4889,
      "ÑİÑīÐµÐµ": 4890,
      "ĠÐ»ÐµÐ¹": 4891,
      "ĠÐ²Ð¾ÐµÐ½Ð½ÑĭÑħ": 4892,
      "ĠÐ£Ð¸Ð»ÑĮ": 4893,
      "ĠÐ²ÑĭÐ¿Ð¾Ð»Ð½Ñı": 4894,
      "ĠÐ´Ð¾ÑħÐ¾Ð´": 4895,
      "ĠÑĪÐ¸ÑĢÐ¾ÐºÐ¾": 4896,
      "Ð»Ñĳ": 4897,
      "99": 4898,
      "ĠÐ¾ÑģÐ½Ð¾Ð²Ð½ÑĭÑħ": 4899,
      "ĠÐºÐ»Ð°ÑģÑģÐ°": 4900,
      "ĠÐ´Ð¾Ð»Ð¶Ð½Ð¾ÑģÑĤÑĮ": 4901,
      "ÐłÐ°Ð·": 4902,
      "ÑĥÑİÑīÐµÐ³Ð¾": 4903,
      "ĠÐºÐ°Ð¶Ð´ÑĭÐ¹": 4904,
      "ĠÐ·Ð½Ð°ÐºÐ¾Ð¼": 4905,
      "Ð·ÑĭÐ²Ð°ÑİÑĤ": 4906,
      "ÐµÐ²ÑĭÑħ": 4907,
      "ĠÑĢÐ°Ð·Ð³": 4908,
      "ÑĥÐ¼Ñĭ": 4909,
      "ĠÐ¿ÑĢÐ¾ÑĤÐµÑģÑĤ": 4910,
      "ĠÐºÑĢÐ°Ñı": 4911,
      "Ð¸Ð·Ð¸ÑĢÐ¾Ð²Ð°Ð½": 4912,
      "ÑĳÐ½Ð½Ð¾Ðµ": 4913,
      "Ð¾Ð±ÑĭÑĩ": 4914,
      "ÐŁÐ¾Ð»": 4915,
      "ĠÐ¾Ð±ÑīÐµÐ¹": 4916,
      "ĠÐ¾Ð±Ð¾Ð·Ð½Ð°ÑĩÐµÐ½Ð¸Ñı": 4917,
      "ĠÑģÐµÑĢÑĮÑĳÐ·": 4918,
      "ĠÐĿÐ°Ñĩ": 4919,
      "ĠÑĢÐ¾Ðº": 4920,
      "Ð»Ð¸Ð¼Ð°ÑĤ": 4921,
      "Ð°Ð´ÑĨ": 4922,
      "ive": 4923,
      "ĠÐĵÐµÐ½ÑĢÐ¸Ñħ": 4924,
      "ÐŁÑĢÐ°Ð²": 4925,
      "Ð¸ÑĤÐµÐ»ÑĮÐ½Ð°Ñı": 4926,
      "ĠÐºÐ½ÑıÐ·Ñı": 4927,
      "ÑĤÐ°Ðº": 4928,
      "ĠÐ¼Ð¾ÑģÐºÐ¾Ð²": 4929,
      "ĠÑħÐ¾Ð»": 4930,
      "ĠÐ³Ð³": 4931,
      "Ð½Ð°Ð´ÑĨ": 4932,
      "Ð¸ÑģÐ»Ð°Ð²": 4933,
      "Ð¾Ð½Ð°ÑĩÐ°Ð»ÑĮÐ½Ð¾": 4934,
      "Ġ1979": 4935,
      "ĠÐĺÐ³": 4936,
      "ĠÐ¢Ñĥ": 4937,
      "Ð°Ð´ÑĮ": 4938,
      "Ð½ÐµÐ³": 4939,
      "ĠÐ·Ð°ÑĢ": 4940,
      "ÐºÐ»Ð¾Ð½": 4941,
      "Ð¾Ð½Ð¸": 4942,
      "ĠÑģÐ¾ÑģÑĤÐ¾ÑıÐ½Ð¸Ñİ": 4943,
      "ĠÑĢÑıÐ´Ð¾Ð¼": 4944,
      "ÑĢÐ°Ð·Ð´Ð½": 4945,
      "Ð¾Ð²Ð¾Ðµ": 4946,
      "ĠÐ¡ÐµÑĢ": 4947,
      "ĠÑįÑĤÐ½": 4948,
      "ĠÑģÐ»ÐµÐ´ÑĥÑİÑīÐ¸Ðµ": 4949,
      "ĠÐĶÑĢÐµÐ²": 4950,
      "Ð¸ÑĨÐ¸Ð¹": 4951,
      "ĠÐ¸Ð¼ÐµÐ»Ð¸": 4952,
      "ĠÐľÐ°ÑĢÐº": 4953,
      "ĠÑģÐµÐ¼ÑĮÐ¸": 4954,
      "ÑĥÑĪÐºÐ°": 4955,
      "ÑĨÐ°Ð¼": 4956,
      "Ð°Ð¼ÐµÑĤ": 4957,
      "ĠÑĢÐ¾Ð´Ð¸Ð»ÑģÑı": 4958,
      "ĠÐ°Ð²ÑģÑĤ": 4959,
      "ĠÐ´Ð²Ð¾ÑĢÑıÐ½": 4960,
      "ĠÐĴÐ¾Ð·": 4961,
      "Ð½Ð¸ÐºÐ°Ð¼": 4962,
      "ĠÐļÐ°Ð·Ð°Ñħ": 4963,
      "ĠÐ¾ÑĤÐ¼ÐµÐ½": 4964,
      "ĠÐ±ÐµÐ¶": 4965,
      "ĠÐ¡ÐµÐ²ÐµÑĢÐ½Ð¾Ð¹": 4966,
      "ĠÑĥÐºÐ°Ð·ÑĭÐ²": 4967,
      "ĠÐ½Ð¸Ð¼Ð¸": 4968,
      "ÑģÑĥÑĢ": 4969,
      "ĠÐ¸Ð½ÑģÑĤÐ¸ÑĤÑĥÑĤÐ°": 4970,
      "ÐµÑģÑĤÐ²Ñĥ": 4971,
      "ĠÑĢÐµÐ»Ð¸Ð³": 4972,
      "ĠÐ¿Ð¾ÐµÐ·Ð´": 4973,
      "ĠÐ¿ÑĢÐ¾ÑĤÑıÐ¶ÐµÐ½Ð¸Ð¸": 4974,
      "ĠÐ½ÐµÑģÐ¼Ð¾ÑĤÑĢÑı": 4975,
      "Ð°Ð»Ð¸Ð½": 4976,
      "ÐµÐºÐ°Ð½": 4977,
      "ĠÐ²Ð¾Ð·Ð¼Ð¾Ð¶Ð½Ð¾ÑģÑĤÐ¸": 4978,
      "Ð¾Ð·Ð¼Ð¾Ð¶Ð½Ð¾": 4979,
      "ĠÑģÐ½ÑıÑĤ": 4980,
      "ĠÑģÑĤÐ¾ÑĢÐ¾Ð½Ñĥ": 4981,
      "ĠÐ¶ÐµÐ½ÑīÐ¸Ð½": 4982,
      "ĠÑĢÐµÑĪÐµÐ½Ð¸Ñı": 4983,
      "Ð§Ð»ÐµÐ½Ñĭ": 4984,
      "Ġg": 4985,
      "ĠÐ¼ÑĥÑģ": 4986,
      "ÑģÑĤÐ°": 4987,
      "ĠÐĺÑģÐ¿Ð°Ð½Ð¸Ð¸": 4988,
      "ĠÑĥÐ²": 4989,
      "ĠÐ²Ð½ÑĥÑĤÑĢÐ¸": 4990,
      "ros": 4991,
      "ĠÐ½Ð°ÑĢÐ¾Ð´Ð¾Ð²": 4992,
      "ĠÐ²Ð¾Ð·Ð²": 4993,
      "ĠÐºÐ°Ð´": 4994,
      "Ð¾Ð´Ð½": 4995,
      "ĠÑģÑĦÐ¾ÑĢÐ¼Ð¸ÑĢÐ¾Ð²": 4996,
      "ĠÐ·Ð°Ð´Ð°Ñĩ": 4997,
      "ĠÐĲÐ»ÐµÐºÑģÐµÐ¹": 4998,
      "66": 4999,
      "ÑĢÐµÐ»": 5000,
      "ÐµÐ³Ð¾Ð´Ð½Ñı": 5001,
      "Ð¸Ð¹ÑģÐºÐ°Ñı": 5002,
      "Ð°Ð·Ð°": 5003,
      "Ð°Ð¼ÐµÐ½ÑĤ": 5004,
      "Ð°ÑħÐ°": 5005,
      "ĠÐ¼Ð°Ðµ": 5006,
      "Ð°ÑĢÐ¸Ñı": 5007,
      "ĠÐ²Ð·Ð³Ð»Ñı": 5008,
      "ĠÐ¿Ð¾Ð±ÐµÑĢÐµÐ¶": 5009,
      "ĠÐŃÑĤÐ¸": 5010,
      "ĠÐ¸ÑĤÐ¾Ð³Ðµ": 5011,
      "ĠÐºÐ¸Ð»": 5012,
      "ĠÑıÐ´ÐµÑĢ": 5013,
      "ĠÐ°Ð»ÑĦÐ°Ð²Ð¸ÑĤÑĥ": 5014,
      "ĠÐ¨ÑĤ": 5015,
      "ĠÐ¯Ð½": 5016,
      "ĠÐ´ÐµÐ¼Ð¾Ð½": 5017,
      "ĠÑĩÐµÐ»": 5018,
      "ĠÑĢÑĥÑģÑģÐºÐ¾Ð¼": 5019,
      "ĠÑĨÐµÐ½ÑĤÑĢÐµ": 5020,
      "ÑģÐ¾": 5021,
      "ÑĦÐ¸Ð½": 5022,
      "ĠÐŃÑĤÐ°": 5023,
      "ĠÐ¾ÑĤÐ½Ð¾ÑĪÐµÐ½Ð¸Ð¸": 5024,
      "ĠÐ¿Ð°Ð¼ÑıÑĤÑĮ": 5025,
      "ĠÐ¿ÑĢÐ¾ÑĦÐµÑģÑģÐ¾ÑĢ": 5026,
      "ĠÐ°Ð²ÑĤÐ¾Ð¼Ð°ÑĤ": 5027,
      "ĠÐ¿Ð¾Ð²ÐµÑĢÑħÐ½Ð¾ÑģÑĤÐ¸": 5028,
      "ĠÐºÐ¾Ð¼Ð¿Ð¾Ð·Ð¸ÑĤÐ¾ÑĢ": 5029,
      "ĠÐŃÐº": 5030,
      "Ġ1939": 5031,
      "ĠÐ»ÑİÐ±Ð¾Ð²": 5032,
      "ĠÐ¿Ð¾Ð´Ð°Ð²": 5033,
      "ĠÑģÐ²ÐµÑĢÑħ": 5034,
      "ĠÐĳÐµÐ»Ð¾ÑĢÑĥÑģ": 5035,
      "ĠÐ³Ð¸Ð¼Ð½Ð°": 5036,
      "ĠÐĲÑħ": 5037,
      "ĠÐ½Ð¸Ð¶Ðµ": 5038,
      "Ð¸ÑĤÐµÐ»ÑĮÐ½Ð¾ÑģÑĤÑĮ": 5039,
      "ĠÐ°Ð½Ð³": 5040,
      "ĠÐ¼Ð¾ÑĢÐµ": 5041,
      "ĠÐ¢ÑĢÐ¾": 5042,
      "ĠÐ½Ð¾ÑĢÐ¼": 5043,
      "ĠÐĺÐ·Ð´": 5044,
      "ĠÑĢÑĥÐ±Ð»ÐµÐ¹": 5045,
      "Ð¾ÑĩÐ½Ð¾Ð¹": 5046,
      "ÐºÐ¾Ð²ÑģÐºÐ¸Ð¹": 5047,
      "ĠÐ¼Ð¸Ð½Ð¸Ð¼": 5048,
      "Ð²ÐµÐ¹ÑĨ": 5049,
      "Ð¼Ð¾ÑĢ": 5050,
      "ĠÐ¿ÑĢÐ¾ÑĤÐ¸Ð²Ð¾Ð¿": 5051,
      "ĠÐłÐ°": 5052,
      "Ġ1982": 5053,
      "Ð¾ÑģÑĤÐ°Ð½Ð¾Ð²": 5054,
      "ĠÐ·ÐµÐ¼ÐµÐ»ÑĮ": 5055,
      "ĠÑĢÐ°ÐºÐµÑĤ": 5056,
      "ĠÑĥÐ±Ð¸ÑĤ": 5057,
      "ĠÐ¾Ð¿ÑĥÐ±Ð»Ð¸ÐºÐ¾Ð²": 5058,
      "ĠÐ¿ÐµÑĢÐµÐ¸Ð¼ÐµÐ½": 5059,
      "ĠEn": 5060,
      "ĠÐ¸Ð·Ð¼ÐµÐ½ÐµÐ½Ð¸Ñı": 5061,
      "ĠÐ¿Ð¾ÑģÑĤÐµÐ¿": 5062,
      "74": 5063,
      "ĠÐĿÐ°ÑĢÐ¾Ð´": 5064,
      "ÑİÐ½": 5065,
      "ĠâĢĵ": 5066,
      "ĠÐ¾ÑģÐ°Ð´": 5067,
      "ÐµÑĤÐ¾Ð²": 5068,
      "ĠÐ¿Ð°Ð¼ÑıÑĤÐ¸": 5069,
      "ĠÑģÐ½Ð¸Ð¼": 5070,
      "ĠÑĢÐ°Ð·Ð²ÐµÐ´": 5071,
      "ĠÑģÐ¾Ð·Ð²ÐµÐ·Ð´": 5072,
      "ĠÐĽÑĥÑĩ": 5073,
      "up": 5074,
      "Ð¸Ð½Ð°ÑĨÐ¸Ð¸": 5075,
      "ĠÐ³Ð¾ÑĢÐ¾Ð´ÑģÐºÐ¾Ð¹": 5076,
      "Ð°ÑĢÐ¸Ð½": 5077,
      "ĠÐºÐ¾Ð½ÑĨÐµÐ¿": 5078,
      "ĠÑģÑĥÑĤ": 5079,
      "ĠÐ¡Ð²ÑıÑĤÐ¾Ð³Ð¾": 5080,
      "ĠÐĽÐ¸ÑĤ": 5081,
      "Ð¼Ð°Ð½Ð°": 5082,
      "ÑĢÐ°ÑĤÐµÐ³": 5083,
      "ĠÐ·Ð°Ð¼ÐµÑģÑĤ": 5084,
      "ĠÐļÐ°ÑĢÐ°": 5085,
      "ÐµÐ¶Ð¸ÑģÑģÑĳÑĢ": 5086,
      "Ð¸ÐºÐ°Ð¼Ð¸": 5087,
      "Ġ1968": 5088,
      "ÑĦÐµÑĢÐµÐ½": 5089,
      "ĠÐ½ÐµÐ¸Ð·Ð²ÐµÑģÑĤ": 5090,
      "ĠÑģÐ¾ÑĨÐ¸": 5091,
      "ĠÐºÑĢÐ°ÑĤ": 5092,
      "ÐĿÐ°Ð³ÑĢÐ°": 5093,
      "Ð¿Ð¸ÑģÐ¾Ðº": 5094,
      "ĠÐ¿ÑĢÐ¾Ð²Ð¸Ð½ÑĨÐ¸Ð¸": 5095,
      "ĠÐ¿ÑĢÐµÐ´Ð¿ÑĢÐ¸ÑıÑĤÐ¸Ñı": 5096,
      "ĠÑĥÑĩÐ°ÑģÑĤÐ²Ð¾Ð²": 5097,
      "ĠÐ¦Ðļ": 5098,
      "Ġ1983": 5099,
      "ĠÑģÑĤÑĢÐ¾Ð¸ÑĤÐµÐ»ÑĮÑģÑĤÐ²Ð°": 5100,
      "ĠÐ¿ÐµÑĩ": 5101,
      "ĠÐ´Ð¾Ð»Ð³": 5102,
      "ĠÐ·Ð°Ð¿Ð¸ÑģÐ¸": 5103,
      "Ð°Ð²ÑĪÐµÐ³Ð¾": 5104,
      "ÐºÐ¸Ð¿": 5105,
      "ĠÐĿÐ¸Ð¶": 5106,
      "ĠÐ·Ð°ÑıÐ²Ð¸Ð»": 5107,
      "ĠÐ·Ð°Ð²ÐµÐ´": 5108,
      "ĠÐ´ÐµÐºÐ°Ð±ÑĢÐµ": 5109,
      "ĠÐŃÐ¹": 5110,
      "86": 5111,
      "ĠÐ¾ÑĢÑĥÐ´": 5112,
      "Ð¾Ð³ÑĢÐ°Ð´": 5113,
      "ÐµÐ½ÑĮÑİ": 5114,
      "ĠÑĢÐµÐ³ÑĥÐ»ÑıÑĢ": 5115,
      "Ġ1975": 5116,
      "ĠÐ¼Ð°ÑĢÑĤÐµ": 5117,
      "ĠÑģÐ¾Ð¾ÑĤÐ²ÐµÑĤÑģÑĤÐ²ÐµÐ½Ð½Ð¾": 5118,
      "ĠÑıÐ½Ð²Ð°ÑĢÐµ": 5119,
      "ÑĢÐ¾Ð²Ð¾Ð´": 5120,
      "Ð¾Ð»Ð¾Ð¼": 5121,
      "ĠPr": 5122,
      "Ð²Ð°ÑĢ": 5123,
      "ĠÑĢÐ¾Ð¶Ð´ÐµÐ½Ð¸Ñı": 5124,
      "ĠÑĨÐ°ÑĢÑı": 5125,
      "Ð°ÑĤÐ¾Ð»": 5126,
      "ĠÐ¡ÑĢÐµÐ´Ð¸": 5127,
      "Ð°Ð²Ð¾Ð´": 5128,
      "ÑĨÐ¸ÑıÑħ": 5129,
      "Ġ000": 5130,
      "Ð°Ð½ÑĤÐ¾Ð²": 5131,
      "ĠÑģÐ¾Ð»Ð´Ð°ÑĤ": 5132,
      "ĠÑĢÐ°Ð±Ð¾ÑĤÐ°": 5133,
      "Ð¼Ð»ÑĢÐ´": 5134,
      "ĠÐ¡Ð¡Ðł": 5135,
      "ĠÐºÑĢÑĥÐ¿Ð½ÑĭÑħ": 5136,
      "ĠÑĢÐµÐ·ÑĥÐ»ÑĮÑĤÐ°ÑĤ": 5137,
      "ÑĥÑİÑīÐ¸Ð¼": 5138,
      "Ð¿Ð¸": 5139,
      "ÐĵÐµ": 5140,
      "Ð¾Ð¼Ð½": 5141,
      "ĠÐ»ÑİÐ´": 5142,
      "ĠÐ£Ð½": 5143,
      "ĠÑĥÐ´Ð°Ð»": 5144,
      "ĠÑģÐ¸Ð»Ñĥ": 5145,
      "Ġ1981": 5146,
      "ĠÐ¶ÐµÐ½Ð°": 5147,
      "ĠÐ¡ÐµÐ½": 5148,
      "ĠÑĦÐ¸Ð»ÑĮÐ¼Ð¾Ð²": 5149,
      "ĠÐµÐ²ÑĢÐµ": 5150,
      "ĠÑģÐµÑĢÐ¸": 5151,
      "Ð»Ð¾Ð²Ð°": 5152,
      "ĠÐ¼ÐµÐ¶": 5153,
      "ĠÐºÐ¾Ð¼Ð¿ÑĮÑİÑĤÐµÑĢ": 5154,
      "ĠÑģÐµÑĤÐ¸": 5155,
      "ÑĢÐ°Ð½Ñĭ": 5156,
      "ÐĺÑģÑĤÐ¾ÑĢ": 5157,
      "ĠÐ¾ÑĤÐ½Ð¾ÑģÐ¸ÑĤÑģÑı": 5158,
      "ĠÐĽÐµÐ½Ð¸Ð½Ð³ÑĢÐ°Ð´": 5159,
      "ÑĢÐ¸ÑĤÐµÐ»ÑĮ": 5160,
      "Ð³ÐµÑĢ": 5161,
      "ÐµÐ¼ÑĭÐµ": 5162,
      "ne": 5163,
      "Ð¿Ð¾Ð»Ð¸ÑĤ": 5164,
      "Ð°ÑĤÐµÐ»ÑĮÐ½ÑĭÐµ": 5165,
      "ĠÐ¿ÑĢÐ¾Ð¸Ð·Ð²ÐµÐ´ÐµÐ½Ð¸Ð¹": 5166,
      "Ð¸ÑģÑĤÐ°": 5167,
      "Ð°Ð²ÑĪÐµÐ¹": 5168,
      "Ð¾Ð³Ð¸": 5169,
      "ĠÑĢÐ°Ð·Ð½Ð¾": 5170,
      "ĠÑģÐ¸ÑģÑĤÐµÐ¼Ñĥ": 5171,
      "ĠÐ´Ð¾Ð»Ð¶Ð½Ð°": 5172,
      "ĠÐ¿Ð»Ð¾ÑīÐ°Ð´ÑĮ": 5173,
      "Ð½Ð°ÐºÐ¾Ð¼": 5174,
      "Ð°ÑĢÐ¸Ð¹": 5175,
      "Ð¡Ð°Ð¼": 5176,
      "ĠÐ¾Ð´Ð½Ð¾Ð¸Ð¼": 5177,
      "72": 5178,
      "ĠÐºÐ°Ñģ": 5179,
      "ĠÐ¾ÑģÑĤÐ°Ð½Ð¾Ð²": 5180,
      "Ð³ÑĢÑĥÐ¿Ð¿": 5181,
      "ĠÐºÐ¾Ð¼Ð¼ÑĥÐ½": 5182,
      "ĠÐ¾Ð´Ð½Ñĥ": 5183,
      "ĠÐ¿ÑĢÐµÐ¶Ð´Ðµ": 5184,
      "ĠÑĤÐ¾Ð¹": 5185,
      "ĠÑĢÐµÐºÐ°": 5186,
      "Ð¸ÑģÑĤÐ°Ð½": 5187,
      "ĠÑĥÑģÑĤÑĥÐ¿": 5188,
      "ĠÐĹÐ°Ð¿": 5189,
      "ĠÐ¾ÑĤÑĢÑı": 5190,
      "ÐµÐ²ÑģÐºÐ¾Ð³Ð¾": 5191,
      "ĠÑģÐ¿Ð¸ÑģÐ¾Ðº": 5192,
      "Ð°ÑĤÐ°ÑĢ": 5193,
      "ÑĩÐµÑģÐºÐ¸Ð¹": 5194,
      "Ð¤ÑĢÐ°Ð½": 5195,
      "ĠÐ¿ÑĢÐ¾Ð²Ð¾Ð·": 5196,
      "ÐµÐ¹Ð½Ð°": 5197,
      "ĠÐºÐ½ÑıÐ·ÑĮ": 5198,
      "Ð¸ÑĩÐ½ÑĭÐµ": 5199,
      "ÐµÐ·Ð¶": 5200,
      "Ð½Ð¾Ð³Ð¸Ðµ": 5201,
      "ÐµÐ½ÑģÐºÐ¾Ð¹": 5202,
      "ĠÑĢÑĭÐ±": 5203,
      "ÑģÐºÐ¾ÑĢ": 5204,
      "Ġ1976": 5205,
      "ÑĦÐ¸Ð»ÑĮÐ¼": 5206,
      "ĠÐŁÐ¾ÑįÑĤ": 5207,
      "ĠÐ²Ð¸Ð´Ð°": 5208,
      "Ð¸Ð·Ð½ÐµÑģ": 5209,
      "ĠÐ´Ð¸Ð°Ð»": 5210,
      "ĠÐ³ÐµÑĢÐ¼Ð°Ð½": 5211,
      "Ġ1978": 5212,
      "ĠÐ´Ð¾Ð²Ð¾Ð»ÑĮÐ½Ð¾": 5213,
      "ĠÐµÑģÑĤÐµÑģÑĤÐ²ÐµÐ½": 5214,
      "ĠÐ¿ÐµÑĢÐ²Ð¾Ðµ": 5215,
      "ĠÐļÐ¾ÑģÑĤ": 5216,
      "ÐºÐ¾Ð½Ñĩ": 5217,
      "ÐŁÑĢÐ¾": 5218,
      "ĠÑģÐ¾ÐºÑĢÐ°Ñī": 5219,
      "ĠÐ»ÑĮ": 5220,
      "ĠÐ¿ÐµÑĢÐ²Ð¾Ð¼": 5221,
      "ĠÑĤÑĢÐ°Ð²": 5222,
      "Ð°ÑģÐ¾Ð²": 5223,
      "Ġ1942": 5224,
      "Ð¾Ð¾Ð±ÑĢÐ°Ð·": 5225,
      "ÑģÑĤÐ²ÐµÐ½Ð½ÑĭÐµ": 5226,
      "ÑĢÐ°Ð½ÑĤ": 5227,
      "Ð¾ÑĢÑıÐ´": 5228,
      "ÑģÑĤÐ²ÑĥÐµÑĤ": 5229,
      "ĠÐ¤ÑĢÐ¸Ð´": 5230,
      "Ð¸Ð½ÑģÑĤÐ²Ð¾": 5231,
      "Ġ1973": 5232,
      "ĠÐ¾ÑĢÐ³Ð°Ð½Ð¸Ð·Ð°ÑĨÐ¸Ñı": 5233,
      "Ð¡Ð²": 5234,
      "ÑĥÐ»ÑĮÐ¼Ð°Ð½": 5235,
      "Ġ1972": 5236,
      "ÑĢÐ°ÑĪ": 5237,
      "ĠÐ·Ð°ÐºÐ¾Ð½Ð¾Ð´": 5238,
      "ĠÑģÐ»ÐµÐ´Ð¾Ð²": 5239,
      "ĠÑģÑĢÐµÐ´ÑģÑĤÐ²Ð°": 5240,
      "ĠÑģÐ¿ÐµÑĨÐ¸Ð°Ð»Ð¸ÑģÑĤ": 5241,
      "ĠÐ¾Ð±Ð¾ÑĢÐ¾Ð½Ñĭ": 5242,
      "ĠÐĶÐµÐ¼": 5243,
      "Ð¿Ð»": 5244,
      "ĠÐ½Ð°ÑĢÐ¾Ð´Ð°": 5245,
      "Ð°Ð»Ð¸Ñı": 5246,
      "ĠÐºÐ°ÑĦÐµÐ´": 5247,
      "ĠĠĠ": 5248,
      "ÐºÐµÑģÑĤ": 5249,
      "ĠÐ¸Ð½Ð¸ÑĨÐ¸": 5250,
      "Ð°Ð¼ÐµÑĢ": 5251,
      "ĠÑģÐ°Ð¼Ð¾Ð¼": 5252,
      "ĠÐ¾Ð¿ÐµÑĢÐ°ÑĨÐ¸Ð¸": 5253,
      "Ð°Ð²ÑĪÐ°Ñı": 5254,
      "Ð¾ÑĢÐ´Ð¶": 5255,
      "ÑıÐ»Ð°": 5256,
      "ĠÐĽÐ¸": 5257,
      "ĠÐ®ÑĢÐ¸Ð¹": 5258,
      "ĠÐĹÐ°Ðº": 5259,
      "ĠÐĽÐ¸Ð²": 5260,
      "ĠÐ¿ÑĢÐ¾ÑĢ": 5261,
      "ĠÐ³Ð»ÑĥÐ±Ð¾Ðº": 5262,
      "ĠÐłÐ¾ÑģÑĤ": 5263,
      "ĠÐ¿ÑĢÐ¸ÑĩÑĳÐ¼": 5264,
      "Ð¾Ð»ÑĮÐ½ÑĭÐ¹": 5265,
      "ÑĥÑĤÐ°": 5266,
      "Ð½Ð¸ÐºÐ°Ñħ": 5267,
      "ĠÑįÐºÑģÐ¿Ð»ÑĥÐ°ÑĤÐ°": 5268,
      "ĠÐ¾ÑĤÑĢÐ¸ÑĨ": 5269,
      "ĠÐľÐ¾ÑģÐºÐ¾Ð²ÑģÐºÐ¾Ð¹": 5270,
      "ĠÐ½Ð°Ð¿ÑĢÐ°Ð²Ð»ÐµÐ½Ð¸Ñı": 5271,
      "77": 5272,
      "ĠÐ¸Ð¼ÐµÐ½ÐµÐ¼": 5273,
      "ÐµÑĤÐ¾Ð¼": 5274,
      "ĠÐĴÐµÑĢÑħÐ¾Ð²Ð½Ð¾Ð³Ð¾": 5275,
      "ĠÑģÐ¾Ð·Ð´Ð°Ð½": 5276,
      "ĠÐ¿ÑĢÐµÐ¿Ð¾Ð´Ð°Ð²": 5277,
      "ĠÐ²Ð¾Ð·ÑĢÐ°ÑģÑĤÐµ": 5278,
      "Ð¿Ð°ÑĢÐ°": 5279,
      "Ð¿ÑĤ": 5280,
      "ĠÐ¿ÑĥÑĤÑĮ": 5281,
      "Ð¾ÑħÐ¾ÑĢÐ¾Ð½": 5282,
      "ĠÐ·Ð´Ð°Ð½Ð¸Ñı": 5283,
      "ĠÐ·Ð°Ð¿ÑĢÐµÑī": 5284,
      "ĠÐ¿Ð»Ð°Ð²": 5285,
      "ĠÐ´ÐµÐ¹ÑģÑĤÐ²Ð¸Ð¹": 5286,
      "ĠÑĥÐ¿ÑĢÐ°Ð²Ð»Ñı": 5287,
      "ĠÑĢÐ°Ð´Ð¸Ð¾": 5288,
      "ĠÑĢÐµÐ´Ð°ÐºÑĨÐ¸Ð¸": 5289,
      "Ġ1967": 5290,
      "Ð³Ð¾Ð»": 5291,
      "Ð°ÑĤÐµÐ»ÑĮÐ½Ð¾Ð¹": 5292,
      "ĠÐ¢Ð¸Ð¼": 5293,
      "Ð·Ð¸": 5294,
      "ĠÐ¿Ð°ÑĢÑĤÐ¸Ð¹": 5295,
      "Ð°ÑģÑĤÑĮ": 5296,
      "ĠÐ´ÐµÐ»Ð¾": 5297,
      "ĠÑģÐ²Ñı": 5298,
      "Ð¸Ð±Ð¾Ð»ÑĮÑĪ": 5299,
      "Ġ90": 5300,
      "Ð¾ÑĩÐ½ÑĭÐµ": 5301,
      "Ð¸Ð²Ð°ÑİÑĤÑģÑı": 5302,
      "Ð¸ÑĦÐ¸ÐºÐ°ÑĨÐ¸Ð¸": 5303,
      "ĠÑĩÐ»ÐµÐ½Ð¾Ð¼": 5304,
      "ĠÐŁÐ¾ÑĤ": 5305,
      "ĠVI": 5306,
      "ĠÐŁÐ¾ÑģÐ»ÐµÐ´": 5307,
      "ÑĳÐ²Ð°": 5308,
      "ĠAr": 5309,
      "Ð·ÑĭÑĩ": 5310,
      "Ġ1977": 5311,
      "ĠÐ¼ÐµÑģÑıÑĨÐµÐ²": 5312,
      "ÑģÑĤÐ²ÐµÐ½Ð½Ð¾Ð¹": 5313,
      "ĠÐ²ÐºÐ»ÑİÑĩÐ°ÐµÑĤ": 5314,
      "ĠÐ¸ÑģÑģÐ»ÐµÐ´Ð¾Ð²Ð°Ð½Ð¸Ð¹": 5315,
      "Ð¡Ð¾Ð³Ð»Ð°ÑģÐ½Ð¾": 5316,
      "Ð°ÑĤÑĥ": 5317,
      "ĠÑĥÐ»": 5318,
      "ort": 5319,
      "ĠÐ°Ð²Ð³ÑĥÑģÑĤÐµ": 5320,
      "ÐµÐ²Ð¸ÑĩÐ°": 5321,
      "ÑĨÐ¾Ð¼": 5322,
      "ĠÐ¾Ð±Ð»Ð°Ð´": 5323,
      "Ð¾Ð¹ÑĩÐ¸Ð²": 5324,
      "ĠÐŀÐ»ÑĮ": 5325,
      "ÐĹÐ¾Ð»Ð¾ÑĤ": 5326,
      "ĠÑĪÐµÑģÑĤ": 5327,
      "Ġ1974": 5328,
      "ĠÐºÐ¾Ð»ÑĮ": 5329,
      "ÑĢÐ¸Ð±": 5330,
      "ĠÐ²ÐµÑĢÑģÐ¸Ñı": 5331,
      "ÑĥÑĪÐºÐ¸": 5332,
      "ĠÑĦÐ¸Ð»Ð¾ÑģÐ¾ÑĦÐ¸Ð¸": 5333,
      "ĠÐ°ÑĢÐ¼Ð¸Ñı": 5334,
      "ÑĳÑĤÑĢ": 5335,
      "ĠÑģÐµÐ½ÑĤÑıÐ±ÑĢÐµ": 5336,
      "Ð½Ð°Ð±": 5337,
      "ÑĢÐ¸Ñĩ": 5338,
      "ĠÑĥÐ¶": 5339,
      "ĠÐ¾ÑĤÑģÑĤÐ°Ð²": 5340,
      "ĠÐ²ÐµÑĢÐ½ÑĥÐ»ÑģÑı": 5341,
      "Ð¾ÑĢÐµÑĩ": 5342,
      "ĠÐºÐ»Ð¸": 5343,
      "ĠÑģÐ¾Ð·Ð´Ð°Ð²": 5344,
      "ĠÐ¼Ð¸ÑģÑģ": 5345,
      "Ð°Ð»Ð¸Ð·Ð°": 5346,
      "Ġ1969": 5347,
      "ĠÐ¾ÐºÑĤÑıÐ±ÑĢÐµ": 5348,
      "Ð¸ÑĤÐµÐ»ÑĮÐ½ÑĭÐ¼": 5349,
      "ĠÑįÐ»ÐµÐ¼ÐµÐ½ÑĤÐ¾Ð²": 5350,
      "ĠÐ¿ÑĢÐµÐ¸Ð¼ÑĥÑīÐµÑģÑĤÐ²ÐµÐ½Ð½Ð¾": 5351,
      "Ð¸ÑĤÐµ": 5352,
      "ĠÐĺÑĢ": 5353,
      "ĠÐĲÐ¹": 5354,
      "ĠÑģÐ»ÑĥÐ¶Ð±Ñĭ": 5355,
      "ĠÐŁÐ°ÑĢ": 5356,
      "ĠÑģÐ¾ÑģÑĤÐ°Ð²Ð°": 5357,
      "ĠÑĦÐ¸ÑĢ": 5358,
      "ĠÑĨÐ¸Ðº": 5359,
      "Ð°ÑĤÐµÐ»ÑĮÑģÑĤÐ²Ð°": 5360,
      "ĠÐłÐ¸Ñĩ": 5361,
      "ÑĩÐ¸ÐºÐ¾Ð²": 5362,
      "Ġ1965": 5363,
      "ĠÐ»ÐµÐ¶": 5364,
      "ĠÐºÐ¾Ð¼Ð°Ð½Ð´Ð°": 5365,
      "ÐļÐ°Ðº": 5366,
      "Ð¾ÑıÐ½Ð¸Ðµ": 5367,
      "ĠÐ¸Ð·Ð²ÐµÑģÑĤÐ½Ð¾": 5368,
      "ÐĿÐļ": 5369,
      "ĠÐ§ÐµÑħ": 5370,
      "ĠÐ¿ÑĢÐ¾Ð½": 5371,
      "ĠÐ²ÐµÑģÑĮÐ¼Ð°": 5372,
      "Ð±ÑĭÐ²": 5373,
      "49": 5374,
      "ĠÐ¸ÑģÐºÑĥÑģÑģÑĤÐ²": 5375,
      "ĠÐĴÐ¸Ð½": 5376,
      "ÐĳÐ¾Ð»ÑĮÑĪ": 5377,
      "ĠÐĴÐµÐ½Ð³": 5378,
      "ĠÐ°Ð²ÑĤÐ¾Ð½Ð¾Ð¼": 5379,
      "ĠÐ»Ð¸ÑĤÐµÑĢÐ°ÑĤÑĥÑĢÐµ": 5380,
      "ĠÐ¡Ñĥ": 5381,
      "ĠÑįÐ¼Ð¸": 5382,
      "ĠÐ¿ÑĢÐ¾Ð¸Ð·Ð¾ÑĪÐ»Ð¾": 5383,
      "ĠÐ¾ÑĤÐ½Ð¾ÑģÑıÑĤÑģÑı": 5384,
      "ae": 5385,
      "Ð¾Ð³Ð¾ÑĢ": 5386,
      "ÐĲÐ´": 5387,
      "ĠÑģÐµÐ·Ð¾Ð½Ð°": 5388,
      "Ð°ÑİÑīÐ°Ñı": 5389,
      "ĠÑįÑģÑĤ": 5390,
      "ÑģÐ¾Ð»ÑİÑĤ": 5391,
      "ĠÐ½Ð¸ÐºÐ¾Ð³Ð´Ð°": 5392,
      "01": 5393,
      "ĠÐ¿Ð¾ÑĢÐ¾Ð´": 5394,
      "ĠÐ¿ÑĢÐ¸Ð½ÑıÑĤÐ¾": 5395,
      "ĠÐ¿ÑĢÐµÐ´ÑģÑĤÐ°Ð²Ð¸ÑĤÐµÐ»ÐµÐ¹": 5396,
      "Ġ1971": 5397,
      "Ð¾ÐºÐ¸": 5398,
      "ĠÐ£Ñĩ": 5399,
      "Ð¾Ð±ÐµÐ´": 5400,
      "ĠÐ¿Ð¸ÑĪ": 5401,
      "ĠÐ¸ÑģÐ¿Ð¾Ð»ÑĮÐ·Ð¾Ð²Ð°Ð½Ð¸Ðµ": 5402,
      "05": 5403,
      "ĠÐŁÐµÑĤÑĢÐ°": 5404,
      "Ð°Ð»ÑĮÐ½ÑĭÐ¼Ð¸": 5405,
      "ĠÐ¿Ð¾Ð»ÐºÐ¾Ð²": 5406,
      "Ð¸ÑĩÐ½ÑĭÐ¹": 5407,
      "Ġh": 5408,
      "ÑĭÐ´ÑĥÑī": 5409,
      "ĠÐ¾ÑĤÐ¿": 5410,
      "ĠÐ¼ÐµÐ½Ñı": 5411,
      "ĠÐĺÑģÑĤÐ¾ÑĢÐ¸Ñı": 5412,
      "ÑĪÐ¸Ð¼Ð¸": 5413,
      "Ð½ÑĭÐ½Ðµ": 5414,
      "ĠÐ´Ð°Ð½Ð½ÑĭÐµ": 5415,
      "ÐµÐºÐ¾": 5416,
      "ĠÐ°ÑĢÐ¼ÑıÐ½": 5417,
      "88": 5418,
      "ĠÐ¿ÑĢÐ¾ÑıÐ²": 5419,
      "ĠÐ½Ð°ÑħÐ¾Ð´Ð¸Ð»ÑģÑı": 5420,
      "ĠÐ´Ð¸Ð½Ð°ÑģÑĤÐ¸Ð¸": 5421,
      "ĠÐ¿Ð°ÑĢÑĤÐ¸Ñı": 5422,
      "ĠÐ½Ð°Ð¼": 5423,
      "ĠÐºÐ°Ð¼Ð¿": 5424,
      "ĠÐ¿ÐµÑĢÐµÐº": 5425,
      "ÐµÐ½Ð¾Ð¼": 5426,
      "ĠÐĿÐµÑģÐ¼Ð¾ÑĤÑĢÑı": 5427,
      "ight": 5428,
      "ĠÐĽÑİÐ±": 5429,
      "ĠÑģÐ¾Ð±Ð¸ÑĢÐ°": 5430,
      "ĠÐ±ÐµÐ´": 5431,
      "ĠÑįÐ»ÐµÐºÑĤÑĢÐ¸ÑĩÐµÑģÐº": 5432,
      "ĠÑĥÐ¿ÑĢÐ°Ð·Ð´Ð½": 5433,
      "Ð°ÑĤÐµÐ»ÑĮÐ½ÑĭÐ¹": 5434,
      "ĠÐºÐ¸Ð½Ð¾ÑĦ": 5435,
      "ĠÐ·Ð°Ð²Ð¾Ð´Ð°": 5436,
      "ĠÑģÐ»Ð°Ð²ÑıÐ½": 5437,
      "ĠÐ¿Ð¾Ð»Ð¾Ð²Ð¸Ð½Ðµ": 5438,
      "ĠÐ¶Ð¸Ð´": 5439,
      "ĠÐ¶ÑĥÑĢÐ½Ð°Ð»Ð°": 5440,
      "79": 5441,
      "Ð²Ð°Ð»": 5442,
      "Ð¾Ð»Ð¾Ñĩ": 5443,
      "Ð¸Ð½ÑĮ": 5444,
      "ĠÑĤÑĢÑĥÐ´Ð°": 5445,
      "ĠÑģÐ²Ð¾Ð¸Ð¼Ð¸": 5446,
      "ĠÐ¼Ð¸Ð»Ð»Ð¸Ð¾Ð½Ð¾Ð²": 5447,
      "04": 5448,
      "ĠÐĴÐ»Ð°Ð´Ð¸Ð¼Ð¸ÑĢÐ°": 5449,
      "ĠÐļÐ¸ÑĤ": 5450,
      "ÑĢÐ°Ð»Ð°": 5451,
      "ĠÐ´ÑĢÑĥÐ³Ð°": 5452,
      "ÑĢÐ¾ÑģÐ»Ð°Ð²": 5453,
      "ÑĢÐ¾ÐºÐ¸": 5454,
      "ÑģÐ¸Ð¸": 5455,
      "ĠÐ°ÑįÑĢÐ¾Ð¿": 5456,
      "Ð¼Ð°Ð¹": 5457,
      "ĠÐĲÐ»ÑĮÐ±": 5458,
      "ĠÑĥÑĢÐ¾Ð²ÐµÐ½ÑĮ": 5459,
      "Ð½ÐµÐ¼Ñĥ": 5460,
      "ĠÐ¼Ð¾ÑĤÐ¸Ð²": 5461,
      "ĠÑģÑİÐ¶ÐµÑĤ": 5462,
      "ĠÐ²ÑĭÑĪÐ»Ð°": 5463,
      "ĠÐľÐ¸ÑĢ": 5464,
      "ĠÐĹÐ°ÑĤÐµÐ¼": 5465,
      "ĠÐ½Ð°ÑģÑĩÐ¸ÑĤ": 5466,
      "ÐµÐ»ÐµÐ·": 5467,
      "Ġ1966": 5468,
      "ÐŁÐµÑĢÑģÐ¾Ð½": 5469,
      "Ð»ÐµÐ½Ð½ÑĭÑħ": 5470,
      "ĠÐľÐ°ÐºÑģÐ¸Ð¼": 5471,
      "ĠÐ¿ÑĢÐ¸ÑģÐ²Ð¾": 5472,
      "Ġ1938": 5473,
      "ĠÐºÐ¾Ð¶": 5474,
      "ĠÐ¾ÐºÐºÑĥÐ¿": 5475,
      "Ð¾Ð»ÑĮÑĦ": 5476,
      "ĠÐľÑĥÐ·": 5477,
      "ĠÐĶÐ¸": 5478,
      "ĠÐ½ÐµÐ¾Ð´Ð½": 5479,
      "ĠÑĤÐ¸ÑĤÑĥÐ»": 5480,
      "ĠÑĤÑĢÐ°ÐºÑĤ": 5481,
      "ĠÐ³Ð²Ð°ÑĢÐ´": 5482,
      "Ð°ÑĤÑĮÑı": 5483,
      "ĠÐ²Ð¾Ð·Ð´ÐµÐ¹ÑģÑĤÐ²": 5484,
      "ĠĊĠĊĠĊ": 5485,
      "ĠÐ¿ÑĢÐ¾Ð±Ð»ÐµÐ¼Ñĭ": 5486,
      "ĠÐĵÑĢÐ¸Ð³Ð¾ÑĢ": 5487,
      "ĠÐ¥Ð¾ÑĢ": 5488,
      "ĠÐ°ÑĤÐ¼": 5489,
      "ĠÑģÐ»ÑĥÑĩÐ°ÑıÑħ": 5490,
      "ÑĨÐ¸Ð¾Ð½Ð½Ð°Ñı": 5491,
      "Ð¾Ð»Ð¾Ð³Ð¸ÑĩÐµÑģÐºÐ¸Ñħ": 5492,
      "ĠÐ°Ð½Ð°Ð»Ð¸Ð·": 5493,
      "ĠÐ¿ÑĢÐ¾Ð´ÑİÑģ": 5494,
      "ÑĩÐµÑģÐºÐ¾Ð¹": 5495,
      "ĠÑĥÑĢÐ°Ð²Ð½": 5496,
      "Ð½ÑĥÑĤÑĮ": 5497,
      "ÐµÑĢÑĭÐ²": 5498,
      "Ð»Ð¾ÑĤÑĮ": 5499,
      "ĠÐ¾Ð±Ð¼ÐµÐ½": 5500,
      "ÑĦÐ¾Ð½": 5501,
      "ĠSp": 5502,
      "ĠÐ¼Ð¾Ð´ÐµÐ»Ð¸": 5503,
      "ĠÑĤÐµÐ°ÑĤÑĢ": 5504,
      "ÐºÑĤÐ¸Ð²": 5505,
      "ÐĿÐµ": 5506,
      "ĠÐ¿Ð¾ÑģÐ»ÐµÐ´Ð½Ð¸Ðµ": 5507,
      "ass": 5508,
      "ĠÐļÐ¸ÑĢ": 5509,
      "ĠÐ½Ð°ÑĥÑĩÐ½Ð¾": 5510,
      "Ð»ÑĥÑĩÑĪ": 5511,
      "Ð¡ÑĢÐµÐ´": 5512,
      "Ġ1963": 5513,
      "Ġ1919": 5514,
      "Ġ45": 5515,
      "ĠÑģÑĥÐ´Ð°": 5516,
      "ĠÑģÐ¿ÑĥÑĤ": 5517,
      "ĠÐ±Ð°Ð·Ðµ": 5518,
      "ĠÐ¤Ð¾ÑĢ": 5519,
      "Ð¾ÑĢÐ°ÑĤÐ¾ÑĢ": 5520,
      "ĠÑģÐ¾Ð²ÑĢÐµÐ¼ÐµÐ½Ð½ÑĭÑħ": 5521,
      "ĠÐ¿ÐµÑģÐ½Ñı": 5522,
      "Ð¸Ð´Ðµ": 5523,
      "Ð¾ÑħÐ¾Ð·ÑıÐ¹": 5524,
      "ĠÐ³Ð°ÑĢ": 5525,
      "Ġ500": 5526,
      "ĠÐŁÐµÑĢÐ²ÑĭÐ¹": 5527,
      "ĠÐ»Ð¸Ðº": 5528,
      "ÑĤÐ°Ð¹": 5529,
      "ĠÐ¿Ð¾ÑıÐ²Ð¸Ð»Ð¸ÑģÑĮ": 5530,
      "185": 5531,
      "ĠÐ°ÐºÑĤÐ¸Ð²Ð½Ð¾": 5532,
      "ĠÐ´Ð°Ð»ÑĮÐ½ÐµÐ¹ÑĪÐµÐ¼": 5533,
      "ĠÐ³Ð¾ÑģÑĤ": 5534,
      "ĠÐ¿Ð¾ÑģÐ»ÐµÐ´Ð½Ð¸Ð¹": 5535,
      "ĠÐ²Ð¾Ð·Ð´ÑĥÑĪ": 5536,
      "Ġ&": 5537,
      "ĠÐ¶ÑĥÑĢÐ½Ð°Ð»": 5538,
      "ĠÐĶÐ¼Ð¸ÑĤÑĢÐ¸Ð¹": 5539,
      "Ð°ÑĳÑĤÑģÑı": 5540,
      "69": 5541,
      "ÑĥÐ¼ÐµÐ½ÑĤ": 5542,
      "ĠÑģÐ´": 5543,
      "ows": 5544,
      "Ð°Ð²Ð°": 5545,
      "ack": 5546,
      "ĠÐĽÐ°ÑĤ": 5547,
      "Ð¡ÐµÐ¼": 5548,
      "ĠÑģÑĤÑĢÐµÐ»": 5549,
      "Ð½ÐµÐ¿": 5550,
      "ĠÐ·Ð°ÐºÑĢÑĭÑĤ": 5551,
      "ĠBl": 5552,
      "ĠÐĵÑĢÑĥÐ·": 5553,
      "ĠÑģÐ±Ð¾ÑĢÐ½Ð¾Ð¹": 5554,
      "ĠÑħÑĢÐ¾Ð½": 5555,
      "Ð»Ð°Ð¶": 5556,
      "Ð°ÑĤÐµÐ»ÑĮÐ½Ð¾ÑģÑĤÐ¸": 5557,
      "ĠÐ±Ð°ÑģÑģ": 5558,
      "ĠÑģÐ¾Ð¿ÑĢÐ¾ÑĤÐ¸Ð²": 5559,
      "ĠÑĢÐµÑģÐ¿ÑĥÐ±Ð»Ð¸ÐºÐ¸": 5560,
      "ĠÐ²ÑģÑĤÑĢÐµÑĤ": 5561,
      "ÑģÑĤÐ°Ð½Ð¾Ð²": 5562,
      "ĠÑģÐ¿ÑĥÑģÑĤÑı": 5563,
      "Ð¾Ð»ÑıÑħ": 5564,
      "89": 5565,
      "ĠÑĢÐµÑģÑĥÑĢ": 5566,
      "Ð»Ð°Ð¹": 5567,
      "ĠÐ²Ð¾ÐµÐ²": 5568,
      "Ð²ÑĳÑĢÑĤ": 5569,
      "ĠÐ·Ð²ÐµÐ·Ð´": 5570,
      "ĠÐ¿Ð¾ÐºÐ¾Ð»": 5571,
      "ĠÐ²ÑĭÑģÐ¾ÑĤ": 5572,
      "ĠÑģÑĤÐ°": 5573,
      "ÐµÑĢÐ°Ð¿": 5574,
      "Ð½Ð¸ÐºÑĥ": 5575,
      "ĠÐ±ÑĥÐ´ÑĥÑĤ": 5576,
      "ĠÐ²ÑĢÐµÐ¼ÐµÐ½ÐµÐ¼": 5577,
      "Ð¡Ð¾Ð±": 5578,
      "ĠÐ³Ð»Ð°Ð·": 5579,
      "ĠÐ¡Ð°Ð»": 5580,
      "ĠÐłÐ¾Ð±ÐµÑĢÑĤ": 5581,
      "ĠÑĢÐµÐ¶Ð¸ÑģÑģÑĳÑĢÐ°": 5582,
      "ĠÐ°Ð¿ÑĢÐµÐ»Ðµ": 5583,
      "ĠÐŁÐµÑĤÐµÑĢÐ±ÑĥÑĢÐ³": 5584,
      "ĠÐ²Ð¾Ð¹ÑģÐºÐ°Ð¼Ð¸": 5585,
      "71": 5586,
      "ĠÐ¢Ð¸Ñħ": 5587,
      "ĠÐ¾Ð±ÑıÐ·Ð°Ð½": 5588,
      "ĠÐ½Ð°Ð·Ð°Ð´": 5589,
      "ĠÐ¿ÑĢÐµÐ´ÑĭÐ´ÑĥÑī": 5590,
      "ĠÐ¼Ð°ÑĤÑĮ": 5591,
      "ĠÐ´ÐµÐ¼Ð¾ÐºÑĢÐ°ÑĤ": 5592,
      "Ð»ÐµÐ½Ð½ÑĭÐµ": 5593,
      "ĠÑĤÐ¾Ð¿Ð»Ð¸Ð²": 5594,
      "ÐµÐ½Ð¾Ð²": 5595,
      "ĠÐ¸ÑģÑĤÐ¾ÑĢÐ¸Ñİ": 5596,
      "ĠÐ¿ÑĢÐ¸Ð¾Ð±": 5597,
      "ĠÐ¾ÑĦÐ¸ÑĨÐ¸Ð°Ð»ÑĮÐ½Ð¾": 5598,
      "Ð´ÐµÑĢ": 5599,
      "ĠÐ¸ÑģÐ¿Ð¾Ð»Ð½Ñı": 5600,
      "ÐŁÐµÑĢÑģÐ¾Ð½Ð°Ð»Ð¸Ð¸": 5601,
      "ĠÐ²ÐµÑĢÑĤ": 5602,
      "ÑĥÑĩÐ¸": 5603,
      "ĠÑĦÐ¸Ð»": 5604,
      "ĠÐ¢Ð¾ÑĢ": 5605,
      "ÐµÐ·Ð´Ðµ": 5606,
      "ĠÐĹÐµÐ¼Ð»Ð¸": 5607,
      "ÐŀÐ±Ñī": 5608,
      "ĠÑĥÐ²Ð¸Ð´": 5609,
      "Ð°ÑĤÐµÐ»ÑĮÐ½Ð¾Ð³Ð¾": 5610,
      "ĠÐłÑĥ": 5611,
      "ĠÑĢÐ°ÑģÐ¿ÑĢÐµÐ´ÐµÐ»": 5612,
      "ĠÐ¼Ð¾Ð·": 5613,
      "ĠÐ½Ð°Ð¿ÑĢÑıÐ¶": 5614,
      "ĠÐ½Ð¾ÑıÐ±ÑĢÐµ": 5615,
      "Ð¸ÑĩÐµÑģÐºÐ¾Ð¼Ñĥ": 5616,
      "ĠÐ¿Ð¾ÑģÐµÑĤ": 5617,
      "ĠÐŁÑĢÐµÐ¼": 5618,
      "ĠÐ´Ð¶": 5619,
      "Ð°Ð½Ñĥ": 5620,
      "ain": 5621,
      "ÑĩÐµÐ·": 5622,
      "ĠÐ¾Ð±ÑĢÐ°Ð±Ð¾ÑĤ": 5623,
      "ĠÐºÐ¾Ð»Ð»ÐµÐº": 5624,
      "ĠÑģÐ¾ÑģÑĤÐ¾ÑıÐ½Ð¸Ðµ": 5625,
      "ÑĢÐ³": 5626,
      "Ð¾Ð´Ñĥ": 5627,
      "ÑĢÐ°Ð»Ð¸": 5628,
      "ÑĢÐ¾Ð¹ÐºÐ¸": 5629,
      "ÐµÐ»Ð»Ð¸": 5630,
      "Ð¸ÑĤÐ¸": 5631,
      "ÐŃÑĤÐ¾ÑĤ": 5632,
      "ĠÐºÐ½Ð¸Ð³Ð°": 5633,
      "Ð°Ð½Ð½ÑĭÐ¼": 5634,
      "ĠÑįÐºÐ¾Ð½Ð¾Ð¼Ð¸ÐºÐ¸": 5635,
      "ĠÑĥÑģÐ»Ð¾Ð²Ð¸Ñı": 5636,
      "ĠÐ¢Ð°Ð¼": 5637,
      "ÐµÐ¸": 5638,
      "ĠÐŁÑĥÑĤ": 5639,
      "ÑĢÐ°ÑĨÐ¸Ñı": 5640,
      "Ġ1962": 5641,
      "ĠÑįÐ½ÐµÑĢÐ³Ð¸Ð¸": 5642,
      "ĠÐ·Ð´Ð¾ÑĢÐ¾Ð²": 5643,
      "ÑģÑĤÐµÑĢ": 5644,
      "ĠÐ¿ÑĢÐ°Ð²Ð¸Ð»": 5645,
      "ĠÐ³ÑĢÑĥÐ¿Ð¿Ñĥ": 5646,
      "ĠÐ³Ð¾ÑģÑĥÐ´Ð°ÑĢÑģÑĤÐ²ÐµÐ½Ð½Ð¾Ð¹": 5647,
      "ÐļÐĲ": 5648,
      "ÐºÐ¾Ð²ÑģÐºÐ¾Ð³Ð¾": 5649,
      "ĠÐ¼Ð°Ð³Ð½Ð¸ÑĤ": 5650,
      "ect": 5651,
      "ĠÐ¿ÑĢÐµÐºÑĢÐ°Ñī": 5652,
      "ĠÐ¿ÑĢÐµÐ¼ÑĮÐµÑĢ": 5653,
      "67": 5654,
      "Ð»ÑĳÐ½": 5655,
      "Ð³Ð¾Ð½": 5656,
      "ĠÐ¡Ð¾Ð»Ð½": 5657,
      "ĠÑĢÐ°Ð·Ð¼ÐµÑī": 5658,
      "ĠÐ·Ð°ÑīÐ¸ÑĤÑĭ": 5659,
      "ĠÐ¾Ð±ÑĬÐµÐºÑĤÐ¾Ð²": 5660,
      "Ð¸Ð½ÑģÐºÐ¾Ð¼": 5661,
      "ĠÐ°Ð²ÑĤÐ¾Ð¼Ð¾Ð±Ð¸Ð»ÑĮ": 5662,
      "ĠÑģÐ»Ð°Ð±": 5663,
      "ĠÐ¿Ð¸Ð»": 5664,
      "Ġ1937": 5665,
      "ĠÑģÐ¾Ð·Ð½": 5666,
      "ĠÐºÐ»ÑĥÐ±Ð°": 5667,
      "Ð¸Ð»Ð¾Ð²": 5668,
      "ĠÐŁÐ¾ÑįÑĤÐ¾Ð¼Ñĥ": 5669,
      "62": 5670,
      "ĠÐ¼ÑĥÐ·ÑĭÐºÐ¸": 5671,
      "ĠÑģÐ¾Ð±ÑĭÑĤÐ¸Ñı": 5672,
      "Ð¾ÑĤÐ¸Ð¿": 5673,
      "ÑģÐ²": 5674,
      "Ð¾Ð¶Ð´ÐµÐ½Ð¸Ð¸": 5675,
      "ĠÐĿÐµÐºÐ¾ÑĤÐ¾ÑĢÑĭÐµ": 5676,
      "Ð»Ð°Ñħ": 5677,
      "ast": 5678,
      "ĠÐ¿ÑĥÑĤÐµÑĪÐµÑģÑĤÐ²": 5679,
      "ÑıÑĢ": 5680,
      "ĠÐŀÑĦÐ¸ÑĨÐ¸Ð°Ð»ÑĮÐ½ÑĭÐ¹": 5681,
      "Ð¾ÑĩÐ½ÑĭÐ¹": 5682,
      "ĠÐĶÐ°Ð²": 5683,
      "--": 5684,
      "ĠÐŃÐ»": 5685,
      "Ð¾Ð²Ð°Ð½Ð¾": 5686,
      "ĠÑĤÐµÑĢÐ¼": 5687,
      "Ð¡ÑİÐ¶ÐµÑĤ": 5688,
      "ĠÑįÐ¿Ð¸Ð·Ð¾Ð´": 5689,
      "ĠÑĤÐ°Ð½ÐºÐ¾Ð²": 5690,
      "ĠÐ´Ð¾Ð¼Ðµ": 5691,
      "ÑģÑĤÐ²Ð¸Ñı": 5692,
      "ĠÐ¿ÑĢÐ¸Ð²Ð¾Ð´Ð¸ÑĤ": 5693,
      "ÑĥÑģÐ»Ð¾Ð²": 5694,
      "ĠÐ·Ð°Ð½ÑıÐ»": 5695,
      "ÐµÐ½Ð½Ð¾ÑģÑĤÑĮ": 5696,
      "ĠÑĥÐ»ÑĥÑĩÑĪ": 5697,
      "ÑĮÑıÐ¼Ð¸": 5698,
      "ĠÑĩÐ»ÐµÐ½Ñĭ": 5699,
      "ÑĢÐµÑĩ": 5700,
      "ĠÐ¥Ð°ÑĢ": 5701,
      "ĠÐºÐ¾Ð½ÑĨÐµÐ½ÑĤ": 5702,
      "Ð»ÑıÑİÑĤ": 5703,
      "ĠÑĤÐµÐ»ÐµÐ²": 5704,
      "ÑĢÐµÐ½Ð¸Ðµ": 5705,
      "ĠÐ·ÐµÐ¼Ð»Ñı": 5706,
      "Ġ;": 5707,
      "ĠÎ": 5708,
      "ĠÐ²Ð°Ð»": 5709,
      "ĠÐ¾ÑģÐ½Ð¾Ð²Ð½Ð¾Ð¹": 5710,
      "ĠĊĊĠĊ": 5711,
      "ÑĤÐ°Ð¶": 5712,
      "ĠÐµÐ¶ÐµÐ³Ð¾Ð´": 5713,
      "Ð»ÐµÐ½Ð½ÑĭÐ¹": 5714,
      "ÑģÑĤÐ²ÐµÐ½Ð½ÑĭÐ¹": 5715,
      "Ġ1964": 5716,
      "XV": 5717,
      "ÑĨÐ¸Ð¾Ð½Ð½Ð¾": 5718,
      "ÑĢÐ°Ð±Ð°ÑĤ": 5719,
      "ĠÑĥÐ½Ð¸Ð²ÐµÑĢÑģÐ¸ÑĤÐµÑĤÐµ": 5720,
      "ĠÑĢÐ°Ð·Ð½Ð¾Ð¾Ð±ÑĢÐ°Ð·": 5721,
      "Ð¸ÑĩÐ½ÑĭÑħ": 5722,
      "ĠÐ¿ÑĢÐ¸ÑĳÐ¼": 5723,
      "ĠÐłÑĭ": 5724,
      "ĠÐ·Ð°ÑģÑĤÐ°Ð²": 5725,
      "Ġ1961": 5726,
      "ĠÐ°Ð½Ð³Ð»Ð¸Ð¹ÑģÐºÐ¸Ð¹": 5727,
      "ĠÐĲÐºÐ°Ð´ÐµÐ¼Ð¸Ð¸": 5728,
      "ĠÐ¼ÐµÐ½ÑĮÑĪÐµ": 5729,
      "03": 5730,
      "ĠÑģÐµÐ»": 5731,
      "Ð·Ñı": 5732,
      "ĠÐ°ÑģÑĤÑĢÐ¾Ð½Ð¾Ð¼": 5733,
      "Ð¸Ð²ÑĪÐ¸ÑģÑĮ": 5734,
      "ĠÑįÐºÑĢÐ°Ð½": 5735,
      "ĠÐļÑĥÐ·": 5736,
      "ĠÐľÐ¸Ð½Ð¸ÑģÑĤÐµÑĢ": 5737,
      "ÐµÑĢÐ°Ð½": 5738,
      "ĠÑįÐ¿Ð¾ÑħÐ¸": 5739,
      "ĠÐľÐ°ÑĢÐ¸Ñı": 5740,
      "47": 5741,
      "ĠÑįÐºÑģÐ¿ÐµÑĢÐ¸Ð¼ÐµÐ½ÑĤ": 5742,
      "ĠÐĴÐ°ÑģÐ¸Ð»Ð¸Ð¹": 5743,
      "Ð¾Ð¿Ð¾Ð»": 5744,
      "ÑĳÑĢÑĤ": 5745,
      "ÑĮÐµÑĢÐ°": 5746,
      "Ð¸ÑĢÐ¾Ð²ÐºÐ¸": 5747,
      "ĠÐ¡Ð°Ð²": 5748,
      "ĠÐĽÐ°": 5749,
      "ÑģÑĤÐ²ÐµÐ½Ð½Ð¾Ð³Ð¾": 5750,
      "Ð¶ÐµÐ½Ð¸Ñı": 5751,
      "ĠÑħÐ¾Ðº": 5752,
      "ĠÑĢÐµÐ°Ð»Ð¸Ð·": 5753,
      "ĠÑĤÐ°ÐºÐ¾Ð³Ð¾": 5754,
      "ĠÑĦÐ¾ÑĢÐ¼Ð°": 5755,
      "95": 5756,
      "Ð¸Ð²Ð°Ð½Ð¸Ðµ": 5757,
      "ĠÐĵÑĢÐ°": 5758,
      "ĠÐ¸Ð½Ð´Ð¸Ð²": 5759,
      "ĠÐ²ÐµÑĢÑĪ": 5760,
      "ĠÐŀÐºÑĤ": 5761,
      "ĠÑģÐ¼ÐµÑĪ": 5762,
      "ĠÐ¿Ð¾ÑģÑĤÐ¾ÑıÐ½Ð½Ð¾": 5763,
      "ĠÐ¥Ð¾Ð»": 5764,
      "Ð¾Ð³Ð°": 5765,
      "ĠÐ±Ð¾Ð»ÑĮÑĪÑĥÑİ": 5766,
      "42": 5767,
      "ĠÐ²Ð¾ÐµÐ½Ð½Ð¾Ð¹": 5768,
      "ĠÐ¼Ð°Ð»Ð¾": 5769,
      "ĠÐŁÐ°ÑĢÐ¸Ð¶": 5770,
      "ĠÑĩÐ°ÑģÑĤÐµÐ¹": 5771,
      "ĠÐ¿Ð¾Ð»ÑĥÑĩÐ¸ÑĤÑĮ": 5772,
      "ĠÐ¤ÐµÑĢ": 5773,
      "Ð¸ÑĩÐ½Ð¾Ð¹": 5774,
      "ĠÐ¼Ð¾Ð´ÐµÐ»ÑĮ": 5775,
      ".-": 5776,
      "ĠÐ´ÑĢÑĥÐ¶": 5777,
      "ÐĴÑĭ": 5778,
      "ĠÐºÐ¾Ð½ÑĤÑĢÐ¾Ð»ÑĮ": 5779,
      "ĠÐŁÐ¾Ð¿": 5780,
      "ĠÐ¸Ð½Ð¶ÐµÐ½ÐµÑĢ": 5781,
      "Ã¼": 5782,
      "ĠÑĤÐµÐ»ÐµÑĦ": 5783,
      "02": 5784,
      "ĠÐ¾ÑĤÑĢÑıÐ´": 5785,
      "ĠÐ´ÐµÐ¹ÑģÑĤÐ²Ð¸Ðµ": 5786,
      "ĠÐĶÐ¶Ð¾ÑĢÐ´Ð¶": 5787,
      "ĠÐ²Ð°Ð³": 5788,
      "ĠÐĶÐ¶ÐµÐ¹Ð¼": 5789,
      "ĠÐ±Ð¾Ð¹": 5790,
      "ĠÐ¿Ð¾Ð»ÑĳÑĤ": 5791,
      "Ð»ÐµÐ´ÑģÑĤÐ²Ð¸Ðµ": 5792,
      "ĠÐ±ÑĥÑĢ": 5793,
      "ÑĥÑĩÐµÐ½": 5794,
      "ĠÐ´ÑĢÑĥÐ·": 5795,
      "ĠÑģÐºÐ¾ÑĢÐ¾ÑģÑĤÑĮ": 5796,
      "ĠÑĪÐ²ÐµÐ´": 5797,
      "ÐºÑĢÑĭÑĤ": 5798,
      "ĠÑĢÐµÐºÐµ": 5799,
      "ÑĢÑĥÐµÑĤ": 5800,
      "ĠÐ½Ð°ÑĩÐ°Ð»Ð¾ÑģÑĮ": 5801,
      "ĠÐ¸Ð·Ð²ÐµÑģÑĤÐ½ÑĭÐ¹": 5802,
      "ÐŀÑĢ": 5803,
      "ĠÐºÐ¾Ð¼Ð¿Ð¾Ð½": 5804,
      "ĠÑģÐ¾Ð·Ð´Ð°Ð½Ð¸Ðµ": 5805,
      "ĠÑĨÐ²ÐµÑĤÐ°": 5806,
      "ĠÑĥÑĩÐ°ÑģÑĤÐ²Ð¾Ð²Ð°Ð»": 5807,
      "ĠÐ±Ð¸Ð·Ð½ÐµÑģ": 5808,
      "ich": 5809,
      "ĠÐĳÐµÑĢÐ»Ð¸Ð½": 5810,
      "ÑĨÐ¾": 5811,
      "ĠÐ´Ð¾Ð»Ð¶Ð½Ð¾ÑģÑĤÐ¸": 5812,
      "ĠÑĦÐµÐ²ÑĢÐ°Ð»Ðµ": 5813,
      "Ð²Ð°Ð½": 5814,
      "ĠÑĤÐµÐ¼Ð¿ÐµÑĢÐ°ÑĤÑĥÑĢÐ°": 5815,
      "ĠÐ¿Ð¾Ð´ÑĢÐ°Ð·Ð´ÐµÐ»": 5816,
      "ung": 5817,
      "ĠÐ¸ÑİÐ»Ðµ": 5818,
      "ĠÐ¿ÑĢÐ¾Ð´Ð°Ð¶": 5819,
      "ĠÐ¿ÑĥÐ½ÐºÑĤÑĭ": 5820,
      "ĠÐ¿ÑĢÐ¾ÑħÐ¾Ð´Ð¸ÑĤ": 5821,
      "Ġ1956": 5822,
      "ĠÐĳÐµÐ½": 5823,
      "Ð»Ð°Ð³Ð°": 5824,
      "ĠÐĲÐº": 5825,
      "Ġ300": 5826,
      "ĠÐ¢Ð¾Ð»": 5827,
      "ĠÐłÐĲÐĿ": 5828,
      "Ġ1958": 5829,
      "ĠÑģÐ½Ð°ÑĩÐ°Ð»Ð°": 5830,
      "ang": 5831,
      "Ð±Ð¾Ð¹": 5832,
      "ĠÐ¶ÐµÐ»ÐµÐ·Ð½Ð¾Ð¹": 5833,
      "ĠÑģÑĤÑĢÐ°ÑĤÐµÐ³": 5834,
      "ĠÐ¼ÐµÐ´Ð°Ð»ÑĮ": 5835,
      "ÑĥÐ»ÑĤ": 5836,
      "ond": 5837,
      "ĠÐ´ÐµÐ¿ÑĥÑĤÐ°ÑĤÐ¾Ð²": 5838,
      "ĠÐ½Ð°ÑħÐ¾Ð´ÑıÑī": 5839,
      "ÑĢÐ¸ÑĦ": 5840,
      "ĠÐ½Ð°Ð¿Ð°Ð´": 5841,
      "ĠÑĤÐµÐ¿ÐµÑĢÑĮ": 5842,
      "oy": 5843,
      "Ð°ÐºÑĤÐ¸Ð²": 5844,
      "ĠÐ²Ð¾Ð¹Ð½Ñĥ": 5845,
      "ĠÐŁÑĳÑĤÑĢ": 5846,
      "ĠÑįÐ½ÑĨÐ¸ÐºÐ»Ð¾Ð¿": 5847,
      "XI": 5848,
      "ĠÐ±ÐµÑģ": 5849,
      "ĠÑħÐ°ÑĢÐ°ÐºÑĤÐµÑĢÐ¸Ð·": 5850,
      "Ð¸Ð¹ÑģÐºÐ¸Ðµ": 5851,
      "Ð¸ÑĤÐµÐ»ÑĮÑģÑĤÐ²Ð¾": 5852,
      "ĠÐ¸ÑİÐ½Ðµ": 5853,
      "ĠÐ´Ð¾ÐºÑĤÐ¾ÑĢ": 5854,
      "ĠÑģÐ´ÐµÐ»Ð°ÑĤÑĮ": 5855,
      "Ð¾ÐºÐ¾Ð²": 5856,
      "ĠÐĵÑĥ": 5857,
      "ĠÐ¾Ð·Ð½Ð°ÑĩÐ°ÐµÑĤ": 5858,
      "Ð¾Ð²Ð°Ð½Ð¸Ñİ": 5859,
      "ÐµÐ±ÑİÑĤ": 5860,
      "ĠÐ·Ð°Ð»Ð¾Ð¶": 5861,
      "ĠÑĥÑĢÐ¾Ð²Ð½Ðµ": 5862,
      "ĠÑįÐ¼": 5863,
      "Ð¾ÑģÑģÐ¸Ñı": 5864,
      "ĠNGC": 5865,
      "ĠÐ¶ÐµÑģÑĤ": 5866,
      "ÐĺÐ³": 5867,
      "ĠÐ¾ÑĤÐ´ÐµÐ»ÑĮÐ½ÑĭÑħ": 5868,
      "ĠÑĢÐ¸Ñģ": 5869,
      "ÑĦÐ¾ÑĢÐ¼Ñĭ": 5870,
      "Ġ1959": 5871,
      "ĠÐļÐ¾ÑĢÐ¾Ð»ÐµÐ²": 5872,
      "ies": 5873,
      "Ð°ÑĢÐ¸ÑģÑĤ": 5874,
      "ĠÐ®Ð¶Ð½Ð¾Ð¹": 5875,
      "Ð¾Ð¼Ð¸Ð½Ð°": 5876,
      "ĠÐ·Ð°Ð²Ð¸Ñģ": 5877,
      "ĠÑģÐ¾Ð±ÑĭÑĤÐ¸Ð¹": 5878,
      "ĠÐ»Ð¸ÑĨÐ°": 5879,
      "ĠÐ²Ð¾ÑģÐ¿Ð¸ÑĤ": 5880,
      "ĠÑĥÐ¿ÑĢÐ°Ð²Ð»ÐµÐ½Ð¸Ðµ": 5881,
      "ĠÑģÐµÐ½": 5882,
      "ÐµÐ¼ÑĭÐ¹": 5883,
      "ĠAm": 5884,
      "Ð¾ÑĢÐ³Ð°Ð½": 5885,
      "Ð³Ð¾Ð»ÑĮ": 5886,
      "ĠÑģÐ²ÐµÑĤÐ°": 5887,
      "ĠÐ·Ð´Ð°Ð½Ð¸Ðµ": 5888,
      "Ð°ÑĥÑĢÐµÐ°ÑĤ": 5889,
      "ĠÐ¾ÑĢÐ¸Ð³Ð¸Ð½Ð°Ð»ÑĮÐ½Ð¾Ð¹": 5890,
      "ĠÐ¾ÑĢÐ¸": 5891,
      "ĠÐĿÐ¸ÐºÐ¾Ð»Ð°Ñı": 5892,
      "Ð·Ð½": 5893,
      "ĠÐ³Ð»Ð°Ð²Ð½ÑĭÐ¹": 5894,
      "ĠÐ¿Ð°Ð¼ÑıÑĤÐ½Ð¸Ðº": 5895,
      "Ð¼Ð¾Ð²": 5896,
      "Ð¼ÐµÐ½Ð½Ð¾": 5897,
      "Ð¸ÑĢÐ¾Ð²Ð°Ð»Ð¸": 5898,
      "ĠÐ½ÐµÐ¾Ð±ÑħÐ¾Ð´Ð¸Ð¼Ð¾": 5899,
      "ĠÐ©": 5900,
      "ĠÐ½ÐµÑĥÐ´Ð°": 5901,
      "ĠÐ²Ð½ÐµÑģ": 5902,
      "ĠÑĢÐ°Ð·Ð°": 5903,
      "ĠÐºÐ°Ð²Ð°Ð»": 5904,
      "ĠÐ»Ð°Ð±": 5905,
      "ĠÐ¿ÐµÑħ": 5906,
      "ÑĤÐ¸Ð½": 5907,
      "ÐĿÐ°ÑģÐµÐ»ÐµÐ½Ð¸Ðµ": 5908,
      "ĠÐ¿Ð¾ÑĢÑĥÑĩ": 5909,
      "ĠÐ½Ð°Ð»Ð¾Ð³": 5910,
      "ĠÐ¡ÑĥÐ´": 5911,
      "09": 5912,
      "ĠÑģÑĤÐ¸ÑħÐ¾ÑĤÐ²Ð¾ÑĢ": 5913,
      "ĠÐ¾ÑĢÑĥÐ¶Ð¸Ñı": 5914,
      "Ġ1957": 5915,
      "ĠÑģÑĥÐ´ÑĮ": 5916,
      "ĠÐ³Ð¾Ð²Ð¾ÑĢÐ¸ÑĤ": 5917,
      "06": 5918,
      "ĠÐºÐ»Ð¸Ð½": 5919,
      "ÑĨÐºÐ¸Ð¹": 5920,
      "ĠÐŁÐ¾Ð·": 5921,
      "ont": 5922,
      "ĠÐ¿ÑĢÐ¸Ð³Ð»Ð°ÑĪ": 5923,
      "ĠÐ¾Ð±ÑģÐ»ÑĥÐ¶": 5924,
      "ĠÐ±Ð¾Ð¼Ð±": 5925,
      "41": 5926,
      "ÐµÑĢÐ°Ð¼": 5927,
      "ĠÐĹÐ´ÐµÑģÑĮ": 5928,
      "ÐĶÐ¾": 5929,
      "ĠÑģÐ²Ð¾ÐµÐ¼Ñĥ": 5930,
      "Ð¾ÐºÑĢÐ°ÑĤÐ½Ð¾": 5931,
      "ĠÐ¿ÑĢÐµÐ´Ð»Ð°Ð³": 5932,
      "ĠÐļÐŁÐ¡Ð¡": 5933,
      "ĠÐ²Ð¾ÐµÐ½Ð½Ð¾Ð³Ð¾": 5934,
      "ĠÑĢÐ°ÑģÑħÐ¾Ð´": 5935,
      "ĠÑģÐ¾ÑģÑĤÐ¾ÑıÐ½Ð¸Ð¸": 5936,
      "ĠÐ¿ÑĢÐµÐ²ÑĢÐ°Ñī": 5937,
      "Ð¾ÑģÑĭ": 5938,
      "ĠÐ±ÑĥÐ´Ð´": 5939,
      "ĠÐ°Ð¼ÐµÑĢÐ¸ÐºÐ°Ð½ÑģÐºÐ°Ñı": 5940,
      "ĠÐ²ÑĭÐ±Ð¾ÑĢÐ°Ñħ": 5941,
      "ĠÐŃÐ¼": 5942,
      "ĠÐ¿Ð¾ÑģÑĤÐµÐ¿ÐµÐ½Ð½Ð¾": 5943,
      "ĠÑģÐ¾Ð²ÐµÑĤÑģÐºÐ¾Ð¹": 5944,
      "ĠÐ¿ÐµÑĢÐµÑĩÐ¸ÑģÐ»ÐµÐ½": 5945,
      "ÑįÐ»": 5946,
      "ĠÐļÐ°Ð²ÐºÐ°Ð·": 5947,
      "ĠÐ²ÑĭÑĤ": 5948,
      "ĠÑĩÐ°ÑīÐµ": 5949,
      "ĠTh": 5950,
      "Ð½Ð¾Ð·": 5951,
      "ĠÐĺÐµÑĢ": 5952,
      "ĠÐ£Ð¸Ð»ÑĮÑıÐ¼": 5953,
      "ĠÐ¼Ð°ÑĤÐµÑĢ": 5954,
      "ĠÑĤÑĢÐ°Ð´Ð¸ÑĨÐ¸Ð¸": 5955,
      "ÑĳÐ¼Ð°": 5956,
      "Ð¼Ð¸Ð½Ð¸ÑģÑĤÑĢÐ°ÑĤÐ¸Ð²": 5957,
      "Ð¾ÑĢÐ´Ð¸Ð½": 5958,
      "ire": 5959,
      "ÐµÐ½Ð´Ð°": 5960,
      "ĠÐŁÐµÑĢÐ²Ð¾Ð¹": 5961,
      "08": 5962,
      "ĠÐºÐ¾Ð¼Ð¼ÐµÑĢ": 5963,
      "ÐºÐ¸Ð¿Ð°Ð¶": 5964,
      "ĠÐ»Ð¸ÑĤ": 5965,
      "Ð°Ð»Ð¸ÑĤ": 5966,
      "Ð¼ÐµÑģÑĤÐµ": 5967,
      "ĠÐ´Ð¸Ð·": 5968,
      "ĠÑģÐ¾Ð´ÐµÑĢÐ¶Ð¸ÑĤ": 5969,
      "ĠÐ´ÐµÑĢÐµÐ²ÑıÐ½": 5970,
      "Ð¸ÐµÐ¿Ð¸ÑģÐºÐ¾Ð¿": 5971,
      "63": 5972,
      "Ð¾Ð»ÐµÐ¹": 5973,
      "ĠÑĤÑĥÑĢÐµ": 5974,
      "ĠÑĢÑĥÐºÐ¾Ð¿": 5975,
      "ÑĳÑģÑĤ": 5976,
      "ĠÑģÐ¾ÑģÑĤÐ¾ÑıÑī": 5977,
      "ĠÐ¿Ð¾ÑģÐµÑī": 5978,
      "ert": 5979,
      "ĠÐ¼Ð¸ÐºÑĢÐ¾": 5980,
      "ĠÑĢÐ¾Ð»ÑıÑħ": 5981,
      "ĠÐ¿Ð¾ÑģÐ»": 5982,
      "ĠÐ³Ð¸ÑĤ": 5983,
      "ĠÐ³Ð»Ð°Ð²Ð½Ð¾Ð³Ð¾": 5984,
      "ĠÐĺÐ¼Ð¿ÐµÑĢÐ°ÑĤÐ¾ÑĢ": 5985,
      "ÑĤÐ¸Ð½Ð³": 5986,
      "Ð°Ð·Ð²Ð°Ð½Ð¸Ðµ": 5987,
      "ÑĩÐ¸ÐºÐ°": 5988,
      "ĠÐ²Ð¸Ð´Ñĭ": 5989,
      "Ð¾Ð²Ð°Ð»Ð°": 5990,
      "ĠÐ³Ð¾ÑģÑĥÐ´Ð°ÑĢÑģÑĤÐ²Ð¾": 5991,
      "ÑģÐ¸Ð½": 5992,
      "ĠÑģÑĢÐ°Ð²Ð½ÐµÐ½Ð¸Ñİ": 5993,
      "ÑĪÐ¸Ð½": 5994,
      "ĠÑįÑģÐº": 5995,
      "ĠÐ¿ÑĮÐµÑģ": 5996,
      "ÑħÐ¾Ð²": 5997,
      "ĠÐĿÐ°Ð´": 5998,
      "Ð»ÑİÐ±": 5999,
      "ĠÐ¸Ð½Ð¾ÑģÑĤÑĢÐ°Ð½Ð½ÑĭÑħ": 6000,
      "ĠÐºÐ¾Ð½ÑģÑĤÐ¸ÑĤÑĥ": 6001,
      "ĠÐ½ÐµÐ¼Ñĥ": 6002,
      "ĠÐ°Ð²Ð¸Ð°": 6003,
      "ÐµÐ¼Ð¾ÑĢÐ¸": 6004,
      "ĠÑħÐ¾Ð»Ð¾Ð´": 6005,
      "ĠÐĵÐµÑĢÐ¾Ð¹": 6006,
      "ĠÐ·Ð°Ð½Ð¸Ð¼Ð°ÐµÑĤ": 6007,
      "ĠÐĵÐµÐ½ÐµÑĢÐ°": 6008,
      "ĠÐ±Ð¾ÑĢÑĮÐ±Ñĭ": 6009,
      "ĠÑĦÐ»Ð¾ÑĤÐ°": 6010,
      "Ð»ÑıÐ»": 6011,
      "ĠÐ½Ð°Ð³ÑĢÐ°Ð¶Ð´": 6012,
      "Ð¸Ð´ÐµÑĢÐ»Ð°Ð½Ð´": 6013,
      "ÑĢÐ¾Ð²Ð¾Ð¹": 6014,
      "ĠÑıÐ·ÑĭÐºÐ°Ñħ": 6015,
      "ĠÐ´Ð¸Ð°Ð»ÐµÐºÑĤ": 6016,
      "ĠÑģÐ°Ð¼ÑĭÐ¹": 6017,
      "ĠÑĩÐµÑĤÐ²ÐµÑĢ": 6018,
      "ĠÐ¿Ð¾Ð»Ð¸ÑĤÐ¸ÐºÐ¸": 6019,
      "ĠÐ¢Ð°Ð¹": 6020,
      "ĠÐ²Ð²Ð¾Ð´": 6021,
      "ÐµÐ²Ð´": 6022,
      "ĠÐ¿Ð¾ÑĤÐµÐ½": 6023,
      "ĠÑģÐ¿Ð¾ÑĢÑĤÐ°": 6024,
      "ĠÐ´ÐµÐ»Ð°": 6025,
      "ĠÐ¿Ð¾Ð¼Ð¾ÑīÑĮ": 6026,
      "Ð¸Ð²ÑĪÐµÐ¹": 6027,
      "Ð²Ð¾ÑģÑĤ": 6028,
      "ĠÑĤÐµÐ»ÐµÐ²Ð¸Ð´": 6029,
      "Ð°ÑģÑĤÑĢÐ¾ÑĦ": 6030,
      "ĠÐ½ÐµÑĦÑĤ": 6031,
      "ĠÑģÐµÐ·Ð¾Ð½": 6032,
      "ĠÑĢÐ°ÑģÐ¿Ð¾Ð»Ð¾Ð¶ÐµÐ½Ñĭ": 6033,
      "ĠÑĩÐµÐ¼Ð¿Ð¸Ð¾Ð½Ð°ÑĤÐ°": 6034,
      "ĠÐ³ÑĢÑĥÐ¿Ð¿Ðµ": 6035,
      "Ð¸ÑĨÐ¸Ñİ": 6036,
      "Ð¾Ð±ÑīÐµ": 6037,
      "ork": 6038,
      "ĠÐĴÐĴ": 6039,
      "Ð³Ð»Ð°Ñģ": 6040,
      "Ã¤": 6041,
      "ĠÐ¼Ð¾Ð½Ð°ÑĢÑħ": 6042,
      "ĠÑĢÐ°Ð±Ð¾ÑĩÐ¸Ñħ": 6043,
      "ĠÑĨÐµÐ¿": 6044,
      "Ġ%": 6045,
      "ĠÐ¸Ð¼ÐµÐµÑĤÑģÑı": 6046,
      "ĠÐ¸Ð¼ÐµÑĤÑĮ": 6047,
      "ĠÐ±ÑĭÑģÑĤ": 6048,
      "ĠÑĦÐ°Ð±ÑĢÐ¸": 6049,
      "ĠÐŁÐ°Ð²ÐµÐ»": 6050,
      "ĠÐ¡Ð»Ð¾Ð²": 6051,
      "ĠÐ¼Ð°Ð»ÐµÐ½ÑĮ": 6052,
      "ÑĩÐµÐ½ÐºÐ¾": 6053,
      "ĠÑģÑĤÐ¾ÑĢÐ¾Ð½Ðµ": 6054,
      "ÑĤÐµÐ»ÑĮ": 6055,
      "ĠÐŁÐ°Ð¼ÑıÑĤ": 6056,
      "ÐµÐ¼Ð±": 6057,
      "ĠÐ¿Ð¾Ð´Ð´ÐµÑĢÐ¶ÐºÑĥ": 6058,
      "Ð°Ð·Ñĭ": 6059,
      "Ð»ÑĥÐ³": 6060,
      "ĠÐ¼ÑĥÑģÑĥÐ»ÑĮÐ¼Ð°Ð½": 6061,
      "ĠÐ¤Ð¸Ð»Ð¸Ð¿Ð¿": 6062,
      "ÐµÐ°ÑĤ": 6063,
      "ĠÐ¤ÑĢÐ¸Ð´ÑĢÐ¸Ñħ": 6064,
      "ÐĳÐµÐ»": 6065,
      "ÑıÑīÐ¸Ñħ": 6066,
      "ÐĺÐ·Ð²ÐµÑģÑĤ": 6067,
      "ĠÑģÑĥÑħ": 6068,
      "ĠÑĥÑĪ": 6069,
      "ĠÐ¡ÑĤÐµÐ¿": 6070,
      "ĠÐ½ÐµÐ½": 6071,
      "ĠÑĢÐ°Ð±Ð¾ÑĤÐ°ÑĤÑĮ": 6072,
      "ĠÐ¿Ð°ÑĢÐ°Ð»Ð»": 6073,
      "ĠÐ¿Ð¾ÑģÑĢÐµÐ´": 6074,
      "ĠÐ°Ð²ÑĤÐ¾Ð±ÑĥÑģ": 6075,
      "ÐĿÐ°Ð³ÑĢÐ°Ð´Ñĭ": 6076,
      "ĠÑģÑħÐ¾Ð´": 6077,
      "Ð»ÑĮÑı": 6078,
      "ĠÐ¿ÑĢÑıÐ¼Ð¾": 6079,
      "Ð¾ÑģÐµ": 6080,
      "Ð´Ð°ÑİÑĤ": 6081,
      "ĠÐĳÑĥÐ´": 6082,
      "ĠÐ²Ð¿Ð»Ð¾ÑĤÑĮ": 6083,
      "ĠÐ¸Ð·Ð»ÑĥÑĩ": 6084,
      "ĠÐ¢ÑĢÐ¸": 6085,
      "43": 6086,
      "ĠÐ¾Ð±Ñĭ": 6087,
      "ĠÑģÑĤÑĢ": 6088,
      "ĠÑģÐ¾ÑĩÐµÑĤ": 6089,
      "ĠÐ¿ÑĢÐµÐ´Ð»Ð¾Ð¶Ð¸Ð»": 6090,
      "Ð¼ÑĳÐ½": 6091,
      "ĠÐ¿ÑıÑĤÐ¸": 6092,
      "ĠÐ²Ð¾ÐµÐ½Ð½ÑĭÐ¹": 6093,
      "Ð¾Ð²Ð°Ð½Ð°": 6094,
      "Ð¸ÑĢÐ¾Ð²Ð°Ð½Ð½ÑĭÐµ": 6095,
      "ĠÐ¾ÑģÑĤÑĢÐ¾Ð²Ðµ": 6096,
      "ĠÐŀÐ¿": 6097,
      "ĠÑĤÐ¾Ð¶Ðµ": 6098,
      "ĠÐłÐ°Ð¹": 6099,
      "ĠNew": 6100,
      "ĠÐ¿ÑĢÐµÐ²ÑĭÑĪ": 6101,
      "ĠÑİÑĢÐ¸Ð´": 6102,
      "ÐµÐ¼Ð¾Ð½": 6103,
      "ÑĢÑĭÐ²Ð°": 6104,
      "ĠÐ¾ÐºÐ¾Ð½ÑĩÐ°Ð½Ð¸Ñı": 6105,
      "ĠÐ±ÑĥÐ¼Ð°": 6106,
      "Ð°ÐµÐ¼ÑĭÑħ": 6107,
      "ĠÑģÐ¾Ð²Ð¼ÐµÑģÑĤÐ½Ð¾": 6108,
      "ÑĭÑĤÐ¸Ñı": 6109,
      "ĠÐ¸ÑģÑĤÐ¾ÑĢÐ¸Ðº": 6110,
      "ĠÐ¼Ð°Ðº": 6111,
      "ĠÐ¸ÑģÐ¿Ð¾Ð»ÑĮÐ·ÑĥÑİÑĤ": 6112,
      "ĠDe": 6113,
      "Ð¶Ñĥ": 6114,
      "46": 6115,
      "ĠÑģÑĩÐ¸ÑĤÐ°Ð»": 6116,
      "ÑĳÐ½Ð½ÑĭÐ¼Ð¸": 6117,
      "Ð»Ð¸ÑģÑĤ": 6118,
      "ĠÐ²ÑĢÐµÐ¼ÐµÐ½Ð°": 6119,
      "ĠPro": 6120,
      "ÑģÐ¸Ð´": 6121,
      "ÐºÐ°Ðº": 6122,
      "ĠÐ¿ÑĢÐµÐ´ÑģÐµÐ´Ð°ÑĤÐµÐ»ÑĮ": 6123,
      "ĠÑģÐ¾Ð²ÐµÑĤÑģÐºÐ¸Ñħ": 6124,
      "ica": 6125,
      "ĠÐ½Ð°Ð±Ð»Ñİ": 6126,
      "ÐµÐ¼Ð¾Ð¹": 6127,
      "ĠÐ·Ð°ÑīÐ¸Ñī": 6128,
      "73": 6129,
      "ĠÑģÐ²ÑıÐ·ÑĮ": 6130,
      "ĠÐ¿ÑĢÐµÐºÑĢÐ°ÑĤ": 6131,
      "ĠÑĢÐµÐ±ÑĳÐ½": 6132,
      "ĠÑģÐµÑĢÐ²": 6133,
      "ĠÑĤÐ°": 6134,
      "Ð»Ð°Ð¼Ð¸": 6135,
      "ĠÑģÐ¾Ð·Ð²ÐµÐ·Ð´Ð¸Ð¸": 6136,
      "ĠÑįÐ»ÐµÐ¼ÐµÐ½ÑĤÑĭ": 6137,
      "ĠÐºÐ¾ÑĢÐ¿ÑĥÑģÐ°": 6138,
      "Ð½Ð¾Ðº": 6139,
      "ĠÐ¿Ð¾ÐºÐ¸Ð½": 6140,
      "ÑĢÑĥÐ³Ð¾Ðµ": 6141,
      "ÐµÐ²Ð½Ð¾Ð²": 6142,
      "ÑĳÑĢÐ¾Ð²": 6143,
      "ĠÐ±Ð»": 6144,
      "ĠÐĶÐ°Ð»ÑĮ": 6145,
      "ÐµÐ´Ð¸": 6146,
      "ÐŁÐ¾ÑĩÑĳÑĤ": 6147,
      "Ð¸Ð²Ð°Ñı": 6148,
      "Ð»ÐµÐºÑģÐ°": 6149,
      "Ð²Ð¾Ð·": 6150,
      "ĠÐºÐ¸Ð»Ð¾Ð¼ÐµÑĤ": 6151,
      "ÐĽÑİ": 6152,
      "ĠÐĽÐ¸Ð½": 6153,
      "Ð¾ÑĢÐ¾ÑĤÐ°": 6154,
      "ĠÐ´Ð¾Ð¼Ð°ÑĪ": 6155,
      "ĠÐºÑĥÑĢÑģ": 6156,
      "ĠÐ¿Ð¸ÑģÑĮÐ¼ÐµÐ½": 6157,
      "ĠÐ¿ÑĢÐ¾Ð»": 6158,
      "ĠÐ·Ð²ÑĥÑĩ": 6159,
      "Ð°Ð»ÑĮÐ´": 6160,
      "ĠÐ±ÑĥÐºÐ²": 6161,
      "Ð°ÑīÐ¸Ñħ": 6162,
      "ĠÑĢÐµÐ³Ð¸ÑģÑĤ": 6163,
      "ĠÑĢÐ¾Ð¼Ð°Ð½Ð°": 6164,
      "ĠÐ²Ð¾ÑĪÐ»Ð¸": 6165,
      "ĠÑģÐ¾Ð²ÑĢÐµÐ¼ÐµÐ½Ð½Ð¾Ð³Ð¾": 6166,
      "ÑĢÐ°Ð¼Ð¸": 6167,
      "ĠÑĢÐµÐºÐ¾Ð¼": 6168,
      "ĠÐ¿Ð¾Ð»Ð°Ð³": 6169,
      "ĠÐ½Ð°ÑĩÐ°Ð»Ð°ÑģÑĮ": 6170,
      "ĠÐ¾Ð±Ð¸ÑĤ": 6171,
      "ĠÐ½ÐµÐ¹ÑĤ": 6172,
      "ĠÑģÐ²ÑıÑīÐµÐ½": 6173,
      "ĠÐ¿ÐµÑĢÐµÐ³Ð¾Ð²Ð¾ÑĢ": 6174,
      "Ð²Ð°Ð¹": 6175,
      "ĠÐ¸Ð·Ð¾Ð±ÑĢÐµÑĤ": 6176,
      "ĠÐĴÐ¾Ð¹": 6177,
      "ĠÐ´Ð¾ÐºÑĤÐ¾ÑĢÐ°": 6178,
      "ÑģÐºÐ¾ÑħÐ¾Ð·ÑıÐ¹": 6179,
      "ĠÐ´Ð¸Ðº": 6180,
      "ĠÐ¼Ð¾Ð»ÐµÐº": 6181,
      "ĠÐºÐ¾Ð½ÐºÑĢÐµÑĤ": 6182,
      "ĠÐ¡Ð¾ÑĦ": 6183,
      "ĠÐ¨Ð¾ÑĤÐ»Ð°Ð½Ð´": 6184,
      "ĠÐ¿ÑĢÐ¸ÑĪÐ»Ð¾ÑģÑĮ": 6185,
      "ĠÐ¾ÑĢÐ³Ð°Ð½Ð¾Ð²": 6186,
      "ĠÐ²ÑĢÐµÐ¼ÑĳÐ½": 6187,
      "ĠÐ¸Ð·Ð²ÐµÑģÑĤÐµÐ½": 6188,
      "ĠÐ¾ÑģÐ½Ð¾Ð²Ð°Ð½": 6189,
      "ÐĵÐ¾ÑĢÐ¾Ð´Ð°": 6190,
      "ĠÐŁÐ°": 6191,
      "ĠÑĪÐºÐ¾Ð»Ðµ": 6192,
      "Ð¸Ð²ÑĪÐ¸Ñħ": 6193,
      "ĠÐ´Ð¾ÑĩÐµÑĢÐ¸": 6194,
      "ĠÐ¿ÑĢÐ¸Ð¾Ð±ÑĢÐµÑĤ": 6195,
      "ĠÐ¾Ð±ÑīÐµÑģÑĤÐ²Ð¾": 6196,
      "Ð¿Ð°ÑĢÑħ": 6197,
      "ĠÐºÐ¾Ð½ÑĨÑĥ": 6198,
      "ĠÐ³ÑĢÐ°Ð½Ð¸ÑĨÑĭ": 6199,
      "ĠÑĤÑİÑĢÑĮ": 6200,
      "ĠÐ½Ð¸ÑĩÐµÐ³Ð¾": 6201,
      ".;": 6202,
      "ĠÐĺÐ½Ð´Ð¸Ð¸": 6203,
      "Ð¸Ð½Ð°Ñħ": 6204,
      "ĠÐ¿ÑĢÐµÐ´ÑĥÑģ": 6205,
      "ĠÐ·Ð²Ð°Ð½Ð¸Ðµ": 6206,
      "ĠÐ¿Ð¾ÑģÐµÐ»ÐµÐ½Ð¸Ñı": 6207,
      "ĠÐ±Ð»Ð¸Ð¶": 6208,
      "ÐµÐ·Ð´Ð¸Ðµ": 6209,
      "ĠÑİÐ³Ðµ": 6210,
      "Ð¾ÑħÐ¾Ð´": 6211,
      "Ð°Ð»Ð¸Ð·Ð¼": 6212,
      "Ġ1946": 6213,
      "Ð°ÑĤÐµÐ»ÑıÐ¼Ð¸": 6214,
      "ÑĢÐµÑĤÐ¸Ð¹": 6215,
      "Ð°ÑĢÑģÐºÐ¸Ð¹": 6216,
      "ÑĳÑĢÑĭ": 6217,
      "Ð»ÑĮÐ½ÑĭÐ¹": 6218,
      "ĠÐ´ÐµÑıÑĤ": 6219,
      "2000": 6220,
      "ĠÑĤÐµÐ¾ÑĢÐµÑĤ": 6221,
      "ĠÐ³Ð¸Ð¿Ð¾ÑĤ": 6222,
      "Ġ1936": 6223,
      "Ġk": 6224,
      "ĠÐ°Ð±ÑģÐ¾Ð»ÑİÑĤ": 6225,
      "Ð³Ð¸Ð½": 6226,
      "Ð¸Ð²ÑĪÐ°Ñı": 6227,
      "ĠÐ²Ð·ÑıÑĤ": 6228,
      "ĠÐ¿ÑĢÐ¸Ð²ÐµÐ»Ð¾": 6229,
      "ÑĩÐµÑģÐºÐ¸Ñħ": 6230,
      "ĠÑģÑĥÐ´ÐµÐ±": 6231,
      "ĠÐºÐ°Ð¶Ð´Ð¾Ð³Ð¾": 6232,
      "ĠÐ¾Ð±ÑĬÑıÑģÐ½": 6233,
      "ĠÑĢÐµÐ³Ð¸": 6234,
      "82": 6235,
      "ĠÑĥÑģÑĤÐ°Ð½Ð°Ð²Ð»Ð¸Ð²": 6236,
      "ÑĬÐµÐºÑĤ": 6237,
      "ĠÐºÐ°ÑĤÐ°Ð»Ð¾Ð³Ð°": 6238,
      "ĠÐ¿ÑĢÐ¸Ð²Ð»ÐµÐº": 6239,
      "ÐŃÐºÐ¾Ð½Ð¾Ð¼": 6240,
      "ĠÐºÐ¾ÑĢÐ°Ð±Ð»Ñı": 6241,
      "ĠÐ³Ð»Ð°Ð²Ð½ÑĭÑħ": 6242,
      "ĠÑĦÑĥÑĤÐ±Ð¾Ð»Ð¸ÑģÑĤ": 6243,
      "ÑĳÑĢÐ¾Ð¼": 6244,
      "ust": 6245,
      "ĠÐ¿Ð¾Ð´Ð¿": 6246,
      "ĠÐ²ÑħÐ¾Ð´ÑıÑĤ": 6247,
      "ĠÐ¿ÑĢÐµÐ´ÑĪ": 6248,
      "ÐĵÐ°Ð»": 6249,
      "ĠÐľÐ°": 6250,
      "ĠÑĦÐ°ÐºÑĤÐ¸ÑĩÐµÑģÐºÐ¸": 6251,
      "ĠÑĥÐµÐ·Ð´": 6252,
      "ĠÐ¸Ð·Ð²ÐµÑģÑĤÐ½ÑĭÑħ": 6253,
      "Ð°Ð¹Ð´": 6254,
      "ÑĨÐ¸ÑıÐ¼Ð¸": 6255,
      "07": 6256,
      "ĠÐ½Ð°Ð´Ðµ": 6257,
      "ĠÐļÑĢÐ¸ÑģÑĤ": 6258,
      "ĠÐ¿ÑĢÐ¸Ð²ÐµÐ´": 6259,
      "ÑĥÑİÑīÐµÐ¹": 6260,
      "ÑĢÐ°Ð½ÑģÐ¿Ð¾ÑĢÑĤ": 6261,
      "ĠÐ·Ð°ÑĢÑı": 6262,
      "ĠÐĸÐ°Ð½": 6263,
      "ĠÐ¸Ð·Ð´ÐµÐ»": 6264,
      "ĠÑģÐ¾Ð±Ð¾ÑĢ": 6265,
      "Ð°Ð½ÐºÐ°": 6266,
      "ĠÑģÐ¾ÑģÑĤÐ¾ÑıÐ»Ð°ÑģÑĮ": 6267,
      "ĠÑģÐºÐ»Ð¾Ð½": 6268,
      "ĠÐ·Ð°ÐºÐ°Ð·": 6269,
      "ĠÑĤÐµÐ°ÑĤÑĢÐ°Ð»ÑĮ": 6270,
      "ĠÐĿÐµÐ¼": 6271,
      "Ġ2023": 6272,
      "ĠÐ»Ð¸Ð½ÐµÐ¹": 6273,
      "ĠÐ¸ÑģÑĩÐµÐ·": 6274,
      "ÑīÐµ": 6275,
      "ÐµÑĢÐµÑı": 6276,
      "ÐĲÐ»": 6277,
      "Ġ32": 6278,
      "ĠÐ´ÑĢÑĥÐ³Ð¾Ð¼": 6279,
      "Ð½Ð¾ÑģÑĤÑıÑħ": 6280,
      "ĠÐ¿Ð¾Ð»ÐºÐ°": 6281,
      "ĠÑģÐµÐ³Ð¾Ð´Ð½Ñı": 6282,
      "Ð¾Ð½Ñģ": 6283,
      "ĠÐĶÐµÑĤ": 6284,
      "Ð¸ÑĢÐ¾Ð²Ð°Ð½Ð½ÑĭÑħ": 6285,
      "ld": 6286,
      "ÑĢÐ¾Ð³ÑĢÐ°Ð¼": 6287,
      "ĠÑģÐ²ÐµÐ´ÐµÐ½Ð¸Ñı": 6288,
      "ĠÐ´Ð¸Ñģ": 6289,
      "ĠÐ¢Ð¾Ð³Ð´Ð°": 6290,
      "Ð»Ð¸Ð½Ñĭ": 6291,
      "ĠÐ²ÐµÑĢÐ½ÑĥÑĤÑĮ": 6292,
      "che": 6293,
      "ĠÐ¿Ð¾Ð»Ð¸ÑĤÐ¸ÑĩÐµÑģÐºÐ¾Ð¹": 6294,
      "ĠÐ²ÐµÐºÐ¾Ð²": 6295,
      "ĠÐ¾Ð±Ðµ": 6296,
      "ĠÑĢÐ°ÑģÑĤÐµÐ½Ð¸Ð¹": 6297,
      "iz": 6298,
      "ĠÐ³ÐµÐ¾Ð³ÑĢÐ°ÑĦ": 6299,
      "ĠÐ¿ÑĢÐ¸Ð»Ð¾Ð¶": 6300,
      "ĠÐ´Ð¾ÑģÑĤÐ°Ð²": 6301,
      "ĠÐľÐ¾ÑģÐºÐ²Ñĥ": 6302,
      "ĠÑĥÐ»Ð¸ÑĨÐµ": 6303,
      "ÑįÐ»ÐµÐºÑĤ": 6304,
      "ĠÐ²ÑĭÑģÐ¾ÐºÐ¾Ð¹": 6305,
      "84": 6306,
      "Ð¾Ð»Ð¾Ð³Ð¸ÑĩÐµÑģÐºÐ¸Ðµ": 6307,
      "Ð»ÐµÐ¿": 6308,
      "Ð¾Ð½ÐµÑĩ": 6309,
      "ĠÑĤÐ°Ð»": 6310,
      "ÐľÐ¾ÑģÐº": 6311,
      "ĠÐ¼Ð°Ð³Ð¸ÑģÑĤ": 6312,
      "ĠÐ¾ÑĤÐ½Ð¾ÑĪÐµÐ½Ð¸Ð¹": 6313,
      "ĠÐ¿ÑĢÐ¸Ð·Ð½Ð°Ðº": 6314,
      "ory": 6315,
      "Ð¸ÑĨÐ¸": 6316,
      "ĠÑĢÐµÐºÐ¾Ð½": 6317,
      "ĠÐ¿Ð¾ÑĢÑıÐ´ÐºÐ°": 6318,
      "ĠÐ¼Ð¾Ð½Ð°ÑģÑĤÑĭÑĢÑı": 6319,
      "ĠÐĺÑħ": 6320,
      "ĠÐ¿ÑĢÐ¾Ð²ÑĳÐ»": 6321,
      "ry": 6322,
      "ĠÑģÑĤÐ¾Ñı": 6323,
      "ĠÐ§Ð°ÑĢ": 6324,
      "Ð»Ð¸ÑĪÐºÐ¾Ð¼": 6325,
      "Ġ1000": 6326,
      "Ð¢Ð°ÐºÐ¶Ðµ": 6327,
      "ĠÐ°ÑĢÑĤÐ¸Ð»Ð»ÐµÑĢ": 6328,
      "Ð¼Ð¾Ð¹": 6329,
      "ĠÑģÐ²ÑıÐ·Ð°Ð½Ð¾": 6330,
      "NGC": 6331,
      "Ð£Ð¼ÐµÑĢ": 6332,
      "Ð¾Ð·Ð²ÐµÐ·Ð´Ð¸Ðµ": 6333,
      "ĠÐľÐ¸Ð»": 6334,
      "ĠÐ¿Ð¾Ð·Ð¸ÑĨÐ¸Ð¸": 6335,
      "ĠÐŀÐĲÐŀ": 6336,
      "ÑĤÐµÑĢÐµÑģ": 6337,
      "ĠÑĤÐµÑħÐ½Ð¸ÐºÐ¸": 6338,
      "Ð¾ÐºÐ¾": 6339,
      "ĠÐ¿ÐµÑĢÐµÑĩÐ¸ÑģÐ»ÐµÐ½Ð½ÑĭÑħ": 6340,
      "ĠÐºÐ¾Ð½ÑģÐµÑĢÐ²": 6341,
      "ĠÐ°Ð²ÑĤÐ¾ÑĢÐ°": 6342,
      "ĠÐ¿Ð°ÑĤÑĢÐ¸Ð°ÑĢÑħ": 6343,
      "Ð¸ÑĤÐ¾Ð¼": 6344,
      "ĠÑĪÐ¸ÑĢÐ¸": 6345,
      "ĠÐ¤Ð¸Ð½Ð»ÑıÐ½Ð´": 6346,
      "ĠÐŁÐ¾Ð²": 6347,
      "Ð¾ÑĩÐ½Ð°Ñı": 6348,
      "ĠÑĦÐ»Ð°Ð³": 6349,
      "ĠÐ½ÐµÐ¿Ð¾ÑģÑĢÐµÐ´ÑģÑĤÐ²ÐµÐ½Ð½Ð¾": 6350,
      "ĠÐ»Ð¸ÑģÑĤ": 6351,
      "ĠÐ²ÐµÑīÐµÑģÑĤÐ²": 6352,
      "ĠÐ¿ÑĢÐ¾Ð¸Ð³": 6353,
      "ÑĦÐ¸ÑĨÐ¸": 6354,
      "Ġ1929": 6355,
      "ĠÐ´ÐµÐ»Ðµ": 6356,
      "Ð±ÑĥÐ´": 6357,
      "ĠÐ²Ð¾Ð·Ð´ÑĥÑħÐ°": 6358,
      "ĠÐ¿ÑĢÐµÐ´ÑģÑĤÐ°Ð²Ð¸ÑĤÐµÐ»Ð¸": 6359,
      "ÑĩÐµ": 6360,
      "ĠÐ¼Ð°ÑĤÐµÑĢÐ¸Ð°Ð»Ð¾Ð²": 6361,
      "ÑįÑĦ": 6362,
      "ĠÐ¿Ð¾Ð»ÑĥÑĩÐµÐ½Ð¸Ñı": 6363,
      "ey": 6364,
      "ĠÑĤÐµÑĢÑĢÐ¸ÑĤÐ¾ÑĢÐ¸Ñı": 6365,
      "|-": 6366,
      "ĠÐºÐ°ÐºÐ¾Ð¹": 6367,
      "Ð±Ð¾Ð»": 6368,
      "ĠÐĳÑĥÑĢ": 6369,
      "Ð»Ð¾Ð¹": 6370,
      "Ð°Ð´Ð¸": 6371,
      "Ð½ÑıÑĤ": 6372,
      "ĠÑĤÑĢÐ°Ð¼": 6373,
      "ÐļÐ¸Ð½": 6374,
      "Ġ1934": 6375,
      "ĠÐĵÐµÑĢÐ¼Ð°Ð½": 6376,
      "ĠÑģÑĤÐµÐº": 6377,
      "ÑĩÐµÑĢ": 6378,
      "ĠÐĹÐ°Ð²": 6379,
      "ĠÐ½ÐµÐ³": 6380,
      "ÑģÐ¸Ñħ": 6381,
      "ĠÐºÑĢÐ¸Ð·": 6382,
      "ĠÐ°ÑĦ": 6383,
      "ĠÐŃÐ´Ñĥ": 6384,
      "ĠÐ´Ð¸Ð¿Ð»Ð¾Ð¼Ð°ÑĤ": 6385,
      "Ġ1935": 6386,
      "ÑħÐ¸": 6387,
      "ĠQ": 6388,
      "ÑĮÐ¼Ð¸": 6389,
      "ĠÐ¼Ð°ÑĢÑĪÑĢÑĥ": 6390,
      "ĠÑģÑĤÐ°Ð±": 6391,
      "ĠÑģÑĢÐµÐ´Ð½ÐµÐ²ÐµÐº": 6392,
      "ĠÐ¿ÐµÑĢÐµÐ´Ð°ÑĩÐ¸": 6393,
      "Ð¸ÑĢÐ¾Ð²Ð°Ð½Ñĭ": 6394,
      "ÐµÐ»ÑĮÐ½Ð¾": 6395,
      "ÑīÐ¸ÐºÐ¾Ð²": 6396,
      "ĠÐ±Ð¾Ð»ÑĮÑĪÐµÐ¹": 6397,
      "sk": 6398,
      "ĠÐĹÐ²": 6399,
      "ĠÐ¯ÐºÐ¾Ð²": 6400,
      "//": 6401,
      "ÑĢÐµÐ·Ð²": 6402,
      "ĠÐ·Ð°ÑģÐ»ÑĥÐ³Ð¸": 6403,
      "ĠÐ´Ð¸ÑģÑģ": 6404,
      "ĠÑģÑĥÐ¿ÑĢÑĥÐ³": 6405,
      "ÑħÐ¾": 6406,
      "ĠÐ§ÐµÑĢÐµÐ·": 6407,
      "ĠÑģÑĭÐ½Ð¾Ð²": 6408,
      "ĠÐºÑĥÐ±": 6409,
      "Ð°Ð½Ð½": 6410,
      "ĠÑĤÐµÑĢÑĢÐ¸ÑĤÐ¾ÑĢÐ¸Ñİ": 6411,
      "ĠÐ¿ÑĢÐµÐ¼Ð¸Ñı": 6412,
      "ĠÐ¿ÑĢÐ¾ÑĨÐµÑģÑģÐµ": 6413,
      "ĠÑĢÐ°Ð±Ð¾ÑĤÐ°ÐµÑĤ": 6414,
      "Ð½ÑıÐ»": 6415,
      "Ð¾ÑĩÑĮ": 6416,
      "Ð»ÐµÑĢÐ°": 6417,
      "ĠÐĲÐ¼ÐµÑĢÐ¸ÐºÐ¸": 6418,
      "ĠÐľÐ¸ÑħÐ°Ð¸Ð»Ð°": 6419,
      "Ð°ÑĤÐ¾ÑĢÐ¾Ð²": 6420,
      "ĠÑıÐ²Ð»ÑıÐ»ÑģÑı": 6421,
      "ĠÐ·Ð°Ð½ÑıÑĤ": 6422,
      "ĠÑĦÐ¸Ð»Ð¸": 6423,
      "ĠÐ¾ÑħÑĢÐ°Ð½": 6424,
      "ĠÐ³Ð°Ð·ÐµÑĤÑĭ": 6425,
      "ĠÐĿÐ¸": 6426,
      "ĠÑĪÑĤÐ°ÑĤ": 6427,
      "ĠÐ±Ð¾Ð»ÑĮÑĪÐ¸Ð¼": 6428,
      "ĠÐºÑĢÐ¾Ð²Ð¸": 6429,
      "ĠÑģÐµÐ¼ÑĮ": 6430,
      "ĠÐ¿Ð¾ÑģÑĤÑĢÐ¾ÐµÐ½": 6431,
      "Ð½Ð°ÑģÑĤ": 6432,
      "Ð°Ð³Ð°": 6433,
      "Ð°ÑĤÐºÐ¸": 6434,
      "ĠÑĤÐµÑĩ": 6435,
      "ĠÐĲÐ·ÐµÑĢÐ±Ð°Ð¹Ð´Ð¶": 6436,
      "Ð°ÑĢÑĤÐ°": 6437,
      "ĠWind": 6438,
      "ĠÑģÐ»Ð¸ÑĪÐºÐ¾Ð¼": 6439,
      "ĠÐ²ÐµÑīÐµÑģÑĤÐ²Ð°": 6440,
      "Ð°ÐºÐ¾Ð¼": 6441,
      "ĠÐ²Ð½Ðµ": 6442,
      "ĠÐ¢Ð°": 6443,
      "ĠÑģÐ°Ð½": 6444,
      "ĠÐ´ÐµÑģÑı": 6445,
      "ĠÑĤÑĢÐ°Ð½ÑģÐ¿": 6446,
      "ĠÑģÐµÐ²ÐµÑĢÐµ": 6447,
      "ÐĿÐ¾Ð²Ð¾Ð³Ð¾": 6448,
      "Ġ1948": 6449,
      "Ð¸ÑĦÐ¸ÐºÐ°ÑĨÐ¸Ñı": 6450,
      "Ð¼ÐµÐ´": 6451,
      "ĠÐ¡ÐµÐ²": 6452,
      "ĠÐ¾ÐºÑĢÐµÑģÑĤ": 6453,
      "ĠÑĦÑĥÐ½ÐºÑĨÐ¸Ð¾Ð½": 6454,
      "ĠÐĴÐ¾ÑĢÐ¾Ð½": 6455,
      "ĠÐºÐ°ÑĢÑĤÐ¸Ð½Ñĭ": 6456,
      "Ð¾ÑģÐ¸ÑĦ": 6457,
      "ĠÐ¿ÑĢÐµÐ´Ð¿ÑĢÐ¸ÑıÑĤÐ¸Ð¹": 6458,
      "Ġto": 6459,
      "ĠÐ¼Ð°Ð³Ð°Ð·": 6460,
      "ĠÐºÐ¾Ð½ÑĤÐ°ÐºÑĤ": 6461,
      "ĠÐ´Ð¸ÑĦ": 6462,
      "ĠÐ°ÑĢÑħÐµÐ¾Ð»Ð¾Ð³": 6463,
      "ĠÐ²ÑĭÑħÐ¾Ð´Ð°": 6464,
      "ĠÐ¡ÑĥÑīÐµÑģÑĤÐ²": 6465,
      "ĠÐľÐµÑĤ": 6466,
      "61": 6467,
      "Ð°ÑĤÑĭÐ²Ð°": 6468,
      "ĠÐĴÐµÐ»Ð¸ÐºÐ¾Ð³Ð¾": 6469,
      "ÑİÑīÐ¸ÐµÑģÑı": 6470,
      "ĠÐ¯ÑĢÐ¾ÑģÐ»Ð°Ð²": 6471,
      "Ð±ÐµÐ»": 6472,
      "Ð¸Ð²ÑĪÐ¸Ðµ": 6473,
      "ĠÑĥÑħÐ¾Ð´": 6474,
      "Ð¸Ð½ÑģÐºÐ¸Ðµ": 6475,
      "ĠÐ¾Ð»Ð¸Ð¼Ð¿": 6476,
      "ÑĤÐ¾Ðµ": 6477,
      "Ð»Ð¸ÑĨ": 6478,
      "ĠÐ½Ð°ÑĩÐ¸Ð½Ð°ÐµÑĤÑģÑı": 6479,
      "ĠÐ¾ÑĤÑĢÐ°Ñģ": 6480,
      "ÐĺÑģÑĤ": 6481,
      "ĠÐ¿Ð»Ð¾Ð´": 6482,
      "87": 6483,
      "ĠÐłÐ°Ñģ": 6484,
      "ĠÐĲÐ½Ð°ÑĤÐ¾Ð»": 6485,
      "ÐµÐ¹ÑģÐºÐ¾Ð³Ð¾": 6486,
      "ÑİÑīÐ¸ÑħÑģÑı": 6487,
      "ÑĥÐ¿ÑĢÐ°Ð²": 6488,
      "Ð»ÑĭÑħ": 6489,
      "ÐķÐ²": 6490,
      "ĠÐĹÐ¾Ð»Ð¾ÑĤ": 6491,
      "ĠÐ¤ÑĳÐ´Ð¾ÑĢÐ¾Ð²": 6492,
      "ÑĭÑĪÐµ": 6493,
      "ĠÐ²ÑģÑĤÑĢÐµÑĩÐ°ÐµÑĤÑģÑı": 6494,
      "ÑĮÐµÑĤ": 6495,
      "ĠÐ¡ÑĤÐ°Ð½": 6496,
      "ĠÐĲÐĿ": 6497,
      "ÐļÑĢÐ°Ñģ": 6498,
      "man": 6499,
      "ĠÐ´Ð½Ð¸": 6500,
      "ĠÐ¿ÑĢÐ¾ÑĤÐ¸Ð²Ð½Ð¸ÐºÐ°": 6501,
      "ost": 6502,
      "ĠÐ¿Ð¾ÑĪ": 6503,
      "Ð¼ÐµÑĢÑĤ": 6504,
      "ĠÐ²Ð¾Ð¾Ð±ÑīÐµ": 6505,
      "ĠÑĦÐ¾ÑĢÐ¼Ð°ÑĤ": 6506,
      "Ð¼Ð¸ÑĢ": 6507,
      "Ġ1954": 6508,
      "ĠÐĿÐ°Ð¸Ð±Ð¾Ð»ÐµÐµ": 6509,
      "Ð¾Ð½ÑģÐºÐ¾Ð³Ð¾": 6510,
      "ĠÐŀÐ´Ð¸Ð½": 6511,
      "ĠÑĥÑĤÐ²ÐµÑĢÐ¶": 6512,
      "ĠÑĤÐºÐ°Ð½": 6513,
      "ÑģÐ¿Ð¾ÑģÐ¾Ð±": 6514,
      "ÑıÑīÐ¸Ð¹": 6515,
      "ÑĪÑĤÐ°Ð±": 6516,
      "ĠÐŁÐ¾Ðº": 6517,
      "Ð¸ÑĢÐ°Ð½": 6518,
      "ÐµÑĤÑĥ": 6519,
      "ĠÑĦÐ°Ð½ÑĤÐ°ÑģÑĤ": 6520,
      "Ð¾ÑĤÐ°Ð½": 6521,
      "ĠÐľÑį": 6522,
      "Ð½Ð¾Ð²Ð¸Ð´": 6523,
      "ĠÐ¸Ð´ÐµÐ¸": 6524,
      "ĠÐ½Ð°Ð¼ÐµÑĢ": 6525,
      "ĠÐ³ÐµÑĢÐ¾": 6526,
      "ĠÑĢÑĥÐºÐ¸": 6527,
      "ĠÐ¿ÑĢÐµÐ¶": 6528,
      "ĠÐ±Ð¾": 6529,
      "ĠÐ¿Ð¾ÑħÐ¾Ð¶": 6530,
      "ĠÐļÐ¾Ð½ÑģÑĤÐ¸ÑĤÑĥ": 6531,
      "ĠÐłÑĥÑģÐ¸": 6532,
      "Ð²Ð¾Ðº": 6533,
      "ĠÑĢÐµÑĪÐ¸Ð»": 6534,
      "ĠÐ½ÐµÑĥÐ´Ð°Ñĩ": 6535,
      "ĠÐ¸Ð³ÑĢÐµ": 6536,
      "ĠÐŀÑģÐ¾Ð±": 6537,
      "ÑĨÐµÑģÑģ": 6538,
      "ĠÑģÐºÐ°Ð·Ð°Ð»": 6539,
      "Ð¾Ð¿Ð¸ÑģÐ¸": 6540,
      "ĠÐ¸Ð·Ð´Ð°Ð½Ð¸Ðµ": 6541,
      "ÐºÑĥÑİ": 6542,
      "ÐµÐµÑħ": 6543,
      "ĠÑģÐ¾Ð·Ð´Ð°Ð½Ð¸Ð¸": 6544,
      "ĠÐŁÐ°ÑĤÑĢÐ¸": 6545,
      "ĠÑģÐµÐ»ÑĮÑģÐºÐ¾ÑħÐ¾Ð·ÑıÐ¹": 6546,
      "ĠÐ¾ÑĦÐ¾ÑĢÐ¼": 6547,
      "ĠÐ¿ÑĢÐµÐ´Ð¿ÑĢÐ¸Ð½Ð¸Ð¼": 6548,
      "Ð²Ð°Ñĩ": 6549,
      "ĠÐ¾ÑĤÑģÑĤÑĥÐ¿": 6550,
      "ĠÐ½Ð°Ð¹ÑĤÐ¸": 6551,
      "ĠÐ·Ð°ÑģÐµÐ´": 6552,
      "ĠÐ»ÑĥÑĩÑĪÐ¸Ñħ": 6553,
      "ĠÑģÐ´ÐµÐ»Ð°Ð»": 6554,
      "Ð¸ÑĤÐµÑĢ": 6555,
      "ĠÑģÐ¾ÑĢÐµÐ²Ð½Ð¾Ð²": 6556,
      "ĠSh": 6557,
      "ÑĢÐ¸Ð½Ð°": 6558,
      "ĠÐ¾Ð±Ð¾ÑĢÐ¾Ð½": 6559,
      "ĠÑĥÐ·Ð½": 6560,
      "ĠÐ¿Ð¸ÑģÐ°ÑĤÐµÐ»Ñı": 6561,
      "ĠÐ³Ð¾ÑĢÐ¾Ð´Ð¾Ð¼": 6562,
      "Ð°ÑĢÐµÐ²": 6563,
      "olog": 6564,
      "ĠÑģÐ»ÐµÐ´ÑĥÑİÑīÐ¸Ð¹": 6565,
      "ÑĥÐ»Ð°": 6566,
      "ĠÐºÐ°Ð¶Ð´Ð¾Ð¹": 6567,
      "ĠÐ¿Ð°ÑģÑģÐ°Ð¶Ð¸ÑĢ": 6568,
      "Ð°Ð»Ð¸Ð·Ð¼Ð°": 6569,
      "Ð³Ð¾ÑĤ": 6570,
      "ĠÐ¿ÑĢÐ¾Ð²ÐµÑĢ": 6571,
      "ue": 6572,
      "ÑĥÑģÐ°Ð»": 6573,
      "ÑĩÐµÑģÐºÐ¸Ðµ": 6574,
      "ĠÐ¤Ð¸Ð»": 6575,
      "ure": 6576,
      "ĠÐ¿Ð¾ÑıÐ²Ð¸Ð»ÑģÑı": 6577,
      "ĠÐ·ÑĢÐ¸ÑĤ": 6578,
      "ĠÐ¿ÐµÑĢÐµÐ²Ð¾Ð·": 6579,
      "Ð»ÐµÐ´Ð¾Ð²Ð°Ð½Ð¸Ñı": 6580,
      "ĠÐ±Ð¾Ð»ÑĮÑĪÐ¸Ñħ": 6581,
      "ĠÐ²Ð¾ÑģÑĮ": 6582,
      "ĠÐºÑĥÐ»ÑĮÑĤÑĥÑĢÐµ": 6583,
      "ĠÐ·Ð°ÐºÑĢÐµÐ¿": 6584,
      "ÐµÑĨÐºÐ¸Ð¹": 6585,
      "ÐľÑĥÐ·Ñĭ": 6586,
      "Ð¾Ð»Ð¾Ð³Ð¸ÑĩÐµÑģÐºÐ¸Ð¹": 6587,
      "ĠÐ¿Ð¾Ð»ÑĮÐ·Ñĥ": 6588,
      "ĠÐłÑĥÑģÑģÐºÐ¾Ð¹": 6589,
      "ĠÐ¿Ð°Ð½": 6590,
      "ĠÐ¥Ð¾ÑĤÑı": 6591,
      "ÑıÑģÐ½": 6592,
      "Ð¸ÑĢÑĥÑİÑĤ": 6593,
      "ĠÐ²ÐµÑģÑĤ": 6594,
      "ÐĺÑģÐ¿": 6595,
      "ĠÐ¿ÐµÑĢÐµÑĢÐ°": 6596,
      "ĠÐļÐ»": 6597,
      "ĠÐ¾ÑģÐ¾Ð±ÐµÐ½Ð½Ð¾ÑģÑĤÐ¸": 6598,
      "ĠÑģÑĤÐ°ÑĤÐ¸ÑģÑĤ": 6599,
      "Ð°ÑİÑīÐµÐ³Ð¾": 6600,
      "ÑģÐºÐ¾Ð²": 6601,
      "Ð¸Ð¼Ðµ": 6602,
      "ÐµÑģÐ»Ð¸": 6603,
      "Ð°Ð²ÑĪÐ¸Ð¼": 6604,
      "Ð½Ð¸Ð¼Ð¸": 6605,
      "ĠÑģÐµÐ»Ð°": 6606,
      "ÑĥÐ¼Ð±": 6607,
      "ĠÑĢÐ°Ð¹Ð¾Ð½Ð¾Ð²": 6608,
      "ĠÐ¨Ð²Ðµ": 6609,
      "ĠÐŀÐŀÐŀ": 6610,
      "ĠÐ»ÐµÐ³ÐºÐ¾": 6611,
      "||": 6612,
      "ĠÐ³Ð¾ÑģÐ¿Ð¾Ð´": 6613,
      "ĠÐ¸Ð½Ð´Ð¸Ð²Ð¸Ð´Ñĥ": 6614,
      "Ð°ÑĥÑĢÐµÐ°ÑĤÑĭ": 6615,
      "Ġ$": 6616,
      "ĠÐ½Ð°Ð²": 6617,
      "Ð¾ÑĩÐµÑĤ": 6618,
      "ÑĤÐµÑĢÐ½Ð°ÑĤÐ¸Ð²": 6619,
      "ÑĥÐ°": 6620,
      "ĠÐ¿Ð¾Ð»ÑĥÐ¾ÑģÑĤ": 6621,
      "ĠÐ±ÑİÐ´Ð¶": 6622,
      "ÐľÐĺ": 6623,
      "Ð°ÑİÑīÐ¸Ð¼": 6624,
      "ĠÑĢÐ°ÑģÑģÑĤÐ¾ÑıÐ½": 6625,
      "ĠÐ´Ð°Ð»ÐµÐµ": 6626,
      "ÑģÐ¾Ð·Ð²ÐµÐ·Ð´Ð¸Ðµ": 6627,
      "ĠÐ·Ð°Ð¼ÐµÑĩ": 6628,
      "ĠÐ½Ð°ÑĩÐ¸Ð½Ð°ÐµÑĤ": 6629,
      "ÑİÑīÐ¸Ð¼Ð¸": 6630,
      "ĠÐ´Ð¸Ð²Ð¸Ð·Ð¸Ð¸": 6631,
      "ĠXIV": 6632,
      "ÐºÐ¾ÑģÑĤÐ¸": 6633,
      "100": 6634,
      "ĠÐļÐ¸ÑĢÐ¸": 6635,
      "ĠÐ´Ð¸Ð°Ð³": 6636,
      "ĠÐºÐ²Ð°Ð´": 6637,
      "ĠÑĩÐ°ÑģÑĤÐ¸ÑĩÐ½Ð¾": 6638,
      "Ð¸Ð·Ð¸Ð¾Ð½": 6639,
      "ĠÐ¯Ðº": 6640,
      "ĠÐĳÐ¾Ð¶": 6641,
      "ĠÐ¿ÑĢÐ¾ÑıÐ²Ð»Ñı": 6642,
      "ĠÐ¿Ð°ÑĢÐ°Ð¼ÐµÑĤ": 6643,
      "ber": 6644,
      "ĠÐ²ÑĭÑĩÐ¸Ñģ": 6645,
      "ĠÐĺÐ²Ð°Ð½Ð°": 6646,
      "Ġ<": 6647,
      "Ð°ÑİÑīÐµÐµ": 6648,
      "ĠÑģÐºÐ¾ÑĢÐ¾ÑģÑĤÐ¸": 6649,
      "ĠÐ³Ð¾Ð¼": 6650,
      "ĠÐ·Ð°Ð¼ÑĥÐ¶": 6651,
      "ĠÐ¾Ð±ÐµÑģÐ¿ÐµÑĩÐµÐ½Ð¸Ñı": 6652,
      "ÐĹÐ²": 6653,
      "ĠÐ±Ð¾Ð»ÑĮÑĪÐ°Ñı": 6654,
      "ĠÑĥÐ¿Ð¾Ð¼Ð¸Ð½Ð°ÐµÑĤÑģÑı": 6655,
      "ÐµÑĢÐ°Ñħ": 6656,
      "ĠÐĶÐ°Ð½": 6657,
      "ĠÐ½ÐµÐºÐ¾ÑĤÐ¾ÑĢÐ¾Ðµ": 6658,
      "ĠÐĽÐµÐ½Ð¸Ð½Ð°": 6659,
      "ĠÐ¿ÑĢÐ¸ÑĢÐ¾Ð´Ñĭ": 6660,
      "ĠÐĿÐ°ÑĢ": 6661,
      "ate": 6662,
      "ĠÐºÐ¾Ð»Ð¸ÑĩÐµÑģÑĤÐ²Ð°": 6663,
      "ĠÐ¾ÑħÐ¾ÑĤ": 6664,
      "ĠÑģÐµÑĢÐµÐ±ÑĢÑı": 6665,
      "ÑĢÐµÐ·Ð²ÑĭÑĩ": 6666,
      "ĠÐ¿ÑĢÐ¸Ð¼ÐµÐ½ÐµÐ½Ð¸Ñı": 6667,
      "ĠÐ²Ð´Ð¾Ð»ÑĮ": 6668,
      "ĠÐ¿ÐµÑĢÐµÐµÑħ": 6669,
      "ĠÐ¸Ð´ÐµÐ½ÑĤ": 6670,
      "ĠÐĲÐ½Ð³": 6671,
      "ĠÑĢÐ°Ð·Ð²Ð¸Ð²": 6672,
      "ĠÐ¾Ð¿ÑĥÐ±Ð»Ð¸ÐºÐ¾Ð²Ð°Ð½": 6673,
      "Ġr": 6674,
      "ĠÑģÐ¾ÑģÑĤÐ¾ÑıÐ½Ð¸Ñı": 6675,
      "ĠÑĥÐ³ÑĢÐ¾Ð·": 6676,
      "ÑĢÐµÐ·Ð²ÑĭÑĩÐ°Ð¹": 6677,
      "Ġ1947": 6678,
      "ach": 6679,
      "ĠÐ¼ÐµÑģÑĤÐ½Ð¾Ð³Ð¾": 6680,
      "ĠÐ°ÑĢÑħÐ¸ÐµÐ¿Ð¸ÑģÐºÐ¾Ð¿": 6681,
      "ĠÐŁÐ°Ð²Ð»Ð¾Ð²": 6682,
      "ĠÐ±Ð¾ÑĢÑĮÐ±Ðµ": 6683,
      "ĠÐ´Ð¸ÑĢÐµÐºÑĤÐ¾ÑĢ": 6684,
      "ĠÐ½Ð°Ð¹Ð´": 6685,
      "ĠÐļÐ¸ÑĤÐ°Ð¹": 6686,
      "ÐļÐ°ÑĤ": 6687,
      "ĠÐ¿Ð¾ÑıÐ²Ð¸Ð»Ð°ÑģÑĮ": 6688,
      "ÑĢÑĥÐµÑĤÑģÑı": 6689,
      "ĠÐ¾ÑĢÐºÐµÑģÑĤ": 6690,
      "ĠÐ´Ð¾Ð»Ð¶Ð½Ð¾": 6691,
      "ĠÑĥÐºÑĢÐ°ÑĪ": 6692,
      "ÑĢÐµÑĤÐ°": 6693,
      "ÐµÐ¼Ñĭ": 6694,
      "Ð¾ÑģÑĤÐ¾ÐºÐ°": 6695,
      "ĠÐĽÐµÐ¹": 6696,
      "ĠÑĤÑĢÑĥÐ±": 6697,
      "ĠÐ¸Ð½Ð¸ÑĨÐ¸Ð°ÑĤÐ¸Ð²": 6698,
      "ĠÑĩÑĥÐ´": 6699,
      "ĠÐ¿Ð¾ÑĩÑĳÑĤ": 6700,
      "ĠÑĢÐ¾ÑģÑģÐ¸Ð¹ÑģÐºÐ¸Ñħ": 6701,
      "ĠÑģÐµÐ»ÑĮÑģÐ¾Ð²": 6702,
      "ĠÐĹÐ°Ð¿Ð°Ð´Ð½Ð¾Ð¹": 6703,
      "Ð¾Ð¼Ð°ÑĤ": 6704,
      "ÐļÐ¾Ð»": 6705,
      "ĠÑĥÐ´Ð¾Ð±": 6706,
      "ĠÐ½Ð°ÑĥÑĩÐ½ÑĭÑħ": 6707,
      "ÐºÐ°ÑĢ": 6708,
      "ĠÐŀÐ»Ð¸Ð¼Ð¿Ð¸Ð¹ÑģÐºÐ¸Ñħ": 6709,
      "ff": 6710,
      "ĠÐ³Ð»Ð°Ñģ": 6711,
      "ĠÑĤÐ²ÑĳÑĢ": 6712,
      "ĠÐ½Ð¾Ð²Ð¾Ðµ": 6713,
      "ĠÐºÐ¸Ð½ÐµÐ¼Ð°ÑĤ": 6714,
      "ĠÐ»ÑİÐ±Ð¾Ð¹": 6715,
      "ĠÐ£Ð½Ð¸Ð²ÐµÑĢÑģÐ¸ÑĤ": 6716,
      "Ġ1922": 6717,
      "Ð°ÑħÐ°ÑĢ": 6718,
      "ĠÐ¿ÑĢÐµÐ´Ð¿Ð¾Ñĩ": 6719,
      "ÑĢÐ¸ÑĤÐ¾ÑĢÐ¸": 6720,
      "ĠÐĶÐ°Ð»": 6721,
      "ĠÐŁÐ°ÑĢÐ¸Ð¶Ðµ": 6722,
      "98": 6723,
      "Ð¸ÑĢÐ¾Ð²Ð°Ð½Ð°": 6724,
      "ĠÐ°ÑĥÐ´": 6725,
      "ÐµÐºÑģÑĥ": 6726,
      "ÐµÐ»ÐµÑģ": 6727,
      "ĠÐ¿ÑĢÐ¾ÑģÐ¿": 6728,
      "Ð°Ð¼ÐµÑĢÐ¸ÐºÐ°Ð½": 6729,
      "ĠÑĪÑĤÑĥÑĢ": 6730,
      "ĠÐ¿Ð¾Ð»Ð¸ÑĤÐ¸ÑĩÐµÑģÐºÐ¸Ñħ": 6731,
      "ÐµÐ»ÑĮÐ³": 6732,
      "ĠÑģÐµÑĢÐµÐ´": 6733,
      "Ð°ÑĤÐ¾ÑĢÑĭ": 6734,
      "ĠÐ±ÑĭÐ²ÑĪÐ¸Ð¹": 6735,
      "Ð»ÑıÑİÑĤÑģÑı": 6736,
      "ÑĤÐ¸ÑĦ": 6737,
      "Ð°Ð»ÑĮÐ½Ð¾ÑģÑĤÐ¸": 6738,
      "ĠÐºÐ¾Ð¼Ð±Ð¸Ð½": 6739,
      "Ġ1949": 6740,
      "ĠÑģÑĤÐ¸Ð»Ðµ": 6741,
      "Ġ1932": 6742,
      "ĠÐ²ÐµÑĢÐ¾ÑıÑĤÐ½Ð¾": 6743,
      "Ð°ÑĤÐµÐ»ÑĮÐ½Ð¾Ðµ": 6744,
      "ĠÐŃÑģÑĤ": 6745,
      "ĠÐºÐ°Ð½Ð°Ð»": 6746,
      "ĠÐĽÐ°Ð²": 6747,
      "Ð¿Ð°ÑĤ": 6748,
      "ĠÑıÐ·ÑĭÐºÐ¸": 6749,
      "ĠÐ³Ð»Ð°Ð²Ð½Ð¾Ð¹": 6750,
      "ĠÑģÑĨ": 6751,
      "ĠâĪĴ": 6752,
      "ÑĩÐ¸ÐºÐ¸": 6753,
      "ÐĲÐ¢": 6754,
      "ĠÐĴÐ¸Ð»ÑĮÐ³ÐµÐ»ÑĮ": 6755,
      "ĠÑģÐºÐ¾Ð¿": 6756,
      "Ð¼ÐµÐ¹": 6757,
      "ĠÐ¿Ð¾ÑħÐ¾ÑĢÐ¾Ð½": 6758,
      "Ð»ÑĥÐ¶ÐµÐ½Ð½ÑĭÐ¹": 6759,
      "ĠÐ²Ð¾ÑģÐ¿Ð¾Ð¼Ð¸Ð½": 6760,
      "ĠÑĨÐ°ÑĢÑĮ": 6761,
      "ĠÐ¼Ð°Ð¹": 6762,
      "ÑħÐ¾Ð¶Ð´ÐµÐ½Ð¸Ðµ": 6763,
      "ĠÐĳÑĢÑİ": 6764,
      "ĠÐ½Ð¾Ð¼Ð¸Ð½": 6765,
      "Ð´Ð¾Ðº": 6766,
      "Ġe": 6767,
      "ÐµÐ²ÑĭÐµ": 6768,
      "Ð°Ð½ÑģÐºÐ°Ñı": 6769,
      "ĠÐ´Ð²Ð¾Ð¹": 6770,
      "tern": 6771,
      "Ð¾Ð²Ð¾Ð¼": 6772,
      "ĠÑħÐ¾Ð·ÑıÐ¹ÑģÑĤÐ²Ð°": 6773,
      "ĠÐ±ÑĢÐ°ÑĤÐ°": 6774,
      "ÑĩÐ¸Ð½Ñĭ": 6775,
      "ÐµÑĢÐ±ÑĥÑĢÐ³Ð°": 6776,
      "ĠÐ³Ð¾ÑĢÐ¾Ð´Ð°Ñħ": 6777,
      "Ð´ÐµÐ»ÑĮ": 6778,
      "ĠÐķÑĳ": 6779,
      "ĠÐºÐ°ÑĤÐµÐ³Ð¾ÑĢÐ¸Ð¸": 6780,
      "ĠÐ±ÐµÐ³": 6781,
      "Ð»Ð°Ð½ÑĤ": 6782,
      "ĠÑĢÐµÐºÐ¾ÑĢ": 6783,
      "Ġ1955": 6784,
      "ĠÐ¾ÑĢÐ³Ð°Ð½Ð¸Ð·Ð°ÑĨÐ¸Ð¹": 6785,
      "ĠÐ¼Ð°Ð»ÑĮ": 6786,
      "ÐºÐ¾Ð²Ð¾Ð¹": 6787,
      "ĠÐ°Ð²ÑģÑĤÑĢÐ¸Ð¹": 6788,
      "ÑģÐµÑĢ": 6789,
      "Ð½Ð¾ÑģÑĤÑıÐ¼Ð¸": 6790,
      "ÐĿÐ°Ñĩ": 6791,
      "ÑĥÐ¼Ðµ": 6792,
      "ÑĢÐ¾Ð²Ð¾Ð»ÑĮ": 6793,
      "ÑĢÐ¸Ð¶": 6794,
      "ÐµÑĢÐµÐ¹": 6795,
      "Ð¸Ð½Ð³Ð²": 6796,
      "ĠÑĪÐµÑģÑĤÑĮ": 6797,
      "ĠÑĥÑģÑĤÑĢÐ¾": 6798,
      "Ð¸Ð¼Ð¾Ð¹": 6799,
      "ĠÐ¿ÑĤÐ¸ÑĨ": 6800,
      "ĠÐłÐ°ÑģÐ¿": 6801,
      "ĠÐļÐ¸ÑĤÐ°": 6802,
      "ĠÐ¡Ð¸Ð±": 6803,
      "ÑĦÐ¾ÑĢÐ¼Ð°ÑĤ": 6804,
      "2005": 6805,
      "ÑıÐ»Ð¸ÑģÑĮ": 6806,
      "ĠÐ³Ð°Ð»Ð°ÐºÑĤÐ¸ÐºÐ°": 6807,
      "ĠÐ¿ÑĢÐµÑģÑĤÐ¾Ð»": 6808,
      "96": 6809,
      "Ð»ÐµÑĤÐ²Ð¾ÑĢ": 6810,
      "ĠÐ¾ÑĤÐ²ÐµÑĩ": 6811,
      "ÐŁÐ¾ÑĩÑĳÑĤÐ½ÑĭÐµ": 6812,
      "ÐºÐ¾ÑģÑĤÑĮ": 6813,
      "ĠÐ¾ÐºÐ°Ð·Ð°Ð»ÑģÑı": 6814,
      "ĠÐ¼Ð°ÑĤÐµÑĢÐ¸Ð°Ð»": 6815,
      "Ð»Ð°Ð½Ð´Ð¸Ð¸": 6816,
      "ĠÐ»Ð°Ð±Ð¾ÑĢÐ°ÑĤÐ¾ÑĢ": 6817,
      "ÐŁÑĢÐµ": 6818,
      "Ð¸Ð²Ð¸Ð»": 6819,
      "Ð¾Ð¿ÑĢÐ¸Ð¼ÐµÑĩ": 6820,
      "St": 6821,
      "ĠÐ³ÐµÑĢÐ¾Ñı": 6822,
      "Ð¾ÐºÐ¾Ð¹": 6823,
      "ĠÐŁÐ¾Ð»ÑĮÑĪÐ¸": 6824,
      "ĠÐ¿ÑĢÐµÑĤ": 6825,
      "ĠÐ¼ÑĥÐ¶ÑĩÐ¸Ð½": 6826,
      "ĠÐ°ÑģÐ¿": 6827,
      "ĠÐ¸Ð·Ð´Ð°Ð½Ð¸Ñı": 6828,
      "92": 6829,
      "ĠÐ¸Ð¼Ð¸": 6830,
      "ĠÐ°ÑģÑģÐ¾ÑĨÐ¸": 6831,
      "ĠÑģÑĤÐ¾Ð»ÐµÑĤ": 6832,
      "ĠÐ¾ÑģÐ½Ð¾Ð²Ð°Ð½Ð¸Ð¸": 6833,
      "ĠÐ¿ÑĢÐ¾ÑĤÐ¸Ð²Ð¾ÑĢÐµÑĩ": 6834,
      "Ġ1953": 6835,
      "ÐµÐ²Ð¾": 6836,
      "Ð¸Ð²ÑĪÐ¸ÑħÑģÑı": 6837,
      "ĠÐľÐ¸ÑĤ": 6838,
      "ĠÐ¿Ð¾ÑģÐ°Ð´": 6839,
      "58": 6840,
      "ĠÐ¦ÐµÑĢÐºÐ¾Ð²": 6841,
      "ĠÐ²Ð¾ÑģÑĤÐ¾Ðº": 6842,
      "ĠÐ±Ð°Ð½Ðº": 6843,
      "ĠÐ·Ð²ÑĥÐº": 6844,
      "ĠÐ½Ð°ÑĩÐ¸Ð½Ð°Ñı": 6845,
      "ĠÐĶÐ°": 6846,
      "Ġ1924": 6847,
      "ÑıÐ½ÑĥÑĤ": 6848,
      "ĠÑĦÐµÑĢ": 6849,
      "ÐĲÑĢÑħ": 6850,
      "ÑģÐ°Ð¼": 6851,
      "ĠÐ¡Ð²ÐµÑĤ": 6852,
      "Ð¾ÑģÐºÐ¾Ð»ÑĮÐºÑĥ": 6853,
      "Ð¸ÑĩÐ½Ð°Ñı": 6854,
      "=\"": 6855,
      "Ð¸Ð¾Ð½Ð°": 6856,
      "Ð°ÐºÐ¾Ð²Ð°": 6857,
      "ĠÐĺÐ·Ð²ÐµÑģÑĤ": 6858,
      "ĠÐ·Ð°Ð¿ÑĢÐµÑĤ": 6859,
      "ĠÐ¸Ð·Ð±Ð¸ÑĢÐ°ÑĤ": 6860,
      "ĠÐĽÑĮÐ²": 6861,
      "ĠMar": 6862,
      "ĠÐ¿ÑģÐµÐ²Ð´": 6863,
      "ĠÐ²ÑĢÐ°Ñī": 6864,
      "ÐŁÐµÑĤÐµÑĢÐ±ÑĥÑĢÐ³Ðµ": 6865,
      "Ð¾ÑĩÐºÐ°": 6866,
      "Ð³ÐµÐ½": 6867,
      "Ð¸Ð·Ð°Ð½ÑĤ": 6868,
      "ĠÐ¼Ð¾Ð¼ÐµÐ½ÑĤÐ°": 6869,
      "ĠÐ¿ÐµÑĢÐµÐ¶": 6870,
      "Ð¸ÑģÑĤÐ¾ÑĢ": 6871,
      "ĠBe": 6872,
      "ĠÐ½Ð°Ð·Ð²Ð°Ð»": 6873,
      "ĠÐ¿ÑĢÐµÐ²ÑĢÐ°ÑĤ": 6874,
      "ĠÑģÐ»ÑĥÐ¶Ð±Ñĥ": 6875,
      "ĠÐļÑĥ": 6876,
      "ĠÐ¿ÑĢÐ¾Ð²ÐµÐ´ÐµÐ½Ð¸Ñı": 6877,
      "ĠÐĶÐ¾Ð»": 6878,
      "ÑĢÐ°ÑĤÐ°": 6879,
      "oll": 6880,
      "Ð¢ÐµÑĢ": 6881,
      "Ð¡Ð¢": 6882,
      "ĠÐĳÐ°": 6883,
      "ĠÐ¿ÐµÑĢÐµÐ¿Ð¸ÑģÐ¸": 6884,
      "ĠÐ´Ð°ÑĳÑĤ": 6885,
      "ĠÐ¸ÑģÐºÐ»ÑİÑĩÐµÐ½Ð¸ÐµÐ¼": 6886,
      "com": 6887,
      "ÐŁÐ¾ÑħÐ¾ÑĢÐ¾Ð½": 6888,
      "ĠÐŁÐ°Ð¿": 6889,
      "ĠÐ¾ÐºÐ¾Ð½ÑĩÐ¸Ð»": 6890,
      "Ð¾Ð²Ð»ÐµÑĤÐ²Ð¾ÑĢ": 6891,
      "ÑģÑĤÐ²Ð°Ð¼Ð¸": 6892,
      "ĠÑĨÐ¸ÑĤ": 6893,
      "ĠÐ¼ÐµÑģÑĤÐ¾ÑĢ": 6894,
      "ĠÐ¿Ð¾Ð±ÐµÐ´Ñĥ": 6895,
      "ĠÐľÑĥÑħ": 6896,
      "ĠÐ½ÑĭÐ½Ðµ": 6897,
      "ĠÐ¸Ð½ÑĤÐµÑĢÐ²ÑĮÑİ": 6898,
      "ĠÑįÐºÐ¸Ð¿Ð°Ð¶": 6899,
      "ĠÐ£Ð·": 6900,
      "ÑĦÐµÑĢÐµÐ½ÑĨÐ¸Ð¸": 6901,
      "Ð±Ð»Ð¸Ð·": 6902,
      "Ð½Ð¾Ð¼Ð¾ÑĢ": 6903,
      "ÐµÐ´Ð»Ð¸Ð²": 6904,
      "ĠÐ¸Ð¼ÐµÐ»Ð°": 6905,
      "ĠXII": 6906,
      "ÑħÐ¾Ð·": 6907,
      "ĠÑģÐ¾ÑģÑĤÐ°Ð²Ð¸Ð»": 6908,
      "ĠÐ±Ð»Ð°": 6909,
      "ĠVII": 6910,
      "ÑĢÐµÑģÑģÐ¸Ð²": 6911,
      "ĠÐĶÐ¾Ð±": 6912,
      "ĠÐ¶Ð¸Ð·Ð½": 6913,
      "ĠÑĢÐ°ÑģÑĤÐ²Ð¾ÑĢ": 6914,
      "ĠÑĥÐµÐ·Ð´Ð°": 6915,
      "ĠXIII": 6916,
      "Ð¾Ð±Ð¸Ð»ÑĮ": 6917,
      "ĠÐ¡Ð¿Ð¸ÑģÐ¾Ðº": 6918,
      "Ð¸Ð²ÑĪÐµÐ³Ð¾": 6919,
      "ĠÐ²ÑģÑĤÑĢÐµÑĩÐ°ÑİÑĤÑģÑı": 6920,
      "ĠÐ»ÑĳÑĤ": 6921,
      "ide": 6922,
      "Ð²ÐµÑĢÑħ": 6923,
      "ĠÑģÑĢÐµÐ´Ð½ÐµÐ¼": 6924,
      "ĠÑģÐ²Ð¾Ð¹ÑģÑĤÐ²Ð°": 6925,
      "ĠÐ¿ÑĢÐ¾Ð·Ð²": 6926,
      "ĠÑįÐ»ÐµÐºÑĤÑĢÐ¾": 6927,
      "ĠÐ³Ð¾ÑģÑĥÐ´Ð°ÑĢÑģÑĤÐ²ÐµÐ½Ð½ÑĭÑħ": 6928,
      "ĠÑģÐ¾Ð»Ð½ÐµÑĩ": 6929,
      "ÑıÑīÐ¸Ðµ": 6930,
      "ĠÐŁÐ¾Ð·Ð¶Ðµ": 6931,
      "ĠÐ±ÑĭÐ²ÑĪÐµÐ³Ð¾": 6932,
      "ÐĴÑģÐµ": 6933,
      "Ð½ÐµÑģÑĤ": 6934,
      "az": 6935,
      "ÑĢÐµÐ¿Ð¾Ð´": 6936,
      "ĠÐĲÐ²Ð³ÑĥÑģÑĤ": 6937,
      "ĠÐ½Ð°ÑĩÐ¸Ð½Ð°": 6938,
      "%),": 6939,
      "ĠÐ¾Ð´ÐµÑĢÐ¶": 6940,
      "ĠÐ¼ÐµÑģÑĤÐ½ÑĭÑħ": 6941,
      "Ġ1933": 6942,
      "Ð¸ÑĤÐµÐ»ÑĮÑģÑĤÐ²Ð°": 6943,
      "ĠÐĴÐµÐ½": 6944,
      "ĠÐĴÐµÐ½Ðµ": 6945,
      "ĠÐ²Ð½ÑĥÑĤÑĢÐµÐ½Ð½Ð¸Ñħ": 6946,
      "ÐºÐ¾Ð³": 6947,
      "ĠÐ¸Ð½ÑĤÐµÐ³": 6948,
      "ĠÐ¿Ð¾Ð²ÐµÐ´": 6949,
      "ĠÐ¸ÑģÑĤÑĢÐµÐ±": 6950,
      "ĠÐĳÐ¾Ð»ÑĮÑĪÐ¾Ð¹": 6951,
      "ÐłÐ¾ÑģÑģÐ¸Ñı": 6952,
      "ĠÐĿÐ¸ÐºÐ¾Ð»Ð°ÐµÐ²Ð¸Ñĩ": 6953,
      "ĠÐ¸Ð·Ð½Ð°Ñĩ": 6954,
      "ĠÑĢÐ°Ð·Ð½ÑĭÐµ": 6955,
      "ĠÑĩÐµÑĤÐ²ÑĳÑĢÑĤ": 6956,
      "ĠÐ»Ð¸Ð½Ð¸Ñı": 6957,
      "ĠÐ»Ð¾Ð´": 6958,
      "ĠÑģÐºÐ»Ð°Ð´": 6959,
      "ĠÑĤÐ°ÐºÐ¾Ðµ": 6960,
      "ĠÐ¾Ð¿ÐµÑĢ": 6961,
      "ĠÑĤÑĢÐ°Ð´": 6962,
      "Ð»Ð¾Ð¿": 6963,
      "ĠÑģÐ¸Ð½ÑĤÐµÐ·": 6964,
      "ĠÐ·Ð°Ð²Ð¸ÑģÐ¸ÑĤ": 6965,
      "ĠÐºÐ¾Ð½ÑĤÐ¸Ð½": 6966,
      "ĠWindows": 6967,
      "Ġ1928": 6968,
      "ĠÐķÐ²Ð³ÐµÐ½Ð¸Ð¹": 6969,
      "Ð°ÑĤÐ¾ÑĢÐ¾Ð¼": 6970,
      "ĠÐ°Ð³ÐµÐ½ÑĤ": 6971,
      "Ð¾Ð»Ð¾Ð³Ð¸ÑĩÐµÑģÐºÐ¾Ð¹": 6972,
      "ĠÑģÑĤÑĥÐ´Ð¸Ð¸": 6973,
      "ĠÐŁÐ¾Ñĩ": 6974,
      "Ð¾Ð±ÐµÐ»ÐµÐ²": 6975,
      "Ð½ÐµÐ¹ÑĪÐ¸Ñħ": 6976,
      "Ð½ÑĥÐ»": 6977,
      "ĠÐ¾ÑģÐ½Ð¾Ð²Ð½ÑĭÐµ": 6978,
      "ish": 6979,
      "ÑģÑĥÐ¶Ð´": 6980,
      "ĠÐ´ÐµÐ±ÑİÑĤ": 6981,
      "Ð¸ÑģÑĤÐ°Ð½Ð°": 6982,
      "Ð¶ÐµÐ½Ð¸Ðµ": 6983,
      "Ð°ÑĢÐ¸Ñī": 6984,
      "ÐĶÐł": 6985,
      "ĠÐ§ÐµÐ¼": 6986,
      "ith": 6987,
      "SO": 6988,
      "Ð¾ÑģÑĤÐµÐ¹": 6989,
      "ĠÐĶÑĥÐ±": 6990,
      "ĠÐĲÑģÑĤ": 6991,
      "ock": 6992,
      "ĠÐºÐ¾Ð¼Ð°Ð½Ð´Ð¸ÑĢ": 6993,
      "ĠÐ¥Ð°ÑĢÑĮ": 6994,
      "Ġ1921": 6995,
      "ÑĤÐµÐ½Ð°Ð½ÑĤ": 6996,
      "ĠÐ´ÐµÐ¼Ð¾Ð½ÑģÑĤ": 6997,
      "ĠÑģÐ¿ÐµÑĨÐ¸": 6998,
      "ĠÐĿÐ°Ð¿Ð¾Ð»Ðµ": 6999,
      "ÑĭÐ¶": 7000,
      "ath": 7001,
      "ĠÐ¾ÑģÐ½Ð¾Ð²Ð°Ð½Ð¸Ñı": 7002,
      "ĠÐ¾ÑĤÐºÐ°Ð·Ð°Ð»ÑģÑı": 7003,
      "Ð¼ÐµÑĪ": 7004,
      "ĠÐ¡Ð¼Ð¾Ð»": 7005,
      "ÑĤÑĭÑģ": 7006,
      "ĠÐºÐ½Ð¸Ð³Ñĥ": 7007,
      "Ð»ÐµÐ½Ð½Ð¾": 7008,
      "Ð´ÐµÐ¼": 7009,
      "ÑĢÐ¾Ð¿Ð¾Ð»": 7010,
      "ĠÐ½Ð°ÑĨÐ¸Ð¾Ð½": 7011,
      "ÐļÐŁ": 7012,
      "ÐµÐ¿ÑĤ": 7013,
      "ĠÑģÐµÐ·Ð¾Ð½Ðµ": 7014,
      "ĠÐ¾ÑĤÑĩ": 7015,
      "Ġfor": 7016,
      "ĠÐ¿Ð¾Ð´Ð²Ð¾Ð´": 7017,
      "ĠÑģÐ¾Ð´ÐµÑĢÐ¶Ð°Ñī": 7018,
      "54": 7019,
      "ĠÐ³Ð°Ð·Ð°": 7020,
      "Ð¾Ð½Ð°Ð²": 7021,
      "ĠÑģÐ¾ÑģÑĤÐ¾ÑıÐ»ÑģÑı": 7022,
      "Ð¸ÑģÐ»": 7023,
      "ĠÐ¸Ð¼ÑĥÑīÐµÑģÑĤÐ²": 7024,
      "ĠÐłÑĥÐ¼": 7025,
      "1945": 7026,
      "ĠÑĪÐ°ÑħÐ¼Ð°ÑĤ": 7027,
      "ĠÑĥÑĩÐ¸Ð»Ð¸ÑīÐµ": 7028,
      "ÑģÑĤÐ²ÐµÐ½Ð½Ð¾Ðµ": 7029,
      "ÐĶÐ¾ÑģÑĤ": 7030,
      "ĠÐļÐ°ÑĢÐ»Ð°": 7031,
      "ÑģÐµÑĢÐ²": 7032,
      "ĠÐ±ÑĢÐ¸Ð³": 7033,
      "ĠÐ¿Ð¾ÐºÑĢÐ¾Ð²": 7034,
      "ft": 7035,
      "ĠÐ¿ÑĢÐ¸Ð·Ð²": 7036,
      "ign": 7037,
      "ĠÐºÐ°ÑĢÐ´Ð¸Ð½": 7038,
      "ĠÐ¿Ð¸ÑĪÐµÑĤ": 7039,
      "Ð¹ÑĤÐ¸": 7040,
      "ĠÐ»Ð¸ÑĤÐ¾Ð²": 7041,
      "ĠÐ¿ÐµÑĢÐµÐ²ÐµÐ´": 7042,
      "ÐŀÐ±ÑĢÐ°Ð·": 7043,
      "ĠÐ¿Ð¾Ð´Ñģ": 7044,
      "ĠÐ¼Ð¾Ð½Ð°ÑģÑĤÑĭÑĢÑĮ": 7045,
      "83": 7046,
      "ĠÐ´Ð¸Ð½Ð°Ð¼": 7047,
      "Ð½Ð¸Ð³Ð°": 7048,
      "ÑĢÑıÐ´Ñĥ": 7049,
      "ĠÐ¼Ð»Ð½": 7050,
      "ĠÑģÐ¾Ð·Ð´Ð°Ð»": 7051,
      "ÐµÑģÑģÐ°": 7052,
      "ĠÐĲÐ²ÑģÑĤÑĢÐ°Ð»": 7053,
      "ÑĤÐµÑħÐ½": 7054,
      "ĠÐ²ÑĭÑģÑĤÑĥÐ¿Ð¸Ð»": 7055,
      "ĠÐ¿Ð¾Ð»Ð½Ð¾Ð¼Ð¾Ñĩ": 7056,
      "81": 7057,
      "ĠÑģÐ¶": 7058,
      "ĠÐºÑĢÐ°Ð¹Ð½Ðµ": 7059,
      "ÐµÐ²Ð½Ð°": 7060,
      "Ð¸Ð¼ÑĭÑħ": 7061,
      "ĠÐ¿ÑĢÐ°Ð²Ð¾ÑģÐ»Ð°Ð²Ð½Ð¾Ð¹": 7062,
      "Ð°Ð»Ð¸ÑĦ": 7063,
      "Ġet": 7064,
      "ern": 7065,
      "Ġ1926": 7066,
      "Ð¾ÑĤÐ¾Ñĩ": 7067,
      "ĠÐ²Ð¾ÑģÑģÑĤÐ°Ð½Ð¸Ñı": 7068,
      "Ð°ÑĤÐµÐ»ÑĮÐ½Ð°Ñı": 7069,
      "ĠÐ±Ð¾Ð»ÑĮÑĪÐ¸Ðµ": 7070,
      "ĠÑģÐ°Ð¼Ð¾Ð»ÑĳÑĤÐ°": 7071,
      "ĠÐ³ÑĢÐ°Ð½Ð¸ÑĨ": 7072,
      "Ð½Ð¾Ð¿": 7073,
      "Ð¾Ð»Ð³Ð¾": 7074,
      "ĠÑĤÑĢÐ°Ð³": 7075,
      "Ð¿ÐµÑĢÐ²": 7076,
      "ÑħÐ°Ð½": 7077,
      "ÑĤÑĥÑĢÑĥ": 7078,
      "ÐĵÑĨ": 7079,
      "ĠÐ¿ÐµÑĤ": 7080,
      "ĠÑģÐ¸Ñħ": 7081,
      "ÑįÐºÐ¾Ð½Ð¾Ð¼": 7082,
      "ĠÑĢÐµÐ³ÑĥÐ»Ð¸": 7083,
      "ÐĴÐĶ": 7084,
      "ĠÐ±Ð°ÑĤÐ°Ð»ÑĮ": 7085,
      "ĠÐľÐ°ÑĢÐ¸Ð¸": 7086,
      "ÐµÐ¼Ð¾Ð³Ð¾": 7087,
      "Ð½Ð¸ÑĨÐµ": 7088,
      "ÐµÐ»ÑıÑħ": 7089,
      "ĠÐ¨Ð°ÑĢ": 7090,
      "Ġ1914": 7091,
      "ÑĭÐ²Ð°Ð»Ð¸": 7092,
      "ĠÐ¾ÑĤÐ½Ð¾ÑĪÐµÐ½Ð¸Ñİ": 7093,
      "Ð°ÑĪÐ°": 7094,
      "ĠÐĲÐ»ÐµÐºÑģÐ°Ð½Ð´ÑĢÐ¾Ð²Ð¸Ñĩ": 7095,
      "ÑĢÑįÐ½": 7096,
      "ÐµÐ»ÑĮÐ´": 7097,
      "Ð¾Ð·Ð´Ð½ÐµÐµ": 7098,
      "ĠÐ½Ð¾ÑĩÑĮ": 7099,
      "ĠÑĥÑĩÑĳÐ½ÑĭÐ¹": 7100,
      "ĠÐ±ÐµÑģÑģ": 7101,
      "ĠÑıÐº": 7102,
      "ĠÐŁÐ¾Ð¼Ð¸Ð¼Ð¾": 7103,
      "ÑģÑĤÐ¾ÑıÑĤÐµÐ»ÑĮ": 7104,
      "ĠÐºÐ¾Ñģ": 7105,
      "ĠÑģÐ¾Ð²ÐµÑĢÑĪÐµÐ½Ð½Ð¾": 7106,
      "ĠÐļÑĢÐ°": 7107,
      "ĠÐ¶ÐµÑĢÑĤÐ²": 7108,
      "Ġ1923": 7109,
      "ĠÐ¸ÑģÑĤÐ¾ÑĩÐ½Ð¸ÐºÐ¾Ð²": 7110,
      "ÑİÐ´Ð°": 7111,
      "ĠÐļÑĥÐ±ÐºÐ°": 7112,
      "ÑıÐ»ÑģÑı": 7113,
      "ĠÐ¾ÐºÑĢÐ°": 7114,
      "ĠÐºÑĢÐ¸ÑģÑĤ": 7115,
      "ĠÐ±Ð¾ÐµÐ²ÑĭÑħ": 7116,
      "Ð¸ÑģÑĤÑĢÐ¸ÑĢÐ¾Ð²": 7117,
      "ivers": 7118,
      "ial": 7119,
      "ĠÐ½Ð°ÐºÐ°Ð·": 7120,
      "ĠÑģÐ¾Ð²Ð¿": 7121,
      "ĠÐºÐ¾Ð»Ð»ÐµÐ´": 7122,
      "ĠÑģÑĩÐ¸ÑĤÐ°ÑİÑĤ": 7123,
      "ĠÑĦÐµÑģÑĤÐ¸Ð²": 7124,
      "ĠÐ²ÑģÐ»ÐµÐ´ÑģÑĤÐ²Ð¸Ðµ": 7125,
      "ĠÐ¾Ð¿Ð¿Ð¾Ð·": 7126,
      "ĠÐĴÐ°Ð»ÐµÐ½ÑĤ": 7127,
      "ÑĢÐ¾Ð½Ð°": 7128,
      "ÑĮÑıÐ½": 7129,
      "ĠÐ·Ð°ÑģÑĤ": 7130,
      "ĠÑģÐ¾Ñİ": 7131,
      "Ð¸ÑĢÐ°Ð»ÑĮ": 7132,
      "ĠÐ¾ÑģÑĤÐ°ÑĳÑĤÑģÑı": 7133,
      "ment": 7134,
      "ĠÑģÑĥÑīÐµÑģÑĤÐ²Ð¾Ð²Ð°Ð½Ð¸Ñı": 7135,
      "ĠÐ»Ð¾Ðº": 7136,
      "Ġ1925": 7137,
      "ĠÑįÐ¿Ð¾ÑħÑĥ": 7138,
      "ĠÑĤÐµÐ»Ð¾": 7139,
      "ĠÐ¼Ð½Ðµ": 7140,
      "te": 7141,
      "Ð¡ÑĥÑīÐµÑģÑĤÐ²": 7142,
      "ÑģÐ¿ÐµÐºÑĤÐ¸Ð²": 7143,
      "ÐĴÐ¾Ð»": 7144,
      "ĠÐ´ÑĥÐ±": 7145,
      "56": 7146,
      "ĠÐ·Ð°Ð¿Ð°Ñģ": 7147,
      "ĠÐ³ÐµÐ½ÐµÑĢÐ°Ð»Ð°": 7148,
      "AS": 7149,
      "ĠÐºÐ¾Ð¼Ð¼Ñĥ": 7150,
      "%)": 7151,
      "Ð¾Ð±Ð½Ð¾Ð²": 7152,
      "ĠÐ¾Ð±ÑĬÑıÐ²Ð¸Ð»": 7153,
      "Ð»Ð¾ÑīÐ°Ð´ÑĮ": 7154,
      "ĠÑģÑĨÐµÐ½Ð°ÑĢÐ¸ÑģÑĤ": 7155,
      "ĠÐ¿Ð¾ÑģÐ»ÐµÐ´Ð½ÐµÐ³Ð¾": 7156,
      "ÐĽÑĥÑĩ": 7157,
      "ÐºÑĥÑģ": 7158,
      "Ð¾Ð»ÑĮÐ½Ð¾Ð¹": 7159,
      "ĠÐ²Ð·ÑĢÐ¾Ñģ": 7160,
      "ÐµÐ´Ð¶": 7161,
      "ĠÑģÑĤÐ°ÑĤÑĮÐ¸": 7162,
      "Ð¾ÑĢÑĤÑĥÐ³": 7163,
      "ĠÐ³ÑĢÐ°Ð²": 7164,
      "Ð½ÑĥÐ²": 7165,
      "Ð½Ð¸ÑĨÐµÐ¹": 7166,
      "ron": 7167,
      "Ð¸Ð¼Ñĭ": 7168,
      "ÐµÑģÑĤÐ¸Ð²Ð°Ð»": 7169,
      "ĠÐĿÐ¾Ð²Ð¾Ñģ": 7170,
      "ĠÐºÑĢÑĥÐ¿Ð½ÑĭÐµ": 7171,
      "ÐµÐ¹ÑĤ": 7172,
      "ĠÐ¿ÑĢÐ¸Ð¼ÐµÐ½ÐµÐ½Ð¸Ðµ": 7173,
      "ÑĪÐµÐ¼Ñĥ": 7174,
      "ĠÐºÐ¾Ð»ÐµÐ±": 7175,
      "ÐĵÐµÐ¾Ð³ÑĢÐ°ÑĦÐ¸Ñı": 7176,
      "ĠÐĴÐ°Ð½": 7177,
      "ĠÑĢÐ¾Ð´ÑģÑĤÐ²ÐµÐ½": 7178,
      "ĠÐ¿ÑĢÐ¾ÑĨÐµÑģÑģÐ°": 7179,
      "Ġ1931": 7180,
      "ĠÐ¾Ð±ÑĬÑıÑģÐ½Ñı": 7181,
      "ĠÐ¿ÑĥÐ±Ð»Ð¸Ñĩ": 7182,
      "ÑĨÐ²ÐµÑĤ": 7183,
      "ĠÑĤÑĢÐµÐ±Ð¾Ð²Ð°Ð½Ð¸Ñı": 7184,
      "Ð³ÐµÐ½ÑĤ": 7185,
      "ĠÐ½ÑĢÐ°Ð²": 7186,
      "Ġ1927": 7187,
      "Ð·Ð¸Ñı": 7188,
      "ÐµÑģÐ½Ð¾Ð¹": 7189,
      "ĠÐ¿Ð°ÑĢÐº": 7190,
      "ĠÐµÐ¿Ð°ÑĢÑħ": 7191,
      "ĠÐ¼ÐµÑģÑĤÐ°Ñħ": 7192,
      "ÐµÐ»ÐµÑĤ": 7193,
      "ĠÐ³Ð¾Ð»Ð¾ÑģÐ¾Ð²": 7194,
      "ĠÐ§ÑĳÑĢ": 7195,
      "ĠÐŁÐ¾Ð±ÐµÐ´": 7196,
      "ĠĊĠĊĠĊĠĊĠĊĠĊĠĊĠĊ": 7197,
      "ĠÐĲÐ¿": 7198,
      "ĠÐ¾ÐºÐ¾Ð½ÑĩÐ°ÑĤÐµÐ»ÑĮÐ½Ð¾": 7199,
      "ĠÐľÐ½Ð¾Ð³Ð¸Ðµ": 7200,
      "ĠÑĪÐºÐ¾Ð»Ñĥ": 7201,
      "ÐŀÑģÐ½Ð¾Ð²Ð½ÑĭÐµ": 7202,
      "ĠÐļÐ¸Ð½": 7203,
      "ÐĻÐ¾ÑĢÐº": 7204,
      "ĠÐ±ÐµÑģÐº": 7205,
      "sp": 7206,
      "ĠÐŀÐŀÐĿ": 7207,
      "ÑĩÐ°Ð½": 7208,
      "ĠÐĳÑĭÐ»": 7209,
      "ĠÐ¿Ð¾Ð·Ð²Ð¾Ð»Ñı": 7210,
      "ww": 7211,
      "ĠÐ½Ð°Ð±Ð¾ÑĢ": 7212,
      "ĠÐ½Ð°Ð·Ð²Ð°Ð½": 7213,
      "Ġi": 7214,
      "ÑĥÐ±ÐµÐ¶": 7215,
      "ĠÐºÐ¾Ð¼Ð¸ÑĤÐµÑĤÐ°": 7216,
      "2006": 7217,
      "ĠÐºÐ¾Ð¾ÑĢÐ´Ð¸Ð½": 7218,
      "ĠÑĢÐµÐ³Ð¸Ð¾Ð½Ð°": 7219,
      "ĠÐ¼ÐµÑģÑıÑĨÐ°": 7220,
      "ĠÑĤÐµÐ»ÐµÐºÐ°Ð½": 7221,
      "ĠÐ°Ð½Ð³Ð»Ð¸Ð¹ÑģÐºÐ¾Ð¼": 7222,
      "ĠÐ½Ð°Ð¸Ð¼ÐµÐ½": 7223,
      "ĠÐļÐ¾": 7224,
      "ĠÑģÑĥÑīÐµÑģÑĤÐ²ÑĥÑİÑĤ": 7225,
      "Ð¸ÑīÐ°": 7226,
      "ĠÐ±Ð¾Ð¶": 7227,
      "ĠÑģÐµÑĢÐµÐ´Ð¸Ð½Ñĭ": 7228,
      "Ð¾ÑĢÐ¼": 7229,
      "ĠÑĥÐ»Ð¸ÑĨÑĭ": 7230,
      "ÑĢÐ°Ð³Ð¼ÐµÐ½ÑĤ": 7231,
      "Ð¾ÑĩÐ½Ð¸ÐºÐ¸": 7232,
      "ĠÑĤÐµÑħÐ½Ð¾Ð»Ð¾Ð³Ð¸Ð¸": 7233,
      "ĠÐŁÑĥÑĪ": 7234,
      "ÑĤÐ°Ð±Ð°": 7235,
      "Ð¾ÑĢÐ¾Ð´Ð°": 7236,
      "ĠÐ°ÑĢÑħÐ¸ÑĤÐµÐº": 7237,
      "ĠÐ²Ð»Ð¸ÑıÐ½Ð¸ÐµÐ¼": 7238,
      "ÑĭÐ²Ð°Ñı": 7239,
      "Ð½Ð¸ÐºÐ¾Ð²Ð°": 7240,
      "ĠÑģÐ¾ÑģÑĤÐ°Ð²Ð»ÑıÑİÑĤ": 7241,
      "ÑĢÐµÑģÐ¿": 7242,
      "ĠÑĦÑĢÐ¾Ð½ÑĤÐ°": 7243,
      "Ð°ÑĢÑģÐºÐ¾Ð³Ð¾": 7244,
      "Ð²Ð¸Ð´Ð°": 7245,
      "ĠÐ¸Ð·Ð³Ð½": 7246,
      "ore": 7247,
      "ĠÐ¸ÑģÐºÐ»ÑİÑĩÐ¸ÑĤÐµÐ»ÑĮÐ½Ð¾": 7248,
      "ĠÑĩÐ¸Ð½Ð¾Ð²": 7249,
      "ĠÐĺÑģÑĤÐ¾ÑĢ": 7250,
      "ĠÐĳÐ°Ð¹": 7251,
      "ÑĢÐ°Ð½Ñģ": 7252,
      "ÐµÐ³Ð°": 7253,
      "ĠÑĢÐ°ÑģÐ¿ÑĢÐ¾ÑģÑĤÑĢÐ°Ð½ÐµÐ½Ð¸Ðµ": 7254,
      "ÐµÐ´ÑĮ": 7255,
      "ĠÑģÐ¾ÑģÑĤÐ°Ð²Ð¸Ð»Ð°": 7256,
      "ĠÐĺÐ¾ÑģÐ¸ÑĦ": 7257,
      "Ð³Ð»ÑıÐ´": 7258,
      "ĠÐ»ÑĥÑĩÑĪÐ¸Ð¹": 7259,
      "ĠÐºÑĢÐµÐ¿Ð¾ÑģÑĤÐ¸": 7260,
      "Ð²Ð¾ÑģÑĤÐ¾Ñĩ": 7261,
      "Ð¾Ð¹ÑĤÐ¸": 7262,
      "ĠÐ°ÑĢÑħÐ¸Ð²": 7263,
      "Ð½Ð¸Ð·": 7264,
      "ĠÐ±ÑĢÐ¾Ñģ": 7265,
      "ĠÑģÐ¾Ð·Ð´Ð°Ð½Ð°": 7266,
      "ÐµÐ½Ð³ÐµÑĢ": 7267,
      "ĠÑĦÐµÐ´ÐµÑĢÐ°Ð»ÑĮ": 7268,
      "ÃĹ": 7269,
      "ĠÐ¼ÐµÑĤÑĢÐ¾Ð¿Ð¾Ð»Ð¸ÑĤ": 7270,
      "ĠÐ¾Ð·ÐµÑĢÐ°": 7271,
      "ĠÐĵÐŃÐ¡": 7272,
      "ĠÐ¿ÑĢÐµÐ¼Ð¸Ñİ": 7273,
      "ĠÐ¡ÑĤÐ°Ð»": 7274,
      "ĠÐľÐ°Ð´": 7275,
      "ĠÐ¼ÐµÑĢÐ¾Ð¿ÑĢÐ¸": 7276,
      "ĠÑĥÑĩÐ°ÑģÑĤÐ½Ð¸ÐºÐ¾Ð²": 7277,
      "Ð¿ÑĢÐµÐ´": 7278,
      "ĠÑģÑĢÐµÐ´Ñĭ": 7279,
      "Ð¼ÑĭÑĪ": 7280,
      "ĠÑįÐ²Ð¾Ð»Ñİ": 7281,
      "ĠSc": 7282,
      "ĠÐ¿Ð¾Ð±ÐµÐ´Ñĭ": 7283,
      "ĠÐ¿ÑĢÐ¸ÑģÑĤÑĥÐ¿": 7284,
      "ĠÐ´Ð¾ÑĢÐ¾Ð³Ð°": 7285,
      "ĠÐ¿Ð¾Ð»Ð¾Ð²Ð¸Ð½Ñĭ": 7286,
      "Ð¸Ð²ÑĪÐ¸Ð¹ÑģÑı": 7287,
      "ĠÐľÑĥÑĢ": 7288,
      "ĠÐ½ÑĥÐ¶Ð½Ð¾": 7289,
      "ĠÐ¾ÑĤÑģÑĥÑĤÑģÑĤÐ²Ð¸Ðµ": 7290,
      "ĠÐ¿ÐµÑĢÑģÐ¾Ð½": 7291,
      "ĠÐ°ÑĢÐ¼Ð¸Ñİ": 7292,
      "ĠÐĺÐ¼ÐµÐ½Ð½Ð¾": 7293,
      "ĠÑģÐµÐ»Ðµ": 7294,
      "ĠÐĲÑģÑģ": 7295,
      "ĠÑĤÑĥÑĢÐ¸ÑģÑĤ": 7296,
      "ÐļÐŀ": 7297,
      "ĠÐ»ÐµÑĤÐ¾Ð¼": 7298,
      "ĠÐ½Ð°ÑĩÐ°Ð»Ð¾Ð¼": 7299,
      "ĠÐ½ÐµÐ´Ð¾ÑģÑĤÐ°ÑĤÐ¾Ñĩ": 7300,
      "Ð°ÑĤÐµÐ»ÑĮÐ½ÑĭÐ¼": 7301,
      "ĠÐºÐ¾ÑĢÐ¾Ð»": 7302,
      "ĠÑĤÐµÑĢÑĢÐ¾ÑĢ": 7303,
      "ĠÐ¼ÑĥÐ·ÐµÑı": 7304,
      "ĠÐĵÐ¾ÑģÑĥÐ´Ð°ÑĢÑģÑĤÐ²ÐµÐ½Ð½Ð¾Ð¹": 7305,
      "Ð¼Ð¾ÑĤÑĢ": 7306,
      "ĠÐ¼Ð°ÑĪÐ¸Ð½Ñĭ": 7307,
      "ĠÐµÐ³Ð¸Ð¿": 7308,
      "ÐĶÐµÑĤ": 7309,
      "ĠÐ½ÐµÐ¾Ð±ÑħÐ¾Ð´Ð¸Ð¼Ð¾ÑģÑĤÐ¸": 7310,
      "ÑģÑĤÐ²Ð°Ñħ": 7311,
      "ĠÐ´ÐµÐ½ÑĮÐ³Ð¸": 7312,
      "ĠÐ¾ÑĤÐ²ÐµÑĤÑģÑĤÐ²ÐµÐ½": 7313,
      "ÐľÐµÑĤ": 7314,
      "ĠÐľÐ¸ÑħÐ°Ð¹Ð»Ð¾Ð²Ð¸Ñĩ": 7315,
      "ĠÐ±Ð¾ÑĢ": 7316,
      "ĠÐ²Ð¾Ð·Ð½Ð¸ÐºÐ½Ð¾Ð²": 7317,
      "ĠÐĲÑĢÐ¼ÐµÐ½": 7318,
      "Ð°ÑĢÑĥÑģ": 7319,
      "ĠÐļÑĢÑĭÐ¼": 7320,
      "ĠÐºÐ¾Ð¼Ð¼ÐµÐ½ÑĤ": 7321,
      "ĠÐ½Ð°Ð¿ÑĢÐ°Ð²Ð»ÐµÐ½Ð¸Ð¸": 7322,
      "ĠÐĲÑĢÑĤ": 7323,
      "Ð³Ð¾ÑĢÐ¸ÑĤ": 7324,
      "ĠÐ±Ð¸ÑĤÐ²Ðµ": 7325,
      "2004": 7326,
      "ÐĴÐµÐ»Ð¸Ðº": 7327,
      "ĠÐ¿Ð»Ð°": 7328,
      "ĠÑĥÑģÑĤÑĢÐ¾Ð¹ÑģÑĤÐ²Ð°": 7329,
      "ĠÑĤÐµÑģÑĤ": 7330,
      "!Â»": 7331,
      "ĠÐºÐ¸ÑĢ": 7332,
      "bo": 7333,
      "ĠÐĶÐ¼Ð¸ÑĤÑĢÐ¸": 7334,
      "ĠÐłÐµÐ·": 7335,
      "iss": 7336,
      "ÐµÑħÐ°Ð»": 7337,
      "int": 7338,
      "ĠÑĩÐ¸ÑģÐ»ÐµÐ½Ð½Ð¾ÑģÑĤÑĮ": 7339,
      "Ð·Ð¾Ð²": 7340,
      "ĠÐ¶ÐµÐ½ÑīÐ¸Ð½Ñĭ": 7341,
      "ÑĦÐ¸ÑĨÐ¸ÑĢÐ¾Ð²": 7342,
      "Ð¾ÑģÑĤÐ°Ð½": 7343,
      "ĠÐĺÐµÑĢÑĥÑģÐ°Ð»": 7344,
      "ÐµÑĢÐ¾ÑģÑģÐ¸Ð¹": 7345,
      "Ð°Ð¼ÐµÐ½": 7346,
      "ÑĪÐ¸ÑģÑĮ": 7347,
      "Ð»Ð°Ð½Ð°": 7348,
      "ĠÐļÐ°Ð»Ð¸": 7349,
      "ĠÐļÑĢÐ°ÑģÐ½Ð¾Ð¹": 7350,
      "ĠÐĵÑĢÐµÑĨÐ¸Ð¸": 7351,
      "ĠÐ¿Ð¾Ð¿ÑĥÐ»Ñı": 7352,
      "ĠÐ·Ð°ÐºÑĢÑĭ": 7353,
      "ĠÐ¿Ð¾Ð»Ð¾Ð¶ÐµÐ½Ð¸Ñı": 7354,
      "ÑĤÐ¾Ð±Ñĭ": 7355,
      "Ð¾ÑģÐ¾Ð¼": 7356,
      "ĠÑĢÐ¾ÑģÑģÐ¸Ð¹ÑģÐºÐ¾Ð¹": 7357,
      "Ð¾ÑģÑħÐ¾Ð´": 7358,
      "Ð´ÑĢÑĥÐ³Ð¸Ðµ": 7359,
      "âĢĵ": 7360,
      "ÐµÐ²ÑĭÐ¼": 7361,
      "ÐĽÐ°ÑĥÑĢÐµÐ°ÑĤÑĭ": 7362,
      "ÐĽÐµÐ½": 7363,
      "59": 7364,
      "ĠÐĿÐµÐ²": 7365,
      "Ð¾ÑĩÐ½Ð¾Ð³Ð¾": 7366,
      "ĠÐ½Ð°Ð¿ÑĢÐ°Ð²Ð»ÐµÐ½": 7367,
      "ĠÑģÑĤÐ¸Ð»": 7368,
      "ĠÐ½Ð¾Ð³": 7369,
      "ĠÐ¡ÑĤÐ¸Ð²": 7370,
      "Ð¾Ð¸Ñħ": 7371,
      "ĠÐĴÑģÐµÐ¼": 7372,
      "ĠÐ¿Ð°Ðº": 7373,
      "ĠÐ¼ÑĥÐ·ÑĭÐºÐ°Ð½ÑĤ": 7374,
      "ÑĩÐµÑģÐºÐ¾Ð³Ð¾": 7375,
      "ÑģÐ¼ÐµÐ½": 7376,
      "ĠÐ¿Ð¸ÑģÑĮÐ¼Ð¾": 7377,
      "ĠÐ¸Ð´ÑĳÑĤ": 7378,
      "ĠÐ¿ÑĢÐµÐ´ÐµÐ»Ð°Ñħ": 7379,
      "ĠÑģÐµÐ¹ÑĩÐ°Ñģ": 7380,
      "Ð¼Ð°Ñħ": 7381,
      "Ð¾ÑģÐ¿Ð¸ÑĤ": 7382,
      "ÑİÑĢÐº": 7383,
      "ĠÐĵÐ°": 7384,
      "ĠÐ¨Ð²ÐµÐ¹ÑĨ": 7385,
      "ĠÐ¸Ð·Ð¾Ð±ÑĢÐ°Ð¶ÐµÐ½Ð¸Ñı": 7386,
      "ÑİÑīÐ¸Ð¹ÑģÑı": 7387,
      "ĠÑģÐ¾Ð·Ð´Ð°ÑĤÑĮ": 7388,
      "ĠÐ¦ÐµÑĢÐºÐ²Ð¸": 7389,
      "ÑĢÐµÑĢÑĭÐ²": 7390,
      "ĠÐ¾ÑĤÐ±": 7391,
      "ÑĦÐ¸Ð»ÑĮ": 7392,
      "Ð¡Ð¾Ð²ÑĢÐµÐ¼ÐµÐ½": 7393,
      "Ð¸Ð½ÐºÐ¸": 7394,
      "ug": 7395,
      "ĠÐ¡Ð¡": 7396,
      "age": 7397,
      "ĠÐ²ÐµÐ½": 7398,
      "ĠÑģÐ¾Ð»": 7399,
      "ÐĿÐł": 7400,
      "ÐµÐ¹Ñģ": 7401,
      "ĠÑģÐµÑĤÑĮ": 7402,
      "ĠÐ¾ÑĤÐ½Ð¾ÑĪÐµÐ½Ð¸Ðµ": 7403,
      "OS": 7404,
      "ien": 7405,
      "ÑĢÐ°Ð¸Ð»ÑĮ": 7406,
      "Ð°ÑĤÐ¾": 7407,
      "ĠÐļÐ¸ÑĤÐ°Ñı": 7408,
      "ĠÐ¡Ð¸ÑĢÐ¸": 7409,
      "ĠÐ»ÑİÐ±Ð²Ð¸": 7410,
      "ĠÐ±Ð¾Ð»ÑĮÑĪÐ¸Ð½ÑģÑĤÐ²Ð°": 7411,
      "ĠÑħÑĢÐ°Ð¼Ð°": 7412,
      "ĠÑģÐ¼ÐµÑĢÑĤÑĮ": 7413,
      "ĠÐºÐ¾Ð¼Ð°Ð½Ð´Ð¾Ð²Ð°Ð½Ð¸ÐµÐ¼": 7414,
      "Ġder": 7415,
      "Ð£ÑĩÐ°ÑģÑĤ": 7416,
      "ĠÐ²ÑĭÐ½ÑĥÐ¶Ð´ÐµÐ½": 7417,
      "ĠÐ¿Ð¾ÐºÑĥÐ¿": 7418,
      "ÑĢÐµÐ¼Ñı": 7419,
      "ĠÑĤÐ²Ð¾ÑĢÑĩÐµÑģÑĤÐ²Ð°": 7420,
      "ĠÐ¿Ð°ÑĨÐ¸": 7421,
      "ĠÐ¡Ð¸Ð»": 7422,
      "ĠÐ¿ÑĢÐµÐ´ÑģÑĤÐ°Ð²Ð»ÐµÐ½": 7423,
      "ĠÐ³Ð¾ÑĢÑĭ": 7424,
      "Ð¾Ð¾Ð±": 7425,
      "ĠÑįÐ²": 7426,
      "ĠÐ¸Ð³ÑĢÐ°Ñħ": 7427,
      "ĠÐ¿ÑĢÐ¾ÑģÑĮ": 7428,
      "ĠÑģÑĤÑĥÐ¿": 7429,
      "Ġ1905": 7430,
      "ĠÐĶÐ¾Ðº": 7431,
      "ĠÐ¿ÑĢÐ¾Ð½Ð¸Ðº": 7432,
      "ĠÑģÐµÐ¼ÑĮÑı": 7433,
      "Ġ1952": 7434,
      "Ð´Ð°Ñħ": 7435,
      "ÑĥÐ»ÑĮÑĤÑĥÑĢ": 7436,
      "ĠÐ¿Ð¾Ð»ÑĥÑĩÐ°ÐµÑĤ": 7437,
      "ĠÐ¾ÑĤÐµÑĩ": 7438,
      "ĠÐĴÐ°ÑģÐ¸Ð»ÑĮÐµÐ²Ð¸Ñĩ": 7439,
      "ĠÑĪÑĤÐ°ÑĤÐ°": 7440,
      "ĠÐĳÑĢÐ°": 7441,
      "ĠRec": 7442,
      "ÑĢÐ¾Ð¼ÑĭÑĪÐ»ÐµÐ½": 7443,
      "ĠÐ½Ð¾Ð²ÑĥÑİ": 7444,
      "ĠÐ¿ÑĢÐµÐ·Ð¸Ð´ÐµÐ½ÑĤÐ¾Ð¼": 7445,
      "ĠÐ¿ÑĢÐ¾ÑģÑĤÑĢÐ°Ð½ÑģÑĤÐ²Ð°": 7446,
      "ĠÑģÐ»ÑĥÐ¶Ð¸Ð»": 7447,
      "ĠÐ´Ð¾Ð±Ñĭ": 7448,
      "ĠÐµÐ´": 7449,
      "ĠLe": 7450,
      "ical": 7451,
      "ÐµÑĢÐµÐ´ÐºÐ¾": 7452,
      "ĠÐ²Ð¸ÑĨÐµ": 7453,
      "ĠÐ¿Ð¾Ð´Ñĩ": 7454,
      "ĠÐľÐ¾Ð»Ð´": 7455,
      "ĠÐĽÑİÐ´": 7456,
      "ĠÑĤÐ²ÑĳÑĢÐ´": 7457,
      "ĠÐ¶Ð¸ÑĤÐµÐ»Ð¸": 7458,
      "ĠÐ¾Ð´ÐµÐ¶Ð´": 7459,
      "Ð»Ð¸Ð·Ð°Ð²": 7460,
      "ĠÐ±Ð¸Ð±Ð»Ð¸Ð¾ÑĤÐµÐº": 7461,
      "ĠÐºÐ¾Ð¼Ð½": 7462,
      "ÑĥÑīÐ¸Ð¹": 7463,
      "ÑĥÑħÐ¾Ð²": 7464,
      "52": 7465,
      "2003": 7466,
      "ĠÐ¿Ð¾ÑģÐ»ÐµÐ´Ð½Ð¸Ñħ": 7467,
      "ĠÑĥÑģÑĤÐ¾Ð¹ÑĩÐ¸Ð²": 7468,
      "ĠÐ½Ð°ÑĨÐ¸Ð¾Ð½Ð°Ð»ÑĮÐ½Ð¾Ð¹": 7469,
      "ĠÐ±Ð¾Ð»ÑĮÑĪÐ¾Ð³Ð¾": 7470,
      "Ð¾Ð²Ð°Ð½Ð½ÑĭÐµ": 7471,
      "Ð°ÑĤÑĤ": 7472,
      "ÑĤÐµÑĢÑĢÐ¸ÑĤÐ¾ÑĢÐ¸": 7473,
      "Ð¸ÑħÐ°": 7474,
      "ĠÐ¸ÑģÐ¿Ð¾Ð»ÑĮÐ·Ð¾Ð²Ð°Ð½Ð¸ÐµÐ¼": 7475,
      "53": 7476,
      "Ð¡Ð¾": 7477,
      "ĠÐºÐ¾Ð¼Ð¸ÑĤÐµÑĤ": 7478,
      "ÑĢÐµÐ³Ð¸ÑģÑĤÑĢÐ¸ÑĢÐ¾Ð²": 7479,
      "ĠÑĢÐ°Ð·Ð³ÑĢÐ¾Ð¼": 7480,
      "ĠÐĶÑİ": 7481,
      "ĠÑģÐ¾Ð±Ð¾ÑĢÐ°": 7482,
      "ĠÐ½Ð¾Ð²ÑĭÐ¼": 7483,
      "ĠÐ¾ÑĢÑĥÐ¶Ð¸Ðµ": 7484,
      "ĠÐ´ÐµÑģÑıÑĤÐ¸Ð»ÐµÑĤ": 7485,
      "uc": 7486,
      "ĠÐºÐ¾Ð½ÑĤÑĢÐ°ÐºÑĤ": 7487,
      "oft": 7488,
      "ĠÐ¿Ð¾ÑĢÐ°Ð¶ÐµÐ½Ð¸Ðµ": 7489,
      "ĠÐ¾ÑģÐ¾Ð±ÐµÐ½": 7490,
      "ĠÐ±Ð¾Ð»ÑĮÑĪÐ¸Ð½ÑģÑĤÐ²Ðµ": 7491,
      "ÑĥÐ»ÑĮÑĤÑĥÑĢÐ°": 7492,
      "ĠÐĴÑģÐºÐ¾ÑĢÐµ": 7493,
      "ĠÐĺÐ¾Ð°Ð½Ð½Ð°": 7494,
      "ĠÑĤÐµÐ¾ÑĢÐ¸Ñı": 7495,
      "ĠÑĨÐµÐ»Ð¸": 7496,
      "ÑģÐ¸Ð¼": 7497,
      "ĠÐ±ÐµÐ»Ð¾ÑĢÑĥÑģ": 7498,
      "ĠÐ²Ð¾Ð»Ð½": 7499,
      "ĠÐ¸ÑģÐ¿Ð°Ð½": 7500,
      "ĠÐ¿ÑĢÐ¸Ð½Ð°Ð´Ð»ÐµÐ¶Ð¸ÑĤ": 7501,
      "Ð¾ÑıÐ²": 7502,
      "ĠÐ±Ð¾Ð³Ð¾ÑģÐ»Ð¾Ð²": 7503,
      "Ð·Ð¾ÑĢ": 7504,
      "ĠÐľÐµÐ½": 7505,
      "ĠÑģÑĩÐ¸ÑĤÐ°ÐµÑĤ": 7506,
      "ĠÐ¾ÑĤÐ´ÑĭÑħ": 7507,
      "ĠÑģÐ»ÑĥÑĩÐ°ÐµÐ²": 7508,
      "ĠÐ¾Ð¿ÑĤ": 7509,
      "94": 7510,
      "ĠÐ·Ð°Ð´ÐµÑĢÐ¶": 7511,
      "ÐºÐ¾Ð¼Ð°": 7512,
      "Ġ36": 7513,
      "ĠÐ´Ð¾ÑĪ": 7514,
      "ĠÐºÑĢÑĥÐ¿Ð½ÐµÐ¹ÑĪÐ¸Ñħ": 7515,
      "Ð¾Ð³ÐµÐ½": 7516,
      "2008": 7517,
      "ĠÐ³ÐµÑĢÐ¾Ð¹": 7518,
      "ÐµÐ½ÑģÐ¸Ð²": 7519,
      "ĠÐ¾ÑģÐ²Ð¾Ð±Ð¾Ð¶Ð´": 7520,
      "Ð¸ÑĩÐ½Ð¾Ð³Ð¾": 7521,
      "ĠÐľÐ°Ñħ": 7522,
      "ĠÐ±Ð¾Ð»ÐµÐ·Ð½Ð¸": 7523,
      "ÑĳÐ¹": 7524,
      "ĠÐ²Ð¾ÑĪÑĳÐ»": 7525,
      "ÑĳÐ½Ð½Ð¾Ð¼": 7526,
      "ĠÑģÐ¾Ð·Ð´Ð°": 7527,
      "ĠÐĵÑĢÐ°Ð½": 7528,
      "ĠÐĲÐ½Ð½Ð°": 7529,
      "ĠÐ³Ð¾": 7530,
      "Ð³ÑĢÐµÑģÑģ": 7531,
      "ĠÐ»ÐµÐ´": 7532,
      "ĠÐľÑĥÐ·ÐµÐ¹": 7533,
      "ĠÐ²Ð¾ÑģÐº": 7534,
      "ĠÐ¿ÑĢÐ¾Ð´ÑĥÐºÑĨÐ¸Ð¸": 7535,
      "ÐļÐ°ÑĢ": 7536,
      "ĠÑĩÐ¸ÑģÐµÐ»": 7537,
      "ĠÑĢÐµÐ·ÐºÐ¾": 7538,
      "ĠÐ´Ð¸Ð°Ð¼ÐµÑĤ": 7539,
      "ĠÐ½ÐµÐ¾Ð´Ð½Ð¾ÐºÑĢÐ°ÑĤÐ½Ð¾": 7540,
      "ÑįÑĦÑĦÐ¸ÑĨÐ¸": 7541,
      "ÑįÐ´": 7542,
      "Ð¸Ð·Ð¼Ð¾Ð¼": 7543,
      "ĠÑĤÑĢÐµÐ½ÐµÑĢ": 7544,
      "ĠÐ¿ÑĢÐ¸Ð¼": 7545,
      "ÐµÑģÐ»Ð°Ð²": 7546,
      "ĠÐ²ÑģÐµÐ¼Ñĥ": 7547,
      "ĠÐ±Ð°Ñģ": 7548,
      "ĠÐ¸ÑĤÐ¾Ð³Ð°Ð¼": 7549,
      "Ð¾Ð²Ð¾ÑĢÐ°": 7550,
      "ĠÑģÑĤÑĢÑĥÐºÑĤÑĥÑĢ": 7551,
      "Ð°Ð¿Ð°Ð·": 7552,
      "Ð¾Ð»ÑĮÐ·Ð¾Ð²": 7553,
      "ĠÐ¿Ð¾ÐºÑĢÑĭÑĤ": 7554,
      "ĠÐºÑĥÐ´Ð°": 7555,
      "ĠÐ°Ð´Ð¼Ð¸Ð½Ð¸ÑģÑĤÑĢÐ°ÑĨÐ¸Ð¸": 7556,
      "ĠÐ³Ð¾ÑĢÐ¸Ð·": 7557,
      "ĠÐ¿ÑĢÐ¾Ð¶Ð¸Ð²": 7558,
      "ÐłÐ°ÑģÐ¿": 7559,
      "Ġ400": 7560,
      "Ð¾ÑĢÑıÐ¶": 7561,
      "ÑģÑıÑī": 7562,
      "ĠÐ¿ÐµÑĢÐµÐ±": 7563,
      "ÑĢÑĥÐ¿Ð¿Ð°": 7564,
      "Ð¾Ð½Ð¸Ñı": 7565,
      "ĠÑĩÑĢÐµÐ·Ð²ÑĭÑĩÐ°Ð¹": 7566,
      "2001": 7567,
      "ĠÑĨÐ¸": 7568,
      "ĠÐ·Ð½Ð°": 7569,
      "ĠÑģÐºÐ¾Ð½Ñĩ": 7570,
      "Ð¸ÑĤÐµÐ»ÑĮÐ½ÑĥÑİ": 7571,
      "ĠÐ¿Ð¾ÑıÐ²Ð»ÑıÐµÑĤÑģÑı": 7572,
      "ĠÐŁÐµÑĢÐµÐ´": 7573,
      "Ð°Ð´Ñĥ": 7574,
      "ÑģÐºÐ°Ð·ÑĭÐ²": 7575,
      "Ð²ÐµÐ´ÐµÐ½Ð¸Ñı": 7576,
      "Ð¾Ð»Ð¾Ð³Ð¸ÑĩÐµÑģÐºÐ¾Ð³Ð¾": 7577,
      "Ð¾Ð½ÑģÐºÐ¸Ð¹": 7578,
      "orld": 7579,
      "ĠÑĤÐ¾ÑĢÐ¶": 7580,
      "ÐĺÐļ": 7581,
      "ics": 7582,
      "ĠÐ¿ÑĢÐµÐ¾Ð±": 7583,
      "ĠÐ¸Ð»Ð»Ñİ": 7584,
      "ĠÑĢÐ°ÑģÑģÑĩÐ¸ÑĤ": 7585,
      "ĠÑģÐ±Ð¾ÑĢÐ½Ð¸Ðº": 7586,
      "ĠÐĺÐ³Ð¾ÑĢÑĮ": 7587,
      "ĠÐºÐ°Ð½Ð´Ð¸Ð´Ð°ÑĤ": 7588,
      "Ð¾Ð²Ð°Ð»Ð¾": 7589,
      "ĠÑĨÐ¸ÐºÐ»": 7590,
      "ÑĤÑĢÐ°": 7591,
      "ĠÐ½Ð°ÑģÑĤÑĢÐ¾": 7592,
      "ĠÐ¿Ð»Ð¾ÑģÐº": 7593,
      "ĠÐ¿ÑĢÐ¾Ð²Ð¾Ð·Ð³Ð»Ð°ÑĪ": 7594,
      "ĠÐ·ÑĥÐ±": 7595,
      "Ð½Ð¸ÑĨÑĥ": 7596,
      "ĠÐ¡Ð¾ÑİÐ·": 7597,
      "ĠÑģÐ¿ÐµÐºÑĤÐ°Ðº": 7598,
      "Ð³ÑĢÐ°Ð½": 7599,
      "ÐļÐ°Ð·": 7600,
      "ÑģÑĤÑĢÑĥÐºÑĤ": 7601,
      "ĠÑģÐµÐºÑģÑĥ": 7602,
      "Ð¾Ð¶Ð¸Ð´": 7603,
      "ĠÐ¿Ð¾Ð»ÐµÐ·": 7604,
      "Ð¾Ð·ÐµÑĦ": 7605,
      "ĠÐ¾Ð±ÑĥÑģÐ»Ð¾Ð²": 7606,
      "ÐĵÐ»Ð°Ð²": 7607,
      "97": 7608,
      "ÐµÐ»Ð»Ð°": 7609,
      "Ð½Ð°Ñģ": 7610,
      "Ġ150": 7611,
      "ĠÐ±Ð¾Ð¼Ð±Ð°ÑĢÐ´": 7612,
      "Ð»Ð»Ð¸": 7613,
      "ĠPar": 7614,
      "ĠÑĨÐµÐ½ÑĤÑĢÐ°Ð»ÑĮÐ½Ð¾Ð¹": 7615,
      "ĠÐ¿ÑĢÐµÐ´ÑģÑĤÐ°Ð²Ð»ÐµÐ½Ð¸Ñı": 7616,
      "ĠÐ¡ÐµÐ²ÐµÑĢÐ¾": 7617,
      "ational": 7618,
      "ĠVIII": 7619,
      "ĠÑģÑĤÐ°ÑĤÐµÐ¹": 7620,
      "ĠÐŃÐ»ÑĮ": 7621,
      "ĠÐľÑĥ": 7622,
      "Ð¸ÑĨÐºÐ¸Ð¹": 7623,
      "ĠÑĢÑĥÐºÐ¾Ð²Ð¾Ð´ÑģÑĤÐ²Ð¾": 7624,
      "Ð±Ð½": 7625,
      "ĠÑģÑĤÐµÐ¿ÐµÐ½ÑĮ": 7626,
      "ĠÐ¾ÑģÑĤÑĢÐ¾Ð²Ð¾Ð²": 7627,
      "ĠÐ¾Ð±ÑĥÑĩÐµÐ½Ð¸Ñı": 7628,
      "ĠÐļÐ¾Ð¿": 7629,
      "ĠÑģÑĤÐ¾Ð»ÑĮ": 7630,
      "ĠÐĶÐµÐ²": 7631,
      "ĠÑģÑĥÑīÐµÑģÑĤÐ²Ð¾Ð²Ð°Ð½Ð¸Ðµ": 7632,
      "ĠÐ¶ÑĳÑģÑĤ": 7633,
      "ĠÐĳÐ¾Ð±": 7634,
      "ĠÐ¤ÑĢÐ°Ð½ÑĨÐ¸Ñı": 7635,
      "ĠÐ¾Ð¿ÑĢÐµÐ´ÐµÐ»ÐµÐ½Ð¸Ñı": 7636,
      "ĠÐ¿Ð¾ÑģÑĤÑĥÐ¿Ð¸Ð»": 7637,
      "ĠÐ¿ÑĢÐ¾ÑĤÐ¸Ð²Ð¾Ð¿Ð¾Ð»Ð¾Ð¶": 7638,
      "ĠÐºÐ¾Ð½ÑģÑĤÑĢÑĥÐºÑĨÐ¸Ð¸": 7639,
      "ĠÐľÐ°ÐºÑģ": 7640,
      "ĠÐºÐ»Ð°Ð²": 7641,
      "pt": 7642,
      "ÑĥÑģÐ¾Ð²": 7643,
      "ĠÐ¥ÑĥÐ´Ð¾Ð¶": 7644,
      "ÐŁÐµÑĢ": 7645,
      "ier": 7646,
      "ÐľÐ¾Ð½": 7647,
      "ĠÑģÐµÑĢÐ¸Ð¹": 7648,
      "ĠÐŁÐ¾Ð»Ð¸ÑĤ": 7649,
      "Ð°Ð½Ð³ÐµÐ»ÑĮ": 7650,
      "Ð¿Ð»Ñı": 7651,
      "ÐļÐ¾Ð¼Ð¿": 7652,
      "ĠÐ³Ð»Ð°Ð²Ð°": 7653,
      "ĠÐ·Ð²Ð°Ð½Ð¸Ñı": 7654,
      "ÐķÑģÐ»Ð¸": 7655,
      "ĠÐ½Ð°Ð»Ð¸ÑĩÐ¸Ðµ": 7656,
      "ÐŁÐ¾Ñģ": 7657,
      "ÑħÐ¸Ð¼": 7658,
      "Ð»ÐµÐ´Ð¾Ð²Ð°ÑĤÐµÐ»ÑĮ": 7659,
      "ĠÐ¾Ð±ÑģÑĤÐ¾ÑıÑĤÐµÐ»ÑĮ": 7660,
      "ĠÑħÐ°Ð½": 7661,
      "ĠÐĳÐµÐ»Ð¾ÑĢÑĥÑģÑģÐ¸Ð¸": 7662,
      "ĠÑĥÑģÑĤÑĢÐ¾Ð¹ÑģÑĤÐ²Ð¾": 7663,
      "ĠÑģÐµÑĢÐ¸Ñı": 7664,
      "ĠÑĩÐµÐ¼Ð¿Ð¸Ð¾Ð½Ð°ÑĤÐµ": 7665,
      "ĠÑģÐ²Ð¾Ð±Ð¾Ð´Ñĭ": 7666,
      "Ð¾ÑıÐ·ÑĭÑĩ": 7667,
      "ĠÐ½ÐµÑĢÐ²": 7668,
      "Ð°Ð»Ñı": 7669,
      "ĠÐ¾ÑĤÐ»Ð¸ÑĩÐ°ÐµÑĤÑģÑı": 7670,
      "Ð¼Ð¸ÑĢÐ°Ð»": 7671,
      "Ð¾ÑĩÐ½Ð¾": 7672,
      "ĠÐ¾Ð±Ð½Ð¾Ð²": 7673,
      "Ð¾ÑĩÐºÐ¸": 7674,
      "ĠÑģÑĩÐ¸ÑĤÐ°ÑĤÑĮ": 7675,
      "ĠÐ¿ÑĢÐµÐ¿Ð°ÑĢÐ°ÑĤ": 7676,
      "ĠÐ¿ÑĢÐ°Ð²Ð¸Ð»ÑĮ": 7677,
      "ĠÐ²Ð·ÑĢÑĭÐ²": 7678,
      "ĠÐ°ÑĢÑħÐ¸ÑĤÐµÐºÑĤÑĥÑĢÑĭ": 7679,
      "ĠÑĥÑĢÐ¾Ð¶": 7680,
      "ÑĳÐ½Ð½ÑĥÑİ": 7681,
      "ĠÐļÑĢÐ°ÑģÐ½Ð¾": 7682,
      "ĠPGC": 7683,
      "pp": 7684,
      "Ð¸ÑĥÐ¼Ð°": 7685,
      "ĠÐ»ÐµÑĩ": 7686,
      "ÐµÐ¹ÑģÐºÐ¾Ð¹": 7687,
      "ĠÐºÐ¾Ð¼Ð¸ÑģÑģÐ¸Ð¸": 7688,
      "ĠÐľÐ¸Ðº": 7689,
      "Ð¾Ð¶Ð´Ð°": 7690,
      "ÐµÐ·Ð°": 7691,
      "ĠÑĢÑĥÑģÑģÐºÐ¸Ðµ": 7692,
      "Ġ33": 7693,
      "Ð¾Ð»ÑĳÑĤ": 7694,
      "ÑĳÐ½Ð½Ð¾ÑģÑĤÑĮ": 7695,
      "ĠEx": 7696,
      "ĠÐļÐ°Ð±": 7697,
      "2002": 7698,
      "ĠÐ·Ð°ÑĢÐµÐ³Ð¸ÑģÑĤÑĢÐ¸ÑĢÐ¾Ð²": 7699,
      "ĠÑĢÐµÑĩÐ¸": 7700,
      "ÐµÑģÐ½": 7701,
      "ux": 7702,
      "ĠÐ»Ð¾ÑĪ": 7703,
      "ĠÐµÐ²ÑĢÐµÐµÐ²": 7704,
      "ĠÑģÐ½Ð°ÑĢÑı": 7705,
      "ĠÐºÐ¾Ð¼Ð¿Ð°Ð½Ð¸ÐµÐ¹": 7706,
      "ĠÑĦÐ°ÐºÑĥÐ»ÑĮÑĤÐµÑĤ": 7707,
      "ĠÑĥÐ½Ð¸Ðº": 7708,
      "Ð°Ð²ÑĪÐ¸Ð¹ÑģÑı": 7709,
      "Ð¾Ð¿ÐµÑĢÐ°": 7710,
      "ĠÐ·Ð°Ð¸Ð¼": 7711,
      "ĠÑĪÐ°Ð³": 7712,
      "ĠÐļÐ¸Ðµ": 7713,
      "Ð¸Ð½Ð°Ñı": 7714,
      "ĠÑģÑĢÐµÐ´Ð½ÐµÐ¹": 7715,
      "ĠBo": 7716,
      "ĠÐ¸Ð½ÑĤÐµÑĢÐ½": 7717,
      "ÑĭÐ²Ð°ÑİÑĤ": 7718,
      "ĠÐ³ÑĢÑĥÐ¿Ð¿Ð¾Ð¹": 7719,
      "ÑĨÐµÐ»": 7720,
      "ĠÑĢÐ°Ð¹Ð¾Ð½Ñĭ": 7721,
      "ĠÑĤÑĭÑģÑıÑĩÐ¸": 7722,
      "ĠÑĤÐ¾ÑĢÐ³Ð¾Ð²Ð»Ð¸": 7723,
      "Ġla": 7724,
      "ĠÐĵÐµÑĢÐ°": 7725,
      "ÐºÐ¾Ð½ÐµÑĨ": 7726,
      "ĠÑģÐ¸Ð´": 7727,
      "ÐµÐ²Ð¾Ð»Ñİ": 7728,
      "ĠÑģÐ¿ÐµÑĨÐ¸ÑĦ": 7729,
      "ĠÐºÐ¾Ð½ÐµÑĨ": 7730,
      "Ð¿Ð¸ÑģÐ°Ð½Ð¸Ðµ": 7731,
      "ÐĿÐ¸Ðº": 7732,
      "ĠÐ²ÑĤÐ¾ÑĢÐ¾Ð¼": 7733,
      "Ð¸Ð½ÑģÐºÐ¾Ðµ": 7734,
      "ÑĩÐ½Ð¾": 7735,
      "Ð¿ÑĢÐ¾": 7736,
      "ĠMC": 7737,
      "ĠÑĢÐ°Ð½ÑĮ": 7738,
      "ĠÑĢÐµÐ»ÑĮ": 7739,
      "ĠÐ¿Ð¾ÑĢÑĤÑĢÐµÑĤ": 7740,
      "ĠÑĢÐ°Ð½ÑĮÑĪÐµ": 7741,
      "ĠÐ¸ÑģÑĤÐ¾ÑĢÐ¸ÑĩÐµÑģÐºÐ¸Ñħ": 7742,
      "ĠÐ´ÐµÐ»Ð°ÐµÑĤ": 7743,
      "ĠÐ¼Ð°ÑĤÐµÑĢÐ¸Ð°Ð»Ñĭ": 7744,
      "ĠÐ²ÑĢÑĥÑĩ": 7745,
      "ĠÐ±Ð¸Ð±Ð»Ð¸Ð¾ÑĤÐµÐºÐ°": 7746,
      "ĠÑĪÑĤÐ°Ð±": 7747,
      "2010": 7748,
      "ix": 7749,
      "ĠÑģÐ¼ÑĭÑģÐ»Ðµ": 7750,
      "Ð»Ð°Ð²ÑıÐ½": 7751,
      "ĠÐºÐ¸Ð½ÐµÐ¼Ð°ÑĤÐ¾Ð³ÑĢÐ°ÑĦ": 7752,
      "ĠÐºÐ²Ð°Ð´ÑĢÐ°ÑĤ": 7753,
      "ĠÐ·Ð°Ð½Ð¸Ð¼Ð°Ð»ÑģÑı": 7754,
      "ĠÑģÐ¾ÑİÐ·Ð°": 7755,
      "ĠÐŁÐ°Ð½": 7756,
      "ĠÐ¨Ð¾ÑĤÐ»Ð°Ð½Ð´Ð¸Ð¸": 7757,
      "ÐľÐ°ÑĢ": 7758,
      "ĠÑģÐ¾Ð¾ÑĤÐ²ÐµÑĤÑģÑĤÐ²ÑĥÐµÑĤ": 7759,
      "ords": 7760,
      "ĠÑįÐºÐ·ÐµÐ¼": 7761,
      "ĠÐ¾ÑĤÐºÑĢÑĭÐ²": 7762,
      "Ð¾Ð»ÑĮÑģÐºÐ¸Ð¹": 7763,
      "ĠÐĵÐ°Ð²": 7764,
      "ĠÐĽÑİÐ´Ð¾Ð²": 7765,
      "ĠÐ¸Ð¼Ð¿ÐµÑĢ": 7766,
      "ĠÐ¿ÑĢÐ¸Ð±Ð»Ð¸Ð¶": 7767,
      "Ġdes": 7768,
      "ÑįÐ½ÐµÑĢÐ³": 7769,
      "57": 7770,
      "Ð¾Ð»ÑĮÐ½ÑĭÑħ": 7771,
      "ÑĬÐµÐ´Ð¸Ð½": 7772,
      "ĠÐ¸Ð·Ð²ÐµÑģÑĤÐ½Ñĭ": 7773,
      "ĠÐ¼Ð°ÑģÑģÑĭ": 7774,
      "ĠÐ¸Ð¼ÐµÑİÑĤÑģÑı": 7775,
      "ĠÑĢÑĥÑĩ": 7776,
      "ah": 7777,
      "ĠÑĤÐµÐ¼Ð¿ÐµÑĢÐ°ÑĤÑĥÑĢÑĭ": 7778,
      "ÐµÐ¹ÑģÐºÐ¸Ð¹": 7779,
      "ĠÐļÐ¾Ð·": 7780,
      "ÐŁÐ¾ÑħÐ¾ÑĢÐ¾Ð½ÐµÐ½Ð½ÑĭÐµ": 7781,
      "ĠÑĪÐºÐ¾Ð»ÑĮ": 7782,
      "ĠÑģÑĩ": 7783,
      "ĠÐ¿Ð¾Ð´ÑĢÐ¾Ð±": 7784,
      "ĠÐłÐ¾Ð·": 7785,
      "ÑĳÐ½Ð¾Ð²": 7786,
      "Ð¾Ð¿Ð°": 7787,
      "ÐŃÐ½": 7788,
      "Ġst": 7789,
      "ĠÐ¼ÑıÐ³": 7790,
      "ĠÐ¸Ð·Ð²ÐµÑģÑĤÐ½ÑĭÐµ": 7791,
      "Ð¸Ð²ÑĪÐ¸Ð¼": 7792,
      "ĠÐ²ÑĭÐ¿ÑĥÑģÐºÐ°": 7793,
      "ĠÐ¼Ð¸ÑĢÑĥ": 7794,
      "Ð°Ð½Ð¸ÑıÐ¼": 7795,
      "ĠÐ´ÑĢÑĥÐ³Ð¾Ð³Ð¾": 7796,
      "ĠÐºÐ¾ÑĢÐ¾Ð»ÑĳÐ¼": 7797,
      "ĠÐľÐ¾": 7798,
      "Ð°Ð»ÑĮÐ½Ð¾ÑģÑĤÑĮ": 7799,
      "ĠÐ¾ÑģÑĥÑīÐµÑģÑĤÐ²Ð»Ñı": 7800,
      "ĠÐĲÐ¼ÐµÑĢÐ¸ÐºÐµ": 7801,
      "ĠÐ·Ð¾Ð½Ñĭ": 7802,
      "ĠÑģÑĤÐ¸ÑħÐ¸": 7803,
      "ĠÐ¼Ð½ÐµÐ½Ð¸Ðµ": 7804,
      "ĠÑģÐ¾Ð·ÑĭÐ²Ð°": 7805,
      "ĠÐ¾ÑģÐ½Ð¾Ð²Ñĥ": 7806,
      "Ð²Ð¸ÑĤ": 7807,
      "Ð¾Ð¼Ð°": 7808,
      "ĠÐ²Ð¾Ð·Ð¾Ð±Ð½Ð¾Ð²": 7809,
      "ĠÑħÐ°ÑĢÐ°ÐºÑĤ": 7810,
      "Ð»Ð¸Ð½Ð³": 7811,
      "Ð¿Ð°ÑĢÐ°ÑĤÐ°": 7812,
      "ĠÐ¿ÑĢÐ¾Ð¼ÐµÐ¶": 7813,
      "Ð¼Ð¾Ð¼": 7814,
      "Ð¸ÑĩÐ½ÑĭÐ¼": 7815,
      "ĠÐĲÐ²ÑģÑĤÑĢÐ¸Ð¸": 7816,
      "ÑģÐºÐ°ÑĢ": 7817,
      "ĠÐŀÐºÑĤÑıÐ±ÑĢÑĮ": 7818,
      "ÐŃÐºÐ¾Ð½Ð¾Ð¼Ð¸ÐºÐ°": 7819,
      "Ð°Ð½Ð³ÐµÐ»": 7820,
      "ĠÐºÑĥÐ»ÑĮÑĤÑĥÑĢÐ°": 7821,
      "ĠÐļÐ¾Ð¼Ð¿": 7822,
      "ÑĥÑĢÐ¾Ð²": 7823,
      "ÑİÑīÑĥÑİ": 7824,
      "ĠÐĲÐ²ÑģÑĤÑĢÐ°Ð»Ð¸Ð¸": 7825,
      "51": 7826,
      "1991": 7827,
      "ĠÐłÐ¾Ð¼Ð°Ð½": 7828,
      "ÐľÐµÐ¶Ð´": 7829,
      "Ð»Ð¸ÑĤ": 7830,
      "ĠÐ²Ð¿ÐµÑĩÐ°ÑĤ": 7831,
      "ĠÐ¼ÐµÑĤÐ¾Ð´Ñĭ": 7832,
      "ĠÐłÐ¸ÑĩÐ°ÑĢÐ´": 7833,
      "ĠÑĤÑĳÐ¼": 7834,
      "Ġ120": 7835,
      "ĠÐ²Ð¾ÐµÐ½Ð½ÑĭÐµ": 7836,
      "ĠÐºÐ¾ÑĤÐ¾ÑĢÑĭÐ¼Ð¸": 7837,
      "Ð¸ÑģÐµ": 7838,
      "org": 7839,
      "ly": 7840,
      "ĠÐ´Ð°Ð½Ð½Ð¾Ð³Ð¾": 7841,
      "ĠÐłÐµ": 7842,
      "ĠPh": 7843,
      "ĠÐ¿Ð¾Ð´ÑĤÐ²ÐµÑĢÐ¶Ð´": 7844,
      "ver": 7845,
      "ĠÐŁÐ¾ÑĢÑĤÑĥÐ³": 7846,
      "Ð¿ÑıÑĤ": 7847,
      "ĠÐ¸ÑģÐ¿Ð¾Ð»ÑĮÐ·ÑĥÐµÐ¼": 7848,
      "ĠÐ³ÑĢÐ°ÑĦÐ°": 7849,
      "Ġund": 7850,
      "ĠÐ¿Ð¾ÑģÐµÐ»ÐµÐ½Ð¸Ðµ": 7851,
      "ÑıÐ½Ðµ": 7852,
      "ĠÐ¿Ð¾Ð½ÑıÑĤÐ¸Ðµ": 7853,
      "Ð±Ð°Ð½": 7854,
      "ĠÐ´Ð°Ð½Ð½ÑĭÐ¹": 7855,
      "2007": 7856,
      "ĠÐ¼ÐµÐ¶Ð´ÑĥÐ½Ð°ÑĢÐ¾Ð´Ð½ÑĭÑħ": 7857,
      "ÑĢÐµÐ»Ð¸": 7858,
      "ĠÐĴÐµÑģÑĤ": 7859,
      "ĠÐŁÐ°ÑĢÐ°": 7860,
      "ĠÐ½Ð°ÑħÐ¾Ð´Ð¸Ð»Ð¸ÑģÑĮ": 7861,
      "ĠÐĶÐ¶Ð¾Ð½Ð°": 7862,
      "ĠÑģÐµÐ²ÐµÑĢÐ½Ð¾Ð¹": 7863,
      "ÑĦÐ¾ÑĢÐ´": 7864,
      "ĠÐ¼Ð¼": 7865,
      "ĠÐµÐ´Ð¸Ð½Ð¸ÑĨ": 7866,
      "ĠÐļÐ°Ð»Ð¸Ð½": 7867,
      "ĠÐ½ÐµÐ±Ð¾Ð»ÑĮÑĪÐ¾Ð¹": 7868,
      "ĠÑĥÑģÐ¿ÐµÑĪÐ½Ð¾": 7869,
      "ÑĳÐ»ÑĤ": 7870,
      "Ð¼Ð°ÑĤÑĢÐ¸": 7871,
      "ĠÐ»Ð°Ð²": 7872,
      "ĠÑģÐ¾ÑĨÐ¸Ð°Ð»Ð¸ÑģÑĤ": 7873,
      "ĠÐĿÐ¾Ð²ÑĭÐ¹": 7874,
      "ĠÐĽÐµÐ¾Ð½Ð¸Ð´": 7875,
      "Ð³Ð¸Ð·": 7876,
      "ĠÐ½Ð°ÑĥÑĩÐ½Ð¾Ð¹": 7877,
      "ÑĨÐºÐ¾Ð³Ð¾": 7878,
      "ĠÑħÐ¾ÑĤÐµÐ»": 7879,
      "ÑĥÑħÐ°": 7880,
      "ĠÑĢÐ°Ð·ÑĢÐ°Ð±Ð¾ÑĤÐºÐ¸": 7881,
      "ĠÐŁÐµÑĢÐ²Ð°Ñı": 7882,
      "ĠÑĦÑĢÐ¾Ð½ÑĤ": 7883,
      "ĠÐ¼Ð½Ð¾Ð³Ð¾ÑĩÐ¸ÑģÐ»ÐµÐ½Ð½ÑĭÐµ": 7884,
      "ÑĢÐ¸ÐºÐ°": 7885,
      "Ð¸Ð³Ð°": 7886,
      "Ð¾ÑģÑĦÐµÑĢ": 7887,
      "ĠÑĢÐµÐºÐ¾Ð½ÑģÑĤÑĢÑĥÐº": 7888,
      "ÐµÐ½ÑģÐºÐ°Ñı": 7889,
      "ĠÐ¼Ð°ÑĤÑĩÐµ": 7890,
      "yst": 7891,
      "ĠÐĳÐµÑĢÐ½": 7892,
      "ÐŁÐ¾Ð»Ð¸ÑĤ": 7893,
      "ĠÐĴÑģÐµÐ¼Ð¸ÑĢ": 7894,
      "Ð¸ÑĩÐ¸": 7895,
      "ĠÐ»Ð°ÑĥÑĢÐµÐ°ÑĤ": 7896,
      "ĠÐ´Ð»Ð¸Ð½Ð¾Ð¹": 7897,
      "ÐµÐ»ÐµÐ³": 7898,
      "ĠÐĶÐµÐ½ÑĮ": 7899,
      "ĠÐ¿Ð°ÑĢÑĤÐ½": 7900,
      "ĠÐ½Ð°ÑĢÑıÐ´Ñĥ": 7901,
      "ĠÐ¿Ð¾Ð»Ðº": 7902,
      "ĠÐ¸Ð½ÑĤÐµÐ»": 7903,
      "ĠÐ´Ð²Ð°Ð¶Ð´Ñĭ": 7904,
      "Ġ||": 7905,
      "ĠÑĥÐ³Ð¾Ð»Ð¾Ð²": 7906,
      "ĠÐ¿Ð¸ÑģÑĮÐ¼Ð°": 7907,
      "ĠÑģÐµÐ¼ÐµÐ¹ÑģÑĤÐ²Ð°": 7908,
      "ĠÐ¿ÑĢÐ¸ÑĩÐ¸Ð½Ð¾Ð¹": 7909,
      "ĠÐ´ÐµÐ½ÐµÐ¶": 7910,
      "ĠÐ°Ð»ÑĮÑĤÐµÑĢÐ½Ð°ÑĤÐ¸Ð²": 7911,
      "Ð¾Ð²Ð°Ð½Ð½ÑĭÑħ": 7912,
      "Ð¾ÑĦÑĦ": 7913,
      "ĠÐ¼Ð¾Ð½Ð°Ñħ": 7914,
      "Ð¼ÐµÐ½Ð°": 7915,
      "ĠÑĥÐ´Ð¾Ð²Ð»ÐµÑĤÐ²Ð¾ÑĢ": 7916,
      "Ġ1951": 7917,
      "ÑĳÐº": 7918,
      "ĠÐ¤Ð¸Ð»ÑĮÐ¼": 7919,
      "ĠÑĩÑĥÐ²ÑģÑĤÐ²": 7920,
      "ÐĹÐ°Ð¿Ð°Ð´": 7921,
      "ĠÐ£ÐºÑĢÐ°Ð¸Ð½Ðµ": 7922,
      "ĠÐ¾Ð±Ð»": 7923,
      "ÐłÐ¾Ð´Ð¸Ð»ÑģÑı": 7924,
      "Ð¸Ð½Ð³Ð°": 7925,
      "ÐµÐ¼Ðµ": 7926,
      "ĠÐŁÐµÑĢÑģ": 7927,
      "ĠÐķÐ»Ð¸Ð·Ð°Ð²": 7928,
      "ĠÐ½Ð°Ð·ÑĭÐ²Ð°Ð»Ð¸": 7929,
      "ĠÑįÐºÐ·ÐµÐ¼Ð¿Ð»Ñı": 7930,
      "ĠIX": 7931,
      "les": 7932,
      "Ð°ÐµÐ¼ÑĭÐµ": 7933,
      "ĠÐ²ÑĭÑĢÐ°Ð·": 7934,
      "Ð°Ð½ÑĩÐ¸Ð²": 7935,
      "Ð£Ð¼ÐµÑĢÑĪÐ¸Ðµ": 7936,
      "93": 7937,
      "Ð¾Ð½ÑĮ": 7938,
      "ĠÐ¼Ð¾Ð´ÐµÑĢÐ½": 7939,
      "ĠÐ½Ð°Ð¸Ð±Ð¾Ð»ÑĮÑĪ": 7940,
      "ĠÑĥÑĩÐ°ÑģÑĤÐ¸Ñı": 7941,
      "ĠÐ²Ð¾Ð²": 7942,
      "ÐµÐ½ÑģÑĤÐ²Ð°": 7943,
      "ÑģÐ¸Ñı": 7944,
      "ĠÑĥÑĩÐ°ÑģÑĤÐ½Ð¸Ðº": 7945,
      "ĠÐļÐ°Ð·Ð°ÑħÑģÑĤ": 7946,
      "ĠÐ¿Ñĭ": 7947,
      "ÐµÑĤÑĤ": 7948,
      "ÑĢÐ°Ð·Ð´Ð¾": 7949,
      "ĠÐłÐµÐ¹": 7950,
      "ĠÐ¸ÑģÐ¿Ð¾Ð»ÑĮÐ·Ð¾Ð²Ð°Ð»Ð¸ÑģÑĮ": 7951,
      "Ð¸ÑĢÐ¾Ð²Ð°Ð½Ð½ÑĭÐ¹": 7952,
      "ĠÐłÐ¸Ð¼Ðµ": 7953,
      "ĠÐ³ÑĢÐ°Ð¼Ð¾ÑĤ": 7954,
      "ĠÐľÐ¾Ð³": 7955,
[...]
