<unk>	0
<s>	0
</s>	0
<0x00>	0
<0x01>	0
<0x02>	0
<0x03>	0
<0x04>	0
<0x05>	0
<0x06>	0
<0x07>	0
<0x08>	0
<0x09>	0
<0x0A>	0
<0x0B>	0
<0x0C>	0
<0x0D>	0
<0x0E>	0
<0x0F>	0
<0x10>	0
<0x11>	0
<0x12>	0
<0x13>	0
<0x14>	0
<0x15>	0
<0x16>	0
<0x17>	0
<0x18>	0
<0x19>	0
<0x1A>	0
<0x1B>	0
<0x1C>	0
<0x1D>	0
<0x1E>	0
<0x1F>	0
<0x20>	0
<0x21>	0
<0x22>	0
<0x23>	0
<0x24>	0
<0x25>	0
<0x26>	0
<0x27>	0
<0x28>	0
<0x29>	0
<0x2A>	0
<0x2B>	0
<0x2C>	0
<0x2D>	0
<0x2E>	0
<0x2F>	0
<0x30>	0
<0x31>	0
<0x32>	0
<0x33>	0
<0x34>	0
<0x35>	0
<0x36>	0
<0x37>	0
<0x38>	0
<0x39>	0
<0x3A>	0
<0x3B>	0
<0x3C>	0
<0x3D>	0
<0x3E>	0
<0x3F>	0
<0x40>	0
<0x41>	0
<0x42>	0
<0x43>	0
<0x44>	0
<0x45>	0
<0x46>	0
<0x47>	0
<0x48>	0
<0x49>	0
<0x4A>	0
<0x4B>	0
<0x4C>	0
<0x4D>	0
<0x4E>	0
<0x4F>	0
<0x50>	0
<0x51>	0
<0x52>	0
<0x53>	0
<0x54>	0
<0x55>	0
<0x56>	0
<0x57>	0
<0x58>	0
<0x59>	0
<0x5A>	0
<0x5B>	0
<0x5C>	0
<0x5D>	0
<0x5E>	0
<0x5F>	0
<0x60>	0
<0x61>	0
<0x62>	0
<0x63>	0
<0x64>	0
<0x65>	0
<0x66>	0
<0x67>	0
<0x68>	0
<0x69>	0
<0x6A>	0
<0x6B>	0
<0x6C>	0
<0x6D>	0
<0x6E>	0
<0x6F>	0
<0x70>	0
<0x71>	0
<0x72>	0
<0x73>	0
<0x74>	0
<0x75>	0
<0x76>	0
<0x77>	0
<0x78>	0
<0x79>	0
<0x7A>	0
<0x7B>	0
<0x7C>	0
<0x7D>	0
<0x7E>	0
<0x7F>	0
<0x80>	0
<0x81>	0
<0x82>	0
<0x83>	0
<0x84>	0
<0x85>	0
<0x86>	0
<0x87>	0
<0x88>	0
<0x89>	0
<0x8A>	0
<0x8B>	0
<0x8C>	0
<0x8D>	0
<0x8E>	0
<0x8F>	0
<0x90>	0
<0x91>	0
<0x92>	0
<0x93>	0
<0x94>	0
<0x95>	0
<0x96>	0
<0x97>	0
<0x98>	0
<0x99>	0
<0x9A>	0
<0x9B>	0
<0x9C>	0
<0x9D>	0
<0x9E>	0
<0x9F>	0
<0xA0>	0
<0xA1>	0
<0xA2>	0
<0xA3>	0
<0xA4>	0
<0xA5>	0
<0xA6>	0
<0xA7>	0
<0xA8>	0
<0xA9>	0
<0xAA>	0
<0xAB>	0
<0xAC>	0
<0xAD>	0
<0xAE>	0
<0xAF>	0
<0xB0>	0
<0xB1>	0
<0xB2>	0
<0xB3>	0
<0xB4>	0
<0xB5>	0
<0xB6>	0
<0xB7>	0
<0xB8>	0
<0xB9>	0
<0xBA>	0
<0xBB>	0
<0xBC>	0
<0xBD>	0
<0xBE>	0
<0xBF>	0
<0xC0>	0
<0xC1>	0
<0xC2>	0
<0xC3>	0
<0xC4>	0
<0xC5>	0
<0xC6>	0
<0xC7>	0
<0xC8>	0
<0xC9>	0
<0xCA>	0
<0xCB>	0
<0xCC>	0
<0xCD>	0
<0xCE>	0
<0xCF>	0
<0xD0>	0
<0xD1>	0
<0xD2>	0
<0xD3>	0
<0xD4>	0
<0xD5>	0
<0xD6>	0
<0xD7>	0
<0xD8>	0
<0xD9>	0
<0xDA>	0
<0xDB>	0
<0xDC>	0
<0xDD>	0
<0xDE>	0
<0xDF>	0
<0xE0>	0
<0xE1>	0
<0xE2>	0
<0xE3>	0
<0xE4>	0
<0xE5>	0
<0xE6>	0
<0xE7>	0
<0xE8>	0
<0xE9>	0
<0xEA>	0
<0xEB>	0
<0xEC>	0
<0xED>	0
<0xEE>	0
<0xEF>	0
<0xF0>	0
<0xF1>	0
<0xF2>	0
<0xF3>	0
<0xF4>	0
<0xF5>	0
<0xF6>	0
<0xF7>	0
<0xF8>	0
<0xF9>	0
<0xFA>	0
<0xFB>	0
<0xFC>	0
<0xFD>	0
<0xFE>	0
<0xFF>	0
ст	-0
▁п	-1
▁в	-2
но	-3
ни	-4
ра	-5
▁с	-6
▁и	-7
на	-8
ро	-9
ко	-10
го	-11
▁о	-12
ре	-13
ны	-14
ли	-15
то	-16
ль	-17
ле	-18
ри	-19
ва	-20
не	-21
▁по	-22
ка	-23
▁д	-24
ло	-25
те	-26
ме	-27
▁на	-28
ки	-29
во	-30
ла	-31
та	-32
ве	-33
да	-34
ми	-35
▁б	-36
че	-37
ся	-38
ти	-39
за	-40
де	-41
▁го	-42
ет	-43
▁м	-44
ско	-45
ру	-46
▁ко	-47
ля	-48
▁у	-49
же	-50
▁со	-51
ви	-52
ци	-53
ния	-54
▁а	-55
ди	-56
▁ра	-57
▁к	-58
ста	-59
ние	-60
по	-61
ски	-62
▁не	-63
ча	-64
▁—	-65
до	-66
▁про	-67
▁В	-68
сто	-69
сти	-70
ма	-71
ер	-72
▁за	-73
▁об	-74
▁1	-75
▁во	-76
▁от	-77
ных	-78
▁при	-79
нно	-80
▁«	-81
чи	-82
ть	-83
▁С	-84
▁г	-85
мо	-86
хо	-87
ду	-88
▁э	-89
си	-90
ры	-91
▁из	-92
бо	-93
▁П	-94
ще	-95
▁до	-96
▁ка	-97
се	-98
▁бы	-99
ные	-100
ги	-101
▁е	-102
со	-103
ной	-104
вы	-105
▁т	-106
ют	-107
ше	-108
▁К	-109
ный	-110
тель	-111
ши	-112
сть	-113
га	-114
сь	-115
▁ф	-116
▁ре	-117
па	-118
▁ме	-119
це	-120
ется	-121
жи	-122
зо	-123
▁то	-124
▁вы	-125
лу	-126
▁пре	-127
са	-128
ере	-129
щи	-130
▁те	-131
▁мо	-132
▁А	-133
ного	-134
ту	-135
ну	-136
му	-137
пе	-138
ку	-139
ты	-140
ня	-141
▁2	-142
▁та	-143
пи	-144
ской	-145
▁М	-146
▁раз	-147
стве	-148
ря	-149
ство	-150
▁ч	-151
▁Р	-152
▁бо	-153
мы	-154
▁Н	-155
▁кото	-156
вля	-157
▁де	-158
▁О	-159
зи	-160
сле	-161
▁ве	-162
спо	-163
ского	-164
сте	-165
▁Т	-166
ная	-167
▁з	-168
ным	-169
▁ма	-170
▁горо	-171
▁я	-172
чески	-173
нии	-174
▁Г	-175
ке	-176
▁че	-177
▁Б	-178
лю	-179
нт	-180
вле	-181
▁19	-182
▁И	-183
жа	-184
ции	-185
▁се	-186
ву	-187
зы	-188
▁года	-189
▁но	-190
▁Д	-191
ска	-192
стра	-193
▁что	-194
су	-195
▁ста	-196
▁году	-197
стро	-198
ды	-199
▁для	-200
ства	-201
▁под	-202
ор	-203
вер	-204
ар	-205
би	-206
▁как	-207
ков	-208
▁ли	-209
ан	-210
сно	-211
▁так	-212
▁это	-213
▁пере	-214
ский	-215
сси	-216
фи	-217
▁ча	-218
▁20	-219
▁х	-220
ний	-221
мя	-222
▁пред	-223
▁си	-224
▁или	-225
ров	-226
ющи	-227
пу	-228
бе	-229
▁По	-230
▁су	-231
нь	-232
▁сво	-233
аль	-234
ются	-235
»,	-236
нных	-237
об	-238
▁же	-239
вя	-240
».	-241
зу	-242
ца	-243
рова	-244
▁Л	-245
▁са	-246
ное	-247
▁ле	-248
тов	-249
▁ми	-250
▁пра	-251
▁которы	-252
гра	-253
ном	-254
ща	-255
▁ро	-256
ем	-257
ходи	-258
▁вре	-259
тся	-260
гу	-261
▁воз	-262
▁его	-263
▁це	-264
▁име	-265
ша	-266
лы	-267
▁кон	-268
ей	-269
ность	-270
▁од	-271
вой	-272
ба	-273
мен	-274
▁па	-275
▁ни	-276
ности	-277
▁рас	-278
▁ви	-279
▁прои	-280
он	-281
бы	-282
ге	-283
зова	-284
ными	-285
▁обра	-286
▁жи	-287
▁был	-288
▁дру	-289
▁ин	-290
нием	-291
вет	-292
тив	-293
нной	-294
лись	-295
ская	-296
про	-297
▁также	-298
лся	-299
▁все	-300
ред	-301
стоя	-302
ха	-303
дов	-304
рии	-305
ских	-306
ней	-307
ран	-308
▁Ф	-309
▁пер	-310
нов	-311
она	-312
▁ру	-313
▁явля	-314
ция	-315
ак	-316
ён	-317
нию	-318
▁пе	-319
▁Е	-320
▁На	-321
ную	-322
лее	-323
вод	-324
сту	-325
▁соста	-326
▁испо	-327
▁бе	-328
ром	-329
зыва	-330
кт	-331
род	-332
жде	-333
рия	-334
ству	-335
стви	-336
▁Ро	-337
▁Э	-338
▁З	-339
00	-340
зна	-341
▁боль	-342
лей	-343
▁ис	-344
▁ку	-345
▁У	-346
мер	-347
▁осно	-348
▁X	-349
▁ш	-350
нного	-351
пра	-352
▁му	-353
▁после	-354
кой	-355
дар	-356
пре	-357
лько	-358
вши	-359
сло	-360
▁города	-361
руп	-362
▁3	-363
▁сто	-364
▁фи	-365
ком	-366
кра	-367
ход	-368
бу	-369
▁да	-370
вые	-371
ложе	-372
II	-373
логи	-374
хи	-375
▁время	-376
нный	-377
цы	-378
дер	-379
▁хо	-380
нные	-381
▁стра	-382
гда	-383
вых	-384
▁нача	-385
▁ком	-386
сы	-387
лось	-388
▁полу	-389
▁ди	-390
ника	-391
том	-392
▁Ка	-393
▁зна	-394
▁исполь	-395
▁Со	-396
ев	-397
ления	-398
ться	-399
лове	-400
▁были	-401
ник	-402
▁201	-403
▁ор	-404
лась	-405
▁18	-406
вания	-407
▁свя	-408
▁чи	-409
кры	-410
фе	-411
ское	-412
▁город	-413
бли	-414
▁Во	-415
▁было	-416
рой	-417
▁мож	-418
тер	-419
ском	-420
нима	-421
▁ар	-422
▁пи	-423
ск	-424
▁ц	-425
▁пу	-426
▁Росси	-427
▁тер	-428
▁други	-429
▁ав	-430
▁произ	-431
▁Х	-432
лё	-433
▁исто	-434
ские	-435
▁является	-436
лав	-437
▁челове	-438
▁сло	-439
▁была	-440
▁рабо	-441
зе	-442
судар	-443
зда	-444
тия	-445
▁он	-446
вание	-447
▁слу	-448
нд	-449
▁их	-450
жду	-451
▁бу	-452
чно	-453
▁фор	-454
▁ки	-455
пы	-456
▁века	-457
веде	-458
▁им	-459
▁ба	-460
По	-461
ческих	-462
ём	-463
▁вой	-464
▁-	-465
каза	-466
▁4	-467
гла	-468
▁цент	-469
▁Ч	-470
лов	-471
нти	-472
при	-473
юще	-474
вре	-475
раль	-476
▁более	-477
▁Ко	-478
ческой	-479
клю	-480
▁%	-481
▁предста	-482
тор	-483
▁объ	-484
тре	-485
ственно	-486
▁пла	-487
нее	-488
сты	-489
▁обла	-490
пера	-491
▁наз	-492
обра	-493
рак	-494
▁ге	-495
рт	-496
▁5	-497
▁отно	-498
▁орга	-499
▁гра	-500
▁государ	-501
торы	-502
тельно	-503
▁пло	-504
▁обще	-505
тери	-506
лек	-507
дин	-508
вого	-509
▁200	-510
▁распо	-511
стре	-512
ление	-513
жда	-514
▁между	-515
от	-516
вая	-517
ёт	-518
рито	-519
▁спо	-520
вления	-521
нения	-522
ен	-523
▁Ш	-524
вый	-525
води	-526
спе	-527
▁вер	-528
рь	-529
стру	-530
дом	-531
циаль	-532
вро	-533
▁лю	-534
▁ю	-535
ят	-536
рта	-537
▁Бо	-538
ких	-539
▁Мо	-540
▁ва	-541
▁обо	-542
ек	-543
▁её	-544
льно	-545
три	-546
▁насе	-547
чение	-548
вест	-549
▁дол	-550
▁только	-551
▁разви	-552
лия	-553
▁рай	-554
На	-555
ман	-556
▁За	-557
чных	-558
▁созда	-559
▁стро	-560
пол	-561
▁При	-562
▁называ	-563
шо	-564
▁эле	-565
ческого	-566
▁России	-567
▁само	-568
ющих	-569
▁сред	-570
ску	-571
фор	-572
им	-573
бра	-574
ческие	-575
▁кра	-576
преде	-577
ин	-578
ческий	-579
▁высо	-580
▁оста	-581
чения	-582
▁око	-583
▁террито	-584
ников	-585
нако	-586
пер	-587
вое	-588
зд	-589
мени	-590
▁тем	-591
▁суще	-592
цио	-593
▁вла	-594
рио	-595
ур	-596
лом	-597
телей	-598
▁может	-599
▁Ма	-600
коно	-601
▁которые	-602
тур	-603
ёр	-604
чита	-605
0-	-606
сли	-607
▁которо	-608
▁круп	-609
▁дей	-610
▁га	-611
▁который	-612
▁авто	-613
▁составля	-614
сла	-615
хра	-616
ствова	-617
жения	-618
нта	-619
дей	-620
▁ты	-621
ходит	-622
▁6	-623
▁тра	-624
▁ха	-625
личи	-626
▁мно	-627
▁Та	-628
ющие	-629
сов	-630
лли	-631
чной	-632
бря	-633
▁тре	-634
рев	-635
▁сте	-636
нная	-637
▁поли	-638
▁Ве	-639
▁часть	-640
емы	-641
ональ	-642
нное	-643
▁ок	-644
ях	-645
▁Ц	-646
▁систе	-647
ат	-648
ники	-649
▁прави	-650
дова	-651
▁поя	-652
▁части	-653
еди	-654
▁ти	-655
▁эти	-656
▁пол	-657
тя	-658
реди	-659
кого	-660
▁куль	-661
теля	-662
зя	-663
▁пар	-664
которы	-665
▁Па	-666
▁эк	-667
▁использова	-668
рез	-669
фа	-670
ским	-671
▁приме	-672
▁осо	-673
▁ак	-674
ств	-675
▁состоя	-676
сса	-677
цу	-678
▁Са	-679
вается	-680
▁органи	-681
▁ши	-682
щё	-683
писа	-684
дь	-685
▁неско	-686
▁поло	-687
нение	-688
нг	-689
▁основ	-690
▁вос	-691
▁Не	-692
▁ла	-693
▁рус	-694
ёл	-695
▁17	-696
лага	-697
▁этом	-698
ками	-699
▁перио	-700
▁уча	-701
ций	-702
▁Се	-703
▁опреде	-704
нови	-705
честве	-706
▁сле	-707
▁использу	-708
кие	-709
фо	-710
шей	-711
лез	-712
▁расположе	-713
бой	-714
▁Го	-715
ссе	-716
тели	-717
▁кре	-718
▁разли	-719
▁образова	-720
▁язы	-721
▁спе	-722
вает	-723
нным	-724
тура	-725
▁би	-726
цию	-727
цо	-728
▁кла	-729
ством	-730
▁7	-731
ших	-732
▁откры	-733
кан	-734
ках	-735
вым	-736
▁том	-737
▁Я	-738
▁199	-739
нности	-740
▁которых	-741
мина	-742
кла	-743
▁Ра	-744
▁лет	-745
мента	-746
▁того	-747
той	-748
▁проис	-749
▁Ю	-750
тра	-751
▁Но	-752
▁находи	-753
тора	-754
али	-755
▁оче	-756
тера	-757
чные	-758
ким	-759
держа	-760
ью	-761
нами	-762
йской	-763
▁этого	-764
▁других	-765
▁ду	-766
нность	-767
жение	-768
ющий	-769
▁XV	-770
▁случа	-771
щая	-772
▁извест	-773
дель	-774
▁много	-775
пад	-776
▁они	-777
вление	-778
ибо	-779
вор	-780
▁харак	-781
нем	-782
▁дву	-783
слу	-784
мож	-785
пло	-786
▁Ре	-787
шения	-788
▁обы	-789
туры	-790
▁городе	-791
личе	-792
▁сторо	-793
▁человек	-794
скую	-795
▁получи	-796
▁около	-797
лаго	-798
▁чем	-799
струк	-800
кре	-801
мой	-802
ним	-803
ствует	-804
цев	-805
вать	-806
нк	-807
стей	-808
▁счита	-809
▁производ	-810
▁где	-811
▁жиз	-812
▁ги	-813
▁некоторы	-814
кономи	-815
▁Ми	-816
▁8	-817
ждения	-818
▁15	-819
соб	-820
шая	-821
▁год	-822
▁Ни	-823
ссо	-824
льта	-825
▁Ки	-826
▁постро	-827
нского	-828
нской	-829
вра	-830
кти	-831
простра	-832
тие	-833
кий	-834
▁ри	-835
мыш	-836
прия	-837
ностью	-838
графи	-839
СР	-840
лии	-841
▁тех	-842
▁н	-843
▁уста	-844
ляр	-845
▁км	-846
▁быть	-847
мати	-848
них	-849
зом	-850
вом	-851
вали	-852
▁упо	-853
шего	-854
нский	-855
▁них	-856
▁территории	-857
▁ту	-858
▁ло	-859
ья	-860
него	-861
▁совре	-862
зма	-863
нах	-864
▁зо	-865
ряд	-866
бор	-867
ческая	-868
мышле	-869
публи	-870
ходя	-871
▁поч	-872
▁место	-873
▁Так	-874
▁фу	-875
▁над	-876
▁есть	-877
▁I	-878
тро	-879
рий	-880
▁тру	-881
▁зем	-882
▁коро	-883
тий	-884
▁груп	-885
▁когда	-886
—1	-887
итель	-888
бри	-889
▁дли	-890
▁9	-891
▁конце	-892
вропе	-893
▁16	-894
▁кор	-895
ступ	-896
сс	-897
мини	-898
циональ	-899
зульта	-900
▁многи	-901
кси	-902
виси	-903
чё	-904
▁через	-905
▁дере	-906
льных	-907
▁свои	-908
нер	-909
▁Ли	-910
▁распростра	-911
▁вое	-912
лен	-913
▁поэ	-914
▁истори	-915
▁Ме	-916
тки	-917
▁элект	-918
▁области	-919
ье	-920
лем	-921
▁фа	-922
▁соот	-923
кон	-924
рая	-925
▁XI	-926
▁помо	-927
▁тор	-928
бер	-929
зации	-930
ября	-931
пример	-932
вич	-933
▁гу	-934
ван	-935
ключа	-936
▁нау	-937
▁результа	-938
▁Ар	-939
▁числе	-940
▁Од	-941
дол	-942
шин	-943
▁10	-944
лий	-945
▁Это	-946
дела	-947
▁тран	-948
▁значи	-949
▁цер	-950
▁мест	-951
верх	-952
III	-953
▁самы	-954
▁ещё	-955
мов	-956
из	-957
▁То	-958
▁поз	-959
▁без	-960
иболее	-961
▁Си	-962
доро	-963
гут	-964
▁несколько	-965
▁можно	-966
▁глав	-967
▁стал	-968
гов	-969
▁ад	-970
▁населения	-971
вший	-972
▁ци	-973
▁право	-974
вед	-975
ден	-976
▁дви	-977
▁Ба	-978
гре	-979
▁древ	-980
вета	-981
▁уже	-982
▁окру	-983
лла	-984
▁До	-985
льные	-986
кус	-987
▁обе	-988
▁совет	-989
▁действи	-990
▁которой	-991
▁12	-992
▁связа	-993
ую	-994
▁приня	-995
▁сы	-996
▁194	-997
▁ию	-998
шение	-999
▁вто	-1000
мери	-1001
нди	-1002
рё	-1003
рав	-1004
дно	-1005
вают	-1006
er	-1007
▁дан	-1008
▁кар	-1009
лле	-1010
удо	-1011
щения	-1012
▁долж	-1013
▁ско	-1014
▁Ви	-1015
▁Пер	-1016
хов	-1017
▁Ва	-1018
▁,	-1019
мости	-1020
тек	-1021
▁имеет	-1022
▁площа	-1023
▁уни	-1024
мент	-1025
▁вну	-1026
Со	-1027
ео	-1028
нном	-1029
мет	-1030
▁войны	-1031
▁которого	-1032
спубли	-1033
▁проце	-1034
ССР	-1035
▁занима	-1036
▁сохра	-1037
▁полити	-1038
▁возмож	-1039
▁матери	-1040
▁промышле	-1041
твер	-1042
▁сти	-1043
▁Из	-1044
чного	-1045
▁экономи	-1046
▁соответ	-1047
вал	-1048
след	-1049
▁послед	-1050
▁государстве	-1051
▁ры	-1052
▁упра	-1053
гласно	-1054
▁название	-1055
ведения	-1056
▁ос	-1057
▁часто	-1058
▁доро	-1059
▁могут	-1060
▁всех	-1061
скому	-1062
▁количе	-1063
пла	-1064
роме	-1065
слови	-1066
▁дея	-1067
▁теле	-1068
тен	-1069
ческое	-1070
рабо	-1071
▁один	-1072
▁реки	-1073
Во	-1074
воз	-1075
▁райо	-1076
▁пос	-1077
▁годы	-1078
▁част	-1079
▁Алек	-1080
▁работа	-1081
ями	-1082
чный	-1083
льной	-1084
an	-1085
тей	-1086
▁виде	-1087
▁всего	-1088
▁кри	-1089
льный	-1090
▁остро	-1091
кло	-1092
▁вс	-1093
вших	-1094
шь	-1095
▁мл	-1096
казыва	-1097
▁искус	-1098
зм	-1099
над	-1100
▁Бе	-1101
кая	-1102
ступа	-1103
▁она	-1104
▁широ	-1105
▁напра	-1106
зии	-1107
▁ж	-1108
▁Су	-1109
йства	-1110
▁одно	-1111
▁период	-1112
▁посе	-1113
▁которая	-1114
мии	-1115
▁Ж	-1116
▁представля	-1117
▁два	-1118
▁музы	-1119
▁собой	-1120
▁реги	-1121
стов	-1122
лет	-1123
рон	-1124
тому	-1125
▁вне	-1126
ристи	-1127
▁другие	-1128
▁мета	-1129
..	-1130
▁качестве	-1131
▁составляет	-1132
яза	-1133
▁водо	-1134
▁гла	-1135
▁тыся	-1136
лён	-1137
лосо	-1138
▁чтобы	-1139
▁относи	-1140
▁Ру	-1141
▁Про	-1142
щих	-1143
▁Вели	-1144
ссий	-1145
▁являются	-1146
▁сере	-1147
▁двух	-1148
пада	-1149
▁хра	-1150
▁соб	-1151
20	-1152
▁способ	-1153
ору	-1154
▁лу	-1155
нача	-1156
▁три	-1157
▁следу	-1158
министра	-1159
▁осу	-1160
щее	-1161
▁встре	-1162
кое	-1163
тных	-1164
▁Ле	-1165
▁состав	-1166
знача	-1167
▁веке	-1168
▁благо	-1169
▁архи	-1170
▁C	-1171
▁строитель	-1172
цион	-1173
▁содержа	-1174
еде	-1175
бле	-1176
ница	-1177
▁бере	-1178
сут	-1179
▁образом	-1180
▁сим	-1181
▁зда	-1182
новле	-1183
▁желез	-1184
рей	-1185
▁дости	-1186
▁СССР	-1187
тем	-1188
цией	-1189
▁Ти	-1190
няя	-1191
▁друго	-1192
▁Гер	-1193
▁свое	-1194
ницы	-1195
▁времени	-1196
бур	-1197
доб	-1198
▁совреме	-1199
▁ино	-1200
шие	-1201
▁Ге	-1202
▁годах	-1203
вар	-1204
▁компа	-1205
▁продол	-1206
▁находится	-1207
▁XIX	-1208
ток	-1209
▁разме	-1210
тиво	-1211
народ	-1212
▁191	-1213
емо	-1214
▁человека	-1215
▁особе	-1216
in	-1217
▁темпера	-1218
ший	-1219
боль	-1220
▁жизни	-1221
▁иссле	-1222
▁вме	-1223
▁большо	-1224
▁мар	-1225
дук	-1226
▁Га	-1227
▁среди	-1228
сом	-1229
лья	-1230
▁мы	-1231
ющей	-1232
▁изме	-1233
▁годов	-1234
▁шко	-1235
▁деятель	-1236
ствие	-1237
▁однако	-1238
ит	-1239
Исто	-1240
▁193	-1241
▁тради	-1242
вшие	-1243
бя	-1244
чки	-1245
▁настоя	-1246
нными	-1247
ститу	-1248
нове	-1249
▁включа	-1250
нова	-1251
▁живо	-1252
▁14	-1253
▁Ку	-1254
туре	-1255
Ра	-1256
▁гру	-1257
ческим	-1258
деля	-1259
стер	-1260
▁позво	-1261
▁начале	-1262
шее	-1263
жной	-1264
рами	-1265
▁практи	-1266
▁например	-1267
▁;	-1268
▁Ста	-1269
▁основа	-1270
▁ря	-1271
ющая	-1272
тно	-1273
▁Однако	-1274
▁уг	-1275
тами	-1276
▁хи	-1277
▁призна	-1278
смо	-1279
ствии	-1280
▁страны	-1281
▁необ	-1282
тельных	-1283
вую	-1284
▁сер	-1285
▁N	-1286
▁кни	-1287
▁выра	-1288
▁восто	-1289
льного	-1290
▁еди	-1291
,5	-1292
▁Фран	-1293
▁стали	-1294
▁возду	-1295
▁XX	-1296
▁отме	-1297
▁услови	-1298
форма	-1299
жу	-1300
санд	-1301
чина	-1302
▁уве	-1303
шим	-1304
стой	-1305
няется	-1306
▁лишь	-1307
▁севе	-1308
ждение	-1309
чь	-1310
бира	-1311
▁сме	-1312
рёх	-1313
▁поль	-1314
▁очень	-1315
лого	-1316
▁198	-1317
щий	-1318
▁иде	-1319
▁слова	-1320
кви	-1321
бре	-1322
▁транспо	-1323
▁кня	-1324
▁стан	-1325
лки	-1326
▁одной	-1327
слав	-1328
▁появи	-1329
▁результате	-1330
нера	-1331
▁электро	-1332
тии	-1333
виде	-1334
▁вз	-1335
▁После	-1336
▁испол	-1337
При	-1338
▁13	-1339
on	-1340
▁против	-1341
▁предприя	-1342
▁изобра	-1343
▁своей	-1344
треб	-1345
▁совер	-1346
▁каж	-1347
▁осуще	-1348
▁литера	-1349
▁гор	-1350
▁этой	-1351
стан	-1352
▁рав	-1353
зов	-1354
ar	-1355
▁Де	-1356
▁офи	-1357
рения	-1358
грам	-1359
▁гре	-1360
жё	-1361
держи	-1362
раз	-1363
жен	-1364
▁уда	-1365
щение	-1366
▁обычно	-1367
щие	-1368
▁196	-1369
▁попу	-1370
▁связи	-1371
мом	-1372
лиги	-1373
▁даже	-1374
тельной	-1375
▁выпу	-1376
▁поверх	-1377
▁Пе	-1378
▁наиболее	-1379
▁дела	-1380
десь	-1381
▁защи	-1382
гото	-1383
▁бли	-1384
▁От	-1385
▁анти	-1386
▁худо	-1387
ствуют	-1388
▁чу	-1389
▁пря	-1390
ющего	-1391
ющим	-1392
мирова	-1393
▁192	-1394
▁ради	-1395
кро	-1396
лича	-1397
того	-1398
▁Кон	-1399
▁себя	-1400
ниче	-1401
▁Александ	-1402
стри	-1403
▁Да	-1404
▁памя	-1405
хва	-1406
логии	-1407
▁Все	-1408
▁11	-1409
▁восста	-1410
▁СШ	-1411
▁смер	-1412
en	-1413
▁ней	-1414
▁диа	-1415
вляется	-1416
Го	-1417
ху	-1418
▁сла	-1419
▁Ав	-1420
▁Он	-1421
▁выпол	-1422
вин	-1423
рода	-1424
нению	-1425
▁S	-1426
▁этот	-1427
▁Моск	-1428
▁некоторых	-1429
▁ана	-1430
▁уров	-1431
тере	-1432
▁США	-1433
▁источ	-1434
▁противо	-1435
Про	-1436
тельные	-1437
▁писа	-1438
▁импера	-1439
▁жа	-1440
зей	-1441
▁руко	-1442
▁района	-1443
▁ули	-1444
▁Ри	-1445
▁изда	-1446
стью	-1447
строй	-1448
▁импе	-1449
нки	-1450
ному	-1451
▁комп	-1452
▁расте	-1453
Ко	-1454
▁важ	-1455
▁влия	-1456
▁перед	-1457
сков	-1458
▁Ла	-1459
▁ша	-1460
тах	-1461
тых	-1462
▁Це	-1463
▁представи	-1464
or	-1465
▁осущест	-1466
▁администра	-1467
▁наб	-1468
▁имени	-1469
ваются	-1470
▁переда	-1471
▁столи	-1472
▁спи	-1473
ющее	-1474
▁кли	-1475
▁гер	-1476
▁неза	-1477
▁гражда	-1478
▁обеспе	-1479
▁материа	-1480
дро	-1481
чная	-1482
▁необходи	-1483
▁бра	-1484
▁тыс	-1485
чу	-1486
▁встреча	-1487
▁специаль	-1488
хе	-1489
скими	-1490
▁видов	-1491
▁фран	-1492
▁образу	-1493
▁моло	-1494
вил	-1495
▁филосо	-1496
▁функ	-1497
▁соеди	-1498
▁веще	-1499
кова	-1500
верси	-1501
▁неболь	-1502
ником	-1503
▁мира	-1504
ню	-1505
▁конт	-1506
кам	-1507
мец	-1508
▁характер	-1509
нё	-1510
▁пор	-1511
фика	-1512
▁фак	-1513
циали	-1514
▁предпо	-1515
рах	-1516
лан	-1517
▁жен	-1518
▁195	-1519
дия	-1520
ственный	-1521
жд	-1522
▁Вер	-1523
▁стре	-1524
▁Вы	-1525
выми	-1526
рд	-1527
ственных	-1528
▁теат	-1529
гово	-1530
▁Му	-1531
▁иг	-1532
ружи	-1533
рен	-1534
трен	-1535
▁свою	-1536
▁эта	-1537
▁Также	-1538
▁0	-1539
дели	-1540
▁ему	-1541
краи	-1542
тый	-1543
▁архитек	-1544
муще	-1545
▁построе	-1546
нет	-1547
▁уме	-1548
000	-1549
лок	-1550
▁него	-1551
▁либо	-1552
▁почти	-1553
▁пя	-1554
▁большин	-1555
▁Для	-1556
▁россий	-1557
▁больше	-1558
▁тя	-1559
ходят	-1560
▁вра	-1561
▁если	-1562
▁мона	-1563
at	-1564
▁ше	-1565
нец	-1566
▁участ	-1567
es	-1568
тая	-1569
▁отра	-1570
мин	-1571
менно	-1572
цуз	-1573
▁Ха	-1574
ственной	-1575
История	-1576
▁центр	-1577
▁197	-1578
зем	-1579
▁объя	-1580
чёт	-1581
мена	-1582
образ	-1583
▁коло	-1584
фек	-1585
▁помощ	-1586
ственного	-1587
тые	-1588
пов	-1589
жении	-1590
▁поста	-1591
▁A	-1592
▁фо	-1593
▁день	-1594
▁обяза	-1595
▁Лу	-1596
жных	-1597
▁полови	-1598
год	-1599
▁нео	-1600
▁отдель	-1601
▁объек	-1602
▁происходит	-1603
al	-1604
шли	-1605
▁пес	-1606
виа	-1607
числе	-1608
▁продук	-1609
волю	-1610
▁утвер	-1611
тельного	-1612
тин	-1613
▁миро	-1614
▁сооб	-1615
▁тысяч	-1616
дой	-1617
▁государства	-1618
нок	-1619
▁менее	-1620
креп	-1621
пита	-1622
лой	-1623
▁Ди	-1624
▁мя	-1625
▁эпо	-1626
рации	-1627
За	-1628
шки	-1629
▁народ	-1630
телем	-1631
тру	-1632
▁зависи	-1633
риа	-1634
▁филь	-1635
▁имеют	-1636
▁многих	-1637
▁положе	-1638
дра	-1639
нци	-1640
▁пара	-1641
▁различных	-1642
▁дво	-1643
▁мор	-1644
мир	-1645
▁власти	-1646
рок	-1647
личие	-1648
лин	-1649
сма	-1650
нча	-1651
доста	-1652
▁религи	-1653
▁затем	-1654
нва	-1655
▁тро	-1656
▁этих	-1657
чка	-1658
версите	-1659
сной	-1660
▁одним	-1661
▁стала	-1662
▁низ	-1663
цей	-1664
▁получа	-1665
▁дома	-1666
▁второй	-1667
восто	-1668
▁четы	-1669
мая	-1670
дя	-1671
▁Те	-1672
нин	-1673
▁начина	-1674
тельства	-1675
зяй	-1676
▁млн	-1677
▁используется	-1678
▁своего	-1679
надле	-1680
▁наблю	-1681
вшего	-1682
рово	-1683
▁сель	-1684
▁янва	-1685
▁цар	-1686
ристиан	-1687
ске	-1688
▁дека	-1689
▁крупней	-1690
хода	-1691
▁Мар	-1692
вли	-1693
нную	-1694
▁евре	-1695
▁котором	-1696
чным	-1697
▁назва	-1698
▁шта	-1699
руг	-1700
▁носи	-1701
▁форма	-1702
раб	-1703
▁обу	-1704
зирова	-1705
тельный	-1706
Ро	-1707
лина	-1708
тар	-1709
▁показа	-1710
▁актив	-1711
▁международ	-1712
▁запад	-1713
▁множе	-1714
▁находя	-1715
вропей	-1716
рус	-1717
▁Вла	-1718
Не	-1719
паде	-1720
▁заня	-1721
▁Евро	-1722
До	-1723
▁V	-1724
▁популяр	-1725
льное	-1726
▁настоящее	-1727
▁располага	-1728
▁принадле	-1729
мерикан	-1730
▁стороны	-1731
▁уч	-1732
зация	-1733
▁выше	-1734
▁количество	-1735
▁гово	-1736
▁националь	-1737
▁две	-1738
▁случае	-1739
▁Об	-1740
ствия	-1741
▁Ту	-1742
чное	-1743
▁истории	-1744
▁которое	-1745
лых	-1746
льная	-1747
сона	-1748
▁уче	-1749
▁чер	-1750
▁огра	-1751
is	-1752
▁торго	-1753
дви	-1754
▁аль	-1755
мор	-1756
▁непо	-1757
вка	-1758
▁Герма	-1759
гли	-1760
▁Боль	-1761
▁сам	-1762
▁програм	-1763
▁эпи	-1764
▁постоя	-1765
тельное	-1766
▁системы	-1767
▁мире	-1768
первые	-1769
▁поме	-1770
▁своих	-1771
▁середи	-1772
▁имя	-1773
▁социаль	-1774
▁Российской	-1775
▁тео	-1776
▁деся	-1777
оз	-1778
цами	-1779
▁Ан	-1780
▁Кар	-1781
▁культур	-1782
даря	-1783
▁класси	-1784
▁империи	-1785
ници	-1786
▁церков	-1787
▁воды	-1788
▁меди	-1789
▁компо	-1790
▁начала	-1791
емых	-1792
пере	-1793
▁места	-1794
▁сент	-1795
▁Бу	-1796
▁заме	-1797
▁отлича	-1798
▁внутрен	-1799
▁применя	-1800
▁стату	-1801
▁вет	-1802
▁гео	-1803
шую	-1804
▁развития	-1805
щей	-1806
▁рим	-1807
дования	-1808
▁Север	-1809
стья	-1810
▁анг	-1811
.1	-1812
рует	-1813
▁месте	-1814
▁возник	-1815
ссей	-1816
▁окт	-1817
▁представле	-1818
▁уби	-1819
ступи	-1820
дий	-1821
▁30	-1822
▁свобо	-1823
сад	-1824
шёл	-1825
дами	-1826
▁25	-1827
логия	-1828
торов	-1829
▁Восто	-1830
пти	-1831
снов	-1832
нан	-1833
▁Ин	-1834
▁крепо	-1835
зь	-1836
▁сдела	-1837
дии	-1838
▁производи	-1839
ген	-1840
▁Пре	-1841
вести	-1842
▁Пи	-1843
▁зе	-1844
▁людей	-1845
▁голо	-1846
ётся	-1847
▁Сред	-1848
нских	-1849
▁коман	-1850
▁течение	-1851
▁север	-1852
▁ал	-1853
город	-1854
лев	-1855
▁доста	-1856
стя	-1857
сколь	-1858
▁зако	-1859
▁кана	-1860
значе	-1861
▁профе	-1862
▁сохрани	-1863
шло	-1864
▁игра	-1865
▁данным	-1866
док	-1867
▁немец	-1868
▁особенно	-1869
ментов	-1870
▁вместе	-1871
писи	-1872
▁музыка	-1873
▁основном	-1874
вались	-1875
▁авгу	-1876
▁иногда	-1877
▁памят	-1878
жный	-1879
вен	-1880
▁комплек	-1881
вей	-1882
▁даль	-1883
лит	-1884
строе	-1885
▁муж	-1886
▁ран	-1887
ic	-1888
▁M	-1889
▁учре	-1890
▁физи	-1891
▁ну	-1892
кола	-1893
▁правило	-1894
бов	-1895
▁поня	-1896
нодоро	-1897
▁первый	-1898
▁заво	-1899
▁отноше	-1900
▁университе	-1901
▁роль	-1902
▁свой	-1903
кар	-1904
спублики	-1905
▁упомина	-1906
▁глу	-1907
▁мето	-1908
▁таких	-1909
дет	-1910
▁Ита	-1911
▁войска	-1912
нев	-1913
▁одного	-1914
▁хотя	-1915
рита	-1916
пара	-1917
▁струк	-1918
▁P	-1919
▁тек	-1920
▁сов	-1921
сматри	-1922
▁установле	-1923
тка	-1924
▁нор	-1925
▁существова	-1926
▁работы	-1927
us	-1928
▁ог	-1929
▁кино	-1930
чей	-1931
▁сол	-1932
▁побе	-1933
▁француз	-1934
▁исследова	-1935
Пер	-1936
▁буду	-1937
▁Влади	-1938
руется	-1939
▁административ	-1940
читы	-1941
зах	-1942
▁вопро	-1943
;.	-1944
вов	-1945
тельство	-1946
Ка	-1947
щего	-1948
▁значение	-1949
▁Вол	-1950
▁пле	-1951
▁учё	-1952
▁бога	-1953
▁здесь	-1954
хани	-1955
▁всё	-1956
▁возра	-1957
ложи	-1958
▁направле	-1959
▁число	-1960
▁позволя	-1961
▁облада	-1962
рю	-1963
нам	-1964
ниц	-1965
▁характери	-1966
ган	-1967
▁Сан	-1968
мость	-1969
▁геро	-1970
▁обна	-1971
▁проводи	-1972
фере	-1973
гии	-1974
▁уз	-1975
▁официаль	-1976
▁продолжа	-1977
▁оборо	-1978
▁тепло	-1979
▁несколь	-1980
▁B	-1981
гие	-1982
▁Пет	-1983
▁фе	-1984
тай	-1985
▁вид	-1986
▁XVIII	-1987
ственные	-1988
▁дерев	-1989
вид	-1990
▁производства	-1991
▁оказа	-1992
▁срав	-1993
▁коми	-1994
обре	-1995
▁Украи	-1996
▁пы	-1997
▁слово	-1998
▁независи	-1999
лим	-2000
▁отсут	-2001
ённые	-2002
лье	-2003
нка	-2004
писы	-2005
▁объеди	-2006
▁нару	-2007
лые	-2008
кими	-2009
▁Кра	-2010
▁описа	-2011
менты	-2012
▁происхо	-2013
▁укра	-2014
▁хоро	-2015
вёр	-2016
▁некоторые	-2017
жо	-2018
вшая	-2019
ческом	-2020
рию	-2021
мь	-2022
жно	-2023
▁определя	-2024
▁зи	-2025
▁трёх	-2026
▁сни	-2027
▁внеш	-2028
▁принима	-2029
▁инстру	-2030
ропо	-2031
никами	-2032
▁опера	-2033
кта	-2034
лка	-2035
▁информа	-2036
—19	-2037
▁многие	-2038
деле	-2039
▁частности	-2040
▁написа	-2041
мерно	-2042
▁чего	-2043
Ре	-2044
мей	-2045
ваться	-2046
ческими	-2047
▁хими	-2048
▁проек	-2049
▁станови	-2050
▁°	-2051
выше	-2052
▁неф	-2053
▁стран	-2054
Пе	-2055
▁причи	-2056
ральной	-2057
дко	-2058
▁золо	-2059
жей	-2060
▁един	-2061
▁T	-2062
▁вок	-2063
▁мень	-2064
▁симво	-2065
▁районе	-2066
▁христиан	-2067
▁тон	-2068
цов	-2069
▁Фи	-2070
▁массо	-2071
▁Пу	-2072
ндии	-2073
Ли	-2074
▁Европе	-2075
бом	-2076
▁позд	-2077
скольку	-2078
▁относя	-2079
▁городов	-2080
жит	-2081
вобо	-2082
▁оце	-2083
▁забо	-2084
▁пода	-2085
чности	-2086
▁жителей	-2087
дах	-2088
нирова	-2089
▁No	-2090
▁Цент	-2091
▁кисло	-2092
емые	-2093
тить	-2094
▁Зем	-2095
▁бан	-2096
тельным	-2097
ссии	-2098
имуще	-2099
▁произо	-2100
▁выс	-2101
стоит	-2102
шла	-2103
▁апре	-2104
▁верх	-2105
▁цвет	-2106
▁эф	-2107
тной	-2108
▁Феде	-2109
▁верси	-2110
лый	-2111
жные	-2112
▁II	-2113
▁употреб	-2114
сер	-2115
▁женщи	-2116
име	-2117
▁культуры	-2118
тика	-2119
▁степе	-2120
▁нас	-2121
носи	-2122
▁пов	-2123
ческую	-2124
лами	-2125
▁формы	-2126
Бо	-2127
▁Сер	-2128
▁роди	-2129
▁энер	-2130
чества	-2131
лью	-2132
тные	-2133
пар	-2134
град	-2135
▁Свя	-2136
Ме	-2137
тный	-2138
циона	-2139
▁другой	-2140
▁транспорт	-2141
льным	-2142
▁завод	-2143
вили	-2144
▁группы	-2145
нены	-2146
щую	-2147
▁Кроме	-2148
▁вели	-2149
моби	-2150
▁центром	-2151
el	-2152
бро	-2153
▁тка	-2154
онов	-2155
▁типа	-2156
куль	-2157
▁Совет	-2158
туа	-2159
▁мини	-2160
▁Ша	-2161
▁названия	-2162
пли	-2163
лко	-2164
▁чле	-2165
▁исклю	-2166
▁церкви	-2167
▁железнодоро	-2168
вшей	-2169
▁род	-2170
▁такие	-2171
▁мас	-2172
▁странах	-2173
▁успе	-2174
▁суб	-2175
После	-2176
▁себе	-2177
▁меся	-2178
мест	-2179
▁скоро	-2180
▁первой	-2181
мат	-2182
▁экс	-2183
бург	-2184
фици	-2185
▁100	-2186
▁обеспечи	-2187
шем	-2188
служи	-2189
▁собы	-2190
▁губер	-2191
▁разру	-2192
▁расска	-2193
▁участи	-2194
▁помощью	-2195
▁рез	-2196
▁авиа	-2197
▁весь	-2198
Ма	-2199
лях	-2200
селение	-2201
тельности	-2202
▁Ло	-2203
▁протя	-2204
поли	-2205
▁2010	-2206
▁%.	-2207
▁получил	-2208
▁зву	-2209
▁полностью	-2210
▁образ	-2211
▁января	-2212
▁образования	-2213
▁преимуще	-2214
▁пти	-2215
вался	-2216
тором	-2217
нен	-2218
там	-2219
мия	-2220
шен	-2221
нений	-2222
рит	-2223
сных	-2224
чении	-2225
▁сопро	-2226
емый	-2227
▁регу	-2228
▁вод	-2229
▁очеред	-2230
▁ряд	-2231
▁маши	-2232
тирова	-2233
it	-2234
▁цве	-2235
▁Ио	-2236
▁Бер	-2237
▁покры	-2238
▁Хо	-2239
▁основе	-2240
▁превра	-2241
шу	-2242
▁аэ	-2243
▁ним	-2244
▁сре	-2245
▁Среди	-2246
▁площадь	-2247
что	-2248
▁дет	-2249
▁наблюда	-2250
гло	-2251
▁одна	-2252
каде	-2253
▁вза	-2254
крати	-2255
▁лё	-2256
тного	-2257
▁общи	-2258
жды	-2259
▁разно	-2260
рам	-2261
лова	-2262
▁R	-2263
▁еже	-2264
▁луч	-2265
▁фев	-2266
ственное	-2267
тельная	-2268
став	-2269
▁уго	-2270
2.	-2271
▁будет	-2272
▁ат	-2273
▁аб	-2274
зиде	-2275
суль	-2276
▁впервые	-2277
▁составе	-2278
▁Ду	-2279
▁Че	-2280
▁поэтому	-2281
▁поверхности	-2282
▁Ча	-2283
▁изу	-2284
▁кол	-2285
▁смерти	-2286
тека	-2287
▁сту	-2288
▁служ	-2289
▁зада	-2290
▁стало	-2291
▁система	-2292
▁нём	-2293
▁уро	-2294
▁контро	-2295
▁состоит	-2296
▁.	-2297
▁бро	-2298
Са	-2299
▁%,	-2300
степе	-2301
▁июля	-2302
ез	-2303
цер	-2304
клад	-2305
▁северо	-2306
▁Франции	-2307
Па	-2308
кс	-2309
▁спа	-2310
▁медици	-2311
няет	-2312
нская	-2313
ологи	-2314
▁самых	-2315
тря	-2316
▁близ	-2317
▁моря	-2318
урна	-2319
▁мая	-2320
▁прожи	-2321
фри	-2322
бере	-2323
▁собра	-2324
▁ниж	-2325
...	-2326
пий	-2327
▁руб	-2328
▁тела	-2329
▁американ	-2330
▁согла	-2331
▁оконча	-2332
▁европей	-2333
жная	-2334
телями	-2335
джи	-2336
ил	-2337
▁кру	-2338
▁режи	-2339
тни	-2340
▁др	-2341
▁Европы	-2342
ённый	-2343
▁Германии	-2344
вно	-2345
▁широко	-2346
50	-2347
▁представляет	-2348
пор	-2349
▁отде	-2350
▁кры	-2351
ющими	-2352
рин	-2353
▁религиоз	-2354
▁дра	-2355
ниципа	-2356
ведение	-2357
чными	-2358
▁практически	-2359
▁рода	-2360
рую	-2361
▁сою	-2362
пасно	-2363
▁Лю	-2364
▁поро	-2365
▁своё	-2366
▁заклю	-2367
▁техно	-2368
гер	-2369
▁сентября	-2370
жет	-2371
шта	-2372
▁вол	-2373
,2	-2374
дина	-2375
▁худож	-2376
▁автомоби	-2377
Из	-2378
кую	-2379
▁кро	-2380
▁быстро	-2381
▁сет	-2382
▁смы	-2383
▁февра	-2384
▁спор	-2385
лирова	-2386
▁револю	-2387
нте	-2388
▁права	-2389
вок	-2390
▁ам	-2391
▁см	-2392
▁Его	-2393
▁фло	-2394
▁нескольких	-2395
▁октября	-2396
▁оби	-2397
стран	-2398
▁запа	-2399
▁разрабо	-2400
фер	-2401
▁сра	-2402
▁именно	-2403
▁монасты	-2404
рец	-2405
▁дней	-2406
▁интере	-2407
▁конструк	-2408
▁персона	-2409
▁организации	-2410
▁называют	-2411
пле	-2412
▁50	-2413
сред	-2414
стом	-2415
топи	-2416
▁интер	-2417
▁выступа	-2418
▁ца	-2419
пуска	-2420
ктор	-2421
пута	-2422
▁центра	-2423
▁расположен	-2424
Мо	-2425
нному	-2426
▁механи	-2427
▁отмеча	-2428
▁сце	-2429
▁феде	-2430
▁приро	-2431
▁Они	-2432
▁радио	-2433
▁языке	-2434
бора	-2435
графия	-2436
Об	-2437
езд	-2438
имо	-2439
▁XVII	-2440
сен	-2441
▁осуществля	-2442
мар	-2443
▁Запад	-2444
▁D	-2445
▁проя	-2446
▁площади	-2447
юр	-2448
ссажи	-2449
▁борь	-2450
▁милли	-2451
пря	-2452
тил	-2453
▁изгото	-2454
▁провин	-2455
нос	-2456
тым	-2457
▁L	-2458
▁Би	-2459
▁нет	-2460
тон	-2461
чен	-2462
▁тот	-2463
▁компози	-2464
▁Ис	-2465
валось	-2466
▁достига	-2467
мых	-2468
ност	-2469
▁тол	-2470
гру	-2471
▁бое	-2472
▁пунк	-2473
▁специали	-2474
▁2011	-2475
▁закры	-2476
▁метал	-2477
ал	-2478
▁согласно	-2479
▁21	-2480
▁23	-2481
▁пора	-2482
▁современ	-2483
гом	-2484
▁Гре	-2485
▁означа	-2486
ис	-2487
▁189	-2488
жного	-2489
▁H	-2490
нес	-2491
либо	-2492
мон	-2493
бина	-2494
▁ска	-2495
▁соору	-2496
▁кам	-2497
▁реак	-2498
▁отпра	-2499
рого	-2500
баты	-2501
▁смо	-2502
▁фон	-2503
тания	-2504
ственным	-2505
▁мощ	-2506
▁рома	-2507
выша	-2508
тво	-2509
хом	-2510
рение	-2511
точно	-2512
▁становится	-2513
▁декабря	-2514
▁институ	-2515
▁городской	-2516
▁Миха	-2517
▁F	-2518
рос	-2519
▁допол	-2520
▁захва	-2521
▁приве	-2522
▁форму	-2523
▁Никола	-2524
▁большой	-2525
▁Ор	-2526
▁ходе	-2527
▁празд	-2528
▁оно	-2529
▁край	-2530
▁подоб	-2531
▁190	-2532
▁стране	-2533
▁л	-2534
сок	-2535
жений	-2536
нении	-2537
ристо	-2538
▁дер	-2539
лог	-2540
▁40	-2541
▁Ива	-2542
▁мир	-2543
зия	-2544
▁клу	-2545
▁зависимости	-2546
▁перво	-2547
▁генера	-2548
чих	-2549
ствен	-2550
▁всей	-2551
▁наро	-2552
▁холо	-2553
▁приводи	-2554
▁увеличи	-2555
рот	-2556
чную	-2557
ябре	-2558
▁взя	-2559
▁кле	-2560
▁расши	-2561
▁многочисле	-2562
▁спосо	-2563
▁Согласно	-2564
риан	-2565
▁раство	-2566
образова	-2567
сей	-2568
▁принци	-2569
▁дальней	-2570
▁муниципа	-2571
▁развитие	-2572
▁существует	-2573
рко	-2574
▁марта	-2575
шру	-2576
▁конца	-2577
▁плане	-2578
▁берегу	-2579
рального	-2580
гна	-2581
тье	-2582
▁коле	-2583
смотря	-2584
▁тогда	-2585
▁августа	-2586
▁юго	-2587
▁крупных	-2588
▁рассматри	-2589
▁2000	-2590
▁долго	-2591
▁разных	-2592
▁эффек	-2593
▁Гу	-2594
толи	-2595
тона	-2596
дения	-2597
▁предприятия	-2598
вари	-2599
чном	-2600
▁Пра	-2601
гну	-2602
труд	-2603
▁заболе	-2604
▁бассей	-2605
▁отличие	-2606
▁частью	-2607
ro	-2608
рина	-2609
▁журна	-2610
▁просто	-2611
▁возвра	-2612
▁деятельности	-2613
щу	-2614
▁Азии	-2615
▁похо	-2616
▁22	-2617
▁техни	-2618
▁благодаря	-2619
▁мет	-2620
▁ноября	-2621
▁поскольку	-2622
нили	-2623
▁температура	-2624
▁24	-2625
▁ск	-2626
▁выделя	-2627
▁мало	-2628
▁деревя	-2629
неве	-2630
▁выз	-2631
▁публи	-2632
послед	-2633
ект	-2634
шка	-2635
▁воору	-2636
▁подвер	-2637
тельность	-2638
▁промышленности	-2639
▁учи	-2640
говор	-2641
чением	-2642
▁мед	-2643
▁2014	-2644
ющихся	-2645
▁млрд	-2646
▁армии	-2647
▁очередь	-2648
мах	-2649
▁пут	-2650
▁грани	-2651
▁художе	-2652
▁компании	-2653
йти	-2654
▁Ги	-2655
,6	-2656
10	-2657
лам	-2658
нина	-2659
▁тому	-2660
▁186	-2661
▁коли	-2662
▁православ	-2663
▁сна	-2664
риаль	-2665
▁поряд	-2666
▁строительство	-2667
▁+	-2668
сные	-2669
▁примерно	-2670
нце	-2671
▁нем	-2672
▁оде	-2673
чер	-2674
поль	-2675
▁хло	-2676
▁оружи	-2677
▁пассажи	-2678
мимо	-2679
сами	-2680
▁маршру	-2681
последствии	-2682
джа	-2683
▁относится	-2684
▁уси	-2685
▁древне	-2686
▁множество	-2687
вень	-2688
Се	-2689
▁первых	-2690
чо	-2691
▁добы	-2692
▁прода	-2693
▁187	-2694
▁предме	-2695
ol	-2696
▁виды	-2697
▁мировой	-2698
▁острова	-2699
▁организа	-2700
▁считается	-2701
▁преимущественно	-2702
▁поле	-2703
мые	-2704
нью	-2705
▁работ	-2706
▁чемпи	-2707
he	-2708
несе	-2709
нить	-2710
▁население	-2711
▁таким	-2712
▁финан	-2713
▁запре	-2714
▁середине	-2715
am	-2716
мос	-2717
▁Рим	-2718
▁Поль	-2719
йского	-2720
▁находятся	-2721
▁изо	-2722
▁умень	-2723
▁называется	-2724
▁G	-2725
влением	-2726
▁используются	-2727
,8	-2728
гип	-2729
сед	-2730
▁ке	-2731
блио	-2732
▁действия	-2733
тием	-2734
▁Воз	-2735
▁июня	-2736
▁преступ	-2737
вала	-2738
▁возника	-2739
▁ан	-2740
▁земли	-2741
▁требо	-2742
ум	-2743
▁законо	-2744
рест	-2745
▁доку	-2746
▁стоя	-2747
ждений	-2748
жением	-2749
▁начало	-2750
начально	-2751
▁\	-2752
навли	-2753
новре	-2754
▁перево	-2755
▁относительно	-2756
30	-2757
▁све	-2758
▁внутри	-2759
▁жан	-2760
▁пси	-2761
▁линии	-2762
▁освобо	-2763
▁принадлежа	-2764
▁свиде	-2765
,1	-2766
вё	-2767
▁учеб	-2768
▁ответ	-2769
▁различные	-2770
лада	-2771
седа	-2772
▁ква	-2773
▁мнению	-2774
▁понима	-2775
фу	-2776
▁воздуха	-2777
ланд	-2778
ковых	-2779
▁попы	-2780
▁свет	-2781
щается	-2782
▁англий	-2783
▁предна	-2784
▁ап	-2785
То	-2786
мира	-2787
▁p	-2788
▁Кали	-2789
▁апреля	-2790
▁здания	-2791
▁Украины	-2792
▁моз	-2793
▁есте	-2794
▁стар	-2795
▁детей	-2796
▁комму	-2797
▁хозяй	-2798
▁ы	-2799
▁счёт	-2800
▁философи	-2801
вить	-2802
▁XVI	-2803
▁Аль	-2804
▁чёр	-2805
▁Если	-2806
▁самым	-2807
кли	-2808
▁море	-2809
ьё	-2810
дёт	-2811
голь	-2812
лект	-2813
▁музей	-2814
▁гг	-2815
талья	-2816
▁формирова	-2817
▁мм	-2818
▁непосред	-2819
▁Чер	-2820
▁лег	-2821
▁власть	-2822
▁другими	-2823
▁оказыва	-2824
▁растений	-2825
ана	-2826
▁условиях	-2827
,4	-2828
Су	-2829
чай	-2830
тья	-2831
▁Республики	-2832
кто	-2833
▁ото	-2834
▁спу	-2835
▁паро	-2836
▁руковод	-2837
▁професси	-2838
▁c	-2839
валась	-2840
le	-2841
▁веков	-2842
▁Велико	-2843
▁област	-2844
▁присут	-2845
▁простран	-2846
их	-2847
гах	-2848
▁пробле	-2849
руса	-2850
▁желе	-2851
▁време	-2852
▁животных	-2853
▁искусства	-2854
,3	-2855
щен	-2856
▁Раз	-2857
▁кур	-2858
ционных	-2859
▁Например	-2860
▁пересе	-2861
кса	-2862
▁сю	-2863
▁лёг	-2864
▁музе	-2865
▁микро	-2866
▁степени	-2867
мб	-2868
тию	-2869
▁2009	-2870
▁сли	-2871
▁своим	-2872
▁приобре	-2873
▁вида	-2874
▁потом	-2875
▁требу	-2876
▁городом	-2877
,7	-2878
▁E	-2879
чность	-2880
▁посвя	-2881
▁должен	-2882
um	-2883
Те	-2884
летия	-2885
которые	-2886
нские	-2887
▁Амери	-2888
▁автобу	-2889
ённых	-2890
▁2012	-2891
▁исполни	-2892
▁Федерации	-2893
Город	-2894
▁первые	-2895
▁церковь	-2896
роят	-2897
▁Рус	-2898
ай	-2899
▁там	-2900
стров	-2901
▁2008	-2902
▁гидро	-2903
▁Италии	-2904
▁термин	-2905
▁t	-2906
спорт	-2907
▁укреп	-2908
as	-2909
▁Пред	-2910
Ку	-2911
ковой	-2912
тан	-2913
тех	-2914
▁2013	-2915
▁объё	-2916
▁чаще	-2917
▁указа	-2918
фра	-2919
един	-2920
▁пись	-2921
ральный	-2922
▁рей	-2923
▁значительно	-2924
жай	-2925
▁Как	-2926
▁тур	-2927
оне	-2928
▁тури	-2929
▁обору	-2930
▁объяс	-2931
▁предела	-2932
▁d	-2933
вало	-2934
▁выбо	-2935
▁пози	-2936
ющиеся	-2937
▁корот	-2938
Ви	-2939
шой	-2940
ныне	-2941
руют	-2942
▁фут	-2943
формирова	-2944
▁существо	-2945
ur	-2946
лением	-2947
▁всегда	-2948
▁вызыва	-2949
доль	-2950
▁жизнь	-2951
Ин	-2952
▁Ев	-2953
▁Васи	-2954
▁поги	-2955
вшихся	-2956
▁188	-2957
▁взаимо	-2958
гля	-2959
вшим	-2960
▁неу	-2961
станти	-2962
▁употребля	-2963
нией	-2964
роди	-2965
▁2015	-2966
▁Основ	-2967
▁реаль	-2968
▁городского	-2969
стр	-2970
▁Анг	-2971
стива	-2972
▁этим	-2973
Си	-2974
рона	-2975
▁Анд	-2976
▁Эти	-2977
▁рам	-2978
течестве	-2979
▁общества	-2980
вии	-2981
лая	-2982
▁закон	-2983
▁момент	-2984
чего	-2985
▁безо	-2986
▁дороги	-2987
▁главным	-2988
▁насчиты	-2989
▁управления	-2990
▁Пере	-2991
▁вклю	-2992
вшиеся	-2993
▁постепе	-2994
▁движения	-2995
емой	-2996
нять	-2997
▁путём	-2998
▁форме	-2999
▁природ	-3000
▁Мон	-3001
рое	-3002
чек	-3003
новь	-3004
▁твор	-3005
▁трак	-3006
▁целью	-3007
▁экспе	-3008
▁сне	-3009
▁группа	-3010
▁которым	-3011
▁приходи	-3012
езда	-3013
▁построен	-3014
▁цвета	-3015
кор	-3016
▁друг	-3017
способ	-3018
▁болез	-3019
-1	-3020
om	-3021
шед	-3022
▁28	-3023
▁изде	-3024
ственная	-3025
тики	-3026
клады	-3027
гами	-3028
стана	-3029
тании	-3030
▁догово	-3031
новременно	-3032
лют	-3033
щим	-3034
▁юри	-3035
▁силы	-3036
▁полно	-3037
▁чув	-3038
▁каме	-3039
▁воздей	-3040
▁Бы	-3041
поло	-3042
▁кто	-3043
годня	-3044
▁электри	-3045
зер	-3046
емого	-3047
▁кажды	-3048
▁новых	-3049
вича	-3050
▁разре	-3051
—2	-3052
тет	-3053
береж	-3054
▁веду	-3055
▁подчи	-3056
▁свобод	-3057
лад	-3058
хан	-3059
влека	-3060
▁Москов	-3061
▁влияние	-3062
▁половине	-3063
▁расположены	-3064
▁честь	-3065
▁помощи	-3066
▁соответству	-3067
ac	-3068
тине	-3069
▁район	-3070
ведений	-3071
▁свойства	-3072
▁ль	-3073
лиза	-3074
▁озе	-3075
▁республи	-3076
▁дом	-3077
▁арти	-3078
▁войск	-3079
▁библио	-3080
сный	-3081
вляет	-3082
сного	-3083
▁каза	-3084
▁услу	-3085
▁сильно	-3086
▁центре	-3087
▁средства	-3088
▁советский	-3089
Ве	-3090
сах	-3091
лений	-3092
▁пяти	-3093
▁Город	-3094
▁депута	-3095
▁производство	-3096
▁р	-3097
виду	-3098
▁первого	-3099
▁гро	-3100
▁2016	-3101
▁двор	-3102
▁прямо	-3103
▁отношения	-3104
Но	-3105
стойчи	-3106
тивных	-3107
▁реали	-3108
торой	-3109
вольно	-3110
▁избира	-3111
▁возможно	-3112
водя	-3113
▁достаточно	-3114
лах	-3115
рица	-3116
▁вновь	-3117
▁занимает	-3118
▁определё	-3119
шими	-3120
▁зая	-3121
скоре	-3122
▁норма	-3123
▁такой	-3124
час	-3125
▁воло	-3126
стрирова	-3127
▁Великобри	-3128
▁произведения	-3129
ia	-3130
▁Мак	-3131
▁бес	-3132
▁моне	-3133
▁кроме	-3134
▁прекра	-3135
нда	-3136
▁27	-3137
▁служи	-3138
▁региона	-3139
бир	-3140
гани	-3141
▁величи	-3142
▁периода	-3143
▁февраля	-3144
тельную	-3145
▁которую	-3146
куп	-3147
▁статус	-3148
▁относятся	-3149
гам	-3150
каз	-3151
ционной	-3152
▁уничто	-3153
рои	-3154
Петер	-3155
▁доба	-3156
▁пути	-3157
▁указыва	-3158
тков	-3159
вшее	-3160
▁выпуска	-3161
▁содержи	-3162
дор	-3163
нюю	-3164
▁выда	-3165
▁язык	-3166
▁атмос	-3167
▁верну	-3168
▁италья	-3169
▁образование	-3170
писко	-3171
▁последова	-3172
цам	-3173
▁метров	-3174
▁Дж	-3175
▁ори	-3176
▁фигу	-3177
▁коллек	-3178
▁большое	-3179
пан	-3180
▁княже	-3181
▁числа	-3182
тили	-3183
▁Она	-3184
▁внима	-3185
▁этому	-3186
▁сочи	-3187
▁автор	-3188
Так	-3189
кнове	-3190
чество	-3191
▁следует	-3192
цом	-3193
▁бю	-3194
▁неко	-3195
▁расстоя	-3196
▁появились	-3197
еты	-3198
вила	-3199
▁новые	-3200
▁положение	-3201
▁используют	-3202
зиден	-3203
▁сбор	-3204
▁сезо	-3205
▁акаде	-3206
▁корпу	-3207
▁самостоя	-3208
40	-3209
АО	-3210
▁мусуль	-3211
et	-3212
▁26	-3213
▁позже	-3214
▁четыре	-3215
вки	-3216
гой	-3217
чие	-3218
▁кораб	-3219
▁хорошо	-3220
гни	-3221
▁охо	-3222
Му	-3223
дри	-3224
▁шо	-3225
▁неё	-3226
▁большинство	-3227
гар	-3228
ниях	-3229
▁био	-3230
▁нес	-3231
▁опы	-3232
▁концент	-3233
Для	-3234
деб	-3235
▁000	-3236
▁жерт	-3237
▁стол	-3238
▁Санкт	-3239
мым	-3240
чем	-3241
▁Чи	-3242
стые	-3243
ющую	-3244
▁печа	-3245
▁новый	-3246
нностью	-3247
Вы	-3248
циях	-3249
▁ранее	-3250
▁вокруг	-3251
il	-3252
▁Ир	-3253
падает	-3254
▁досто	-3255
влении	-3256
▁президе	-3257
-2	-3258
рек	-3259
пании	-3260
▁ситуа	-3261
ква	-3262
евич	-3263
▁Бра	-3264
▁окра	-3265
▁пожа	-3266
▁сопрово	-3267
леко	-3268
чены	-3269
▁инди	-3270
▁сказа	-3271
▁предприятий	-3272
▁мел	-3273
▁дене	-3274
▁ниже	-3275
▁возможность	-3276
»:	-3277
▁Сол	-3278
близи	-3279
соеди	-3280
▁нового	-3281
ковые	-3282
▁преду	-3283
▁включая	-3284
▁ей	-3285
▁сей	-3286
чиная	-3287
▁школы	-3288
▁Константи	-3289
ус	-3290
▁Под	-3291
▁кате	-3292
▁люди	-3293
▁встречается	-3294
▁тан	-3295
готов	-3296
▁неиз	-3297
,9	-3298
рги	-3299
тина	-3300
▁заг	-3301
зуется	-3302
▁должны	-3303
▁недоста	-3304
▁предоста	-3305
ева	-3306
ссы	-3307
чий	-3308
жены	-3309
туру	-3310
иболь	-3311
▁высоко	-3312
све	-3313
▁названием	-3314
лл	-3315
▁первым	-3316
принима	-3317
ясь	-3318
▁оз	-3319
лена	-3320
меча	-3321
▁голов	-3322
▁входит	-3323
▁случаях	-3324
▁завер	-3325
▁ныне	-3326
ходили	-3327
▁прибы	-3328
ям	-3329
▁s	-3330
▁Ал	-3331
емая	-3332
▁сотруд	-3333
▁значения	-3334
▁точки	-3335
▁уровня	-3336
▁собственно	-3337
▁соответствии	-3338
фы	-3339
нике	-3340
▁Тур	-3341
вшийся	-3342
нением	-3343
▁пользова	-3344
▁Александр	-3345
плу	-3346
▁гим	-3347
▁2018	-3348
▁напо	-3349
▁пове	-3350
▁Пла	-3351
▁сум	-3352
▁огром	-3353
▁целом	-3354
щает	-3355
▁дополни	-3356
Население	-3357
тыми	-3358
▁Бело	-3359
вляются	-3360
▁предназначе	-3361
чём	-3362
обще	-3363
▁Сою	-3364
▁коне	-3365
▁тяжё	-3366
ющийся	-3367
▁положи	-3368
▁связыва	-3369
▁протяжении	-3370
Гео	-3371
Согласно	-3372
▁четырёх	-3373
▁современной	-3374
рыв	-3375
▁2006	-3376
▁моно	-3377
▁РФ	-3378
▁вся	-3379
▁Этот	-3380
лер	-3381
▁разде	-3382
следова	-3383
▁предполага	-3384
.2	-3385
▁n	-3386
нена	-3387
▁отвер	-3388
ционные	-3389
стры	-3390
сылки	-3391
руются	-3392
стых	-3393
▁скло	-3394
рирова	-3395
▁аэропо	-3396
▁побереж	-3397
▁законода	-3398
Фи	-3399
парта	-3400
▁духов	-3401
мно	-3402
▁2007	-3403
▁доли	-3404
▁Великой	-3405
▁граждан	-3406
гистра	-3407
▁утвержда	-3408
▁тю	-3409
держ	-3410
▁ограниче	-3411
лик	-3412
▁акт	-3413
▁языка	-3414
▁основных	-3415
▁происхождения	-3416
▁Ие	-3417
слов	-3418
тиви	-3419
▁Глав	-3420
▁пово	-3421
▁Между	-3422
▁сторон	-3423
▁характеристи	-3424
ряз	-3425
тически	-3426
ниями	-3427
▁процесс	-3428
йки	-3429
раи	-3430
тое	-3431
стен	-3432
щении	-3433
графии	-3434
▁двига	-3435
▁количества	-3436
▁ау	-3437
▁реше	-3438
▁угле	-3439
облада	-3440
▁пласти	-3441
▁двумя	-3442
▁самого	-3443
▁позволяет	-3444
сят	-3445
ждён	-3446
мель	-3447
▁дня	-3448
ложение	-3449
▁Государ	-3450
▁связано	-3451
os	-3452
воль	-3453
жным	-3454
мера	-3455
▁Оди	-3456
ждении	-3457
▁конку	-3458
▁необходимо	-3459
Га	-3460
дат	-3461
▁29	-3462
ними	-3463
▁Древ	-3464
▁ката	-3465
▁отда	-3466
▁фами	-3467
▁Земли	-3468
▁макси	-3469
▁Тем	-3470
▁семь	-3471
▁футбо	-3472
▁императора	-3473
лым	-3474
шке	-3475
цвет	-3476
▁газ	-3477
▁хозя	-3478
▁парла	-3479
▁десяти	-3480
▁исследования	-3481
чик	-3482
цент	-3483
▁каз	-3484
кульп	-3485
▁весьма	-3486
щён	-3487
рана	-3488
ссия	-3489
▁Афри	-3490
▁охра	-3491
тивные	-3492
▁Казах	-3493
Ми	-3494
пись	-3495
▁проходит	-3496
дж	-3497
хар	-3498
циа	-3499
▁2017	-3500
▁строи	-3501
▁обнару	-3502
▁съ	-3503
▁катего	-3504
▁последу	-3505
сне	-3506
▁Поэ	-3507
раста	-3508
▁рамках	-3509
▁Наиболее	-3510
няются	-3511
▁Таким	-3512
▁ще	-3513
▁жела	-3514
▁постепенно	-3515
▁прав	-3516
брь	-3517
▁оди	-3518
ральных	-3519
▁зрения	-3520
▁устрой	-3521
▁обознача	-3522
▁профессиональ	-3523
вёл	-3524
дца	-3525
лон	-3526
мый	-3527
▁III	-3528
▁сек	-3529
насти	-3530
▁подо	-3531
ционного	-3532
▁ды	-3533
▁аре	-3534
▁мог	-3535
▁эпоху	-3536
▁военно	-3537
тических	-3538
▁русский	-3539
▁литератур	-3540
re	-3541
плуа	-3542
▁Кре	-3543
▁суд	-3544
вании	-3545
▁движение	-3546
▁создания	-3547
кут	-3548
рея	-3549
годно	-3550
▁изменения	-3551
дам	-3552
тке	-3553
купа	-3554
▁рек	-3555
хозяй	-3556
▁ново	-3557
▁здание	-3558
▁Северной	-3559
▁император	-3560
▁применяется	-3561
тивно	-3562
▁украин	-3563
▁сокра	-3564
▁торгов	-3565
▁говори	-3566
пасности	-3567
▁литературе	-3568
нён	-3569
дование	-3570
▁Извест	-3571
▁впоследствии	-3572
ппо	-3573
▁60	-3574
занти	-3575
▁времена	-3576
▁довольно	-3577
ряду	-3578
лении	-3579
▁мате	-3580
▁реши	-3581
лимпий	-3582
▁держа	-3583
▁фабри	-3584
ционный	-3585
▁Москве	-3586
▁страхо	-3587
▁продолжи	-3588
▁Ци	-3589
▁умер	-3590
жности	-3591
▁описы	-3592
Ле	-3593
дио	-3594
▁Кор	-3595
▁o	-3596
бло	-3597
▁отве	-3598
▁полуо	-3599
▁решение	-3600
кана	-3601
тива	-3602
льном	-3603
звание	-3604
менные	-3605
кора	-3606
▁расти	-3607
▁самой	-3608
▁начали	-3609
От	-3610
ion	-3611
мян	-3612
▁Дру	-3613
▁ору	-3614
льными	-3615
▁друга	-3616
▁высокой	-3617
▁иностра	-3618
▁вещества	-3619
ъек	-3620
▁180	-3621
▁Яро	-3622
▁песни	-3623
▁вероят	-3624
▁исключи	-3625
▁уровень	-3626
никах	-3627
▁посёл	-3628
▁встречаются	-3629
▁деятельность	-3630
сна	-3631
▁колибри	-3632
▁дре	-3633
▁осад	-3634
▁поля	-3635
Литера	-3636
▁участие	-3637
▁приводит	-3638
▁присоеди	-3639
19	-3640
▁гото	-3641
▁река	-3642
▁потреб	-3643
▁соверше	-3644
нтов	-3645
тная	-3646
▁бри	-3647
▁оса	-3648
▁удо	-3649
▁семе	-3650
мую	-3651
рай	-3652
▁кило	-3653
фикация	-3654
▁обслужи	-3655
▁стандар	-3656
▁которому	-3657
▁получили	-3658
▁пока	-3659
▁ряда	-3660
▁причём	-3661
течественной	-3662
арь	-3663
обо	-3664
сон	-3665
мато	-3666
▁зали	-3667
Де	-3668
▁Ши	-3669
дого	-3670
жает	-3671
▁гене	-3672
▁легко	-3673
▁территория	-3674
луч	-3675
язы	-3676
▁мыш	-3677
▁2005	-3678
▁демо	-3679
▁стать	-3680
▁переме	-3681
▁знамени	-3682
Кли	-3683
▁испы	-3684
▁традиции	-3685
▁пище	-3686
▁разо	-3687
▁округа	-3688
ствовали	-3689
▁русских	-3690
▁получила	-3691
рхи	-3692
▁клю	-3693
▁реке	-3694
▁начал	-3695
▁технологи	-3696
Раз	-3697
лень	-3698
▁подраз	-3699
▁строительства	-3700
▁185	-3701
▁капита	-3702
▁превыша	-3703
мана	-3704
варти	-3705
▁поко	-3706
▁славя	-3707
▁российский	-3708
.«	-3709
ляции	-3710
▁означает	-3711
▁одновременно	-3712
▁Фа	-3713
доне	-3714
▁Афи	-3715
▁меж	-3716
▁това	-3717
фикации	-3718
рождения	-3719
ствовать	-3720
▁организова	-3721
▁сопровожда	-3722
сток	-3723
споль	-3724
▁мере	-3725
жность	-3726
▁глубо	-3727
▁могли	-3728
Од	-3729
тения	-3730
▁открыт	-3731
.#	-3732
80	-3733
сная	-3734
▁союз	-3735
▁Москвы	-3736
▁меньше	-3737
▁разнови	-3738
▁государств	-3739
жён	-3740
рных	-3741
▁184	-3742
▁аппара	-3743
▁Ад	-3744
▁потому	-3745
▁скульп	-3746
▁металли	-3747
гель	-3748
плоть	-3749
▁Арме	-3750
▁дета	-3751
▁крити	-3752
▁эпохи	-3753
▁ограни	-3754
▁основания	-3755
ed	-3756
un	-3757
сур	-3758
реги	-3759
ходы	-3760
▁опа	-3761
▁эту	-3762
ногие	-3763
▁силу	-3764
▁общей	-3765
▁первая	-3766
▁Поэтому	-3767
▁2019	-3768
▁пыта	-3769
тивный	-3770
▁одном	-3771
▁строе	-3772
▁регуляр	-3773
лиа	-3774
вшись	-3775
▁реко	-3776
тивной	-3777
▁государство	-3778
вато	-3779
дных	-3780
▁газо	-3781
ложения	-3782
▁первую	-3783
тельством	-3784
лега	-3785
лист	-3786
нович	-3787
▁особы	-3788
▁крупные	-3789
хео	-3790
ьёз	-3791
тины	-3792
Дру	-3793
гент	-3794
▁най	-3795
▁сил	-3796
имено	-3797
▁сами	-3798
▁большая	-3799
бин	-3800
йский	-3801
▁Здесь	-3802
▁психо	-3803
▁театр	-3804
12	-3805
под	-3806
лями	-3807
чению	-3808
▁Второй	-3809
jp	-3810
▁мяг	-3811
▁бого	-3812
▁версии	-3813
▁хол	-3814
Основ	-3815
ходов	-3816
▁орке	-3817
▁титу	-3818
▁окружа	-3819
▁частей	-3820
Тран	-3821
гота	-3822
▁гар	-3823
▁твёр	-3824
▁распространение	-3825
зин	-3826
лиз	-3827
чат	-3828
▁Пари	-3829
▁прежде	-3830
сия	-3831
▁точ	-3832
▁коль	-3833
тность	-3834
ционно	-3835
▁защиты	-3836
▁среднем	-3837
гро	-3838
▁Им	-3839
ерез	-3840
леку	-3841
▁Пар	-3842
▁Греции	-3843
▁эксплуа	-3844
ллю	-3845
пто	-3846
рье	-3847
няют	-3848
▁гри	-3849
возгла	-3850
возмож	-3851
▁фестива	-3852
▁растения	-3853
льную	-3854
ферен	-3855
▁бума	-3856
▁предо	-3857
▁каждый	-3858
▁философ	-3859
▁комплекс	-3860
▁составляют	-3861
▁использовать	-3862
бай	-3863
щем	-3864
▁ред	-3865
▁Суще	-3866
▁рублей	-3867
▁начинается	-3868
Та	-3869
▁ие	-3870
▁той	-3871
▁прида	-3872
▁своём	-3873
эль	-3874
ябрь	-3875
▁ито	-3876
▁юге	-3877
▁веществ	-3878
▁подтвер	-3879
зал	-3880
▁IV	-3881
▁Фе	-3882
▁ву	-3883
▁Кры	-3884
риста	-3885
▁служа	-3886
новление	-3887
▁состоянию	-3888
ch	-3889
Ки	-3890
▁ь	-3891
jpg	-3892
▁исти	-3893
▁Благо	-3894
▁имели	-3895
▁соверша	-3896
▁включает	-3897
▁современных	-3898
▁непосредственно	-3899
тное	-3900
▁лиц	-3901
▁инже	-3902
▁брита	-3903
зад	-3904
нут	-3905
сам	-3906
▁Гра	-3907
▁наук	-3908
смотре	-3909
▁вдоль	-3910
▁рядом	-3911
▁самый	-3912
ствовал	-3913
▁вариан	-3914
▁другим	-3915
тельными	-3916
▁составил	-3917
гина	-3918
ссив	-3919
филь	-3920
▁Ана	-3921
▁неред	-3922
▁Совета	-3923
нке	-3924
роз	-3925
▁ст	-3926
следствие	-3927
▁отношении	-3928
▁Отечественной	-3929
Ди	-3930
пя	-3931
▁O	-3932
▁Же	-3933
▁хро	-3934
▁пять	-3935
▁проте	-3936
▁большей	-3937
▁больших	-3938
▁русской	-3939
▁финансо	-3940
▁средневе	-3941
▁крупнейших	-3942
▁направления	-3943
влен	-3944
▁пье	-3945
▁люби	-3946
▁прош	-3947
▁главе	-3948
▁китай	-3949
Литература	-3950
▁сформирова	-3951
bs	-3952
▁яр	-3953
емое	-3954
▁Гор	-3955
▁Пав	-3956
ступает	-3957
▁собира	-3958
фицирова	-3959
▁крестья	-3960
▁систему	-3961
дже	-3962
▁оке	-3963
▁спра	-3964
▁введе	-3965
▁имеется	-3966
▁станции	-3967
бель	-3968
нуть	-3969
▁сравни	-3970
▁позднее	-3971
стройства	-3972
▁Великобритании	-3973
щены	-3974
▁крепости	-3975
▁началось	-3976
▁свидетель	-3977
▁государственный	-3978
мён	-3979
нто	-3980
визи	-3981
нему	-3982
▁Осо	-3983
▁пят	-3984
лению	-3985
▁путе	-3986
▁криста	-3987
▁обнаружи	-3988
▁Ке	-3989
▁пои	-3990
довой	-3991
начала	-3992
▁народов	-3993
▁произошло	-3994
▁философии	-3995
вия	-3996
чин	-3997
форм	-3998
▁бло	-3999
▁2004	-4000
▁объектов	-4001
▁революции	-4002
оло	-4003
ёлок	-4004
▁Лон	-4005
▁Коро	-4006
▁партии	-4007
▁первое	-4008
▁сторону	-4009
ризо	-4010
▁бит	-4011
▁очи	-4012
▁стиле	-4013
▁средств	-4014
▁отдельных	-4015
▁преоблада	-4016
ьев	-4017
били	-4018
вели	-4019
▁183	-4020
▁сын	-4021
лённые	-4022
▁терми	-4023
▁генерал	-4024
▁подписа	-4025
▁совмест	-4026
▁современного	-4027
вай	-4028
вода	-4029
пусти	-4030
▁1941	-4031
▁культуре	-4032
▁правления	-4033
▁информации	-4034
▁m	-4035
ума	-4036
▁фото	-4037
▁молит	-4038
▁события	-4039
▁возраста	-4040
▁чемпиона	-4041
60	-4042
оны	-4043
телю	-4044
надца	-4045
Ссылки	-4046
▁треть	-4047
▁концер	-4048
тической	-4049
телям	-4050
▁объём	-4051
▁действу	-4052
нил	-4053
жать	-4054
перь	-4055
щими	-4056
▁соче	-4057
▁собор	-4058
▁евреев	-4059
▁экономики	-4060
▁университет	-4061
ad	-4062
цен	-4063
щена	-4064
▁сро	-4065
▁назад	-4066
▁напря	-4067
▁опубли	-4068
▁национа	-4069
▁системе	-4070
▁Националь	-4071
▁Некоторые	-4072
3.	-4073
стями	-4074
▁особо	-4075
▁вместо	-4076
▁католи	-4077
значения	-4078
никам	-4079
▁испа	-4080
▁сеть	-4081
▁прото	-4082
▁равно	-4083
▁часов	-4084
▁поселения	-4085
▁учреждения	-4086
▁использования	-4087
кин	-4088
веро	-4089
тации	-4090
▁выну	-4091
▁принято	-4092
▁республики	-4093
▁b	-4094
сел	-4095
фон	-4096
▁отказа	-4097
▁королев	-4098
▁поддержи	-4099
▁руководи	-4100
гор	-4101
вказ	-4102
дить	-4103
▁нако	-4104
▁ними	-4105
ландии	-4106
▁экспо	-4107
▁вплоть	-4108
▁времён	-4109
▁севере	-4110
▁контине	-4111
▁поддерж	-4112
строитель	-4113
▁провозгла	-4114
вос	-4115
нца	-4116
анта	-4117
лены	-4118
▁Егип	-4119
▁тело	-4120
▁заключа	-4121
▁нередко	-4122
▁устанавли	-4123
дил	-4124
бран	-4125
▁Гри	-4126
▁баш	-4127
▁Руси	-4128
▁инду	-4129
▁сухо	-4130
▁царя	-4131
▁метро	-4132
▁сосед	-4133
▁температуры	-4134
ot	-4135
циями	-4136
▁1991	-4137
▁игры	-4138
▁загряз	-4139
,0	-4140
чено	-4141
▁сви	-4142
значи	-4143
▁пото	-4144
▁прис	-4145
▁чере	-4146
▁устойчи	-4147
▁пределах	-4148
▁получения	-4149
▁последние	-4150
▁ОО	-4151
вому	-4152
▁Япо	-4153
▁всю	-4154
▁Англии	-4155
хождение	-4156
▁материалов	-4157
дон	-4158
тным	-4159
▁теории	-4160
лео	-4161
▁обрабо	-4162
▁преобразова	-4163
▁упоминается	-4164
Эти	-4165
кет	-4166
▁31	-4167
▁70	-4168
тета	-4169
▁недо	-4170
▁нефте	-4171
▁серебря	-4172
▁элементов	-4173
▁соответственно	-4174
ТВ	-4175
хам	-4176
метри	-4177
▁края	-4178
▁лица	-4179
▁пусты	-4180
▁семей	-4181
▁местах	-4182
▁границы	-4183
▁районах	-4184
▁организация	-4185
▁япо	-4186
▁мифо	-4187
▁трам	-4188
▁веках	-4189
▁школа	-4190
▁народа	-4191
▁подготов	-4192
КО	-4193
пру	-4194
тую	-4195
▁Ком	-4196
метра	-4197
▁гипо	-4198
▁завое	-4199
мология	-4200
▁состава	-4201
▁временем	-4202
▁тай	-4203
запад	-4204
▁замет	-4205
▁подви	-4206
ческому	-4207
▁различа	-4208
▁действует	-4209
▁состоянии	-4210
страи	-4211
▁мага	-4212
▁чита	-4213
▁конкре	-4214
▁наказа	-4215
▁театра	-4216
▁мусульман	-4217
они	-4218
жида	-4219
▁1918	-4220
▁бело	-4221
▁математи	-4222
▁середины	-4223
▁государственной	-4224
нено	-4225
▁Эта	-4226
▁наде	-4227
знания	-4228
провод	-4229
▁случаев	-4230
▁основной	-4231
зан	-4232
зме	-4233
сив	-4234
▁осе	-4235
Климат	-4236
▁стары	-4237
▁умере	-4238
▁половины	-4239
скре	-4240
▁выя	-4241
ровки	-4242
ностей	-4243
▁насле	-4244
▁утопи	-4245
▁форми	-4246
ксирова	-4247
▁губернии	-4248
▁компания	-4249
бан	-4250
▁Ль	-4251
▁парк	-4252
ствием	-4253
▁ресур	-4254
▁успеш	-4255
▁холод	-4256
примеча	-4257
▁отрица	-4258
ступления	-4259
▁постоянно	-4260
зне	-4261
▁фра	-4262
ходил	-4263
▁жидко	-4264
тивного	-4265
▁магистра	-4266
▁возникнове	-4267
25	-4268
мед	-4269
вляют	-4270
▁редко	-4271
зование	-4272
▁общего	-4273
тические	-4274
XV	-4275
жное	-4276
лика	-4277
поста	-4278
▁дело	-4279
▁ника	-4280
▁суда	-4281
▁чисто	-4282
▁смысле	-4283
▁приходится	-4284
▁осуществляется	-4285
сми	-4286
Обра	-4287
кови	-4288
рией	-4289
▁бар	-4290
▁ими	-4291
нисти	-4292
▁зелё	-4293
▁крем	-4294
▁класса	-4295
новления	-4296
▁военных	-4297
▁внимание	-4298
▁русского	-4299
пен	-4300
вале	-4301
вестен	-4302
▁герои	-4303
▁леген	-4304
▁потре	-4305
шинство	-4306
▁Аб	-4307
вило	-4308
лово	-4309
шему	-4310
щихся	-4311
тивное	-4312
▁писал	-4313
▁такого	-4314
▁основан	-4315
▁протека	-4316
▁отличается	-4317
гия	-4318
льт	-4319
Боль	-4320
▁Ино	-4321
▁Кита	-4322
▁воздуш	-4323
▁еписко	-4324
▁серьёз	-4325
2,	-4326
70	-4327
▁35	-4328
стую	-4329
▁сор	-4330
туаль	-4331
▁домов	-4332
▁новой	-4333
▁солне	-4334
▁железной	-4335
▁сравнению	-4336
эн	-4337
пом	-4338
▁Ом	-4339
▁ия	-4340
▁кост	-4341
▁именем	-4342
▁районов	-4343
▁элемента	-4344
коло	-4345
▁тём	-4346
▁приз	-4347
▁случай	-4348
▁континента	-4349
▁разнообраз	-4350
▁Пло	-4351
произ	-4352
стами	-4353
▁ассо	-4354
▁удоб	-4355
метров	-4356
▁синте	-4357
▁зданий	-4358
▁уровне	-4359
▁Республи	-4360
▁ата	-4361
▁буд	-4362
▁поте	-4363
▁сына	-4364
▁сразу	-4365
▁судеб	-4366
▁большую	-4367
Бе	-4368
эта	-4369
▁сосу	-4370
готавли	-4371
▁управля	-4372
▁столицей	-4373
▁транспорта	-4374
роб	-4375
▁конф	-4376
жается	-4377
катери	-4378
▁войне	-4379
▁земле	-4380
▁область	-4381
▁шпа	-4382
▁абсо	-4383
▁одну	-4384
▁птиц	-4385
▁владе	-4386
▁решения	-4387
▁дальнейшем	-4388
▁представителей	-4389
нат	-4390
лета	-4391
цкий	-4392
▁азо	-4393
▁гли	-4394
▁газа	-4395
ментом	-4396
▁работу	-4397
▁правительство	-4398
Би	-4399
ент	-4400
рис	-4401
▁бур	-4402
▁Апол	-4403
▁форм	-4404
▁юриди	-4405
▁алкого	-4406
▁доступ	-4407
▁самолё	-4408
▁пригото	-4409
регистрирова	-4410
▁правительства	-4411
пля	-4412
нику	-4413
▁ого	-4414
доров	-4415
кость	-4416
▁сети	-4417
▁стади	-4418
ральная	-4419
▁должна	-4420
▁Западной	-4421
▁применение	-4422
эй	-4423
▁Рас	-4424
▁напи	-4425
▁архео	-4426
▁органов	-4427
тел	-4428
шан	-4429
▁жё	-4430
▁ов	-4431
турой	-4432
▁паль	-4433
▁цели	-4434
▁позволи	-4435
▁показыва	-4436
лию	-4437
▁Чу	-4438
▁чет	-4439
листи	-4440
▁вино	-4441
ванием	-4442
▁иметь	-4443
▁преда	-4444
▁a	-4445
стар	-4446
▁Сте	-4447
▁тен	-4448
▁поки	-4449
▁утра	-4450
Экономи	-4451
▁обусло	-4452
▁функции	-4453
▁экспери	-4454
▁региональ	-4455
ложен	-4456
▁процессе	-4457
▁существуют	-4458
пии	-4459
▁оки	-4460
▁повы	-4461
лённых	-4462
▁книги	-4463
▁масшта	-4464
ter	-4465
Пре	-4466
зой	-4467
▁убе	-4468
ведён	-4469
▁имел	-4470
▁пост	-4471
▁беско	-4472
▁Верхов	-4473
▁артилле	-4474
▁комбина	-4475
▁сегодня	-4476
▁крепость	-4477
феры	-4478
▁эфи	-4479
▁раза	-4480
нейших	-4481
жена	-4482
▁Тер	-4483
▁сня	-4484
ницей	-4485
▁ство	-4486
▁водой	-4487
▁самоу	-4488
▁концеп	-4489
▁службы	-4490
▁Владимир	-4491
ъя	-4492
Ста	-4493
стый	-4494
лизма	-4495
▁Кана	-4496
▁клад	-4497
▁коме	-4498
▁кора	-4499
▁Петер	-4500
▁Австра	-4501
▁географи	-4502
▁предлага	-4503
▁»	-4504
рас	-4505
▁500	-4506
▁круг	-4507
ровать	-4508
▁рекон	-4509
▁остров	-4510
▁династи	-4511
Ба	-4512
▁2-	-4513
веси	-4514
▁жили	-4515
▁астро	-4516
▁мастер	-4517
▁невозмож	-4518
▁большинстве	-4519
сное	-4520
▁Дми	-4521
▁стои	-4522
льский	-4523
▁секре	-4524
▁длиной	-4525
▁войсками	-4526
▁полуостро	-4527
▁провинции	-4528
лта	-4529
сид	-4530
▁всем	-4531
▁тонн	-4532
▁Когда	-4533
▁улицы	-4534
▁переписи	-4535
▁появился	-4536
▁восстановле	-4537
▁университета	-4538
▁РС	-4539
▁щи	-4540
щено	-4541
▁арми	-4542
▁учили	-4543
▁декора	-4544
▁полага	-4545
▁спорта	-4546
▁имеются	-4547
▁паралле	-4548
▁использование	-4549
ul	-4550
ъём	-4551
▁Ниж	-4552
▁зве	-4553
▁реб	-4554
бычно	-4555
▁судь	-4556
ступил	-4557
▁Союза	-4558
▁процесса	-4559
▁взаимодей	-4560
bsp	-4561
▁зу	-4562
нями	-4563
▁2001	-4564
▁Иеруса	-4565
▁женщин	-4566
▁пользу	-4567
▁территорию	-4568
Рас	-4569
мами	-4570
▁век	-4571
жению	-4572
▁доказа	-4573
▁режисс	-4574
▁наиболь	-4575
▁действий	-4576
▁содержание	-4577
ri	-4578
льд	-4579
сля	-4580
▁Жи	-4581
рота	-4582
ющем	-4583
▁зер	-4584
менный	-4585
▁сверх	-4586
▁напомина	-4587
нье	-4588
твор	-4589
чена	-4590
▁179	-4591
ваний	-4592
▁брон	-4593
дности	-4594
лённый	-4595
рабаты	-4596
▁наличи	-4597
▁центральной	-4598
▁зарегистрирова	-4599
▁Дне	-4600
торая	-4601
▁проз	-4602
вающих	-4603
логических	-4604
гей	-4605
▁Ры	-4606
▁XIV	-4607
льник	-4608
▁приё	-4609
▁судо	-4610
ённого	-4611
▁концу	-4612
▁самом	-4613
▁аналоги	-4614
▁большим	-4615
▁максима	-4616
▁острове	-4617
▁ху	-4618
▁сос	-4619
▁Ново	-4620
▁коре	-4621
▁путеше	-4622
15	-4623
18	-4624
влено	-4625
▁возгла	-4626
▁понятие	-4627
▁исключительно	-4628
рья	-4629
чет	-4630
вере	-4631
охра	-4632
▁фер	-4633
циони	-4634
▁исче	-4635
руссии	-4636
▁римля	-4637
▁создан	-4638
▁городских	-4639
▁возможности	-4640
рее	-4641
стье	-4642
теат	-4643
ложил	-4644
▁армя	-4645
▁воин	-4646
▁колле	-4647
ального	-4648
рования	-4649
▁русском	-4650
▁известны	-4651
▁численность	-4652
▁араб	-4653
▁долла	-4654
▁вообще	-4655
▁городу	-4656
▁площад	-4657
▁систем	-4658
▁порядка	-4659
▁содержит	-4660
нях	-4661
отя	-4662
▁Сы	-4663
лизм	-4664
прав	-4665
рные	-4666
▁клуб	-4667
▁соба	-4668
▁лагер	-4669
▁своими	-4670
▁обыкнове	-4671
зок	-4672
тник	-4673
▁листь	-4674
фраструк	-4675
▁Екатери	-4676
▁зависит	-4677
▁посёлок	-4678
▁называли	-4679
▁известных	-4680
сал	-4681
свя	-4682
фак	-4683
nbsp	-4684
спек	-4685
стая	-4686
▁зри	-4687
▁Ряза	-4688
▁опти	-4689
▁труб	-4690
▁брига	-4691
▁проведе	-4692
▁удалось	-4693
▁программы	-4694
▁особенности	-4695
▁Бал	-4696
▁сих	-4697
▁тип	-4698
▁пита	-4699
▁топо	-4700
▁горизо	-4701
▁районы	-4702
▁субъек	-4703
▁история	-4704
▁привело	-4705
▁отношению	-4706
дови	-4707
▁300	-4708
▁Сиби	-4709
▁попа	-4710
▁роли	-4711
▁чрез	-4712
▁вариа	-4713
▁имуще	-4714
▁молеку	-4715
▁активно	-4716
▁историю	-4717
▁уровнем	-4718
▁установи	-4719
▁Международ	-4720
▁Мини	-4721
▁веща	-4722
▁улуч	-4723
▁подра	-4724
▁сложи	-4725
▁входят	-4726
▁центров	-4727
▁индивиду	-4728
▁вследствие	-4729
▁Шами	-4730
▁обши	-4731
роприя	-4732
ходить	-4733
▁говоря	-4734
▁неодно	-4735
▁депутатов	-4736
▁применения	-4737
зю	-4738
вол	-4739
нья	-4740
днев	-4741
▁Кур	-4742
Совре	-4743
полне	-4744
▁Исто	-4745
▁опер	-4746
▁тяже	-4747
▁состояние	-4748
эф	-4749
шек	-4750
—18	-4751
▁кг	-4752
лона	-4753
▁бер	-4754
▁дири	-4755
▁симфо	-4756
▁повыше	-4757
▁материала	-4758
йн	-4759
кле	-4760
ллы	-4761
▁звё	-4762
▁упа	-4763
рович	-4764
▁види	-4765
шается	-4766
▁равни	-4767
▁осадков	-4768
▁подверга	-4769
.19	-4770
фро	-4771
спод	-4772
▁Цер	-4773
▁1990-	-4774
▁Ленин	-4775
▁ежегодно	-4776
▁элементы	-4777
▁семейства	-4778
▁располагается	-4779
еха	-4780
кну	-4781
▁боя	-4782
▁сан	-4783
▁фир	-4784
▁член	-4785
кового	-4786
▁потен	-4787
хранили	-4788
▁изобре	-4789
шет	-4790
веща	-4791
▁сем	-4792
▁связь	-4793
▁Восточной	-4794
▁продукции	-4795
▁организаций	-4796
ницу	-4797
▁хле	-4798
нское	-4799
▁Киев	-4800
тности	-4801
▁дворя	-4802
▁ткани	-4803
▁сейчас	-4804
▁искусстве	-4805
▁хозяйства	-4806
▁Бар	-4807
▁Цице	-4808
▁игро	-4809
▁пала	-4810
▁летом	-4811
▁фильм	-4812
▁земель	-4813
▁рабочих	-4814
▁существу	-4815
дре	-4816
зре	-4817
нде	-4818
чку	-4819
кому	-4820
мого	-4821
▁храм	-4822
▁интен	-4823
▁сорев	-4824
▁городах	-4825
▁застрой	-4826
▁разработа	-4827
▁Александра	-4828
ra	-4829
бурга	-4830
водят	-4831
новки	-4832
прави	-4833
▁реже	-4834
▁какой	-4835
▁вопрос	-4836
▁пассажир	-4837
11	-4838
шё	-4839
цеп	-4840
лита	-4841
▁зоны	-4842
▁лицо	-4843
▁домаш	-4844
▁науки	-4845
▁Именно	-4846
▁действие	-4847
ЭС	-4848
тку	-4849
Куль	-4850
жном	-4851
▁Лит	-4852
вшаяся	-4853
▁оружия	-4854
▁противополо	-4855
Ком	-4856
▁идёт	-4857
▁погиб	-4858
▁разные	-4859
циалисти	-4860
▁соединения	-4861
▁составляла	-4862
мур	-4863
цар	-4864
ласси	-4865
▁любо	-4866
▁альбо	-4867
▁отверсти	-4868
▁расположена	-4869
цем	-4870
▁90	-4871
▁Их	-4872
редо	-4873
▁нам	-4874
▁эко	-4875
▁Послед	-4876
▁архитектур	-4877
зор	-4878
▁80	-4879
дные	-4880
лыми	-4881
реза	-4882
сова	-4883
ссов	-4884
▁178	-4885
▁сда	-4886
▁удар	-4887
пления	-4888
▁Израи	-4889
▁измени	-4890
▁уголов	-4891
сю	-4892
пой	-4893
тью	-4894
шев	-4895
ливо	-4896
част	-4897
▁завода	-4898
▁членов	-4899
▁назначе	-4900
▁торговли	-4901
рат	-4902
▁неда	-4903
▁свыше	-4904
▁Калигу	-4905
▁искусство	-4906
▁президент	-4907
▁заболевания	-4908
▁представления	-4909
мое	-4910
▁Смо	-4911
▁1917	-4912
▁руки	-4913
▁вынужде	-4914
▁главных	-4915
▁сначала	-4916
▁энергии	-4917
▁f	-4918
ent	-4919
ing	-4920
ФСР	-4921
вери	-4922
няли	-4923
▁куп	-4924
▁Твер	-4925
▁нему	-4926
лизова	-4927
▁Брита	-4928
▁кварта	-4929
▁проект	-4930
▁известно	-4931
▁северной	-4932
▁телекана	-4933
▁следующие	-4934
Пра	-4935
луб	-4936
цах	-4937
▁45	-4938
даго	-4939
▁Мор	-4940
▁апо	-4941
▁дорог	-4942
▁малень	-4943
▁препара	-4944
▁мероприя	-4945
▁изображения	-4946
▁l	-4947
ссу	-4948
пира	-4949
▁Виль	-4950
▁деле	-4951
▁гости	-4952
▁заста	-4953
▁повре	-4954
▁сведения	-4955
вто	-4956
▁Ху	-4957
ходе	-4958
Также	-4959
нском	-4960
▁проб	-4961
▁угро	-4962
▁карто	-4963
▁данных	-4964
▁музыки	-4965
▁работе	-4966
▁момента	-4967
тического	-4968
▁писатель	-4969
▁профессо	-4970
▁известный	-4971
▁мон	-4972
▁Петра	-4973
▁крови	-4974
тельном	-4975
скохозяй	-4976
▁местного	-4977
▁памятник	-4978
▁архитектуры	-4979
дё	-4980
Как	-4981
Пред	-4982
бами	-4983
ллей	-4984
▁2002	-4985
кратно	-4986
▁прито	-4987
▁остаётся	-4988
▁инструмента	-4989
and	-4990
рти	-4991
дный	-4992
стки	-4993
тение	-4994
▁2003	-4995
▁мото	-4996
▁стари	-4997
▁компью	-4998
ственном	-4999
▁разруше	-5000
▁институт	-5001
▁качества	-5002
▁конститу	-5003
▁частично	-5004
▁численности	-5005
▁произведений	-5006
риф	-5007
дыха	-5008
▁книге	-5009
водство	-5010
▁жители	-5011
▁известен	-5012
Этимология	-5013
▁находился	-5014
▁безопасности	-5015
ut	-5016
поле	-5017
сным	-5018
▁Авгу	-5019
▁доме	-5020
▁РСФСР	-5021
▁выход	-5022
▁массы	-5023
▁рассказыва	-5024
▁32	-5025
лежа	-5026
тает	-5027
▁гусе	-5028
▁охва	-5029
▁след	-5030
▁взгля	-5031
▁выска	-5032
▁оболо	-5033
▁средней	-5034
Экономика	-5035
▁документа	-5036
▁появляется	-5037
▁of	-5038
▁Фё	-5039
▁Кам	-5040
▁Нов	-5041
▁зад	-5042
торое	-5043
▁путь	-5044
▁топли	-5045
▁принял	-5046
ственную	-5047
▁понятия	-5048
ственности	-5049
id	-5050
вшими	-5051
▁коммер	-5052
▁древних	-5053
▁наличие	-5054
▁рекомен	-5055
▁обладает	-5056
▁председа	-5057
14	-5058
im	-5059
линд	-5060
шает	-5061
▁крайне	-5062
▁основные	-5063
▁телевиде	-5064
▁изготавли	-5065
▁основании	-5066
бах	-5067
Суще	-5068
рыва	-5069
▁Том	-5070
цкого	-5071
▁тоже	-5072
▁шири	-5073
ллейбу	-5074
▁услуг	-5075
тическая	-5076
▁большинства	-5077
▁многочисленные	-5078
Ти	-5079
сии	-5080
бели	-5081
граф	-5082
дона	-5083
▁Дан	-5084
▁полё	-5085
▁ряде	-5086
ющаяся	-5087
▁агент	-5088
манской	-5089
▁проведения	-5090
▁учреждений	-5091
▁европейских	-5092
Кон	-5093
дых	-5094
зий	-5095
груз	-5096
това	-5097
▁182	-5098
▁Эль	-5099
▁XIII	-5100
▁рубе	-5101
▁Затем	-5102
▁краси	-5103
▁найде	-5104
▁света	-5105
рование	-5106
ствовало	-5107
▁местности	-5108
Ар	-5109
Пи	-5110
чил	-5111
коль	-5112
▁Ген	-5113
техни	-5114
▁Стра	-5115
женный	-5116
▁война	-5117
▁серии	-5118
падения	-5119
▁плоско	-5120
▁посред	-5121
География	-5122
▁распреде	-5123
бал	-5124
дан	-5125
лег	-5126
нёс	-5127
▁ВВ	-5128
ньше	-5129
▁бле	-5130
▁вес	-5131
элект	-5132
▁лоша	-5133
▁окрест	-5134
▁своему	-5135
▁бесконе	-5136
пят	-5137
чён	-5138
▁Хи	-5139
ноше	-5140
▁нер	-5141
влены	-5142
▁горы	-5143
▁даёт	-5144
▁порт	-5145
▁сюжет	-5146
▁наслед	-5147
▁назнача	-5148
▁среднего	-5149
▁должность	-5150
▁водохранили	-5151
XI	-5152
града	-5153
когда	-5154
▁Нидер	-5155
▁Южной	-5156
▁разби	-5157
водятся	-5158
ральным	-5159
▁монеты	-5160
▁словам	-5161
▁военной	-5162
▁термина	-5163
▁несмотря	-5164
▁официально	-5165
▁сельскохозяй	-5166
▁государственных	-5167
кля	-5168
лга	-5169
▁1-	-5170
▁Зе	-5171
зами	-5172
▁Вар	-5173
▁гне	-5174
стане	-5175
▁Верх	-5176
▁каль	-5177
▁снова	-5178
▁Иногда	-5179
▁сопроти	-5180
▁стороне	-5181
▁направлении	-5182
17	-5183
бен	-5184
емым	-5185
рома	-5186
шком	-5187
▁дис	-5188
нести	-5189
ровка	-5190
товых	-5191
▁далее	-5192
▁монет	-5193
▁нарко	-5194
▁непре	-5195
▁должно	-5196
▁наряду	-5197
▁тысячи	-5198
▁большие	-5199
▁привлека	-5200
нял	-5201
▁тё	-5202
▁бор	-5203
▁зим	-5204
рация	-5205
чений	-5206
▁Даль	-5207
▁жёст	-5208
▁леса	-5209
▁собо	-5210
▁слабо	-5211
▁органы	-5212
▁основы	-5213
▁теперь	-5214
▁Армении	-5215
▁верхней	-5216
▁условий	-5217
▁получить	-5218
▁работает	-5219
35	-5220
уго	-5221
хла	-5222
вока	-5223
гора	-5224
жено	-5225
лено	-5226
товой	-5227
тивная	-5228
▁транс	-5229
▁потеря	-5230
▁определяется	-5231
айл	-5232
▁оли	-5233
▁глуби	-5234
▁старо	-5235
▁такое	-5236
▁машино	-5237
▁сообще	-5238
▁крупный	-5239
▁представители	-5240
iv	-5241
Бу	-5242
вий	-5243
збе	-5244
лаг	-5245
ента	-5246
▁150	-5247
грани	-5248
▁трудо	-5249
▁академи	-5250
▁русские	-5251
▁столицы	-5252
▁основным	-5253
жан	-5254
жем	-5255
▁Гон	-5256
▁Лат	-5257
нициа	-5258
пания	-5259
▁Риме	-5260
▁месяцев	-5261
▁Великого	-5262
▁существования	-5263
лиру	-5264
▁Сау	-5265
тными	-5266
▁Анти	-5267
▁любов	-5268
▁резко	-5269
▁труда	-5270
▁пережи	-5271
▁миллионов	-5272
▁управление	-5273
ян	-5274
лло	-5275
сея	-5276
▁зам	-5277
▁ощу	-5278
▁1990	-5279
▁срок	-5280
▁верши	-5281
▁кризи	-5282
▁среды	-5283
▁начинает	-5284
▁носители	-5285
Сред	-5286
поля	-5287
чины	-5288
▁пого	-5289
▁рису	-5290
вшейся	-5291
▁грузо	-5292
▁масте	-5293
▁стены	-5294
▁шести	-5295
▁эпизо	-5296
▁вскоре	-5297
▁номина	-5298
▁каждого	-5299
▁начиная	-5300
▁отдельные	-5301
▁представляют	-5302
ремо	-5303
вокуп	-5304
совой	-5305
▁дели	-5306
▁кафе	-5307
▁ядер	-5308
▁Верги	-5309
▁будут	-5310
▁магни	-5311
▁судов	-5312
ральные	-5313
▁одноим	-5314
▁событий	-5315
▁наблюдается	-5316
Ва	-5317
уна	-5318
▁XII	-5319
бурге	-5320
▁газе	-5321
жённых	-5322
▁конта	-5323
▁фильма	-5324
▁изделий	-5325
▁принадлежит	-5326
»;	-5327
ёв	-5328
дили	-5329
▁Мер	-5330
мигра	-5331
▁Анто	-5332
▁воде	-5333
Извест	-5334
альной	-5335
фициаль	-5336
▁языках	-5337
▁местных	-5338
▁большого	-5339
▁началась	-5340
▁образует	-5341
▁описание	-5342
▁использовались	-5343
ос	-5344
сни	-5345
тла	-5346
▁Име	-5347
казом	-5348
чиков	-5349
▁мозже	-5350
▁говорит	-5351
▁перевоз	-5352
▁небольшо	-5353
▁продуктов	-5354
рик	-5355
▁36	-5356
мани	-5357
▁Вен	-5358
▁жид	-5359
▁ске	-5360
воохра	-5361
▁масса	-5362
▁спорт	-5363
станции	-5364
▁динами	-5365
▁страда	-5366
▁болезни	-5367
▁предпринима	-5368
▁общественного	-5369
жную	-5370
мыми	-5371
энер	-5372
▁зло	-5373
▁Индии	-5374
▁Китая	-5375
▁солдат	-5376
▁тракта	-5377
▁планеты	-5378
▁символи	-5379
вропейской	-5380
▁появилась	-5381
дея	-5382
фера	-5383
▁Ман	-5384
▁Иван	-5385
▁воен	-5386
▁лежа	-5387
▁1960-	-5388
▁гимна	-5389
▁повто	-5390
▁Многие	-5391
▁неизвест	-5392
▁поддержа	-5393
▁достигает	-5394
▁внутренних	-5395
op	-5396
—20	-5397
дной	-5398
▁177	-5399
▁Ара	-5400
▁ОАО	-5401
ковая	-5402
стной	-5403
▁Архи	-5404
▁меня	-5405
ходила	-5406
▁демон	-5407
▁стихо	-5408
▁сфере	-5409
▁разделе	-5410
▁компаний	-5411
▁монастыря	-5412
▁существенно	-5413
бар	-5414
вига	-5415
рика	-5416
▁Шот	-5417
ирова	-5418
товые	-5419
▁избе	-5420
▁ислам	-5421
▁нефти	-5422
вшегося	-5423
дравоохра	-5424
▁инфраструк	-5425
3,	-5426
чев	-5427
гона	-5428
▁Чёр	-5429
▁Юго	-5430
▁1992	-5431
▁школ	-5432
▁делает	-5433
▁Испании	-5434
▁переход	-5435
▁правитель	-5436
▁политической	-5437
гры	-5438
сев	-5439
сем	-5440
▁жёл	-5441
▁фар	-5442
▁кожи	-5443
▁узна	-5444
▁групп	-5445
ционная	-5446
▁выращи	-5447
▁каждой	-5448
▁красно	-5449
▁отвеча	-5450
▁определи	-5451
▁конструкции	-5452
▁руководством	-5453
▁независимости	-5454
ила	-5455
вятся	-5456
▁пери	-5457
вающие	-5458
▁любой	-5459
▁марте	-5460
▁округ	-5461
▁увиде	-5462
льского	-5463
▁список	-5464
▁известные	-5465
▁построена	-5466
▁источников	-5467
▁происхождение	-5468
▁отря	-5469
влению	-5470
ленной	-5471
менная	-5472
▁вызва	-5473
▁плани	-5474
▁теоре	-5475
▁Обычно	-5476
▁предше	-5477
▁Нидерлан	-5478
▁возрасте	-5479
▁горизонта	-5480
▁побережье	-5481
16	-5482
ec	-5483
ёра	-5484
лера	-5485
▁Мек	-5486
▁Фри	-5487
сения	-5488
▁каса	-5489
▁кипу	-5490
▁пору	-5491
▁рост	-5492
альных	-5493
▁препо	-5494
▁закреп	-5495
▁письме	-5496
тический	-5497
▁Белоруссии	-5498
▁поверхность	-5499
▁распространё	-5500
чне	-5501
▁Ше	-5502
тани	-5503
шить	-5504
▁Сто	-5505
▁бук	-5506
новых	-5507
▁обви	-5508
▁данные	-5509
▁консер	-5510
▁партия	-5511
▁проводится	-5512
▁устройство	-5513
Тер	-5514
▁Шу	-5515
вшую	-5516
▁Вме	-5517
вился	-5518
▁свяще	-5519
▁Первой	-5520
▁Помимо	-5521
▁страте	-5522
▁Святого	-5523
▁считать	-5524
Транспорт	-5525
ственными	-5526
38	-5527
гена	-5528
чить	-5529
▁мае	-5530
кости	-5531
▁дочь	-5532
▁трав	-5533
редото	-5534
▁крово	-5535
▁москов	-5536
▁сделать	-5537
▁считают	-5538
▁троллейбу	-5539
Ад	-5540
Воз	-5541
рил	-5542
чит	-5543
▁иу	-5544
Файл	-5545
▁Тре	-5546
▁Вене	-5547
▁деву	-5548
▁мече	-5549
▁реда	-5550
▁Через	-5551
▁герцо	-5552
▁еврей	-5553
▁научно	-5554
▁другого	-5555
▁передачи	-5556
▁проблемы	-5557
▁российских	-5558
жки	-5559
▁слов	-5560
работа	-5561
торами	-5562
щаются	-5563
▁Макси	-5564
▁проро	-5565
▁борьбы	-5566
▁короля	-5567
▁кустар	-5568
▁минера	-5569
▁Америки	-5570
▁условия	-5571
▁составила	-5572
зон	-5573
мона	-5574
ванию	-5575
▁доче	-5576
▁педаго	-5577
чивается	-5578
▁древнегре	-5579
▁способность	-5580
1.	-5581
ag	-5582
вами	-5583
дора	-5584
ради	-5585
стым	-5586
▁крае	-5587
▁лесо	-5588
▁план	-5589
▁дерева	-5590
Название	-5591
▁скорость	-5592
▁построены	-5593
▁существование	-5594
:«	-5595
ig	-5596
йка	-5597
тео	-5598
▁Фу	-5599
чков	-5600
▁рыб	-5601
образи	-5602
▁Народ	-5603
▁озера	-5604
▁Японии	-5605
▁культура	-5606
▁получают	-5607
▁иностранных	-5608
▁Фо	-5609
Пере	-5610
блей	-5611
▁Зна	-5612
ностях	-5613
▁выбра	-5614
▁другом	-5615
▁инициа	-5616
▁абсолют	-5617
▁станция	-5618
▁устройства	-5619
чок	-5620
▁Ура	-5621
вычай	-5622
дение	-5623
терна	-5624
страда	-5625
▁жизне	-5626
▁Олимпий	-5627
▁разделя	-5628
▁представлены	-5629
4.	-5630
сил	-5631
горо	-5632
хими	-5633
щают	-5634
▁бата	-5635
▁наме	-5636
▁небе	-5637
▁князя	-5638
▁траге	-5639
▁западе	-5640
▁астроно	-5641
▁декабре	-5642
▁техники	-5643
▁промышленность	-5644
ir	-5645
Ни	-5646
все	-5647
или	-5648
▁ом	-5649
ждая	-5650
змом	-5651
рной	-5652
▁шах	-5653
Кроме	-5654
▁1920	-5655
▁снаб	-5656
▁Китае	-5657
▁Дмитри	-5658
▁насеко	-5659
▁основу	-5660
▁цивили	-5661
▁проходят	-5662
▁реконструк	-5663
дие	-5664
лерея	-5665
▁зимой	-5666
▁насто	-5667
▁посла	-5668
▁вертика	-5669
▁совокуп	-5670
▁операции	-5671
▁работают	-5672
▁литературы	-5673
стям	-5674
▁ато	-5675
▁пан	-5676
влена	-5677
ённой	-5678
▁доля	-5679
льской	-5680
▁модер	-5681
▁оцени	-5682
▁уника	-5683
деления	-5684
▁звание	-5685
▁служит	-5686
▁главный	-5687
▁поднима	-5688
▁определения	-5689
▁окончательно	-5690
вах	-5691
лип	-5692
мьер	-5693
нским	-5694
▁вода	-5695
▁саха	-5696
▁графи	-5697
нования	-5698
▁Большо	-5699
▁местом	-5700
▁четвер	-5701
▁никогда	-5702
▁полномо	-5703
▁природе	-5704
▁общество	-5705
▁отношение	-5706
фов	-5707
чке	-5708
▁Ско	-5709
▁втор	-5710
рупней	-5711
ченных	-5712
востоке	-5713
▁договор	-5714
▁отсутствие	-5715
13	-5716
Хо	-5717
ново	-5718
рить	-5719
▁Отта	-5720
▁стоит	-5721
▁магази	-5722
▁партий	-5723
▁высотой	-5724
логические	-5725
▁состояния	-5726
Ге	-5727
Ги	-5728
зже	-5729
зоб	-5730
рож	-5731
делы	-5732
енти	-5733
льзя	-5734
▁Пор	-5735
лакти	-5736
▁Геор	-5737
▁базе	-5738
▁расс	-5739
▁проме	-5740
▁Сибири	-5741
▁Ставро	-5742
▁помощь	-5743
ствовала	-5744
▁августе	-5745
▁изделия	-5746
▁участок	-5747
▁получает	-5748
▁развитию	-5749
▁создание	-5750
▁поселение	-5751
▁международных	-5752
дел	-5753
▁Мин	-5754
уголь	-5755
ходом	-5756
▁1919	-5757
▁Бого	-5758
▁Поло	-5759
▁1930-	-5760
▁ребён	-5761
▁Всемир	-5762
▁востоке	-5763
▁являлся	-5764
▁Несмотря	-5765
▁небольшой	-5766
▁фактически	-5767
▁изготовления	-5768
45	-5769
нета	-5770
▁Бен	-5771
▁вои	-5772
стные	-5773
▁Рима	-5774
▁боло	-5775
▁девя	-5776
▁преж	-5777
▁скры	-5778
▁этни	-5779
▁стаби	-5780
▁Северо	-5781
▁стреми	-5782
ничества	-5783
▁вариант	-5784
▁природы	-5785
▁элемент	-5786
▁автомати	-5787
▁связанные	-5788
▁политических	-5789
зья	-5790
рпи	-5791
казу	-5792
манд	-5793
▁НТВ	-5794
▁беспо	-5795
▁выбор	-5796
▁герой	-5797
▁клима	-5798
▁награ	-5799
▁дорога	-5800
▁общины	-5801
▁старей	-5802
▁следова	-5803
▁фамилии	-5804
▁вероятно	-5805
▁долларов	-5806
▁самоупра	-5807
▁категории	-5808
▁использовали	-5809
бля	-5810
дит	-5811
▁мэ	-5812
▁Тру	-5813
▁фро	-5814
стрии	-5815
▁Один	-5816
▁боже	-5817
▁зача	-5818
▁лета	-5819
▁обре	-5820
▁сове	-5821
▁ликви	-5822
▁пишет	-5823
▁покро	-5824
▁дирижа	-5825
▁колони	-5826
▁сентябре	-5827
бби	-5828
▁Зи	-5829
гает	-5830
спол	-5831
▁170	-5832
▁дни	-5833
▁опу	-5834
новой	-5835
ствий	-5836
тисти	-5837
▁1000	-5838
▁желу	-5839
▁заим	-5840
▁Перво	-5841
▁самые	-5842
▁эффектив	-5843
Ла	-5844
йо	-5845
гое	-5846
пия	-5847
цифи	-5848
▁Рей	-5849
▁Тибе	-5850
▁живу	-5851
▁тира	-5852
▁немного	-5853
od	-5854
сою	-5855
чика	-5856
▁Ещё	-5857
▁Кан	-5858
▁блю	-5859
▁дио	-5860
ктябрь	-5861
▁изуча	-5862
▁патри	-5863
▁усили	-5864
▁Одиссе	-5865
▁январе	-5866
Ор	-5867
мас	-5868
нул	-5869
▁яй	-5870
ната	-5871
цина	-5872
щина	-5873
▁оши	-5874
▁схо	-5875
▁боги	-5876
▁слой	-5877
дность	-5878
россий	-5879
▁земля	-5880
▁сыгра	-5881
▁шипов	-5882
▁граница	-5883
▁инженер	-5884
▁действуют	-5885
▁противоре	-5886
▁сосредото	-5887
ТО	-5888
бок	-5889
реб	-5890
▁Её	-5891
▁Гру	-5892
▁1945	-5893
▁Трои	-5894
▁доби	-5895
▁замо	-5896
▁зоне	-5897
строен	-5898
щением	-5899
▁конкур	-5900
▁контра	-5901
▁Римской	-5902
▁биологи	-5903
▁предложе	-5904
▁сооружения	-5905
90	-5906
ндо	-5907
сме	-5908
шко	-5909
▁Дю	-5910
▁Ган	-5911
личия	-5912
части	-5913
▁1999	-5914
▁Алла	-5915
▁двой	-5916
▁выста	-5917
▁длина	-5918
▁увели	-5919
▁герман	-5920
▁второго	-5921
▁отношений	-5922
бка	-5923
кке	-5924
чеб	-5925
Памя	-5926
▁ВВП	-5927
▁Джо	-5928
стных	-5929
▁воду	-5930
▁сати	-5931
▁улиц	-5932
Класси	-5933
▁вошли	-5934
▁профи	-5935
▁стано	-5936
лизации	-5937
▁Михаил	-5938
▁первом	-5939
▁попада	-5940
▁воспита	-5941
▁сообщение	-5942
st	-5943
гри	-5944
неш	-5945
шил	-5946
▁Нью	-5947
▁июле	-5948
▁возбу	-5949
▁семьи	-5950
▁дворец	-5951
▁оригина	-5952
▁учебных	-5953
▁должности	-5954
▁человеком	-5955
▁совершенно	-5956
▁обозначения	-5957
▁необходимости	-5958
ЕС	-5959
Виды	-5960
▁1,5	-5961
▁Дио	-5962
краин	-5963
▁тюль	-5964
▁чинов	-5965
▁адвока	-5966
▁кладби	-5967
▁нижней	-5968
▁помимо	-5969
▁женщины	-5970
Петербург	-5971
▁инструментов	-5972
▁дел	-5973
Приме	-5974
раздо	-5975
▁горя	-5976
▁семи	-5977
▁сход	-5978
шением	-5979
▁Более	-5980
▁новое	-5981
▁высоте	-5982
▁играет	-5983
▁металла	-5984
▁промежу	-5985
▁аэропорт	-5986
▁кинотеат	-5987
▁температуре	-5988
ами	-5989
тран	-5990
▁Фло	-5991
▁пой	-5992
▁шер	-5993
▁фоне	-5994
▁Волго	-5995
▁нагре	-5996
▁улице	-5997
▁воздухе	-5998
▁приблизи	-5999
▁населением	-6000
▁оборудования	-6001
▁производстве	-6002
кол	-6003
лда	-6004
мум	-6005
рите	-6006
щиков	-6007
▁1998	-6008
▁Вале	-6009
▁запу	-6010
▁Брази	-6011
▁Иркут	-6012
▁длины	-6013
▁конец	-6014
▁линия	-6015
▁флота	-6016
▁четвёр	-6017
▁Австралии	-6018
▁положения	-6019
▁помещения	-6020
тес	-6021
▁Сам	-6022
▁опо	-6023
▁Бога	-6024
▁стру	-6025
▁литов	-6026
▁масло	-6027
▁торже	-6028
ношения	-6029
▁Россия	-6030
▁деревьев	-6031
▁возникает	-6032
▁княжества	-6033
примечательности	-6034
кл	-6035
гий	-6036
йло	-6037
тец	-6038
▁38	-6039
мыка	-6040
снеф	-6041
▁вку	-6042
▁Высо	-6043
▁другу	-6044
▁раско	-6045
▁Красно	-6046
▁Москва	-6047
▁выпуск	-6048
▁совета	-6049
▁обороны	-6050
▁связаны	-6051
▁библиоте	-6052
▁западной	-6053
ственность	-6054
▁остальные	-6055
▁специально	-6056
лум	-6057
▁3-	-6058
▁33	-6059
твра	-6060
▁ССР	-6061
▁пок	-6062
жными	-6063
▁речи	-6064
▁Григо	-6065
▁вокза	-6066
▁титул	-6067
именова	-6068
кистана	-6069
▁Америке	-6070
▁перевод	-6071
▁периоди	-6072
▁программ	-6073
▁образуется	-6074
▁характеризу	-6075
хии	-6076
купи	-6077
риса	-6078
леком	-6079
щений	-6080
▁лице	-6081
влений	-6082
▁Особе	-6083
▁выдви	-6084
нностей	-6085
▁выдели	-6086
▁правом	-6087
▁Советского	-6088
▁опубликова	-6089
▁современном	-6090
▁православной	-6091
бии	-6092
фом	-6093
чёр	-6094
щер	-6095
лана	-6096
лков	-6097
▁вак	-6098
▁Кара	-6099
▁логи	-6100
▁нужно	-6101
▁порта	-6102
▁расту	-6103
водится	-6104
▁Первый	-6105
▁берега	-6106
▁водоро	-6107
▁гипоте	-6108
▁раньше	-6109
ссийской	-6110
▁Королев	-6111
▁одинако	-6112
▁реакции	-6113
▁увеличе	-6114
▁Известные	-6115
▁требования	-6116
▁независимость	-6117
Да	-6118
цве	-6119
баль	-6120
дума	-6121
▁Фео	-6122
ation	-6123
нтами	-6124
▁кого	-6125
▁Выбор	-6126
▁анали	-6127
▁господ	-6128
▁здоров	-6129
▁подзем	-6130
▁Византи	-6131
▁резиден	-6132
▁изобрази	-6133
▁контроль	-6134
▁парламент	-6135
▁советской	-6136
▁чрезвычай	-6137
бия	-6138
зму	-6139
мам	-6140
зиру	-6141
фект	-6142
▁Джа	-6143
▁мер	-6144
ганро	-6145
ковым	-6146
новка	-6147
▁1944	-6148
▁2020	-6149
▁лати	-6150
▁орде	-6151
ждению	-6152
няться	-6153
▁возоб	-6154
▁релье	-6155
▁тысяче	-6156
▁Русской	-6157
ционирова	-6158
▁договора	-6159
▁исторических	-6160
чия	-6161
варе	-6162
▁ссы	-6163
▁тво	-6164
▁уезд	-6165
▁царь	-6166
емости	-6167
▁ничего	-6168
дованием	-6169
▁Конститу	-6170
▁преврати	-6171
▁сельского	-6172
▁характера	-6173
▁Центральной	-6174
▁промышленных	-6175
Ту	-6176
Ча	-6177
Под	-6178
берг	-6179
нтро	-6180
жского	-6181
нились	-6182
▁мозга	-6183
▁непри	-6184
▁нынеш	-6185
▁опере	-6186
▁позна	-6187
▁роста	-6188
▁клеток	-6189
▁модели	-6190
▁отдыха	-6191
▁началом	-6192
▁организма	-6193
▁сочинения	-6194
НР	-6195
яз	-6196
ково	-6197
▁лед	-6198
▁голу	-6199
▁млад	-6200
нялись	-6201
▁1980-	-6202
▁Прави	-6203
▁обита	-6204
▁промы	-6205
▁престо	-6206
▁тенден	-6207
▁высоких	-6208
▁приказа	-6209
фиксирова	-6210
▁превышает	-6211
▁предотвра	-6212
▁структура	-6213
▁Большинство	-6214
▁распространены	-6215
▁37	-6216
▁ий	-6217
види	-6218
дует	-6219
жают	-6220
номо	-6221
тена	-6222
▁Гла	-6223
▁жил	-6224
формы	-6225
▁1996	-6226
▁излу	-6227
▁кара	-6228
▁кров	-6229
▁орби	-6230
▁Тогда	-6231
▁индей	-6232
▁князь	-6233
▁деление	-6234
▁влиянием	-6235
▁интенсив	-6236
▁отличаются	-6237
▁исключением	-6238
Ха	-6239
▁VI	-6240
▁сай	-6241
▁фос	-6242
▁кине	-6243
▁кори	-6244
▁осве	-6245
льному	-6246
▁плодо	-6247
▁связан	-6248
▁связана	-6249
▁поражения	-6250
▁эксплуата	-6251
▁предусматри	-6252
вел	-6253
жал	-6254
зию	-6255
щик	-6256
щадь	-6257
▁1989	-6258
▁иска	-6259
▁лето	-6260
▁приш	-6261
ходило	-6262
▁продо	-6263
▁роман	-6264
▁южной	-6265
▁октябре	-6266
▁наследия	-6267
▁политики	-6268
—3	-6269
Рус	-6270
вец	-6271
нкт	-6272
фио	-6273
▁Эр	-6274
▁ЮН	-6275
гене	-6276
стка	-6277
▁наи	-6278
щиеся	-6279
▁Позд	-6280
▁отца	-6281
▁изото	-6282
▁исчез	-6283
▁косми	-6284
▁лекар	-6285
▁целях	-6286
▁называются	-6287
▁памятников	-6288
▁появляются	-6289
▁применяются	-6290
дут	-6291
юри	-6292
воды	-6293
тиру	-6294
нился	-6295
номор	-6296
севдо	-6297
▁Волги	-6298
▁Приме	-6299
▁самая	-6300
▁тропи	-6301
▁данной	-6302
▁лукови	-6303
▁студен	-6304
▁Николай	-6305
▁Министер	-6306
▁причиной	-6307
исхождение	-6308
▁сохранились	-6309
▁42	-6310
мета	-6311
сную	-6312
▁хан	-6313
рядок	-6314
▁Узбе	-6315
против	-6316
▁возро	-6317
▁землю	-6318
▁железа	-6319
▁кварти	-6320
▁сочета	-6321
▁гораздо	-6322
▁проекта	-6323
▁экспеди	-6324
▁которыми	-6325
▁библиотека	-6326
▁распространён	-6327
гно	-6328
душ	-6329
ЕСКО	-6330
ровая	-6331
терпе	-6332
▁Хотя	-6333
▁нату	-6334
▁типи	-6335
▁фено	-6336
▁данный	-6337
▁диамет	-6338
▁молодё	-6339
▁военный	-6340
▁трамвай	-6341
▁пассажиров	-6342
▁зафиксирова	-6343
кты	-6344
льф	-6345
рный	-6346
тном	-6347
▁сом	-6348
▁цен	-6349
▁идеи	-6350
▁рука	-6351
▁конфе	-6352
▁канала	-6353
▁обстоя	-6354
▁энерге	-6355
▁материал	-6356
▁использоваться	-6357
em	-6358
Лу	-6359
бий	-6360
▁In	-6361
▁Ос	-6362
Топо	-6363
▁чёт	-6364
стыми	-6365
▁арте	-6366
▁коор	-6367
▁моги	-6368
▁Китай	-6369
▁сахар	-6370
▁храма	-6371
▁числу	-6372
ждением	-6373
▁цилинд	-6374
▁вызывает	-6375
▁европейской	-6376
нём	-6377
▁Дер	-6378
ковый	-6379
▁вспо	-6380
▁запо	-6381
▁посо	-6382
влетво	-6383
ющейся	-6384
экономи	-6385
▁борьбе	-6386
▁машины	-6387
▁почита	-6388
▁превос	-6389
▁создал	-6390
▁спекта	-6391
▁текста	-6392
▁упразд	-6393
▁данного	-6394
▁допуска	-6395
▁незначи	-6396
▁династии	-6397
▁хранения	-6398
▁протекает	-6399
▁структуры	-6400
▁составляли	-6401
Все	-6402
нты	-6403
пки	-6404
рим	-6405
пами	-6406
тьев	-6407
▁Сим	-6408
▁оси	-6409
лести	-6410
▁1942	-6411
▁1994	-6412
▁мело	-6413
▁спро	-6414
▁Андре	-6415
▁героя	-6416
▁птицы	-6417
▁среде	-6418
▁шесть	-6419
▁штата	-6420
▁мужчин	-6421
▁учёный	-6422
▁корпуса	-6423
▁металлу	-6424
▁столетия	-6425
▁заведения	-6426
▁определён	-6427
▁строительстве	-6428
бая	-6429
змов	-6430
рубе	-6431
трия	-6432
▁Тор	-6433
▁1995	-6434
▁Джон	-6435
▁любы	-6436
▁родо	-6437
сторон	-6438
▁заслу	-6439
▁окраи	-6440
▁средне	-6441
▁считал	-6442
▁единица	-6443
▁инвести	-6444
▁распада	-6445
▁туристи	-6446
ступление	-6447
▁бассейна	-6448
▁Благодаря	-6449
▁появления	-6450
▁располагаются	-6451
ваи	-6452
исто	-6453
▁Сле	-6454
▁Фин	-6455
логов	-6456
ссель	-6457
▁Швей	-6458
▁пато	-6459
байджа	-6460
▁броне	-6461
▁буква	-6462
▁звёзд	-6463
▁воскре	-6464
▁вступи	-6465
▁перено	-6466
▁губерна	-6467
зербайджа	-6468
▁предвари	-6469
▁развитии	-6470
▁монастырь	-6471
▁социально	-6472
пок	-6473
▁55	-6474
снаб	-6475
тную	-6476
▁120	-6477
▁Бан	-6478
▁мат	-6479
▁Сара	-6480
▁брат	-6481
▁штаб	-6482
▁железо	-6483
▁оккупа	-6484
▁питания	-6485
▁слишком	-6486
▁высокого	-6487
▁искусств	-6488
▁металлов	-6489
▁практике	-6490
▁фестиваль	-6491
▁источником	-6492
▁крупнейший	-6493
▁территорий	-6494
▁Константино	-6495
▁использовался	-6496
меда	-6497
тяну	-6498
▁Лео	-6499
носит	-6500
рного	-6501
▁инте	-6502
▁поэт	-6503
▁реку	-6504
▁реме	-6505
▁Литов	-6506
▁имела	-6507
▁смеси	-6508
▁Африки	-6509
▁ЮНЕСКО	-6510
▁прибли	-6511
▁третье	-6512
Культура	-6513
строения	-6514
▁крупным	-6515
▁создана	-6516
▁главного	-6517
▁последний	-6518
22	-6519
Ру	-6520
▁:	-6521
▁75	-6522
пати	-6523
ряет	-6524
▁доб	-6525
▁люб	-6526
вающий	-6527
органи	-6528
▁здании	-6529
▁собора	-6530
▁Большой	-6531
▁бывшего	-6532
▁переста	-6533
▁окончания	-6534
▁воспринима	-6535
Гер	-6536
хта	-6537
▁Оде	-6538
▁Тро	-6539
крепи	-6540
право	-6541
▁горе	-6542
▁зара	-6543
▁всеми	-6544
▁дирек	-6545
▁апреле	-6546
▁дерево	-6547
нической	-6548
▁главной	-6549
▁регионе	-6550
▁выступает	-6551
▁сооружений	-6552
▁единственный	-6553
Зна	-6554
лое	-6555
пей	-6556
▁34	-6557
▁ед	-6558
Если	-6559
тике	-6560
чень	-6561
▁Что	-6562
▁чел	-6563
▁дыха	-6564
▁зави	-6565
▁пада	-6566
▁Таджи	-6567
▁Такие	-6568
▁выделе	-6569
Наиболее	-6570
значение	-6571
▁широкое	-6572
▁пострада	-6573
▁скорости	-6574
матических	-6575
▁действием	-6576
▁постройки	-6577
▁становятся	-6578
ису	-6579
▁Ак	-6580
▁Фор	-6581
рован	-6582
цвета	-6583
▁1997	-6584
▁иной	-6585
▁лиде	-6586
▁мост	-6587
▁хлоп	-6588
▁чешу	-6589
▁этно	-6590
Города	-6591
▁сцена	-6592
ционным	-6593
▁спустя	-6594
▁морской	-6595
▁специфи	-6596
▁значении	-6597
▁рождения	-6598
▁восточной	-6599
▁содержания	-6600
▁посредством	-6601
▁национальной	-6602
ant	-6603
▁НА	-6604
▁Уи	-6605
зелё	-6606
▁Нор	-6607
▁Поли	-6608
▁агре	-6609
▁засе	-6610
▁охла	-6611
продук	-6612
▁Акаде	-6613
▁Всего	-6614
▁месяц	-6615
▁нельзя	-6616
▁обосно	-6617
▁размер	-6618
▁страна	-6619
▁возвыше	-6620
▁средних	-6621
▁давления	-6622
▁Население	-6623
▁специальных	-6624
Пло	-6625
жая	-6626
чая	-6627
▁in	-6628
дьми	-6629
моно	-6630
щины	-6631
▁жар	-6632
ваясь	-6633
тники	-6634
▁1943	-6635
▁Иоан	-6636
▁Коми	-6637
льника	-6638
▁Серге	-6639
▁песня	-6640
▁столе	-6641
▁важным	-6642
▁выраже	-6643
▁мнение	-6644
▁началу	-6645
▁оружие	-6646
▁Октябрь	-6647
▁Украине	-6648
▁высоким	-6649
▁достоин	-6650
▁позиции	-6651
▁порядке	-6652
▁правила	-6653
▁протяжё	-6654
▁товаров	-6655
▁сравнительно	-6656
▁использованием	-6657
дру	-6658
ётр	-6659
▁39	-6660
вана	-6661
стил	-6662
▁Спа	-6663
▁Обра	-6664
▁веру	-6665
▁огне	-6666
▁опро	-6667
▁села	-6668
Истори	-6669
альные	-6670
▁дипло	-6671
▁мигра	-6672
▁мысли	-6673
▁созна	-6674
▁фунда	-6675
▁черты	-6676
▁верхов	-6677
▁раскры	-6678
тическое	-6679
▁древности	-6680
▁множества	-6681
▁полуострова	-6682
oc	-6683
▁e	-6684
зды	-6685
шён	-6686
мура	-6687
нице	-6688
порт	-6689
тари	-6690
▁Кли	-6691
▁ара	-6692
▁реа	-6693
верса	-6694
▁база	-6695
▁раст	-6696
▁село	-6697
тского	-6698
▁канди	-6699
▁книга	-6700
▁линий	-6701
▁пребы	-6702
▁Сергей	-6703
▁записа	-6704
▁автоном	-6705
▁древней	-6706
▁распоря	-6707
▁созданы	-6708
▁феврале	-6709
▁занимают	-6710
логический	-6711
▁президента	-6712
▁технологии	-6713
▁французский	-6714
▁национального	-6715
пту	-6716
рый	-6717
▁48	-6718
▁65	-6719
▁».	-6720
▁шу	-6721
Глав	-6722
пуль	-6723
▁Дей	-6724
▁бен	-6725
▁игр	-6726
▁уса	-6727
ально	-6728
довая	-6729
▁зато	-6730
▁стен	-6731
ченные	-6732
▁Мухам	-6733
▁изгна	-6734
▁костю	-6735
▁носит	-6736
▁почвы	-6737
▁психи	-6738
▁сигна	-6739
▁Ярослав	-6740
Администра	-6741
▁небольшие	-6742
▁последнего	-6743
▁обеспечения	-6744
▁значительной	-6745
▁неоднократно	-6746
39	-6747
ари	-6748
ровой	-6749
▁кано	-6750
▁клар	-6751
▁осла	-6752
Однако	-6753
▁непро	-6754
▁оформ	-6755
▁строй	-6756
▁намест	-6757
▁Одиссей	-6758
▁проблем	-6759
▁перерабо	-6760
▁небольших	-6761
▁отделения	-6762
эр	-6763
▁v	-6764
жин	-6765
шены	-6766
жский	-6767
▁духо	-6768
▁силь	-6769
▁церк	-6770
вшееся	-6771
▁Длина	-6772
▁Можай	-6773
▁метод	-6774
▁музея	-6775
▁орган	-6776
писание	-6777
▁Костро	-6778
▁микрорай	-6779
▁площадью	-6780
▁участник	-6781
▁некоторое	-6782
▁источниках	-6783
▁обязанности	-6784
▁соответствует	-6785
ru	-6786
дю	-6787
лив	-6788
▁мг	-6789
шать	-6790
▁400	-6791
▁тюр	-6792
щению	-6793
ристиа	-6794
▁годом	-6795
▁общее	-6796
▁версия	-6797
▁прогре	-6798
▁Европей	-6799
▁ориенти	-6800
▁военного	-6801
▁последних	-6802
▁здравоохра	-6803
▁находилась	-6804
▁представлен	-6805
▁развивается	-6806
—4	-6807
вит	-6808
пец	-6809
сить	-6810
▁вни	-6811
▁выи	-6812
приня	-6813
стого	-6814
▁Инди	-6815
▁Клав	-6816
▁кирпи	-6817
▁метра	-6818
▁нашей	-6819
▁сорта	-6820
▁Исполь	-6821
▁горных	-6822
▁написал	-6823
▁народных	-6824
▁художник	-6825
▁появилось	-6826
▁советских	-6827
Образование	-6828
▁исследований	-6829
▁первоначально	-6830
лке	-6831
сио	-6832
▁юг	-6833
арди	-6834
дыду	-6835
раку	-6836
ране	-6837
тивы	-6838
шена	-6839
совер	-6840
чками	-6841
▁1993	-6842
▁Каза	-6843
▁безу	-6844
▁бомб	-6845
оборот	-6846
ряется	-6847
▁Ивана	-6848
▁Пушки	-6849
▁лучше	-6850
▁голосо	-6851
▁клетки	-6852
▁компонен	-6853
▁регионов	-6854
▁территориаль	-6855
▁w	-6856
▁вв	-6857
ряда	-6858
—200	-6859
▁Сей	-6860
▁диф	-6861
▁лес	-6862
▁хво	-6863
брати	-6864
▁клет	-6865
чённых	-6866
▁Герой	-6867
▁Позже	-6868
▁входя	-6869
▁инфек	-6870
▁комна	-6871
▁минут	-6872
▁пункт	-6873
▁скорее	-6874
▁трудно	-6875
▁зачастую	-6876
▁настолько	-6877
▁связанных	-6878
▁различными	-6879
▁соединений	-6880
▁религиозных	-6881
▁традиционно	-6882
кру	-6883
▁маг	-6884
ленно	-6885
стить	-6886
ционе	-6887
▁адре	-6888
▁вось	-6889
▁маль	-6890
▁опла	-6891
▁расп	-6892
▁урав	-6893
▁вечер	-6894
▁вышел	-6895
▁лежит	-6896
ковский	-6897
▁святых	-6898
▁массовой	-6899
▁ограничи	-6900
▁способом	-6901
▁планирова	-6902
▁принимает	-6903
▁Верховного	-6904
▁внутренней	-6905
▁формирования	-6906
▁эксперимента	-6907
НК	-6908
ить	-6909
сках	-6910
▁176	-6911
▁Кол	-6912
водов	-6913
▁погре	-6914
▁целей	-6915
▁экзем	-6916
▁Польши	-6917
▁Спарта	-6918
▁важней	-6919
▁память	-6920
▁тюльпа	-6921
ничество	-6922
▁внешней	-6923
▁наимено	-6924
▁сообщения	-6925
бек	-6926
вив	-6927
зел	-6928
лец	-6929
▁ТЭ	-6930
▁ус	-6931
Поли	-6932
жига	-6933
щать	-6934
▁Бре	-6935
Среди	-6936
ловой	-6937
▁егип	-6938
▁исла	-6939
▁леги	-6940
▁плат	-6941
▁степ	-6942
кварти	-6943
▁1970-	-6944
▁валют	-6945
▁пригла	-6946
▁попытки	-6947
▁проекту	-6948
▁считает	-6949
▁требует	-6950
▁Шотландии	-6951
▁количестве	-6952
▁производится	-6953
▁администрации	-6954
78	-6955
сё	-6956
ксо	-6957
лую	-6958
сий	-6959
стях	-6960
▁гло	-6961
долго	-6962
▁выро	-6963
▁книг	-6964
▁осна	-6965
▁спла	-6966
ографи	-6967
тового	-6968
▁армия	-6969
▁неуда	-6970
▁патро	-6971
▁пород	-6972
▁татар	-6973
▁парово	-6974
▁русско	-6975
американ	-6976
▁кислоты	-6977
▁посёлка	-6978
▁присвое	-6979
▁торговых	-6980
▁произведе	-6981
▁профессор	-6982
▁характеризуется	-6983
гон	-6984
лай	-6985
лога	-6986
▁июне	-6987
▁свер	-6988
▁посад	-6989
сколько	-6990
ционное	-6991
▁препят	-6992
▁размно	-6993
▁богослу	-6994
▁установлен	-6995
чье	-6996
чью	-6997
галь	-6998
▁ООН	-6999
менте	-7000
▁креди	-7001
▁озеро	-7002
▁песен	-7003
▁равен	-7004
▁редак	-7005
▁апосто	-7006
▁избран	-7007
▁модель	-7008
▁ноябре	-7009
▁средняя	-7010
▁переимено	-7011
▁пространства	-7012
диа	-7013
дям	-7014
▁43	-7015
стрий	-7016
▁Иису	-7017
▁Стро	-7018
▁оппо	-7019
щаться	-7020
▁Петро	-7021
▁ведёт	-7022
▁космо	-7023
▁спект	-7024
стояние	-7025
▁вполне	-7026
▁объёма	-7027
▁одежды	-7028
▁прямой	-7029
▁формой	-7030
▁Таганро	-7031
▁водного	-7032
▁интерес	-7033
▁пунктов	-7034
▁столица	-7035
Некоторые	-7036
▁личности	-7037
▁образуют	-7038
▁нарушения	-7039
▁расположено	-7040
▁единственным	-7041
▁специализирова	-7042
▁экономического	-7043
ap	-7044
▁ул	-7045
зуме	-7046
зыка	-7047
▁Фер	-7048
▁пет	-7049
▁вело	-7050
альный	-7051
тивным	-7052
▁лобби	-7053
▁учиты	-7054
▁вблизи	-7055
ковского	-7056
▁потреби	-7057
▁предыду	-7058
▁сократи	-7059
▁приспособ	-7060
▁развитием	-7061
▁предприятие	-7062
рка	-7063
зацию	-7064
▁Осно	-7065
▁соли	-7066
тников	-7067
▁взрос	-7068
▁вошёл	-7069
▁семян	-7070
▁фанта	-7071
тельств	-7072
▁иденти	-7073
▁одному	-7074
▁пункты	-7075
▁услуги	-7076
▁частиц	-7077
нических	-7078
▁владель	-7079
▁древеси	-7080
▁течения	-7081
▁структур	-7082
▁представлена	-7083
иды	-7084
лём	-7085
тик	-7086
▁Ря	-7087
▁уд	-7088
Цент	-7089
▁дал	-7090
▁дзю	-7091
▁уто	-7092
жской	-7093
цизма	-7094
шению	-7095
▁убий	-7096
прочем	-7097
▁Монго	-7098
▁вопло	-7099
▁всему	-7100
▁самое	-7101
▁союза	-7102
▁полной	-7103
▁привле	-7104
▁романа	-7105
▁священ	-7106
▁сортов	-7107
▁влияния	-7108
▁лечения	-7109
▁ребёнка	-7110
▁частных	-7111
риториаль	-7112
▁открытия	-7113
▁достижения	-7114
▁изображение	-7115
▁общественных	-7116
Ис	-7117
гих	-7118
жий	-7119
спи	-7120
зиат	-7121
мино	-7122
рачи	-7123
▁VII	-7124
▁Бор	-7125
▁Све	-7126
▁роз	-7127
дание	-7128
▁Евге	-7129
▁души	-7130
▁линей	-7131
▁найти	-7132
▁новую	-7133
▁парка	-7134
▁единиц	-7135
▁стадии	-7136
▁границе	-7137
ствования	-7138
▁вещество	-7139
Распростра	-7140
▁кристалли	-7141
;°	-7142
нга	-7143
сим	-7144
▁;.	-7145
▁St	-7146
мому	-7147
стое	-7148
▁Три	-7149
▁коп	-7150
лланд	-7151
▁диск	-7152
▁ремо	-7153
видные	-7154
▁общем	-7155
▁одино	-7156
▁супру	-7157
ждается	-7158
низации	-7159
ющегося	-7160
▁автора	-7161
▁высота	-7162
▁газеты	-7163
▁авторов	-7164
▁объекты	-7165
▁называть	-7166
▁президен	-7167
▁растение	-7168
▁Существует	-7169
▁исследователи	-7170
▁насчитывалось	-7171
▁многочисленных	-7172
27	-7173
нибу	-7174
▁Шве	-7175
▁оча	-7176
печат	-7177
▁оцен	-7178
▁хреб	-7179
Первые	-7180
▁1950-	-7181
▁Генри	-7182
▁Распо	-7183
▁канал	-7184
▁чисел	-7185
▁другое	-7186
▁квадра	-7187
▁минима	-7188
▁неприя	-7189
▁экспер	-7190
▁византи	-7191
▁возникают	-7192
▁процессов	-7193
▁возникновения	-7194
▁g	-7195
Осно	-7196
▁Иль	-7197
дного	-7198
ждает	-7199
▁1939	-7200
▁речь	-7201
▁факт	-7202
вающая	-7203
жённые	-7204
▁консу	-7205
▁масси	-7206
▁снизи	-7207
Государ	-7208
личество	-7209
▁деревни	-7210
▁подгото	-7211
▁приписы	-7212
▁романти	-7213
▁первонача	-7214
▁находились	-7215
▁невозможно	-7216
▁распространения	-7217
ёд	-7218
кри	-7219
пси	-7220
уре	-7221
▁Шта	-7222
славя	-7223
▁1940	-7224
▁Пара	-7225
▁нена	-7226
▁пони	-7227
▁занял	-7228
▁полез	-7229
▁путей	-7230
▁руках	-7231
▁Первые	-7232
▁конфли	-7233
нический	-7234
▁Средняя	-7235
▁высокая	-7236
▁явления	-7237
▁туристов	-7238
▁восстания	-7239
▁Казахстана	-7240
▁определение	-7241
▁приблизительно	-7242
—5	-7243
бие	-7244
ими	-7245
зовы	-7246
чики	-7247
чкой	-7248
▁160	-7249
▁Дон	-7250
вляли	-7251
▁агло	-7252
▁мину	-7253
восток	-7254
евский	-7255
▁соблю	-7256
▁турни	-7257
льности	-7258
▁авторы	-7259
▁бывает	-7260
▁группе	-7261
▁деньги	-7262
▁зарубе	-7263
▁музыке	-7264
▁популя	-7265
▁ассоциа	-7266
▁листьев	-7267
▁премьер	-7268
▁Средизем	-7269
▁мозжечка	-7270
▁обладают	-7271
▁обществе	-7272
▁содержат	-7273
▁источники	-7274
▁указывает	-7275
▁противника	-7276
▁социальной	-7277
▁международный	-7278
47	-7279
48	-7280
6.	-7281
ha	-7282
Лю	-7283
ань	-7284
май	-7285
чны	-7286
чти	-7287
▁Ам	-7288
плек	-7289
▁the	-7290
▁меры	-7291
▁2000-	-7292
▁всеоб	-7293
▁диапа	-7294
▁драма	-7295
▁прибо	-7296
▁устья	-7297
▁Солнца	-7298
▁альбом	-7299
▁мелких	-7300
▁сердца	-7301
▁историк	-7302
Известные	-7303
▁областях	-7304
▁работать	-7305
▁создании	-7306
▁расстояние	-7307
ist	-7308
здо	-7309
рем	-7310
самб	-7311
Восто	-7312
▁евро	-7313
▁нега	-7314
▁отли	-7315
рского	-7316
эффици	-7317
▁Совре	-7318
▁вверх	-7319
▁ожида	-7320
▁хокке	-7321
▁Аристо	-7322
▁Вместе	-7323
▁высших	-7324
▁рейтин	-7325
▁епископ	-7326
▁относят	-7327
▁причине	-7328
▁городами	-7329
▁областей	-7330
▁последней	-7331
Осо	-7332
одо	-7333
льят	-7334
▁кот	-7335
▁ски	-7336
влять	-7337
клопе	-7338
▁1930	-7339
▁Гали	-7340
▁ланд	-7341
▁рыбо	-7342
▁элли	-7343
▁Музей	-7344
▁возле	-7345
▁добро	-7346
▁ключе	-7347
▁сериа	-7348
▁таком	-7349
▁цифро	-7350
▁Индоне	-7351
▁выхода	-7352
▁колеба	-7353
▁скепти	-7354
▁языков	-7355
хождения	-7356
▁вопросы	-7357
▁открыта	-7358
▁теплово	-7359
▁училище	-7360
▁живописи	-7361
▁начинают	-7362
▁размеров	-7363
▁рассмотре	-7364
▁удовлетво	-7365
▁изначально	-7366
▁заключается	-7367
▁расположенный	-7368
сл	-7369
полу	-7370
тила	-7371
физи	-7372
▁XXI	-7373
▁Тар	-7374
▁имён	-7375
▁иных	-7376
▁1920-	-7377
▁исход	-7378
▁машин	-7379
▁приви	-7380
▁упомя	-7381
деление	-7382
▁боевых	-7383
▁словом	-7384
▁жидкости	-7385
▁координа	-7386
▁предметов	-7387
▁популярность	-7388
нит	-7389
пах	-7390
▁4-	-7391
▁Тю	-7392
вина	-7393
слож	-7394
▁рее	-7395
▁схе	-7396
меров	-7397
▁епар	-7398
▁невы	-7399
▁палу	-7400
▁сюже	-7401
▁швед	-7402
▁Часто	-7403
▁конди	-7404
▁черте	-7405
▁Яросла	-7406
▁бывают	-7407
▁вырази	-7408
▁месяца	-7409
▁силами	-7410
▁стекло	-7411
▁белорус	-7412
▁местные	-7413
▁объединения	-7414
▁специальные	-7415
98	-7416
сит	-7417
▁Аф	-7418
коми	-7419
▁рит	-7420
новые	-7421
▁Пётр	-7422
▁алле	-7423
▁моди	-7424
▁неве	-7425
ляется	-7426
▁азота	-7427
▁вести	-7428
▁закан	-7429
▁итоге	-7430
▁офице	-7431
▁турец	-7432
▁эволю	-7433
евского	-7434
▁Первая	-7435
▁людьми	-7436
▁победи	-7437
нциклопе	-7438
▁команды	-7439
▁пришлось	-7440
логической	-7441
тельностью	-7442
▁наблюдения	-7443
▁предположи	-7444
▁проводятся	-7445
▁общественный	-7446
75	-7447
Пу	-7448
Чи	-7449
дка	-7450
льде	-7451
суще	-7452
ьера	-7453
благо	-7454
довых	-7455
рокко	-7456
▁Свет	-7457
▁Теле	-7458
▁швей	-7459
западе	-7460
▁грамо	-7461
▁стиля	-7462
▁строя	-7463
▁трубо	-7464
▁улица	-7465
ператор	-7466
▁ежегод	-7467
▁теория	-7468
▁устраи	-7469
▁Николая	-7470
▁прекрати	-7471
▁заведений	-7472
▁современные	-7473
▁муниципального	-7474
23	-7475
вной	-7476
кали	-7477
комо	-7478
тину	-7479
ткой	-7480
▁сфе	-7481
▁Нача	-7482
▁атом	-7483
▁герб	-7484
▁сино	-7485
метрии	-7486
стской	-7487
ющееся	-7488
▁вклад	-7489
▁имену	-7490
▁красо	-7491
▁столь	-7492
ральное	-7493
▁премии	-7494
▁прочих	-7495
▁сделал	-7496
▁склады	-7497
▁Позднее	-7498
▁появление	-7499
▁художников	-7500
▁отсутствует	-7501
сль	-7502
зной	-7503
роне	-7504
▁ООО	-7505
▁жел	-7506
ющему	-7507
▁дель	-7508
▁иско	-7509
▁парт	-7510
Религи	-7511
▁Перед	-7512
▁подня	-7513
▁воздух	-7514
▁войско	-7515
▁служат	-7516
▁издания	-7517
▁отрасли	-7518
▁прошлом	-7519
▁средство	-7520
▁городская	-7521
▁восстанови	-7522
▁государством	-7523
▁существовало	-7524
.—	-7525
1,	-7526
Кра	-7527
жие	-7528
▁ой	-7529
ваку	-7530
горе	-7531
мога	-7532
рное	-7533
▁Оно	-7534
▁пру	-7535
служа	-7536
спита	-7537
▁каче	-7538
▁океа	-7539
▁селе	-7540
▁фраг	-7541
▁ярко	-7542
ведены	-7543
нибудь	-7544
фрикан	-7545
▁ворот	-7546
▁дзюдо	-7547
▁звуча	-7548
▁марки	-7549
▁метео	-7550
▁расчё	-7551
▁типов	-7552
вленные	-7553
вляться	-7554
▁раздели	-7555
▁кораблей	-7556
▁народной	-7557
▁оказался	-7558
▁островов	-7559
▁работали	-7560
▁статисти	-7561
▁пределами	-7562
▁функциони	-7563
Происхождение	-7564
▁национальных	-7565
▁административно	-7566
воло	-7567
куда	-7568
▁165	-7569
▁Там	-7570
▁брю	-7571
▁оба	-7572
Север	-7573
▁тера	-7574
▁войну	-7575
▁почёт	-7576
▁высоты	-7577
▁повыша	-7578
пасность	-7579
▁прилега	-7580
▁Ленинград	-7581
▁побережья	-7582
▁предложил	-7583
▁применяют	-7584
▁системати	-7585
▁химических	-7586
▁автомобилей	-7587
▁исследователь	-7588
▁приготовления	-7589
ВД	-7590
Же	-7591
Кар	-7592
гая	-7593
жка	-7594
мбу	-7595
нцы	-7596
Физи	-7597
вяза	-7598
двор	-7599
▁фео	-7600
тропи	-7601
▁поми	-7602
ологии	-7603
ректор	-7604
▁итогам	-7605
▁претен	-7606
▁единицы	-7607
▁поступа	-7608
▁примеру	-7609
▁выделяют	-7610
▁стратеги	-7611
▁состоялся	-7612
▁обеспечивает	-7613
.:	-7614
og	-7615
ta	-7616
Жи	-7617
зки	-7618
тана	-7619
▁ант	-7620
говой	-7621
▁гарни	-7622
▁проду	-7623
▁резер	-7624
▁аристо	-7625
▁весной	-7626
▁подчёр	-7627
▁стекла	-7628
рической	-7629
▁Древней	-7630
ствование	-7631
▁преступления	-7632
▁употребляется	-7633
44	-7634
гром	-7635
▁дро	-7636
▁пен	-7637
Досто	-7638
Между	-7639
▁Галь	-7640
▁Сици	-7641
▁вина	-7642
▁Библи	-7643
▁Интер	-7644
▁англо	-7645
▁колон	-7646
▁могла	-7647
льников	-7648
▁ближай	-7649
▁вторая	-7650
▁отличи	-7651
▁поезда	-7652
▁севера	-7653
▁цветов	-7654
▁религии	-7655
▁ситуации	-7656
▁Московской	-7657
▁крупнейшим	-7658
▁расстоянии	-7659
▁направление	-7660
▁французского	-7661
бр	-7662
хой	-7663
шку	-7664
зиди	-7665
ляет	-7666
печа	-7667
▁Тол	-7668
▁Хай	-7669
▁шёл	-7670
▁югу	-7671
▁яко	-7672
мской	-7673
совет	-7674
▁иллю	-7675
▁вытес	-7676
▁гипер	-7677
▁любви	-7678
▁людям	-7679
▁парти	-7680
▁стихи	-7681
▁достиг	-7682
▁залива	-7683
▁ежеднев	-7684
▁открыто	-7685
▁напротив	-7686
следования	-7687
▁восстание	-7688
▁температур	-7689
▁гражданской	-7690
бат	-7691
▁5-	-7692
теле	-7693
хоро	-7694
цкой	-7695
▁Май	-7696
тории	-7697
щийся	-7698
▁1960	-7699
▁Карл	-7700
▁коры	-7701
▁нере	-7702
▁окси	-7703
альное	-7704
щались	-7705
▁Непту	-7706
▁избра	-7707
▁обоих	-7708
▁поезд	-7709
▁ступе	-7710
▁выстав	-7711
▁керами	-7712
▁климат	-7713
▁листья	-7714
▁нагруз	-7715
▁радика	-7716
▁послужи	-7717
▁привели	-7718
▁размеры	-7719
▁функций	-7720
▁мифологии	-7721
▁последнее	-7722
▁хозяйство	-7723
▁Впоследствии	-7724
▁экономической	-7725
ксу	-7726
▁IX	-7727
жали	-7728
циан	-7729
▁Али	-7730
▁Вое	-7731
▁Оль	-7732
▁наше	-7733
▁ноги	-7734
▁ночь	-7735
▁секу	-7736
льятти	-7737
▁взаим	-7738
▁листо	-7739
▁обста	-7740
▁точка	-7741
▁Швейца	-7742
▁замени	-7743
▁недели	-7744
▁фронта	-7745
▁команди	-7746
▁соединя	-7747
▁автодоро	-7748
▁конферен	-7749
▁компьютер	-7750
▁остальных	-7751
▁подразуме	-7752
▁требуется	-7753
▁называемый	-7754
юн	-7755
бки	-7756
мпи	-7757
ёрт	-7758
лесо	-7759
скур	-7760
▁Хар	-7761
завод	-7762
▁1929	-7763
▁виду	-7764
▁паци	-7765
▁стер	-7766
Другие	-7767
вающей	-7768
емость	-7769
▁Право	-7770
▁волок	-7771
▁вторы	-7772
▁снима	-7773
ровский	-7774
▁назван	-7775
строение	-7776
▁выходит	-7777
▁масштаб	-7778
▁научных	-7779
▁Иерусали	-7780
▁индустри	-7781
▁кинемато	-7782
▁пригород	-7783
▁километров	-7784
▁социальных	-7785
▁американский	-7786
▁классической	-7787
5.	-7788
ov	-7789
змы	-7790
ука	-7791
вшем	-7792
нцев	-7793
роны	-7794
▁Доб	-7795
▁сущ	-7796
сками	-7797
▁Золо	-7798
▁амми	-7799
▁вста	-7800
▁куро	-7801
▁реша	-7802
▁балла	-7803
▁затра	-7804
▁песча	-7805
▁ансамб	-7806
▁лучших	-7807
▁охваты	-7808
▁плодов	-7809
▁растёт	-7810
▁эффект	-7811
Основные	-7812
Существует	-7813
▁поведения	-7814
Классификация	-7815
24	-7816
26	-7817
рки	-7818
фей	-7819
Авто	-7820
сном	-7821
тиве	-7822
▁Кри	-7823
▁Тай	-7824
низма	-7825
▁Оста	-7826
▁Рабо	-7827
▁Тран	-7828
▁скон	-7829
ющимся	-7830
▁масла	-7831
▁феода	-7832
▁правил	-7833
▁сезона	-7834
▁препода	-7835
▁свободы	-7836
нического	-7837
▁Новгород	-7838
▁воспроиз	-7839
▁источник	-7840
▁основана	-7841
▁политика	-7842
▁высказыва	-7843
▁построено	-7844
▁своеобраз	-7845
▁исполнения	-7846
▁воздействия	-7847
▁окрестностях	-7848
▁месторождения	-7849
Ло	-7850
чни	-7851
груп	-7852
зель	-7853
изме	-7854
кона	-7855
▁The	-7856
▁Брю	-7857
▁Бур	-7858
▁Хор	-7859
▁афи	-7860
▁сва	-7861
▁заве	-7862
▁насы	-7863
▁рога	-7864
▁розы	-7865
▁чуть	-7866
женных	-7867
▁митро	-7868
▁необы	-7869
▁ресто	-7870
▁цвето	-7871
▁Ленина	-7872
▁мелкие	-7873
▁полуша	-7874
▁попере	-7875
▁поэзии	-7876
▁принят	-7877
▁ранних	-7878
▁деревня	-7879
▁закончи	-7880
▁основой	-7881
▁создать	-7882
▁будущего	-7883
▁регионах	-7884
▁стихотво	-7885
▁экземпля	-7886
▁измерения	-7887
▁российской	-7888
▁способности	-7889
ce	-7890
—6	-7891
XIX	-7892
лмы	-7893
сец	-7894
зина	-7895
▁ано	-7896
▁има	-7897
вость	-7898
лости	-7899
▁Пала	-7900
▁варь	-7901
▁войн	-7902
▁всём	-7903
▁мине	-7904
▁озёр	-7905
▁фина	-7906
▁чека	-7907
▁штур	-7908
▁Астра	-7909
▁Филип	-7910
▁обуча	-7911
▁поход	-7912
▁пропа	-7913
▁солда	-7914
ношение	-7915
побрати	-7916
▁Латвии	-7917
▁газета	-7918
▁закона	-7919
▁заседа	-7920
▁осенью	-7921
▁Большая	-7922
▁подверг	-7923
▁свойств	-7924
единённых	-7925
▁медицине	-7926
▁отметить	-7927
▁проживало	-7928
▁федерального	-7929
if	-7930
дию	-7931
пет	-7932
фия	-7933
мане	-7934
нгер	-7935
нимы	-7936
фаль	-7937
▁156	-7938
▁Ага	-7939
▁гет	-7940
▁выво	-7941
▁пола	-7942
▁сама	-7943
▁тона	-7944
менным	-7945
▁видом	-7946
▁водоё	-7947
▁денег	-7948
▁имена	-7949
▁ракет	-7950
водства	-7951
▁Москву	-7952
▁долгое	-7953
▁испыты	-7954
▁строго	-7955
▁Михайло	-7956
▁альбома	-7957
▁говорят	-7958
▁объекта	-7959
▁крупными	-7960
▁советское	-7961
▁структуре	-7962
▁произраста	-7963
▁эксплуатацию	-7964
Че	-7965
нц	-7966
бня	-7967
мчу	-7968
жела	-7969
реме	-7970
тику	-7971
шено	-7972
▁2,5	-7973
▁Уни	-7974
▁эмо	-7975
Росте	-7976
несён	-7977
распо	-7978
▁бази	-7979
▁деля	-7980
▁подъ	-7981
▁Мерку	-7982
▁ветви	-7983
▁вулка	-7984
▁длину	-7985
▁жанра	-7986
▁оперы	-7987
льность	-7988
▁домини	-7989
▁дочери	-7990
▁языком	-7991
▁военные	-7992
▁выборах	-7993
▁драмати	-7994
▁заводов	-7995
▁законом	-7996
▁имеющие	-7997
▁степень	-7998
▁считали	-7999
▁Иерусалим	-8000
▁памятники	-8001
▁программа	-8002
▁Социалисти	-8003
▁оказывается	-8004
▁переименова	-8005
▁командованием	-8006
ess	-8007
дое	-8008
кимо	-8009
орда	-8010
штей	-8011
▁600	-8012
▁бак	-8013
рский	-8014
▁миру	-8015
▁мифа	-8016
▁обсу	-8017
▁левом	-8018
▁наших	-8019
▁текст	-8020
вленных	-8021
▁Христо	-8022
▁банков	-8023
▁белого	-8024
▁заводы	-8025
▁король	-8026
▁преодо	-8027
▁проник	-8028
▁Австрии	-8029
▁покрови	-8030
▁полиции	-8031
▁ресурсов	-8032
▁института	-8033
▁концентра	-8034
▁материалы	-8035
▁метрополи	-8036
▁природных	-8037
▁считаются	-8038
следователь	-8039
▁определяет	-8040
▁содержится	-8041
32	-8042
зен	-8043
чом	-8044
джет	-8045
кипа	-8046
кома	-8047
▁ван	-8048
рении	-8049
▁Бере	-8050
▁Полу	-8051
▁грам	-8052
▁дети	-8053
▁заро	-8054
ционер	-8055
▁жемчу	-8056
▁кален	-8057
▁стиму	-8058
▁термо	-8059
▁дивизи	-8060
▁подроб	-8061
▁симпто	-8062
▁порядок	-8063
▁интернет	-8064
▁получило	-8065
▁совершен	-8066
▁составлял	-8067
▁окружающей	-8068
▁составляло	-8069
▁Олимпийских	-8070
▁заболеваний	-8071
37	-8072
la	-8073
тю	-8074
Это	-8075
упо	-8076
▁de	-8077
▁»,	-8078
обер	-8079
циал	-8080
ьями	-8081
▁175	-8082
▁Бог	-8083
▁Оре	-8084
▁бал	-8085
зовые	-8086
чатые	-8087
чники	-8088
▁копи	-8089
ваемых	-8090
города	-8091
▁погло	-8092
▁Африке	-8093
▁Украин	-8094
▁Фридри	-8095
▁законы	-8096
▁учёные	-8097
▁Владими	-8098
▁работал	-8099
▁финанси	-8100
▁миллиона	-8101
▁регулирова	-8102
▁технологий	-8103
▁количеством	-8104
-0	-8105
36	-8106
:#	-8107
МИ	-8108
бил	-8109
вла	-8110
дце	-8111
лио	-8112
пин	-8113
рёл	-8114
ноко	-8115
тори	-8116
штад	-8117
▁250	-8118
▁Джу	-8119
▁Дом	-8120
Запад	-8121
вшему	-8122
сными	-8123
▁Гене	-8124
▁банк	-8125
▁гвар	-8126
▁мясо	-8127
▁нема	-8128
▁обли	-8129
▁битве	-8130
▁поэта	-8131
▁точно	-8132
▁втором	-8133
▁головы	-8134
▁звания	-8135
▁орудий	-8136
▁церемо	-8137
▁Крупней	-8138
▁Средней	-8139
▁фабрика	-8140
▁Название	-8141
▁символом	-8142
▁городские	-8143
▁наказания	-8144
▁укрепления	-8145
▁республикан	-8146
▁значительное	-8147
▁исторического	-8148
вие	-8149
зона	-8150
кина	-8151
лиал	-8152
▁Цеза	-8153
▁буль	-8154
▁знак	-8155
▁могу	-8156
▁оско	-8157
ватель	-8158
▁Земле	-8159
▁жесто	-8160
▁жилых	-8161
▁могло	-8162
▁нефтя	-8163
▁новая	-8164
▁стрем	-8165
▁испыта	-8166
▁объект	-8167
▁Президе	-8168
▁восприя	-8169
▁кандида	-8170
▁месторо	-8171
▁судоход	-8172
▁туризма	-8173
▁поражение	-8174
▁регулярно	-8175
▁артиллерий	-8176
▁заимствова	-8177
шаф	-8178
▁куда	-8179
вились	-8180
▁близо	-8181
▁видео	-8182
▁герба	-8183
▁дисци	-8184
▁лично	-8185
▁новым	-8186
▁снаря	-8187
вленный	-8188
▁памяти	-8189
лекопита	-8190
▁берегах	-8191
▁властью	-8192
▁патриар	-8193
▁размера	-8194
▁Иванович	-8195
▁идеологи	-8196
▁сознания	-8197
▁маршрутов	-8198
▁перевозки	-8199
▁принимать	-8200
▁образуются	-8201
▁результаты	-8202
▁результатам	-8203
▁французской	-8204
▁образованием	-8205
▁промышленного	-8206
th	-8207
ub	-8208
жек	-8209
ппе	-8210
теи	-8211
▁47	-8212
▁Мы	-8213
▁140	-8214
▁тел	-8215
▁хищ	-8216
емыми	-8217
кисло	-8218
▁1921	-8219
▁Джей	-8220
▁взрыв	-8221
▁рынка	-8222
▁силой	-8223
▁дворян	-8224
▁третий	-8225
▁Впервые	-8226
▁выполне	-8227
▁высшего	-8228
▁начался	-8229
▁ситуация	-8230
Применение	-8231
▁демократи	-8232
▁плотность	-8233
▁инструмент	-8234
▁областного	-8235
▁парламента	-8236
▁Первоначально	-8237
▁характеристика	-8238
▁здравоохранения	-8239
49	-8240
Пла	-8241
рена	-8242
сюда	-8243
ентов	-8244
тивов	-8245
▁1924	-8246
▁водя	-8247
▁меда	-8248
▁меха	-8249
▁пищи	-8250
▁пояс	-8251
▁Донец	-8252
▁Марии	-8253
▁горах	-8254
▁едино	-8255
▁кости	-8256
▁склад	-8257
▁супер	-8258
▁Гражда	-8259
▁второе	-8260
▁Алексей	-8261
▁Палести	-8262
▁высокие	-8263
▁участки	-8264
▁академии	-8265
▁восходит	-8266
▁подготовки	-8267
▁Московского	-8268
▁несколькими	-8269
▁соревнования	-8270
▁насчитывается	-8271
▁международного	-8272
.-	-8273
ул	-8274
ёй	-8275
кер	-8276
вида	-8277
рная	-8278
шний	-8279
▁Кер	-8280
▁Уже	-8281
▁бой	-8282
▁мра	-8283
стави	-8284
стема	-8285
тский	-8286
▁1988	-8287
▁VIII	-8288
▁Пифа	-8289
▁Успе	-8290
▁либе	-8291
летний	-8292
▁Волог	-8293
▁ветра	-8294
▁кафед	-8295
▁терро	-8296
▁уезда	-8297
надцати	-8298
▁Предпо	-8299
▁восток	-8300
▁затруд	-8301
▁случаи	-8302
▁смерть	-8303
видимому	-8304
▁Василий	-8305
▁Одиссея	-8306
▁достато	-8307
▁телеком	-8308
▁Аполлона	-8309
▁величине	-8310
▁должност	-8311
▁известна	-8312
▁немецкий	-8313
▁протеста	-8314
▁родствен	-8315
▁телевизи	-8316
▁являлись	-8317
▁Ставрополь	-8318
▁греческого	-8319
▁называемые	-8320
▁электроэнер	-8321
21	-8322
ame	-8323
кка	-8324
лови	-8325
наго	-8326
▁Бли	-8327
▁Чем	-8328
▁ово	-8329
йская	-8330
порта	-8331
▁боро	-8332
▁вече	-8333
▁глаз	-8334
▁жена	-8335
▁имму	-8336
▁пехо	-8337
рактер	-8338
▁подве	-8339
▁версий	-8340
▁высокий	-8341
▁топлива	-8342
▁христиа	-8343
▁царства	-8344
▁явление	-8345
▁владения	-8346
▁человеку	-8347
▁плоскости	-8348
▁происходя	-8349
территориаль	-8350
▁расположенных	-8351
▁самоуправления	-8352
29	-8353
ae	-8354
ow	-8355
ина	-8356
рун	-8357
емую	-8358
ждый	-8359
ндия	-8360
циям	-8361
▁Зев	-8362
Произ	-8363
дётся	-8364
несли	-8365
чника	-8366
▁Луны	-8367
▁Эсто	-8368
▁вниз	-8369
▁лока	-8370
▁наси	-8371
▁стой	-8372
мского	-8373
падают	-8374
сполни	-8375
▁богов	-8376
▁освое	-8377
▁серде	-8378
▁сопер	-8379
▁эпиде	-8380
Галерея	-8381
образие	-8382
▁Андрей	-8383
▁мотоци	-8384
▁офицер	-8385
▁такими	-8386
▁Василье	-8387
▁Институ	-8388
▁расстре	-8389
▁альтерна	-8390
▁пересека	-8391
▁продукты	-8392
▁населённых	-8393
▁состоялась	-8394
▁музыкальных	-8395
▁существовали	-8396
▁употребления	-8397
34	-8398
ip	-8399
блю	-8400
веды	-8401
евро	-8402
лите	-8403
люко	-8404
▁ГЭС	-8405
▁бед	-8406
▁вру	-8407
▁фру	-8408
▁шла	-8409
▁эры	-8410
голов	-8411
лькло	-8412
▁Воль	-8413
▁соло	-8414
еписко	-8415
▁Карла	-8416
▁гармо	-8417
▁гибри	-8418
▁пьесы	-8419
▁смесь	-8420
▁стара	-8421
ждённых	-8422
▁Христа	-8423
▁артери	-8424
▁будучи	-8425
▁вокзал	-8426
▁выбира	-8427
▁выборы	-8428
▁далеко	-8429
▁диалек	-8430
▁земной	-8431
▁окисле	-8432
▁оккупи	-8433
▁частях	-8434
▁столице	-8435
▁опублико	-8436
▁народного	-8437
▁переходит	-8438
▁установлена	-8439
▁чрезвычайно	-8440
28	-8441
ТС	-8442
лля	-8443
тос	-8444
хма	-8445
Фран	-8446
ковь	-8447
▁Вой	-8448
▁Рай	-8449
▁Соб	-8450
логод	-8451
сский	-8452
▁1987	-8453
▁Теге	-8454
▁актё	-8455
▁гале	-8456
▁прио	-8457
▁сути	-8458
Первый	-8459
▁Публи	-8460
▁Чтобы	-8461
▁граду	-8462
▁такая	-8463
▁тремя	-8464
▁усадь	-8465
▁эваку	-8466
▁Нового	-8467
▁ворота	-8468
▁гибели	-8469
▁дважды	-8470
▁каждом	-8471
▁какого	-8472
▁контек	-8473
▁лабора	-8474
▁многом	-8475
▁назвал	-8476
▁северу	-8477
▁символ	-8478
▁выборов	-8479
▁Советской	-8480
▁животного	-8481
▁застройки	-8482
▁млекопита	-8483
▁культурных	-8484
▁отмечается	-8485
▁предусмотре	-8486
Ша	-8487
Пар	-8488
гию	-8489
ида	-8490
шал	-8491
ьях	-8492
чник	-8493
▁Кие	-8494
▁лей	-8495
▁соз	-8496
невмо	-8497
▁Воло	-8498
▁ману	-8499
▁нике	-8500
▁слия	-8501
дуется	-8502
▁Уилья	-8503
▁каких	-8504
▁латин	-8505
▁рецеп	-8506
▁такси	-8507
▁Смолен	-8508
▁велико	-8509
рический	-8510
▁законов	-8511
▁сохраня	-8512
▁успешно	-8513
▁водорода	-8514
▁изучения	-8515
▁контроля	-8516
▁универса	-8517
▁километра	-8518
▁оставался	-8519
▁совместно	-8520
▁экономике	-8521
▁культурного	-8522
▁представление	-8523
бую	-8524
дые	-8525
жев	-8526
лёв	-8527
—15	-8528
▁дю	-8529
гиба	-8530
гови	-8531
лавы	-8532
меся	-8533
ниям	-8534
▁Яко	-8535
▁вар	-8536
▁риф	-8537
дении	-8538
споли	-8539
стная	-8540
шений	-8541
▁узел	-8542
▁выгля	-8543
▁группу	-8544
▁золота	-8545
▁поступ	-8546
низирова	-8547
▁Средние	-8548
▁причина	-8549
▁публика	-8550
▁рассказ	-8551
▁реформы	-8552
▁Бразилии	-8553
▁остаются	-8554
▁атмосферы	-8555
▁комплекса	-8556
▁оборудова	-8557
▁оказались	-8558
▁реализации	-8559
▁способствует	-8560
ьи	-8561
▁h	-8562
чко	-8563
▁КП	-8564
Древ	-8565
дная	-8566
кура	-8567
льти	-8568
южет	-8569
▁ава	-8570
▁зре	-8571
ченко	-8572
▁Улья	-8573
▁дати	-8574
▁зака	-8575
▁поче	-8576
▁смог	-8577
▁тюрк	-8578
словно	-8579
▁плато	-8580
▁снего	-8581
▁стиль	-8582
влялись	-8583
▁делают	-8584
▁массив	-8585
▁мотива	-8586
▁отделя	-8587
▁тканей	-8588
▁имеющих	-8589
▁церквей	-8590
побратимы	-8591
▁привести	-8592
▁системой	-8593
▁изменение	-8594
▁насекомых	-8595
▁некоторым	-8596
▁произошёл	-8597
▁следующим	-8598
▁выполнения	-8599
▁фундамента	-8600
▁архитектора	-8601
▁содержанием	-8602
▁установлены	-8603
▁железнодорожный	-8604
up	-8605
эт	-8606
ian	-8607
вят	-8608
лие	-8609
▁Жу	-8610
ваны	-8611
вляя	-8612
дера	-8613
мень	-8614
пред	-8615
фора	-8616
▁Ким	-8617
▁Сем	-8618
▁ува	-8619
ездов	-8620
▁бара	-8621
▁идей	-8622
▁инсу	-8623
▁насо	-8624
▁пищу	-8625
▁выбро	-8626
▁камер	-8627
▁остры	-8628
▁прось	-8629
▁токси	-8630
▁Библии	-8631
▁Париже	-8632
▁прошло	-8633
▁старых	-8634
нические	-8635
▁Красной	-8636
▁вокзала	-8637
▁команда	-8638
▁олимпий	-8639
▁принцип	-8640
▁чемпион	-8641
▁чувстви	-8642
лезнодоро	-8643
▁крестьян	-8644
▁подчёрки	-8645
▁транспор	-8646
▁благоприя	-8647
▁основного	-8648
▁концентрации	-8649
▁производству	-8650
,.	-8651
ens	-8652
лент	-8653
чами	-8654
▁ада	-8655
▁вдо	-8656
▁сде	-8657
▁фре	-8658
вости	-8659
ответ	-8660
▁Коло	-8661
▁мемо	-8662
▁моро	-8663
▁ущер	-8664
▁главы	-8665
▁дворе	-8666
▁режим	-8667
▁решил	-8668
▁филиа	-8669
▁Возмож	-8670
▁доктор	-8671
▁низкой	-8672
▁причин	-8673
▁учёных	-8674
▁Михаила	-8675
▁Посполи	-8676
▁авианос	-8677
▁серебра	-8678
▁экспорт	-8679
▁Основные	-8680
▁Особенно	-8681
▁качество	-8682
▁коэффици	-8683
▁металлурги	-8684
▁спортивных	-8685
▁объясняется	-8686
Распространение	-8687
ie	-8688
Гра	-8689
ака	-8690
жом	-8691
зар	-8692
чее	-8693
▁44	-8694
жник	-8695
мбле	-8696
▁0,5	-8697
▁Гар	-8698
▁Пас	-8699
▁кух	-8700
▁оре	-8701
▁реф	-8702
▁рос	-8703
васто	-8704
водит	-8705
▁коде	-8706
▁экра	-8707
начале	-8708
▁Робер	-8709
▁корне	-8710
▁малых	-8711
▁моста	-8712
▁мульт	-8713
▁рекла	-8714
▁Европу	-8715
▁Церкви	-8716
▁дороге	-8717
▁замеча	-8718
▁налого	-8719
▁речной	-8720
▁холоди	-8721
ствующих	-8722
читается	-8723
▁меньшей	-8724
▁образуя	-8725
▁прикреп	-8726
▁справед	-8727
сленность	-8728
▁катастро	-8729
логическая	-8730
▁Вселенной	-8731
▁древнерус	-8732
▁творчества	-8733
▁осуществляет	-8734
▁произведение	-8735
дне	-8736
зде	-8737
плы	-8738
▁58	-8739
пали	-8740
тино	-8741
▁поо	-8742
менту	-8743
шении	-8744
▁ариф	-8745
▁диви	-8746
▁рыбы	-8747
▁сухи	-8748
Помимо	-8749
▁глава	-8750
▁кормо	-8751
▁героев	-8752
▁персид	-8753
▁римлян	-8754
▁придвор	-8755
▁проходя	-8756
▁сколько	-8757
▁включают	-8758
▁давление	-8759
▁кладбище	-8760
▁перехода	-8761
▁персонаж	-8762
▁писателя	-8763
▁персонажа	-8764
▁занимается	-8765
▁Возрождения	-8766
▁мероприятия	-8767
▁пространство	-8768
67	-8769
рэ	-8770
лку	-8771
ппи	-8772
рмо	-8773
скус	-8774
тать	-8775
фана	-8776
▁биз	-8777
▁пля	-8778
▁сад	-8779
▁цир	-8780
берна	-8781
▁Авто	-8782
▁НАТО	-8783
▁бесс	-8784
▁Ташке	-8785
▁накло	-8786
ровской	-8787
электро	-8788
▁Тимура	-8789
▁обрати	-8790
▁пришёл	-8791
▁развед	-8792
▁учение	-8793
▁замести	-8794
▁корабля	-8795
▁железных	-8796
▁предметы	-8797
▁английский	-8798
▁характерны	-8799
▁императором	-8800
▁собственности	-8801
95	-8802
XX	-8803
жь	-8804
Фор	-8805
кии	-8806
нис	-8807
реи	-8808
вных	-8809
хана	-8810
цизм	-8811
▁аук	-8812
▁нака	-8813
▁руби	-8814
▁таба	-8815
▁ябло	-8816
▁корпо	-8817
▁облик	-8818
▁общим	-8819
▁Другие	-8820
▁корпус	-8821
▁методы	-8822
▁особый	-8823
▁портре	-8824
▁фильме	-8825
▁намного	-8826
▁падения	-8827
▁Большого	-8828
▁бомбарди	-8829
▁десятков	-8830
▁наоборот	-8831
▁процессы	-8832
▁различия	-8833
▁собрание	-8834
матические	-8835
▁Северного	-8836
▁известным	-8837
▁разрабаты	-8838
▁упоминание	-8839
▁значительные	-8840
▁формирование	-8841
io	-8842
АЗ	-8843
жеб	-8844
люс	-8845
лёт	-8846
ьер	-8847
▁яи	-8848
анха	-8849
вера	-8850
гере	-8851
рист	-8852
▁Обо	-8853
тиков	-8854
▁Иоси	-8855
▁Сове	-8856
▁небо	-8857
виться	-8858
▁Госпо	-8859
ющимися	-8860
▁живопи	-8861
▁стрель	-8862
▁реестра	-8863
▁Монголии	-8864
▁директор	-8865
▁достигну	-8866
▁субтропи	-8867
▁недостато	-8868
▁обработки	-8869
▁поверхност	-8870
▁участников	-8871
▁характерно	-8872
▁собственной	-8873
▁определённых	-8874
▁совокупность	-8875
▁специалистов	-8876
ib	-8877
Кри	-8878
кте	-8879
мию	-8880
▁Хе	-8881
хова	-8882
▁Пен	-8883
Элект	-8884
стное	-8885
▁дать	-8886
▁друж	-8887
▁типо	-8888
▁уско	-8889
стного	-8890
▁Мекси	-8891
▁Новый	-8892
▁богат	-8893
▁смысл	-8894
▁Только	-8895
▁записи	-8896
▁победы	-8897
▁сверху	-8898
ническая	-8899
становле	-8900
▁конечно	-8901
▁полного	-8902
▁средний	-8903
националь	-8904
▁десятиле	-8905
▁углерода	-8906
▁следующий	-8907
▁исторический	-8908
▁политический	-8909
est	-8910
▁ЕС	-8911
▁Шо	-8912
вита	-8913
нело	-8914
плав	-8915
щики	-8916
▁ина	-8917
▁ног	-8918
рений	-8919
теров	-8920
▁Одна	-8921
▁Уэль	-8922
▁неот	-8923
▁отец	-8924
кистан	-8925
▁Подоб	-8926
▁Твери	-8927
▁будди	-8928
▁живых	-8929
▁облег	-8930
▁прису	-8931
▁устра	-8932
▁бывший	-8933
▁парков	-8934
▁филиал	-8935
Несмотря	-8936
▁деталей	-8937
▁молодых	-8938
▁органом	-8939
▁родился	-8940
▁атмосфер	-8941
▁здоровья	-8942
▁использовал	-8943
▁противопоста	-8944
▁собственного	-8945
▁экономический	-8946
96	-8947
мий	-8948
нгу	-8949
цет	-8950
▁ир	-8951
атре	-8952
гант	-8953
тору	-8954
▁155	-8955
▁700	-8956
▁Гай	-8957
▁Дол	-8958
▁КНР	-8959
▁Нар	-8960
▁Поя	-8961
▁вис	-8962
▁вот	-8963
▁рев	-8964
дации	-8965
обрёл	-8966
▁1922	-8967
▁1926	-8968
▁Льво	-8969
▁кожу	-8970
▁пыль	-8971
▁акций	-8972
▁книгу	-8973
▁общая	-8974
▁праве	-8975
▁сцене	-8976
▁трети	-8977
ральную	-8978
▁добычи	-8979
▁оппози	-8980
▁продви	-8981
▁сахара	-8982
тическим	-8983
▁Президи	-8984
▁служить	-8985
▁увидеть	-8986
▁драматур	-8987
▁консерва	-8988
▁обучения	-8989
▁прошлого	-8990
▁северных	-8991
▁собрания	-8992
▁происходят	-8993
▁вооружённых	-8994
гим	-8995
гин	-8996
жим	-8997
кал	-8998
уса	-8999
шни	-9000
шно	-9001
▁2.	-9002
▁СН	-9003
емом	-9004
люми	-9005
▁Жан	-9006
▁зуб	-9007
Интер	-9008
Слово	-9009
зовый	-9010
метро	-9011
мысле	-9012
стром	-9013
ьюсто	-9014
▁1950	-9015
▁Геро	-9016
▁Стар	-9017
▁вещи	-9018
▁зона	-9019
▁копе	-9020
▁мону	-9021
Роснеф	-9022
ковыми	-9023
льская	-9024
отланд	-9025
револю	-9026
▁Черни	-9027
▁бюдже	-9028
▁имело	-9029
▁отста	-9030
▁Кавказ	-9031
▁долине	-9032
▁короле	-9033
▁летопи	-9034
▁отделе	-9035
▁Востока	-9036
▁Востоке	-9037
▁иммигра	-9038
▁климата	-9039
▁монархи	-9040
▁статуса	-9041
▁фолькло	-9042
▁Среднего	-9043
▁объектом	-9044
▁раствори	-9045
▁Османской	-9046
▁проходили	-9047
▁художника	-9048
▁телевидения	-9049
тс	-9050
дки	-9051
худ	-9052
щал	-9053
▁1,	-9054
▁46	-9055
▁Ат	-9056
круг	-9057
оном	-9058
тяги	-9059
▁Таи	-9060
спект	-9061
▁Евра	-9062
▁граф	-9063
▁дают	-9064
▁колё	-9065
▁певи	-9066
▁поса	-9067
▁похи	-9068
▁псал	-9069
▁тром	-9070
водных	-9071
кавказ	-9072
▁корре	-9073
▁приём	-9074
▁тесно	-9075
ральном	-9076
▁заявил	-9077
▁знания	-9078
▁набере	-9079
▁образе	-9080
▁отдела	-9081
▁безрабо	-9082
▁исполня	-9083
▁картины	-9084
▁оборони	-9085
▁святого	-9086
▁течении	-9087
▁немецкой	-9088
▁способны	-9089
▁торговые	-9090
▁обязательно	-9091
▁водохранилища	-9092
31	-9093
бн	-9094
ang	-9095
Оди	-9096
заи	-9097
сро	-9098
фии	-9099
▁95	-9100
гать	-9101
льев	-9102
▁Ахи	-9103
▁сож	-9104
ровал	-9105
▁1961	-9106
▁Тихо	-9107
▁воро	-9108
▁креп	-9109
▁мать	-9110
▁нове	-9111
лённым	-9112
▁Павла	-9113
▁Хорез	-9114
▁груди	-9115
▁напол	-9116
▁низме	-9117
▁покло	-9118
▁рассе	-9119
▁суток	-9120
▁храни	-9121
▁Сталин	-9122
▁играют	-9123
▁образа	-9124
▁полков	-9125
▁сказал	-9126
▁тексти	-9127
▁заметно	-9128
▁методом	-9129
▁музыкан	-9130
▁примени	-9131
▁состоят	-9132
▁Тольятти	-9133
▁немецких	-9134
▁принятия	-9135
▁Индонезии	-9136
▁Поскольку	-9137
▁восточных	-9138
▁наступает	-9139
▁Администра	-9140
▁независимо	-9141
▁российского	-9142
▁использовалась	-9143
гне	-9144
Архи	-9145
▁СМИ	-9146
▁пау	-9147
XVIII	-9148
ветки	-9149
▁Марк	-9150
▁мара	-9151
▁чему	-9152
ченный	-9153
▁глаза	-9154
▁живут	-9155
▁испан	-9156
▁рынок	-9157
▁слобо	-9158
▁соцве	-9159
▁султа	-9160
носится	-9161
▁покупа	-9162
▁связей	-9163
▁смешан	-9164
▁страну	-9165
ствующие	-9166
▁Площадь	-9167
▁госпита	-9168
▁научной	-9169
▁повторя	-9170
▁продукт	-9171
▁старого	-9172
▁Цицерона	-9173
▁открытие	-9174
▁показали	-9175
▁считалось	-9176
▁предполагает	-9177
▁существовала	-9178
▁реконструкции	-9179
ид	-9180
сор	-9181
—17	-9182
▁Ch	-9183
▁ут	-9184
▁—,	-9185
гова	-9186
дила	-9187
слей	-9188
спий	-9189
▁кад	-9190
▁меч	-9191
▁оле	-9192
▁1900	-9193
▁1932	-9194
▁Побе	-9195
▁крат	-9196
▁пары	-9197
Россия	-9198
▁Финля	-9199
▁квали	-9200
▁каждая	-9201
▁откуда	-9202
▁разным	-9203
▁экстра	-9204
▁Севасто	-9205
▁допусти	-9206
▁комедии	-9207
▁участия	-9208
▁фильмов	-9209
значально	-9210
▁впадения	-9211
▁западных	-9212
▁являлась	-9213
▁компанией	-9214
▁отсутствия	-9215
▁десятилетия	-9216
▁заключённых	-9217
▁противостоя	-9218
▁употребление	-9219
42	-9220
46	-9221
СС	-9222
щему	-9223
▁Пол	-9224
жнему	-9225
порож	-9226
сериа	-9227
форму	-9228
▁1970	-9229
▁глад	-9230
▁опор	-9231
▁опри	-9232
▁сена	-9233
▁суме	-9234
▁теку	-9235
гности	-9236
рованы	-9237
▁Брест	-9238
▁вошла	-9239
▁карты	-9240
▁южных	-9241
▁Балтий	-9242
▁Вскоре	-9243
▁Польше	-9244
▁задачи	-9245
▁команд	-9246
▁океана	-9247
▁Платона	-9248
▁Россией	-9249
▁бассейн	-9250
▁возраст	-9251
▁монголь	-9252
▁создаёт	-9253
▁благород	-9254
▁конкурен	-9255
▁обозначе	-9256
▁римского	-9257
▁позволило	-9258
▁позволяют	-9259
▁наименование	-9260
▁использовании	-9261
43	-9262
Ри	-9263
Фо	-9264
Мар	-9265
—16	-9266
гали	-9267
опар	-9268
теро	-9269
▁ров	-9270
совые	-9271
стила	-9272
▁Есть	-9273
▁Клео	-9274
▁Окта	-9275
▁муче	-9276
▁Марка	-9277
▁Павел	-9278
▁выпла	-9279
▁мелко	-9280
▁рожда	-9281
▁смени	-9282
▁тёмно	-9283
▁экипа	-9284
станция	-9285
▁отожде	-9286
▁приста	-9287
лагается	-9288
▁Дмитрий	-9289
▁бригады	-9290
▁делится	-9291
▁доброво	-9292
▁оркестр	-9293
▁согласи	-9294
Националь	-9295
▁вращения	-9296
▁торговля	-9297
▁утверждён	-9298
▁советского	-9299
▁английского	-9300
▁построенный	-9301
▁принадлежат	-9302
▁установлено	-9303
▁исторической	-9304
▁православных	-9305
▁подразделения	-9306
▁разновидность	-9307
▁рассматривается	-9308
▁свидетельствует	-9309
анг	-9310
оке	-9311
чна	-9312
▁68	-9313
жнее	-9314
кции	-9315
пози	-9316
▁жив	-9317
▁мне	-9318
▁ора	-9319
▁рук	-9320
▁тёп	-9321
ворец	-9322
▁засу	-9323
▁лири	-9324
▁надё	-9325
▁плем	-9326
▁скан	-9327
валент	-9328
рально	-9329
▁Около	-9330
▁Сокра	-9331
▁актёр	-9332
▁погру	-9333
▁снега	-9334
▁члены	-9335
Топоним	-9336
низация	-9337
▁Египте	-9338
▁границ	-9339
▁любого	-9340
▁семена	-9341
географи	-9342
ровского	-9343
▁входили	-9344
▁голланд	-9345
▁конфлик	-9346
▁приказал	-9347
▁Владимира	-9348
▁столкнове	-9349
▁Азербайджа	-9350
▁работников	-9351
▁разновидности	-9352
▁правительством	-9353
.0	-9354
КА	-9355
Сле	-9356
уме	-9357
чим	-9358
влял	-9359
метр	-9360
нося	-9361
рили	-9362
слой	-9363
▁юга	-9364
перёд	-9365
▁1959	-9366
▁Бель	-9367
▁латы	-9368
теллек	-9369
▁Одним	-9370
▁Произ	-9371
▁газов	-9372
▁лицом	-9373
ритория	-9374
▁Сейчас	-9375
▁группи	-9376
▁делать	-9377
рованных	-9378
▁именова	-9379
▁морских	-9380
▁наконец	-9381
▁зрителей	-9382
▁выражение	-9383
▁студентов	-9384
▁архиеписко	-9385
▁внутреннего	-9386
▁современный	-9387
исследователь	-9388
▁железнодорожной	-9389
ад	-9390
▁85	-9391
голо	-9392
сомо	-9393
▁Вин	-9394
▁бре	-9395
▁лав	-9396
▁ссу	-9397
▁1980	-9398
▁Были	-9399
▁гора	-9400
▁льда	-9401
▁обру	-9402
▁угла	-9403
▁угол	-9404
Другое	-9405
вшимся	-9406
жаются	-9407
▁бизне	-9408
▁запол	-9409
▁рынке	-9410
надцать	-9411
невеков	-9412
спомина	-9413
чностью	-9414
▁Алексе	-9415
▁двадца	-9416
▁носили	-9417
▁отобра	-9418
▁ствола	-9419
Промышле	-9420
▁авиации	-9421
▁закрепи	-9422
▁кальция	-9423
▁ландшаф	-9424
▁минимум	-9425
▁молитвы	-9426
▁предска	-9427
▁создано	-9428
▁открытый	-9429
▁перегово	-9430
▁Император	-9431
▁оказалась	-9432
▁Республика	-9433
▁инициативе	-9434
▁обнаружены	-9435
▁химической	-9436
▁собственные	-9437
▁оборудование	-9438
▁классификации	-9439
▁необходимость	-9440
,,	-9441
Ци	-9442
пр	-9443
▁r	-9444
вез	-9445
леб	-9446
▁Ай	-9447
▁Дэ	-9448
▁Эн	-9449
Внеш	-9450
воря	-9451
гают	-9452
дент	-9453
люби	-9454
сыпа	-9455
▁ков	-9456
▁мач	-9457
▁сбо	-9458
Благо	-9459
дится	-9460
логом	-9461
стный	-9462
▁1936	-9463
▁Бава	-9464
▁веку	-9465
▁взят	-9466
▁долю	-9467
▁плен	-9468
единён	-9469
▁жилищ	-9470
▁носят	-9471
▁Турции	-9472
▁Шамиль	-9473
▁дворца	-9474
▁лотере	-9475
▁победу	-9476
▁регион	-9477
▁австрий	-9478
▁предмет	-9479
▁Тверской	-9480
▁вынужден	-9481
▁недалеко	-9482
▁останови	-9483
▁предводи	-9484
▁умеренно	-9485
▁Швейцарии	-9486
▁имущества	-9487
▁назывался	-9488
▁описывает	-9489
▁определить	-9490
▁персонажей	-9491
▁президентом	-9492
▁национальный	-9493
▁произведениях	-9494
▁человеческого	-9495
▁государственные	-9496
Вер	-9497
Кор	-9498
мок	-9499
езде	-9500
феру	-9501
▁Дже	-9502
▁Иго	-9503
▁бег	-9504
▁крю	-9505
▁хва	-9506
ванге	-9507
▁жанр	-9508
▁запи	-9509
▁личи	-9510
▁твер	-9511
альным	-9512
▁камня	-9513
▁монар	-9514
▁писто	-9515
▁псевдо	-9516
▁африкан	-9517
▁барокко	-9518
▁обратно	-9519
▁пищевой	-9520
▁работах	-9521
ительство	-9522
▁Византии	-9523
▁открылся	-9524
▁поддержку	-9525
логического	-9526
▁ответственности	-9527
ard	-9528
ллу	-9529
лму	-9530
мма	-9531
▁49	-9532
▁Вя	-9533
Стро	-9534
веда	-9535
гоце	-9536
пала	-9537
▁вен	-9538
▁зла	-9539
▁кля	-9540
▁нея	-9541
▁опи	-9542
▁рем	-9543
ласти	-9544
▁Саль	-9545
▁Саха	-9546
ложена	-9547
▁Общая	-9548
▁Свято	-9549
▁брата	-9550
▁музее	-9551
▁прину	-9552
▁родов	-9553
▁созре	-9554
▁Первым	-9555
▁вперёд	-9556
▁племён	-9557
▁повтор	-9558
▁прошли	-9559
▁сообщи	-9560
▁удержи	-9561
▁употре	-9562
▁выполня	-9563
▁горожан	-9564
▁деревья	-9565
▁корабли	-9566
▁ликвиди	-9567
▁методов	-9568
▁пределы	-9569
▁приняли	-9570
▁движений	-9571
▁крупного	-9572
▁непрерыв	-9573
▁рассчита	-9574
▁регистра	-9575
▁режиссёр	-9576
▁изменений	-9577
▁установки	-9578
▁представитель	-9579
Ана	-9580
Сим	-9581
бет	-9582
рва	-9583
син	-9584
хро	-9585
▁41	-9586
ллер	-9587
ризм	-9588
▁пев	-9589
▁тут	-9590
конец	-9591
несса	-9592
новей	-9593
стера	-9594
▁Хаба	-9595
▁жить	-9596
▁инде	-9597
▁нали	-9598
▁наса	-9599
▁орна	-9600
▁плав	-9601
зового	-9602
листов	-9603
ология	-9604
▁Колум	-9605
▁ближе	-9606
▁горно	-9607
▁полка	-9608
▁проли	-9609
▁пропи	-9610
▁устье	-9611
▁баталь	-9612
▁важную	-9613
▁грузов	-9614
▁пневмо	-9615
▁пример	-9616
▁центры	-9617
▁имеющий	-9618
▁крайней	-9619
▁мануфак	-9620
▁неправи	-9621
▁объявил	-9622
▁сослови	-9623
▁шириной	-9624
▁вернулся	-9625
▁вспомога	-9626
▁обрабаты	-9627
▁факторов	-9628
Ростелеком	-9629
▁нарушение	-9630
▁небольшое	-9631
▁связывают	-9632
▁назначения	-9633
▁воздействие	-9634
▁объединение	-9635
▁Министерства	-9636
▁определённой	-9637
▁функционирова	-9638
ob	-9639
мит	-9640
мут	-9641
ноз	-9642
пон	-9643
тип	-9644
логе	-9645
роде	-9646
семь	-9647
сена	-9648
ссом	-9649
тарь	-9650
▁Сар	-9651
▁ход	-9652
▁ько	-9653
слова	-9654
тория	-9655
храни	-9656
▁Венг	-9657
▁Дели	-9658
▁Демо	-9659
▁Ники	-9660
▁взял	-9661
▁набе	-9662
▁угля	-9663
▁ухуд	-9664
▁эсте	-9665
ваемые	-9666
жество	-9667
менной	-9668
▁гаран	-9669
▁казах	-9670
▁комик	-9671
▁массу	-9672
▁навод	-9673
▁плоды	-9674
▁поляр	-9675
▁прока	-9676
▁рассу	-9677
▁сыном	-9678
▁сырья	-9679
▁языки	-9680
новский	-9681
▁бизнес	-9682
▁значит	-9683
▁концов	-9684
▁музеев	-9685
▁орудия	-9686
▁охраны	-9687
▁попыта	-9688
▁прибре	-9689
▁пропор	-9690
▁сувере	-9691
▁членом	-9692
прежнему	-9693
▁миллиар	-9694
▁назвать	-9695
▁Калигула	-9696
▁многолет	-9697
▁начались	-9698
▁педагоги	-9699
▁проявляется	-9700
▁собственных	-9701
ine	-9702
▁вд	-9703
хами	-9704
▁Бос	-9705
▁Объ	-9706
▁Шар	-9707
любле	-9708
трибу	-9709
▁1934	-9710
▁Цари	-9711
▁боли	-9712
▁вычи	-9713
▁кали	-9714
▁обря	-9715
▁отре	-9716
▁рыба	-9717
▁слоя	-9718
носить	-9719
рением	-9720
▁Свяще	-9721
▁волны	-9722
▁подда	-9723
▁порту	-9724
▁почве	-9725
▁привы	-9726
▁удель	-9727
▁целый	-9728
▁Египта	-9729
▁Прибал	-9730
▁Шамиля	-9731
▁благоу	-9732
▁впечат	-9733
▁голову	-9734
▁гумани	-9735
▁мнения	-9736
▁похоро	-9737
▁провед	-9738
▁романе	-9739
▁синаго	-9740
совершен	-9741
▁аэропор	-9742
▁детских	-9743
▁команду	-9744
▁наличии	-9745
▁стрелко	-9746
▁эпители	-9747
▁интеллек	-9748
▁послевое	-9749
▁оказывает	-9750
▁военнослужа	-9751
▁мероприятий	-9752
▁присутствует	-9753
ay	-9754
Бы	-9755
Дан	-9756
Свя	-9757
жья	-9758
изм	-9759
йма	-9760
фан	-9761
Золо	-9762
Теле	-9763
демо	-9764
▁Дар	-9765
▁Иже	-9766
▁аце	-9767
▁вяз	-9768
▁шка	-9769
витие	-9770
вится	-9771
▁1923	-9772
▁1938	-9773
▁Атла	-9774
▁каби	-9775
▁пече	-9776
▁став	-9777
▁тюрь	-9778
▁упро	-9779
▁цело	-9780
ведена	-9781
недель	-9782
щённые	-9783
▁Такой	-9784
▁мощей	-9785
▁наход	-9786
▁нормы	-9787
▁общий	-9788
▁факты	-9789
новение	-9790
▁Канады	-9791
▁Органи	-9792
▁восьми	-9793
▁ископа	-9794
▁прозви	-9795
▁прозра	-9796
▁просве	-9797
▁властей	-9798
▁надпись	-9799
▁проника	-9800
▁решений	-9801
▁сыновей	-9802
▁отдельно	-9803
▁проститу	-9804
▁разговор	-9805
▁фантасти	-9806
▁концепции	-9807
▁составило	-9808
▁основанный	-9809
▁соглашение	-9810
▁восстанавли	-9811
▁преобладают	-9812
▁существовал	-9813
▁исторические	-9814
▁Александрович	-9815
97	-9816
eg	-9817
као	-9818
нея	-9819
нса	-9820
▁Пя	-9821
▁ио	-9822
▁—.	-9823
льфи	-9824
тали	-9825
шина	-9826
▁Ере	-9827
▁чём	-9828
тками	-9829
товый	-9830
▁1985	-9831
▁Гроз	-9832
▁Моло	-9833
▁убор	-9834
щённый	-9835
▁градо	-9836
▁иного	-9837
▁Пенело	-9838
▁Швеции	-9839
▁быстры	-9840
Описание	-9841
▁Израиля	-9842
▁востоку	-9843
▁впадает	-9844
▁референ	-9845
▁русская	-9846
▁комитета	-9847
▁переводе	-9848
▁половина	-9849
▁известной	-9850
▁английском	-9851
▁древнейших	-9852
▁известного	-9853
▁напоминает	-9854
▁природного	-9855
41	-9856
9.	-9857
ex	-9858
АН	-9859
Ши	-9860
мс	-9861
ell	-9862
дли	-9863
иде	-9864
мие	-9865
сня	-9866
▁57	-9867
ллов	-9868
меры	-9869
пель	-9870
пуск	-9871
теры	-9872
▁800	-9873
▁Сур	-9874
▁Эри	-9875
▁оль	-9876
▁час	-9877
графа	-9878
ждена	-9879
ждены	-9880
зобра	-9881
опера	-9882
▁1948	-9883
▁Львов	-9884
▁Свето	-9885
▁вещей	-9886
▁песню	-9887
▁поэмы	-9888
▁преем	-9889
▁приез	-9890
▁прими	-9891
▁равна	-9892
▁судна	-9893
Впервые	-9894
▁Наполе	-9895
▁водных	-9896
▁выигра	-9897
▁данном	-9898
▁десять	-9899
▁долины	-9900
▁лёгких	-9901
▁рубеже	-9902
Географи	-9903
▁Наиболь	-9904
▁Француз	-9905
▁Цицерон	-9906
▁местной	-9907
▁столицу	-9908
▁подобные	-9909
Петербурге	-9910
▁немецкого	-9911
▁скоростью	-9912
▁состоящий	-9913
▁Университе	-9914
▁социалисти	-9915
▁загрязнения	-9916
▁инструменты	-9917
▁общественно	-9918
▁общественной	-9919
▁расположенные	-9920
▁характеристики	-9921
86	-9922
Ду	-9923
пь	-9924
ers	-9925
ври	-9926
▁Эд	-9927
▁ых	-9928
низм	-9929
фона	-9930
▁Луи	-9931
▁гиб	-9932
носят	-9933
▁Алба	-9934
▁Рома	-9935
▁Эфио	-9936
▁забы	-9937
▁наци	-9938
▁озна	-9939
▁цикл	-9940
динами	-9941
кратии	-9942
менное	-9943
рующих	-9944
щённых	-9945
▁Феодо	-9946
▁букси	-9947
▁мигре	-9948
▁огонь	-9949
▁отряд	-9950
▁толщи	-9951
▁борьба	-9952
▁вторым	-9953
▁детали	-9954
▁золото	-9955
▁импуль	-9956
▁совсем	-9957
▁учётом	-9958
держание	-9959
▁коричне	-9960
▁неожида	-9961
▁взрослых	-9962
▁основная	-9963
▁прямоуго	-9964
▁условиям	-9965
▁коммуника	-9966
▁мощностью	-9967
▁опасности	-9968
▁деревянных	-9969
▁еврейского	-9970
▁предшествен	-9971
▁достопримеча	-9972
▁увеличивается	-9973
85	-9974
tr	-9975
хт	-9976
нги	-9977
шок	-9978
▁Иа	-9979
▁ём	-9980
Обще	-9981
нист	-9982
чили	-9983
▁10-	-9984
▁май	-9985
▁ску	-9986
▁счё	-9987
ктора	-9988
нутри	-9989
▁1946	-9990
▁диза	-9991
▁мяса	-9992
▁надо	-9993
▁пиво	-9994
▁резо	-9995
▁сила	-9996
▁труп	-9997
ложены	-9998
ральди	-9999
▁Самар	-10000
▁волей	-10001
▁лечеб	-10002
▁повер	-10003
▁сезон	-10004
▁сотни	-10005
▁сферы	-10006
▁шоссе	-10007
▁Россию	-10008
▁кикимо	-10009
▁лагере	-10010
▁печати	-10011
▁поводу	-10012
▁прикры	-10013
▁прошёл	-10014
▁спокой	-10015
▁выступи	-10016
▁издание	-10017
▁личного	-10018
▁принять	-10019
▁словами	-10020
▁станций	-10021
▁больница	-10022
▁выпадает	-10023
▁отмечает	-10024
▁строение	-10025
▁торговле	-10026
▁поведение	-10027
▁повышение	-10028
▁сложности	-10029
▁Константин	-10030
▁Октябрьской	-10031
▁музыкальный	-10032
▁Национальный	-10033
▁продолжается	-10034
бю	-10035
мп	-10036
жуа	-10037
зап	-10038
зво	-10039
пка	-10040
рет	-10041
чья	-10042
бова	-10043
зади	-10044
нент	-10045
паду	-10046
сель	-10047
скет	-10048
ссио	-10049
шель	-10050
▁Com	-10051
▁Ван	-10052
▁Мур	-10053
▁Пан	-10054
довые	-10055
ногих	-10056
▁Обще	-10057
▁выру	-10058
▁мужа	-10059
▁пари	-10060
▁ский	-10061
▁труд	-10062
▁ядра	-10063
ссоциа	-10064
▁Солне	-10065
▁белый	-10066
▁газет	-10067
культур	-10068
тивными	-10069
▁активи	-10070
▁видами	-10071
▁всемир	-10072
▁лагеря	-10073
▁посети	-10074
▁раздра	-10075
рические	-10076
ционными	-10077
▁женщина	-10078
▁журнала	-10079
▁римской	-10080
▁уменьши	-10081
▁античных	-10082
▁энциклопе	-10083
▁Посполитой	-10084
▁продолжает	-10085
▁реальности	-10086
▁переименован	-10087
▁политические	-10088
▁председатель	-10089
4,	-10090
ун	-10091
ала	-10092
бое	-10093
нид	-10094
спа	-10095
▁Ты	-10096
▁Эк	-10097
мено	-10098
мова	-10099
сили	-10100
▁Гео	-10101
▁Тео	-10102
▁джа	-10103
▁уль	-10104
летря	-10105
▁1928	-10106
▁жены	-10107
▁несу	-10108
▁папи	-10109
▁съём	-10110
▁Анато	-10111
▁Центр	-10112
▁битвы	-10113
▁евреи	-10114
▁жилья	-10115
▁лауре	-10116
▁откло	-10117
▁слове	-10118
ватории	-10119
ходится	-10120
▁беспла	-10121
▁бывшей	-10122
▁запада	-10123
▁мечеть	-10124
▁порода	-10125
▁сердце	-10126
▁бизнеса	-10127
▁гусениц	-10128
▁империя	-10129
▁примыка	-10130
▁реакция	-10131
▁стадион	-10132
▁столько	-10133
▁третьей	-10134
▁функцию	-10135
восточной	-10136
▁большеви	-10137
▁министер	-10138
▁подобных	-10139
▁странами	-10140
▁важнейших	-10141
▁древесины	-10142
▁отделение	-10143
▁структуру	-10144
▁Существуют	-10145
▁активности	-10146
▁появлением	-10147
▁развиваться	-10148
▁транспортных	-10149
бол	-10150
жих	-10151
лёй	-10152
чах	-10153
чув	-10154
зоне	-10155
коро	-10156
роко	-10157
тком	-10158
▁Лин	-10159
▁сма	-10160
довое	-10161
мский	-10162
ранже	-10163
стили	-10164
чному	-10165
▁1967	-10166
▁Гера	-10167
▁Меди	-10168
▁бюро	-10169
▁ваго	-10170
▁взры	-10171
▁квар	-10172
▁пожи	-10173
▁свин	-10174
ваемый	-10175
ровали	-10176
▁Значи	-10177
▁варьи	-10178
▁казни	-10179
▁каким	-10180
▁класс	-10181
▁толко	-10182
тайской	-10183
▁Гомера	-10184
▁бюджет	-10185
▁федера	-10186
▁Древнем	-10187
▁десятки	-10188
▁социали	-10189
▁чистого	-10190
▁Вильгель	-10191
▁участием	-10192
▁аэропорта	-10193
▁оккупации	-10194
▁соревнова	-10195
▁активность	-10196
▁называться	-10197
▁подразделя	-10198
▁потенциаль	-10199
▁предпочита	-10200
▁разновидно	-10201
▁утверждает	-10202
▁исторически	-10203
▁официальным	-10204
▁освобождения	-10205
▁пространстве	-10206
▁взаимодействия	-10207
▁использовалось	-10208
91	-10209
—7	-10210
нар	-10211
тит	-10212
Полу	-10213
льда	-10214
шкой	-10215
шной	-10216
▁30-	-10217
▁бол	-10218
▁кан	-10219
слава	-10220
▁Тере	-10221
▁дума	-10222
▁капи	-10223
▁освя	-10224
▁серы	-10225
▁трех	-10226
▁эска	-10227
зависи	-10228
▁Дании	-10229
▁Новой	-10230
▁вывод	-10231
▁индий	-10232
▁лесах	-10233
▁наука	-10234
▁нитро	-10235
▁регла	-10236
▁скота	-10237
Архитек	-10238
лийской	-10239
новения	-10240
▁Выборг	-10241
▁Гонкон	-10242
▁Первое	-10243
▁египет	-10244
▁желудо	-10245
▁ислама	-10246
▁компен	-10247
▁началь	-10248
▁театре	-10249
▁занимал	-10250
▁остатки	-10251
▁отчасти	-10252
▁перекры	-10253
▁племени	-10254
▁ремесле	-10255
струирова	-10256
▁Вергилия	-10257
▁Является	-10258
▁возникла	-10259
▁рассказа	-10260
▁трагедии	-10261
▁источника	-10262
▁обращения	-10263
▁философия	-10264
▁Количество	-10265
▁находилось	-10266
▁свойствами	-10267
▁увеличение	-10268
▁христианства	-10269
▁млекопитающих	-10270
▁экономических	-10271
▁самостоятельно	-10272
Эне	-10273
гал	-10274
ффи	-10275
хло	-10276
▁66	-10277
▁Ах	-10278
Вели	-10279
рядо	-10280
▁Ала	-10281
▁Осе	-10282
▁зал	-10283
нулся	-10284
совых	-10285
▁1979	-10286
▁name	-10287
▁неде	-10288
▁нейт	-10289
▁пару	-10290
▁часа	-10291
женной	-10292
лённой	-10293
сского	-10294
▁алюми	-10295
▁ввиду	-10296
▁задач	-10297
▁карта	-10298
▁лесов	-10299
▁любом	-10300
▁набор	-10301
▁навер	-10302
▁номер	-10303
▁содей	-10304
▁сутки	-10305
▁цирко	-10306
▁Аллаха	-10307
▁библей	-10308
▁полное	-10309
▁потери	-10310
▁службе	-10311
▁статьи	-10312
▁ассоции	-10313
▁больных	-10314
▁рыболов	-10315
▁Германия	-10316
▁железная	-10317
▁изобража	-10318
▁традиция	-10319
▁Казахстан	-10320
▁повышения	-10321
▁положении	-10322
▁стоимость	-10323
▁Президиума	-10324
▁продолжали	-10325
▁разрушения	-10326
▁медицинских	-10327
▁путешествен	-10328
▁социального	-10329
▁государствах	-10330
▁издательство	-10331
▁человечества	-10332
▁сопротивление	-10333
Административное	-10334
ОС	-10335
Фа	-10336
тр	-10337
эк	-10338
all	-10339
гка	-10340
емле	-10341
ехал	-10342
зией	-10343
лией	-10344
пять	-10345
ссию	-10346
▁Ада	-10347
▁Сво	-10348
▁аро	-10349
▁фла	-10350
ковое	-10351
левой	-10352
ровке	-10353
▁Спар	-10354
▁заму	-10355
▁земе	-10356
▁хода	-10357
менных	-10358
точных	-10359
▁Дербе	-10360
▁Откры	-10361
▁играх	-10362
▁конфи	-10363
▁крыла	-10364
▁призы	-10365
▁рекой	-10366
▁травя	-10367
бирской	-10368
▁арифме	-10369
▁пригод	-10370
▁товары	-10371
▁ширина	-10372
▁Августа	-10373
▁Начиная	-10374
▁ведётся	-10375
▁мужчины	-10376
▁передви	-10377
▁пограни	-10378
▁процеду	-10379
▁технику	-10380
▁геометри	-10381
▁называет	-10382
▁оболочки	-10383
▁отказыва	-10384
▁отождест	-10385
▁придержи	-10386
▁строения	-10387
▁кислорода	-10388
▁шиповника	-10389
▁транспорти	-10390
▁увеличения	-10391
▁последствия	-10392
ht	-10393
ik	-10394
кен	-10395
хоз	-10396
▁Ау	-10397
▁ее	-10398
▁ии	-10399
▁св	-10400
нков	-10401
сипе	-10402
сопо	-10403
▁166	-10404
▁50-	-10405
▁Кла	-10406
▁Ски	-10407
Когда	-10408
вёрну	-10409
ловых	-10410
мемно	-10411
▁Речи	-10412
▁асси	-10413
▁выжи	-10414
▁днём	-10415
▁жени	-10416
▁изба	-10417
▁сост	-10418
▁тока	-10419
ленных	-10420
матери	-10421
семест	-10422
▁башни	-10423
▁блоки	-10424
▁пояса	-10425
▁цикла	-10426
мерации	-10427
стройки	-10428
▁атрибу	-10429
▁бумаги	-10430
▁отстав	-10431
▁старой	-10432
▁статье	-10433
▁ведущих	-10434
▁коммуна	-10435
▁основал	-10436
▁позвоно	-10437
▁равнове	-10438
▁русское	-10439
▁фамилия	-10440
▁футболу	-10441
▁вопросам	-10442
▁красного	-10443
▁операций	-10444
▁остались	-10445
▁снижение	-10446
▁созданию	-10447
▁уничтожи	-10448
▁программу	-10449
▁проживает	-10450
▁различают	-10451
▁результат	-10452
▁артиллерии	-10453
▁использует	-10454
▁состоялось	-10455
строительный	-10456
▁Средневеков	-10457
▁распростран	-10458
▁религиозной	-10459
▁страхования	-10460
▁формируется	-10461
▁значительную	-10462
▁международные	-10463
▁исследователей	-10464
▁художественной	-10465
7.	-10466
Фе	-10467
ate	-10468
клы	-10469
▁64	-10470
▁ГУ	-10471
дать	-10472
хоза	-10473
▁Ама	-10474
▁бир	-10475
▁дав	-10476
гмати	-10477
ждено	-10478
▁1956	-10479
▁Чере	-10480
▁апри	-10481
▁выса	-10482
▁кише	-10483
▁куби	-10484
▁опол	-10485
▁пило	-10486
▁щело	-10487
▁эндо	-10488
▁юрис	-10489
▁яйца	-10490
альная	-10491
ваемой	-10492
зацией	-10493
конода	-10494
пление	-10495
тивную	-10496
чается	-10497
▁Афины	-10498
▁вовсе	-10499
▁втори	-10500
▁малой	-10501
▁общих	-10502
▁царём	-10503
комбина	-10504
▁Афгани	-10505
▁Царицы	-10506
▁занято	-10507
▁играть	-10508
▁князей	-10509
▁лагерь	-10510
▁породы	-10511
▁провёл	-10512
▁чёрный	-10513
▁Сегодня	-10514
▁департа	-10515
▁молодой	-10516
▁открыты	-10517
▁потребо	-10518
▁призыва	-10519
ментирова	-10520
▁Калигулы	-10521
▁праздник	-10522
▁считался	-10523
▁убийства	-10524
Петербурга	-10525
▁достигать	-10526
▁производя	-10527
Большинство	-10528
▁количеству	-10529
▁композитор	-10530
▁популярным	-10531
▁физической	-10532
▁преступлений	-10533
▁средневековой	-10534
др	-10535
art	-10536
джу	-10537
мпе	-10538
рут	-10539
цин	-10540
▁сё	-10541
нича	-10542
нули	-10543
пари	-10544
сыла	-10545
торе	-10546
чато	-10547
▁Джи	-10548
▁СНГ	-10549
▁пей	-10550
ловек	-10551
тника	-10552
▁1949	-10553
▁Арка	-10554
▁днев	-10555
▁иные	-10556
▁спло	-10557
▁флей	-10558
▁фрон	-10559
совета	-10560
▁Борис	-10561
▁Герак	-10562
▁Такая	-10563
▁белые	-10564
▁готов	-10565
▁давно	-10566
▁ритуа	-10567
▁фарма	-10568
▁фонда	-10569
▁якобы	-10570
станций	-10571
ционную	-10572
▁Хьюсто	-10573
▁гепати	-10574
▁знаком	-10575
▁испове	-10576
▁прошед	-10577
▁слегка	-10578
ключения	-10579
▁введена	-10580
▁заверши	-10581
▁кризиса	-10582
▁племена	-10583
▁сторона	-10584
▁упомяну	-10585
▁медленно	-10586
▁осталось	-10587
▁сообщает	-10588
▁интересов	-10589
▁продоволь	-10590
▁обеспечить	-10591
▁эксплуатации	-10592
▁деятельностью	-10593
▁k	-10594
und	-10595
ьет	-10596
▁ВС	-10597
виль	-10598
кори	-10599
нила	-10600
▁Боб	-10601
▁Хан	-10602
▁зон	-10603
▁ико	-10604
ровок	-10605
сторо	-10606
щался	-10607
▁дожд	-10608
▁заря	-10609
▁игру	-10610
▁опыт	-10611
▁отте	-10612
▁суды	-10613
Исполь	-10614
Многие	-10615
метрия	-10616
нников	-10617
рована	-10618
▁Кауна	-10619
▁Киева	-10620
▁Рыбин	-10621
▁ведом	-10622
▁какое	-10623
▁самки	-10624
▁серия	-10625
▁узлов	-10626
вленной	-10627
▁Иоанна	-10628
▁важных	-10629
▁инжене	-10630
▁музыку	-10631
▁пришли	-10632
▁рекорд	-10633
▁древние	-10634
▁мужской	-10635
▁потерпе	-10636
▁русским	-10637
▁частицы	-10638
▁говорить	-10639
▁интерпре	-10640
▁третьего	-10641
▁императри	-10642
▁повсемест	-10643
▁различным	-10644
▁режиссёра	-10645
▁занимались	-10646
▁руководство	-10647
▁сохраняется	-10648
▁цивилизации	-10649
▁международной	-10650
▁муниципальных	-10651
▁железнодорожных	-10652
Ан	-10653
“,	-10654
Ещё	-10655
шеб	-10656
Илиа	-10657
сант	-10658
шные	-10659
▁and	-10660
▁Мат	-10661
▁Мен	-10662
▁руд	-10663
▁сар	-10664
▁сег	-10665
вказа	-10666
граде	-10667
должи	-10668
лимпи	-10669
лливу	-10670
менён	-10671
сение	-10672
▁1500	-10673
▁Само	-10674
▁вспы	-10675
▁мель	-10676
▁сидя	-10677
▁Тимур	-10678
▁Элект	-10679
▁армян	-10680
▁верху	-10681
▁вышла	-10682
▁глюко	-10683
▁длине	-10684
▁дожде	-10685
▁лицен	-10686
▁обыча	-10687
▁превы	-10688
▁табли	-10689
▁фирмы	-10690
▁химии	-10691
▁храня	-10692
▁этими	-10693
востоку	-10694
ливость	-10695
▁Входит	-10696
▁Каждый	-10697
▁Клеопа	-10698
▁автома	-10699
▁зарабо	-10700
▁землях	-10701
▁кавале	-10702
▁камень	-10703
▁массой	-10704
▁оценки	-10705
▁сухопу	-10706
▁францу	-10707
формации	-10708
▁Лондоне	-10709
▁Чёрного	-10710
▁антропо	-10711
▁картина	-10712
▁отмечал	-10713
▁перешли	-10714
▁подража	-10715
▁приказу	-10716
▁прихода	-10717
▁пытался	-10718
▁развива	-10719
правление	-10720
▁Академии	-10721
▁великого	-10722
▁генерала	-10723
▁западное	-10724
▁мирового	-10725
▁офицеров	-10726
▁познания	-10727
▁проектов	-10728
▁торговый	-10729
▁небольшая	-10730
▁постоянной	-10731
▁проявления	-10732
▁постоянного	-10733
▁обслуживания	-10734
33	-10735
ГУ	-10736
Гу	-10737
неф	-10738
хах	-10739
Стра	-10740
берт	-10741
бить	-10742
ганы	-10743
деся	-10744
ляют	-10745
рены	-10746
▁Выс	-10747
▁Мир	-10748
Распо	-10749
ковод	-10750
ляция	-10751
равни	-10752
ровых	-10753
стика	-10754
тание	-10755
▁1935	-10756
▁1962	-10757
▁1986	-10758
▁арен	-10759
▁взро	-10760
▁гроб	-10761
▁душа	-10762
▁нера	-10763
▁побо	-10764
▁схва	-10765
Первое	-10766
нилась	-10767
▁аэрод	-10768
▁какие	-10769
▁парке	-10770
▁плохо	-10771
▁семье	-10772
▁хлебо	-10773
▁эпите	-10774
▁дальше	-10775
▁князем	-10776
▁подъём	-10777
▁полный	-10778
▁прочие	-10779
▁служил	-10780
▁тексты	-10781
▁частные	-10782
▁Возможно	-10783
▁древнего	-10784
▁сочинений	-10785
▁выделяется	-10786
▁заключения	-10787
▁километрах	-10788
▁подчинения	-10789
▁направлений	-10790
88	-10791
Вт	-10792
ium	-10793
нку	-10794
счё	-10795
фен	-10796
—10	-10797
тицы	-10798
толе	-10799
▁...	-10800
▁Мюн	-10801
▁Сен	-10802
▁ожи	-10803
▁шку	-10804
Перво	-10805
видно	-10806
токси	-10807
▁1905	-10808
▁Азов	-10809
▁ауди	-10810
▁ввёл	-10811
▁идею	-10812
▁идея	-10813
▁пива	-10814
▁типу	-10815
▁цита	-10816
славии	-10817
▁армию	-10818
▁банка	-10819
▁иначе	-10820
▁корни	-10821
▁наиме	-10822
▁подно	-10823
▁греков	-10824
▁конден	-10825
▁лёгкой	-10826
▁повлия	-10827
▁просла	-10828
▁службу	-10829
▁уступа	-10830
▁высокую	-10831
▁лошадей	-10832
▁остался	-10833
▁принята	-10834
▁публици	-10835
▁рельефа	-10836
▁шотланд	-10837
▁Богороди	-10838
▁Меркурия	-10839
▁Таганрог	-10840
▁обучение	-10841
▁огромное	-10842
▁островах	-10843
▁провести	-10844
▁спортсме	-10845
▁Волгоград	-10846
▁греческой	-10847
▁образован	-10848
▁организме	-10849
▁писателей	-10850
▁правление	-10851
▁произошла	-10852
▁фиксирова	-10853
▁деревянные	-10854
▁отношениях	-10855
▁соглашения	-10856
▁функциональ	-10857
▁ответственность	-10858
92	-10859
чле	-10860
▁56	-10861
дное	-10862
зора	-10863
кара	-10864
пове	-10865
▁60-	-10866
▁еще	-10867
▁ибо	-10868
▁нов	-10869
форми	-10870
▁Бори	-10871
▁Крем	-10872
▁веса	-10873
▁дево	-10874
▁мышц	-10875
▁нити	-10876
▁тума	-10877
▁Литвы	-10878
▁будто	-10879
▁диску	-10880
▁храме	-10881
Начиная	-10882
Религия	-10883
▁внешне	-10884
▁другая	-10885
▁кислот	-10886
▁кольца	-10887
▁опуска	-10888
▁шокола	-10889
▁эмигра	-10890
▁Запорож	-10891
▁золотом	-10892
▁королём	-10893
▁особого	-10894
▁участке	-10895
▁царство	-10896
▁Астрахан	-10897
▁Восточно	-10898
▁введения	-10899
▁возникли	-10900
▁комиссии	-10901
▁получали	-10902
▁решением	-10903
▁говорится	-10904
▁известная	-10905
▁предметом	-10906
▁показывает	-10907
▁показывают	-10908
▁популярных	-10909
▁упоминания	-10910
▁образованию	-10911
▁ограничения	-10912
▁современным	-10913
▁специальной	-10914
▁Государственной	-10915
▁континентальный	-10916
-3	-10917
-5	-10918
ev	-10919
ud	-10920
Сер	-10921
где	-10922
еть	-10923
рид	-10924
сан	-10925
▁Ну	-10926
▁ас	-10927
▁пше	-10928
▁шлю	-10929
Право	-10930
зовой	-10931
▁1812	-10932
▁1910	-10933
▁Свер	-10934
▁гава	-10935
▁зале	-10936
▁идут	-10937
вского	-10938
несены	-10939
ничных	-10940
ставра	-10941
щенных	-10942
▁Берди	-10943
▁Болга	-10944
▁нации	-10945
▁обсер	-10946
▁уделя	-10947
губерна	-10948
лённого	-10949
ционном	-10950
▁Нерона	-10951
▁высоту	-10952
▁заводе	-10953
▁натрия	-10954
▁недель	-10955
▁осозна	-10956
▁похода	-10957
▁спарта	-10958
▁темати	-10959
▁факуль	-10960
▁бюджета	-10961
▁голосов	-10962
▁магазин	-10963
▁отнести	-10964
▁Вергилий	-10965
▁аппарата	-10966
▁большими	-10967
▁гусеницы	-10968
▁землетря	-10969
▁меняется	-10970
▁оркестра	-10971
▁основано	-10972
▁способен	-10973
▁участков	-10974
пределение	-10975
▁демонстра	-10976
▁поколения	-10977
▁художники	-10978
▁информация	-10979
▁республике	-10980
▁промышленные	-10981
▁электроэнергии	-10982
79	-10983
ТР	-10984
ity	-10985
ran	-10986
вна	-10987
зит	-10988
▁ЦК	-10989
Анти	-10990
день	-10991
защи	-10992
мети	-10993
пина	-10994
тент	-10995
▁0,1	-10996
▁мол	-10997
ждают	-10998
твори	-10999
удоже	-11000
ённое	-11001
▁1914	-11002
▁Джор	-11003
▁Маке	-11004
▁Усть	-11005
▁убил	-11006
▁чугу	-11007
рующие	-11008
▁Волге	-11009
▁Талму	-11010
▁Часть	-11011
▁берёт	-11012
▁видел	-11013
▁домой	-11014
▁любое	-11015
▁точке	-11016
▁черта	-11017
ваемого	-11018
вающего	-11019
востока	-11020
▁Виктор	-11021
▁Иисуса	-11022
▁Людови	-11023
▁аресто	-11024
▁бывших	-11025
▁воинов	-11026
▁высшее	-11027
▁кольце	-11028
▁кресто	-11029
▁поэтов	-11030
▁телефо	-11031
▁цветки	-11032
▁Великий	-11033
▁анализа	-11034
▁драгоце	-11035
▁другому	-11036
▁единого	-11037
▁историо	-11038
▁комитет	-11039
▁неблаго	-11040
▁окраине	-11041
▁оценкам	-11042
▁перешёл	-11043
▁пригоро	-11044
▁разруши	-11045
▁больного	-11046
▁избежать	-11047
▁культиви	-11048
▁образовы	-11049
▁пытается	-11050
▁четверти	-11051
▁воспомина	-11052
▁следствие	-11053
▁характере	-11054
▁Всемирного	-11055
▁полномочий	-11056
▁Узбекистана	-11057
▁выступления	-11058
▁компонентов	-11059
▁особенностей	-11060
▁христианской	-11061
▁восстановления	-11062
▁инфраструктуры	-11063
гис	-11064
шне	-11065
▁52	-11066
▁жу	-11067
▁яд	-11068
XVII	-11069
жисс	-11070
леты	-11071
нига	-11072
рием	-11073
▁130	-11074
▁Гам	-11075
▁Цар	-11076
▁зво	-11077
литов	-11078
пиона	-11079
скопи	-11080
фильм	-11081
▁1931	-11082
▁Крон	-11083
▁Турк	-11084
▁масс	-11085
▁моби	-11086
▁обер	-11087
▁роза	-11088
▁убит	-11089
нутрен	-11090
▁Гиппо	-11091
▁Шанха	-11092
▁блока	-11093
▁второ	-11094
▁двора	-11095
▁низко	-11096
▁подли	-11097
▁попро	-11098
▁совме	-11099
▁сцены	-11100
дерланд	-11101
кратный	-11102
стралий	-11103
▁автоно	-11104
▁вытяну	-11105
▁годами	-11106
▁другую	-11107
▁защиту	-11108
▁община	-11109
▁покров	-11110
▁усилия	-11111
рованные	-11112
▁Франция	-11113
▁колонии	-11114
▁местами	-11115
▁многими	-11116
▁найдены	-11117
▁округов	-11118
▁перешла	-11119
▁подобно	-11120
▁причины	-11121
▁возникло	-11122
▁приобрёл	-11123
▁проводят	-11124
▁оказалось	-11125
▁основными	-11126
▁советская	-11127
▁представлял	-11128
▁проводились	-11129
▁сотрудников	-11130
▁значительная	-11131
▁расположения	-11132
▁рассказывает	-11133
▁действительно	-11134
▁происхождении	-11135
▁восстановление	-11136
бла	-11137
ера	-11138
руя	-11139
▁3.	-11140
лава	-11141
лицы	-11142
союз	-11143
цена	-11144
щали	-11145
▁Ори	-11146
▁Сак	-11147
▁Спе	-11148
▁сты	-11149
ксида	-11150
новая	-11151
новке	-11152
систе	-11153
стрее	-11154
▁Ниже	-11155
▁Пело	-11156
▁Румы	-11157
▁иуда	-11158
▁лест	-11159
▁цель	-11160
Термин	-11161
ктывка	-11162
образу	-11163
▁Новая	-11164
▁вырос	-11165
▁жилые	-11166
▁какао	-11167
▁канад	-11168
▁крепи	-11169
▁репре	-11170
▁сумму	-11171
▁танце	-11172
▁тепла	-11173
ловский	-11174
язычных	-11175
▁входил	-11176
▁городи	-11177
▁журнал	-11178
▁режима	-11179
▁славян	-11180
▁ультра	-11181
▁храмов	-11182
▁равнины	-11183
▁средние	-11184
▁течению	-11185
▁тяжёлых	-11186
снабжения	-11187
▁автобусы	-11188
▁античной	-11189
▁женского	-11190
▁напитков	-11191
▁политику	-11192
▁выполняет	-11193
▁давлением	-11194
▁самолётов	-11195
▁скульптур	-11196
▁советские	-11197
▁элементом	-11198
▁Расположен	-11199
▁расстояния	-11200
▁расширения	-11201
▁чемпионата	-11202
▁обеспечение	-11203
▁развиваются	-11204
▁сохранилось	-11205
▁естественных	-11206
▁сопровождается	-11207
71	-11208
ne	-11209
ord	-11210
жье	-11211
сой	-11212
сях	-11213
Хими	-11214
кета	-11215
люзи	-11216
регу	-11217
▁Еже	-11218
▁Мед	-11219
▁вле	-11220
▁убы	-11221
▁эми	-11222
вказе	-11223
родом	-11224
стрия	-11225
тской	-11226
чести	-11227
▁1913	-11228
▁1933	-11229
▁1957	-11230
▁1964	-11231
▁Нико	-11232
▁вице	-11233
▁вкус	-11234
▁душу	-11235
▁като	-11236
▁коно	-11237
▁мене	-11238
▁мощи	-11239
▁укры	-11240
▁экви	-11241
ложить	-11242
льское	-11243
ничной	-11244
ствами	-11245
▁Викто	-11246
▁Далее	-11247
▁Павло	-11248
▁израи	-11249
▁истре	-11250
▁морем	-11251
▁обеих	-11252
▁реаги	-11253
▁серий	-11254
рактери	-11255
▁восемь	-11256
▁герцог	-11257
▁могуще	-11258
▁оборот	-11259
▁История	-11260
▁Ульянов	-11261
▁внешних	-11262
▁занятия	-11263
▁красный	-11264
▁металло	-11265
▁никаких	-11266
▁образцы	-11267
▁радиоак	-11268
▁сказать	-11269
▁фабрики	-11270
ственному	-11271
▁величины	-11272
▁велосипе	-11273
▁договору	-11274
▁мощность	-11275
▁автобусов	-11276
▁выполнять	-11277
▁принимают	-11278
▁присвоено	-11279
▁составили	-11280
▁Николаевич	-11281
▁образовано	-11282
▁показатель	-11283
▁Конституции	-11284
▁агломерации	-11285
▁приходилось	-11286
▁тысячелетия	-11287
▁американских	-11288
▁воздействием	-11289
▁свидетельствуют	-11290
ab	-11291
Ав	-11292
вь	-11293
ica	-11294
жор	-11295
нор	-11296
озе	-11297
▁АО	-11298
▁Мэ	-11299
дуют	-11300
морф	-11301
шают	-11302
▁ани	-11303
▁яго	-11304
зовых	-11305
пуляр	-11306
техно	-11307
▁Агри	-11308
▁гран	-11309
▁лепе	-11310
▁моду	-11311
▁пиро	-11312
Первая	-11313
вшуюся	-11314
жников	-11315
зирует	-11316
костью	-11317
▁Армии	-11318
▁Иоган	-11319
▁Молда	-11320
▁Самый	-11321
▁кровь	-11322
▁убить	-11323
▁этимо	-11324
фестива	-11325
▁Италия	-11326
▁Рязани	-11327
▁введён	-11328
▁жертву	-11329
▁получе	-11330
▁привёл	-11331
▁фигуры	-11332
▁Впрочем	-11333
▁крупной	-11334
▁повести	-11335
▁полноце	-11336
▁технике	-11337
▁Агамемно	-11338
▁внимания	-11339
▁морского	-11340
▁встретить	-11341
▁министров	-11342
▁отражение	-11343
▁проводить	-11344
▁реализова	-11345
▁следующих	-11346
▁средством	-11347
▁информацию	-11348
▁профилакти	-11349
▁Нидерландов	-11350
▁архитектуре	-11351
▁полуострове	-11352
▁присутствии	-11353
▁музыкального	-11354
▁протяжённость	-11355
72	-11356
Це	-11357
ол	-11358
man	-11359
взо	-11360
вью	-11361
мея	-11362
шёт	-11363
▁51	-11364
▁ею	-11365
Хотя	-11366
зины	-11367
леры	-11368
сила	-11369
стам	-11370
туро	-11371
цесс	-11372
▁Иса	-11373
▁Лей	-11374
▁Син	-11375
▁душ	-11376
▁нра	-11377
▁съе	-11378
▁тща	-11379
▁эро	-11380
Сюжет	-11381
нитар	-11382
тером	-11383
шками	-11384
▁1947	-11385
▁Отно	-11386
▁вдох	-11387
▁веры	-11388
▁мяте	-11389
▁плён	-11390
▁риск	-11391
▁фила	-11392
▁фонд	-11393
▁чудо	-11394
вязыва	-11395
ленные	-11396
тельны	-11397
▁берег	-11398
▁оправ	-11399
▁сетей	-11400
▁слизи	-11401
ведении	-11402
ностями	-11403
▁Оттавы	-11404
▁баскет	-11405
▁главой	-11406
▁нападе	-11407
▁утопии	-11408
▁учения	-11409
▁экскур	-11410
тивность	-11411
▁англича	-11412
▁каналов	-11413
▁сложных	-11414
▁экспози	-11415
▁виноград	-11416
▁обитания	-11417
▁органами	-11418
▁посвящён	-11419
▁примером	-11420
▁совершил	-11421
▁участках	-11422
Международ	-11423
▁диаметром	-11424
▁отверстия	-11425
▁рациональ	-11426
▁Михайлович	-11427
▁документов	-11428
▁подразделе	-11429
▁действующих	-11430
▁известность	-11431
▁трудоспособ	-11432
▁французских	-11433
▁гражданского	-11434
▁располагался	-11435
▁температурой	-11436
▁располагались	-11437
Вол	-11438
Спи	-11439
вяз	-11440
дая	-11441
зеи	-11442
най	-11443
опа	-11444
ори	-11445
эро	-11446
▁1.	-11447
▁Ву	-11448
▁ля	-11449
▁ум	-11450
дана	-11451
деры	-11452
мара	-11453
рока	-11454
сило	-11455
щика	-11456
▁Тра	-11457
▁бом	-11458
▁опе	-11459
▁ужа	-11460
▁юно	-11461
...».	-11462
ликам	-11463
▁День	-11464
▁бюст	-11465
▁гиль	-11466
▁иили	-11467
▁курс	-11468
▁обоб	-11469
▁хиру	-11470
говора	-11471
дового	-11472
лирует	-11473
▁Сверд	-11474
▁башня	-11475
▁ведут	-11476
▁вечно	-11477
▁живёт	-11478
▁извле	-11479
▁одних	-11480
▁охоты	-11481
▁планы	-11482
▁слоёв	-11483
▁сынов	-11484
▁этапе	-11485
▁важное	-11486
▁дефици	-11487
▁исчеза	-11488
▁кризис	-11489
▁крупно	-11490
▁неделю	-11491
▁объёму	-11492
▁особой	-11493
▁печени	-11494
▁поворо	-11495
▁Кавказа	-11496
▁обычных	-11497
▁построй	-11498
▁рестора	-11499
▁училища	-11500
▁вырабаты	-11501
▁историки	-11502
▁коммента	-11503
▁назначен	-11504
логическое	-11505
▁городским	-11506
▁обращение	-11507
▁плотности	-11508
▁завоевания	-11509
▁называемых	-11510
▁творчестве	-11511
▁сегодняшний	-11512
▁специальный	-11513
▁Одновременно	-11514
▁исследование	-11515
▁христианство	-11516
▁Константинополь	-11517
▁представителями	-11518
8.	-11519
лак	-11520
шер	-11521
▁2,	-11522
▁Иу	-11523
бота	-11524
вные	-11525
литы	-11526
льфа	-11527
рять	-11528
трук	-11529
▁Сло	-11530
▁рок	-11531
▁уте	-11532
ровку	-11533
ровые	-11534
▁Горь	-11535
▁Поле	-11536
▁Юрий	-11537
▁всад	-11538
▁кожа	-11539
▁лопа	-11540
▁рыно	-11541
▁туда	-11542
женные	-11543
ляются	-11544
седнев	-11545
шенных	-11546
▁Ранее	-11547
▁Тради	-11548
▁Хорва	-11549
▁аспек	-11550
▁балан	-11551
▁весен	-11552
▁движу	-11553
▁подъё	-11554
▁течёт	-11555
▁услов	-11556
летнего	-11557
▁буржуа	-11558
▁гастро	-11559
▁добыча	-11560
▁западу	-11561
▁навига	-11562
▁ремонт	-11563
▁служба	-11564
▁станет	-11565
▁углево	-11566
западной	-11567
▁золотой	-11568
▁раннего	-11569
▁сектора	-11570
▁сильным	-11571
▁старший	-11572
▁княжество	-11573
▁нападения	-11574
▁помещений	-11575
▁упоминает	-11576
▁внутренние	-11577
▁отсутствии	-11578
▁постановле	-11579
▁Гражданской	-11580
▁национально	-11581
▁последующие	-11582
▁центральных	-11583
▁экземпляров	-11584
▁традиционных	-11585
▁функционирует	-11586
жур	-11587
нду	-11588
тры	-11589
▁6-	-11590
▁Ar	-11591
▁Эй	-11592
▁мс	-11593
Теат	-11594
гета	-11595
жима	-11596
спор	-11597
сыха	-11598
таны	-11599
▁Был	-11600
▁Оси	-11601
▁ТЭЦ	-11602
Через	-11603
ланда	-11604
ловые	-11605
манду	-11606
совая	-11607
ённом	-11608
▁Родо	-11609
▁аргу	-11610
▁аэро	-11611
▁брак	-11612
▁купи	-11613
▁огня	-11614
▁пеще	-11615
▁руку	-11616
▁сели	-11617
▁хлеб	-11618
▁цари	-11619
Интере	-11620
точные	-11621
▁Много	-11622
▁Норве	-11623
▁оттен	-11624
▁подпо	-11625
▁самих	-11626
▁свето	-11627
▁сексу	-11628
▁фигур	-11629
вленная	-11630
лизация	-11631
▁Лондон	-11632
▁вырабо	-11633
▁мульти	-11634
▁одержа	-11635
▁перифе	-11636
▁Калифор	-11637
▁Пушкина	-11638
▁Черного	-11639
▁братьев	-11640
▁вещание	-11641
▁вступил	-11642
▁группой	-11643
▁создали	-11644
▁достовер	-11645
▁летописи	-11646
▁предупре	-11647
▁Петербург	-11648
▁выражения	-11649
▁головного	-11650
▁используя	-11651
▁основание	-11652
▁композиции	-11653
▁литература	-11654
▁некоторыми	-11655
▁заслуженный	-11656
▁руководства	-11657
▁общеобразова	-11658
▁популярности	-11659
▁расположение	-11660
▁популярностью	-11661
▁представлений	-11662
▁многочисленными	-11663
ъю	-11664
био	-11665
мяг	-11666
обы	-11667
▁54	-11668
▁НК	-11669
кове	-11670
суда	-11671
▁Глу	-11672
▁бру	-11673
▁бух	-11674
▁гнё	-11675
брасы	-11676
женцы	-11677
компа	-11678
стков	-11679
фесси	-11680
▁1912	-11681
▁1937	-11682
▁Абха	-11683
▁Афин	-11684
▁волы	-11685
▁мыше	-11686
▁нрав	-11687
▁одни	-11688
▁сдви	-11689
▁типы	-11690
водить	-11691
ленная	-11692
▁Киеве	-11693
▁гетто	-11694
▁добра	-11695
▁иконо	-11696
▁импер	-11697
▁опира	-11698
▁плана	-11699
▁поток	-11700
▁саксо	-11701
▁смеши	-11702
▁товар	-11703
▁храмы	-11704
несения	-11705
▁Солнце	-11706
▁боевой	-11707
▁борьбу	-11708
▁видеть	-11709
▁внезап	-11710
▁лошади	-11711
▁первич	-11712
▁разгро	-11713
▁сроком	-11714
▁тромбо	-11715
ссельдор	-11716
▁Вологод	-11717
▁Клавдий	-11718
▁аппарат	-11719
▁артерии	-11720
▁мастера	-11721
▁привела	-11722
▁привиле	-11723
▁Основной	-11724
▁алкоголя	-11725
▁выделить	-11726
▁выступил	-11727
▁колоколь	-11728
▁размером	-11729
▁симфонии	-11730
▁тысячеле	-11731
▁астрономи	-11732
▁наказание	-11733
▁небольшим	-11734
▁поддержки	-11735
▁утверждал	-11736
▁экономика	-11737
▁называемая	-11738
▁получается	-11739
▁параллельно	-11740
▁повреждения	-11741
▁особенностью	-11742
Промышленность	-11743
▁автомобильных	-11744
▁определённого	-11745
▁обстоятельства	-11746
6,	-11747
ап	-11748
ish	-11749
жке	-11750
лея	-11751
нны	-11752
▁69	-11753
Нача	-11754
Фами	-11755
бура	-11756
гера	-11757
нгви	-11758
свет	-11759
▁0,0	-11760
▁Бру	-11761
▁Ени	-11762
▁Лан	-11763
▁Ска	-11764
▁Чар	-11765
глице	-11766
делие	-11767
косно	-11768
магни	-11769
нятие	-11770
шенко	-11771
▁1968	-11772
▁Соло	-11773
▁врач	-11774
▁дизе	-11775
▁зеле	-11776
▁моде	-11777
▁сана	-11778
▁тата	-11779
▁тему	-11780
▁флаг	-11781
Одиссе	-11782
нового	-11783
▁Архан	-11784
▁Крыма	-11785
▁взять	-11786
▁наста	-11787
▁санти	-11788
▁Аполло	-11789
▁анализ	-11790
▁взрыва	-11791
▁высшей	-11792
▁конгре	-11793
▁округе	-11794
▁письма	-11795
▁подход	-11796
▁товари	-11797
▁энерго	-11798
ническом	-11799
▁Золотой	-11800
▁Соответ	-11801
▁актуаль	-11802
▁включён	-11803
▁вычисли	-11804
▁делятся	-11805
▁длинные	-11806
▁погибли	-11807
▁поздней	-11808
▁престол	-11809
▁свободу	-11810
▁броненос	-11811
▁граждане	-11812
▁культуру	-11813
▁мощности	-11814
▁мужского	-11815
▁практику	-11816
▁агентства	-11817
▁изображён	-11818
▁китайской	-11819
▁поступает	-11820
▁выделяются	-11821
▁называлась	-11822
▁назывались	-11823
▁напряжения	-11824
▁продолжают	-11825
▁производит	-11826
▁характерна	-11827
▁литературных	-11828
▁промышленной	-11829
▁традиционной	-11830
▁муниципальное	-11831
▁Великобритания	-11832
▁распространена	-11833
▁соответствующие	-11834
av	-11835
ill	-11836
▁лы	-11837
жеве	-11838
каты	-11839
мене	-11840
чева	-11841
шков	-11842
▁110	-11843
▁Нау	-11844
▁мио	-11845
▁сжа	-11846
▁шту	-11847
довал	-11848
листы	-11849
обряд	-11850
океан	-11851
ритет	-11852
▁1954	-11853
▁зиму	-11854
▁избы	-11855
▁несо	-11856
▁снег	-11857
▁этап	-11858
торных	-11859
▁Варша	-11860
▁клапа	-11861
▁контр	-11862
▁нужда	-11863
▁рейсы	-11864
▁рукоя	-11865
▁сухой	-11866
▁Святой	-11867
▁длится	-11868
▁захоро	-11869
▁любовь	-11870
▁округу	-11871
▁приток	-11872
▁развер	-11873
▁уровню	-11874
Памятник	-11875
тическом	-11876
христиан	-11877
▁автором	-11878
▁главные	-11879
▁епархии	-11880
▁корабль	-11881
▁научный	-11882
▁попытка	-11883
▁предпоч	-11884
▁приняла	-11885
▁рабочей	-11886
▁размере	-11887
▁сопоста	-11888
▁участка	-11889
▁целиком	-11890
▁античные	-11891
▁историко	-11892
▁организм	-11893
▁построил	-11894
▁свободно	-11895
▁кинотеатр	-11896
▁разнообра	-11897
▁Казахстане	-11898
▁библиотеки	-11899
▁коммунисти	-11900
▁населённый	-11901
▁сохранения	-11902
▁учреждение	-11903
▁отсутствуют	-11904
▁поверхностью	-11905
▁пользовались	-11906
-,	-11907
ph	-11908
Дей	-11909
хим	-11910
“».	-11911
Кино	-11912
валь	-11913
ктей	-11914
мута	-11915
цкая	-11916
▁лов	-11917
▁шли	-11918
движи	-11919
мерза	-11920
тация	-11921
▁1897	-11922
▁Аргу	-11923
▁Семё	-11924
▁мане	-11925
▁норм	-11926
▁роду	-11927
▁тяго	-11928
Музыка	-11929
жаться	-11930
летней	-11931
спекти	-11932
▁Воору	-11933
▁Ураль	-11934
▁амино	-11935
▁женой	-11936
▁карти	-11937
▁никто	-11938
▁распа	-11939
▁своем	-11940
▁серви	-11941
▁слабы	-11942
▁тёпло	-11943
▁ущерб	-11944
▁члена	-11945
коснове	-11946
▁Матери	-11947
▁безопа	-11948
▁заклад	-11949
▁невысо	-11950
▁нейтро	-11951
▁низкая	-11952
▁планет	-11953
▁пожара	-11954
▁пункта	-11955
▁распла	-11956
жённость	-11957
▁Армения	-11958
▁Атланти	-11959
▁большом	-11960
▁границу	-11961
▁периоды	-11962
▁погибло	-11963
▁подлежа	-11964
▁пустыни	-11965
▁страной	-11966
▁дисципли	-11967
▁массовых	-11968
▁попадает	-11969
▁проводит	-11970
▁рейтинге	-11971
▁стациона	-11972
▁атмосфере	-11973
▁отказался	-11974
▁хозяйстве	-11975
▁препаратов	-11976
▁республика	-11977
▁элементами	-11978
▁наступления	-11979
▁приобретает	-11980
▁территориях	-11981
▁превращается	-11982
▁свидетельства	-11983
▁железнодорожная	-11984
▁последовательно	-11985
вр	-11986
—8	-11987
Вла	-11988
▁Тя	-11989
дным	-11990
▁20-	-11991
▁Вет	-11992
▁або	-11993
▁иду	-11994
▁циф	-11995
ствию	-11996
▁1975	-11997
▁Армя	-11998
▁Мари	-11999
▁Памя	-12000
▁домо	-12001
▁нелю	-12002
▁номе	-12003
▁проф	-12004
▁скла	-12005
ровень	-12006
родные	-12007
стерои	-12008
стских	-12009
тифика	-12010
▁брака	-12011
▁доход	-12012
▁отрас	-12013
▁переу	-12014
▁сгора	-12015
▁тетра	-12016
▁трибу	-12017
▁хотел	-12018
▁школе	-12019
венство	-12020
точного	-12021
▁армией	-12022
▁голова	-12023
▁полосы	-12024
▁руками	-12025
▁семина	-12026
▁старше	-12027
▁школах	-12028
селённые	-12029
▁Мухамма	-12030
▁деревне	-12031
▁заповед	-12032
▁швейцар	-12033
отношения	-12034
▁болезней	-12035
▁описания	-12036
▁рабочего	-12037
▁Последний	-12038
▁атмосферу	-12039
▁нидерланд	-12040
▁окончании	-12041
▁повседнев	-12042
▁построить	-12043
▁украшения	-12044
▁Васильевич	-12045
▁настоящего	-12046
▁проживания	-12047
▁Центральный	-12048
▁насчитывает	-12049
▁технических	-12050
▁обеспечивают	-12051
▁централизова	-12052
▁американского	-12053
км	-12054
Сан	-12055
вку	-12056
тус	-12057
▁62	-12058
дуар	-12059
коко	-12060
ргии	-12061
фран	-12062
▁125	-12063
▁Ира	-12064
▁Эпи	-12065
▁аку	-12066
Радио	-12067
дости	-12068
новок	-12069
пенди	-12070
тному	-12071
щейся	-12072
▁1925	-12073
▁1965	-12074
▁Импе	-12075
▁Писа	-12076
▁игре	-12077
▁кабе	-12078
▁краю	-12079
▁рели	-12080
▁фору	-12081
▁чаше	-12082
генера	-12083
▁Досто	-12084
▁Имеет	-12085
▁верто	-12086
▁загла	-12087
▁зерка	-12088
▁морфо	-12089
▁сквоз	-12090
▁траги	-12091
венства	-12092
▁Вильню	-12093
▁блестя	-12094
▁заняла	-12095
▁запасы	-12096
▁низких	-12097
▁формах	-12098
▁бактери	-12099
▁быстрее	-12100
▁военача	-12101
▁выдержи	-12102
▁деления	-12103
▁журнале	-12104
▁неподви	-12105
▁оружием	-12106
▁педагог	-12107
▁первыми	-12108
▁легендар	-12109
▁объединя	-12110
▁отвечает	-12111
▁открытым	-12112
▁продукта	-12113
▁Православ	-12114
▁идеологии	-12115
▁культурно	-12116
▁осуществи	-12117
▁польского	-12118
▁телевизио	-12119
▁чемпионат	-12120
▁средствами	-12121
▁конструкция	-12122
▁медицинской	-12123
▁находящихся	-12124
▁обыкновенно	-12125
▁официальных	-12126
▁концентрация	-12127
▁представляли	-12128
▁художественных	-12129
▁художественного	-12130
Тем	-12131
Тех	-12132
Что	-12133
деи	-12134
дис	-12135
дры	-12136
йна	-12137
хаи	-12138
хот	-12139
▁АН	-12140
▁Зу	-12141
▁Ур	-12142
Алек	-12143
зует	-12144
льпи	-12145
хлад	-12146
чнее	-12147
шали	-12148
▁Гей	-12149
▁Пау	-12150
▁ане	-12151
▁бою	-12152
▁пас	-12153
▁яиц	-12154
ковом	-12155
куляр	-12156
летов	-12157
мьера	-12158
салти	-12159
ссией	-12160
телях	-12161
товая	-12162
▁1870	-12163
▁1969	-12164
▁Богу	-12165
▁корм	-12166
▁наго	-12167
▁овла	-12168
▁птен	-12169
Состав	-12170
ладель	-12171
▁Саула	-12172
▁Созда	-12173
▁Такое	-12174
▁замок	-12175
▁колла	-12176
▁корня	-12177
▁листа	-12178
▁полио	-12179
▁посту	-12180
▁спаса	-12181
▁срока	-12182
▁ткань	-12183
тинской	-12184
ференци	-12185
▁корона	-12186
▁органа	-12187
▁прибыл	-12188
▁приход	-12189
▁провод	-12190
▁указом	-12191
ведением	-12192
образных	-12193
промышле	-12194
тельству	-12195
▁Нептуна	-12196
▁большее	-12197
▁маршрут	-12198
▁ресурсы	-12199
▁термино	-12200
▁воскресе	-12201
▁гимнасти	-12202
▁домашних	-12203
▁наличием	-12204
▁соседних	-12205
▁ценность	-12206
▁Солнечной	-12207
▁Считается	-12208
▁Финляндии	-12209
▁известное	-12210
▁контексте	-12211
▁начальник	-12212
▁поселений	-12213
▁усовершен	-12214
▁неофициаль	-12215
▁оставалась	-12216
▁соединение	-12217
▁социальные	-12218
▁экспедиции	-12219
▁исполнитель	-12220
▁королевства	-12221
▁изображением	-12222
▁присутствуют	-12223
▁соревнований	-12224
▁предположение	-12225
▁разнообразных	-12226
▁дополнительные	-12227
▁соответствующих	-12228
99	-12229
ue	-12230
боя	-12231
вик	-12232
выс	-12233
еры	-12234
зам	-12235
нио	-12236
хен	-12237
▁ТВ	-12238
▁пр	-12239
жней	-12240
льси	-12241
лять	-12242
мора	-12243
нину	-12244
риод	-12245
туда	-12246
чьих	-12247
▁Спи	-12248
▁бла	-12249
▁пры	-12250
▁слы	-12251
▁яде	-12252
дений	-12253
мирал	-12254
чатых	-12255
▁1955	-12256
▁1958	-12257
▁Даже	-12258
▁Крым	-12259
▁Олег	-12260
▁Стре	-12261
▁едва	-12262
▁флот	-12263
▁хали	-12264
нимает	-12265
родный	-12266
▁Елиза	-12267
▁Нерон	-12268
▁бензо	-12269
▁левой	-12270
▁ослож	-12271
▁пасту	-12272
▁подро	-12273
▁прича	-12274
▁решёт	-12275
Сегодня	-12276
строены	-12277
▁Каспий	-12278
▁дворов	-12279
▁захват	-12280
▁кимоно	-12281
▁кольцо	-12282
▁локомо	-12283
▁металл	-12284
▁новоро	-12285
▁объёме	-12286
▁очевид	-12287
▁предъя	-12288
▁приёма	-12289
▁прямым	-12290
▁самцов	-12291
▁святой	-12292
▁старые	-12293
▁Эстонии	-12294
▁вызвать	-12295
▁исключа	-12296
▁состоял	-12297
▁тяжести	-12298
▁Чернигов	-12299
▁варианты	-12300
▁маршруты	-12301
▁механизм	-12302
▁половину	-12303
следование	-12304
▁демонстри	-12305
▁документы	-12306
▁журналист	-12307
▁сочетании	-12308
▁культурный	-12309
▁специалист	-12310
▁установить	-12311
▁возвращается	-12312
▁определённые	-12313
▁разнообразные	-12314
.20	-12315
ort	-12316
жок	-12317
лел	-12318
нус	-12319
сны	-12320
▁88	-12321
▁Al	-12322
гана	-12323
ллий	-12324
нора	-12325
ремя	-12326
томи	-12327
чими	-12328
▁Иоа	-12329
▁гря	-12330
Особе	-12331
Таким	-12332
маном	-12333
нцефа	-12334
▁Перу	-12335
▁гром	-12336
▁мили	-12337
▁морю	-12338
▁мэра	-12339
▁ряду	-12340
▁соля	-12341
▁фаса	-12342
▁фрак	-12343
▁ясно	-12344
▁глаго	-12345
▁звуко	-12346
▁нераз	-12347
▁нитей	-12348
▁ночью	-12349
▁семья	-12350
▁смену	-12351
▁трапе	-12352
дельные	-12353
строена	-12354
▁атомов	-12355
▁гульде	-12356
▁методи	-12357
▁нижнем	-12358
▁олицет	-12359
▁открыл	-12360
▁отрази	-12361
▁хоккей	-12362
ническую	-12363
рованной	-12364
тельному	-12365
▁Лондона	-12366
▁Церковь	-12367
▁берегов	-12368
▁волокна	-12369
▁волокон	-12370
▁коопера	-12371
▁недвижи	-12372
▁прибыли	-12373
▁способы	-12374
▁частями	-12375
▁Русского	-12376
▁геральди	-12377
▁известня	-12378
▁каменные	-12379
▁мастеров	-12380
▁научного	-12381
▁немецкие	-12382
▁разрушен	-12383
▁захватили	-12384
▁поддержке	-12385
▁популяции	-12386
▁правителя	-12387
▁различной	-12388
Архитектура	-12389
▁архитектор	-12390
▁называемой	-12391
▁основатель	-12392
▁пользуются	-12393
▁размещения	-12394
▁расширение	-12395
▁физических	-12396
▁гражданских	-12397
▁потребления	-12398
▁католической	-12399
▁строительных	-12400
▁политического	-12401
rac	-12402
».«	-12403
Сто	-12404
Эко	-12405
пав	-12406
▁86	-12407
вати	-12408
дием	-12409
золо	-12410
тури	-12411
▁Аре	-12412
Одним	-12413
лками	-12414
нента	-12415
редка	-12416
чиной	-12417
▁Саму	-12418
▁внут	-12419
▁долл	-12420
▁зимы	-12421
▁коче	-12422
▁лесу	-12423
▁цепи	-12424
переди	-12425
тивном	-12426
▁Берли	-12427
▁Малой	-12428
▁Рожде	-12429
▁Самая	-12430
▁грудь	-12431
▁заказ	-12432
▁имено	-12433
▁карбо	-12434
▁муску	-12435
▁нерав	-12436
▁новом	-12437
▁роско	-12438
▁сбора	-12439
▁снизу	-12440
▁тормо	-12441
ловской	-12442
▁Остров	-12443
▁Примор	-12444
▁Ростов	-12445
▁запись	-12446
▁растут	-12447
▁стремя	-12448
▁Благове	-12449
▁Василия	-12450
▁Евгений	-12451
▁Кавказе	-12452
▁берегам	-12453
▁горения	-12454
▁мужское	-12455
▁простой	-12456
▁прямого	-12457
▁реформа	-12458
▁театров	-12459
▁текстов	-12460
▁Гиппокра	-12461
▁вопросов	-12462
▁животные	-12463
▁жителями	-12464
▁инсулина	-12465
▁листьями	-12466
▁луковицы	-12467
▁названий	-12468
▁принципы	-12469
▁разделён	-12470
▁запрещено	-12471
▁излучения	-12472
▁конфликта	-12473
▁монумента	-12474
▁проведена	-12475
▁следующем	-12476
▁снижается	-12477
▁торгового	-12478
▁наибольшее	-12479
▁образована	-12480
▁определяют	-12481
▁отправился	-12482
▁пребывания	-12483
▁различного	-12484
▁финансовых	-12485
▁конференции	-12486
▁значительный	-12487
▁представлено	-12488
▁существовать	-12489
93	-12490
ут	-12491
end	-12492
вам	-12493
дым	-12494
коп	-12495
лат	-12496
лес	-12497
ппа	-12498
пут	-12499
рью	-12500
шел	-12501
▁въ	-12502
деть	-12503
льеф	-12504
нете	-12505
сста	-12506
трак	-12507
кации	-12508
щаяся	-12509
▁Альф	-12510
▁абсе	-12511
▁выго	-12512
▁замы	-12513
▁изъя	-12514
▁ядро	-12515
Физико	-12516
ведено	-12517
западу	-12518
переда	-12519
▁Витов	-12520
▁Иорда	-12521
▁Самые	-12522
▁Слово	-12523
▁Труда	-12524
▁Число	-12525
▁древе	-12526
▁кисте	-12527
▁комби	-12528
▁науке	-12529
▁неудо	-12530
▁правя	-12531
▁слоем	-12532
▁судно	-12533
▁таджи	-12534
▁тираж	-12535
▁удара	-12536
▁хочет	-12537
▁чекан	-12538
граниче	-12539
▁внутрь	-12540
▁задача	-12541
▁описал	-12542
▁подвод	-12543
▁полным	-12544
▁правой	-12545
▁реформ	-12546
▁студии	-12547
▁упадок	-12548
▁числом	-12549
▁будущем	-12550
▁картофе	-12551
▁критики	-12552
▁полицей	-12553
▁пророка	-12554
▁просуще	-12555
▁различи	-12556
▁расширя	-12557
▁слияния	-12558
▁смертью	-12559
▁событие	-12560
▁участии	-12561
▁широком	-12562
▁Характер	-12563
▁головной	-12564
▁градусов	-12565
▁комбинат	-12566
▁отмечают	-12567
▁приходит	-12568
▁причинам	-12569
▁проблема	-12570
▁экспорта	-12571
▁Основными	-12572
▁возглавля	-12573
▁провинций	-12574
▁продолжал	-12575
▁проживают	-12576
▁создавать	-12577
▁планируется	-12578
▁Центрального	-12579
200	-12580
Кур	-12581
йбы	-12582
хей	-12583
▁ев	-12584
ляли	-12585
мили	-12586
родя	-12587
суди	-12588
▁Фон	-12589
▁зао	-12590
▁син	-12591
▁шоу	-12592
Совет	-12593
вного	-12594
вский	-12595
дость	-12596
метры	-12597
подоб	-12598
слежи	-12599
телен	-12600
теран	-12601
чатки	-12602
▁Исла	-12603
▁мёрт	-12604
▁чесо	-12605
вилась	-12606
льники	-12607
мостью	-12608
титься	-12609
▁балет	-12610
▁венти	-12611
▁клуба	-12612
▁любых	-12613
▁отдел	-12614
▁упраж	-12615
▁ядови	-12616
мейстер	-12617
ссамбле	-12618
тинский	-12619
▁грунта	-12620
▁каждые	-12621
▁обмена	-12622
▁партнё	-12623
▁письмо	-12624
▁ростом	-12625
русского	-12626
тическую	-12627
▁Соликам	-12628
▁введены	-12629
▁верхнем	-12630
▁водород	-12631
▁востока	-12632
▁заканчи	-12633
▁интегра	-12634
▁краевед	-12635
▁оставил	-12636
▁посёлке	-12637
▁рабочие	-12638
▁решению	-12639
▁конденса	-12640
▁кондитер	-12641
▁политике	-12642
▁реставра	-12643
▁диагности	-12644
▁имущество	-12645
▁мемориаль	-12646
▁появлению	-12647
▁произошли	-12648
▁сохранить	-12649
▁формально	-12650
▁исполнении	-12651
▁культурной	-12652
▁российские	-12653
▁Александров	-12654
▁уменьшается	-12655
▁значительным	-12656
▁центрального	-12657
▁человеческой	-12658
▁месторождений	-12659
▁разновидностей	-12660
▁государственная	-12661
нс	-12662
щь	-12663
▁ё	-12664
дал	-12665
кур	-12666
рых	-12667
▁Тэ	-12668
гией	-12669
дена	-12670
конг	-12671
маты	-12672
нару	-12673
тров	-12674
ходу	-12675
▁Два	-12676
▁раб	-12677
Образ	-12678
дился	-12679
дород	-12680
лософ	-12681
терия	-12682
▁1915	-12683
▁1971	-12684
▁1974	-12685
▁Бела	-12686
▁Един	-12687
▁Мала	-12688
▁Сино	-12689
▁жало	-12690
▁зону	-12691
▁куко	-12692
▁семя	-12693
▁тала	-12694
▁хвой	-12695
▁эрек	-12696
▁южно	-12697
▁юсти	-12698
▁явно	-12699
льских	-12700
ненные	-12701
несена	-12702
чников	-12703
▁Почти	-12704
▁буквы	-12705
▁весом	-12706
▁вскры	-12707
▁декла	-12708
▁доспе	-12709
▁крест	-12710
▁нашли	-12711
▁прися	-12712
▁разво	-12713
▁растя	-12714
▁сфера	-12715
▁такую	-12716
▁увере	-12717
коричне	-12718
нинград	-12719
▁Македо	-12720
▁Термин	-12721
▁землёй	-12722
▁маркси	-12723
▁обязан	-12724
▁оранже	-12725
▁ордена	-12726
▁особое	-12727
▁служеб	-12728
числения	-12729
▁Наконец	-12730
▁дивизии	-12731
▁контакт	-12732
▁назвали	-12733
▁назначи	-12734
▁находит	-12735
▁недавно	-12736
▁разными	-12737
▁раствор	-12738
▁расходы	-12739
▁сосудов	-12740
▁Архимеда	-12741
▁Известно	-12742
▁Кронштад	-12743
▁единицей	-12744
▁календар	-12745
▁полковод	-12746
▁преданию	-12747
▁Архангель	-12748
▁агентство	-12749
▁механизма	-12750
▁настоящий	-12751
▁отверстие	-12752
▁приобрета	-12753
▁употребле	-12754
▁фестиваля	-12755
▁проведение	-12756
▁действовали	-12757
▁классицизма	-12758
▁производить	-12759
▁результатом	-12760
▁религиозные	-12761
▁телевидение	-12762
▁рассматривать	-12763
ИИ	-12764
цк	-12765
Гор	-12766
дзи	-12767
еда	-12768
жия	-12769
сье	-12770
▁сх	-12771
ации	-12772
вины	-12773
жели	-12774
куро	-12775
мита	-12776
чках	-12777
щами	-12778
▁вир	-12779
▁уди	-12780
▁шар	-12781
▁шпи	-12782
говые	-12783
чатый	-12784
▁3000	-12785
▁«...	-12786
▁Ближ	-12787
▁Чаще	-12788
▁вере	-12789
▁греб	-12790
▁звук	-12791
▁иера	-12792
▁очер	-12793
▁сбли	-12794
▁хана	-12795
▁штат	-12796
блется	-12797
интере	-12798
▁Ирана	-12799
▁Монре	-12800
▁Собор	-12801
▁видам	-12802
▁враща	-12803
▁лидер	-12804
▁птица	-12805
▁ранне	-12806
▁среду	-12807
▁точек	-12808
ждённый	-12809
ленного	-12810
▁Месопо	-12811
▁дорогу	-12812
▁лесной	-12813
▁некото	-12814
▁прости	-12815
▁рефлек	-12816
▁шерсти	-12817
зировать	-12818
новского	-12819
ствующий	-12820
▁вакцина	-12821
▁доброде	-12822
▁покрова	-12823
▁присваи	-12824
▁рабочий	-12825
▁римляне	-12826
▁римских	-12827
▁соверши	-12828
▁чёрного	-12829
спользова	-12830
▁Ирландии	-12831
▁ансамбль	-12832
▁интересы	-12833
▁полимери	-12834
▁помогает	-12835
▁процвета	-12836
▁снижения	-12837
▁церковью	-12838
▁Всероссий	-12839
▁австралий	-12840
▁буквально	-12841
▁воздушных	-12842
▁застройка	-12843
▁документах	-12844
▁магистрали	-12845
▁творчество	-12846
▁европейские	-12847
▁нефтепродук	-12848
▁образовании	-12849
▁проектирова	-12850
▁Таджикистана	-12851
▁американской	-12852
▁интеллектуаль	-12853
77	-12854
Зе	-12855
Ры	-12856
ам	-12857
▁й	-12858
жёр	-12859
изо	-12860
кат	-12861
шах	-12862
▁76	-12863
▁IS	-12864
▁СП	-12865
пром	-12866
степ	-12867
▁Car	-12868
▁Неа	-12869
берга	-12870
вской	-12871
слове	-12872
ссейн	-12873
чиком	-12874
▁1976	-12875
▁алге	-12876
▁вене	-12877
▁карт	-12878
▁окон	-12879
▁синд	-12880
▁услы	-12881
▁экзо	-12882
женцев	-12883
точный	-12884
щенный	-12885
▁Земля	-12886
▁Игорь	-12887
▁Талли	-12888
▁Эдуар	-12889
▁вакци	-12890
▁годам	-12891
▁круга	-12892
▁осады	-12893
▁пости	-12894
▁продю	-12895
▁удили	-12896
▁цвету	-12897
▁южнее	-12898
Крупней	-12899
видение	-12900
невосто	-12901
▁Истори	-12902
▁ботани	-12903
▁венгер	-12904
▁задней	-12905
▁носить	-12906
▁одежда	-12907
▁прести	-12908
▁прокля	-12909
▁родила	-12910
▁сектор	-12911
▁теорию	-12912
▁фильмы	-12913
земномор	-12914
▁Алексея	-12915
▁Аналоги	-12916
▁Тираспо	-12917
▁депутат	-12918
▁доступа	-12919
▁доходов	-12920
▁заранее	-12921
▁легенде	-12922
▁налогов	-12923
▁составу	-12924
▁травяни	-12925
▁умерших	-12926
▁чувства	-12927
▁явлений	-12928
▁византий	-12929
▁выставки	-12930
▁достигла	-12931
▁изучение	-12932
▁касается	-12933
▁молекулы	-12934
▁статусом	-12935
▁выделения	-12936
▁митрополи	-12937
▁мультфиль	-12938
▁последняя	-12939
▁препараты	-12940
▁прочности	-12941
▁стоимости	-12942
▁Изначально	-12943
▁латинского	-12944
▁назначение	-12945
▁обнаружено	-12946
▁совершения	-12947
▁украинский	-12948
▁эвакуирова	-12949
▁максимально	-12950
▁переработки	-12951
▁применялись	-12952
▁итальянского	-12953
▁способностью	-12954
▁водохранилище	-12955
-6	-12956
Сы	-12957
рг	-12958
пал	-12959
▁Кы	-12960
дому	-12961
куля	-12962
лием	-12963
нома	-12964
скле	-12965
фина	-12966
▁3,5	-12967
▁Еди	-12968
▁РАН	-12969
▁тяж	-12970
ладен	-12971
лесте	-12972
▁Жене	-12973
▁базы	-12974
▁стри	-12975
▁темы	-12976
▁указ	-12977
Россий	-12978
вающее	-12979
ленный	-12980
роятно	-12981
щенные	-12982
▁Адриа	-12983
▁Джона	-12984
▁Лозан	-12985
▁Мордо	-12986
▁Немец	-12987
▁Париж	-12988
▁монта	-12989
▁мышцы	-12990
▁общин	-12991
▁попол	-12992
грирова	-12993
▁Фёдоро	-12994
▁важной	-12995
▁выстре	-12996
▁записы	-12997
▁картин	-12998
▁лингви	-12999
▁молока	-13000
▁пришла	-13001
▁протек	-13002
▁прошла	-13003
▁рассея	-13004
▁смогли	-13005
▁солнце	-13006
▁транзи	-13007
▁чертой	-13008
рованный	-13009
▁вернуть	-13010
▁выдержа	-13011
▁желание	-13012
▁наличия	-13013
▁практика	-13014
▁принимал	-13015
▁русскими	-13016
▁свойство	-13017
▁соцветия	-13018
▁строится	-13019
▁выступают	-13020
▁греческих	-13021
▁областной	-13022
▁останавли	-13023
▁потенциал	-13024
формулирова	-13025
▁оставаться	-13026
▁полуостров	-13027
▁преследова	-13028
▁повсеместно	-13029
Использование	-13030
▁недостаточно	-13031
▁заканчивается	-13032
ДР	-13033
рб	-13034
яр	-13035
Сте	-13036
алы	-13037
зра	-13038
шня	-13039
▁53	-13040
▁ет	-13041
клов	-13042
ктов	-13043
муля	-13044
штаб	-13045
весто	-13046
комму	-13047
нскую	-13048
▁выяс	-13049
▁углу	-13050
▁хули	-13051
шедших	-13052
▁Литве	-13053
▁вошло	-13054
▁курси	-13055
▁нашёл	-13056
▁опять	-13057
▁телом	-13058
▁успех	-13059
▁ювели	-13060
Фамилия	-13061
вшимися	-13062
▁Афинах	-13063
▁априор	-13064
▁данное	-13065
▁жертво	-13066
▁закрыт	-13067
▁мечети	-13068
▁одежду	-13069
▁посоль	-13070
▁туризм	-13071
▁аммиака	-13072
▁ведения	-13073
▁комисса	-13074
▁прохлад	-13075
▁чувство	-13076
Благодаря	-13077
Представи	-13078
логически	-13079
нокоманду	-13080
стройство	-13081
▁конечном	-13082
▁передней	-13083
▁потенциа	-13084
▁проходил	-13085
▁расцвета	-13086
▁случайно	-13087
▁традиций	-13088
▁памятника	-13089
▁перечисле	-13090
▁связывает	-13091
▁физиологи	-13092
Железнодоро	-13093
▁небольшого	-13094
▁оставались	-13095
▁разделение	-13096
▁телеканала	-13097
▁эмоциональ	-13098
▁принадлежал	-13099
▁управлением	-13100
▁национальные	-13101
▁пассажирских	-13102
▁производителей	-13103
ak	-13104
йм	-13105
our	-13106
Вен	-13107
ево	-13108
йне	-13109
сью	-13110
авто	-13111
бита	-13112
ксид	-13113
нель	-13114
нерт	-13115
нтий	-13116
рины	-13117
склю	-13118
▁Лаэ	-13119
▁Пок	-13120
▁Хри	-13121
▁инф	-13122
▁кап	-13123
нники	-13124
▁1963	-13125
▁1972	-13126
▁1984	-13127
▁АССР	-13128
▁Дани	-13129
▁Испа	-13130
▁Калу	-13131
▁Ладо	-13132
▁Одно	-13133
▁Уста	-13134
▁мани	-13135
▁мезо	-13136
▁руба	-13137
▁счет	-13138
▁чумы	-13139
грамма	-13140
точной	-13141
▁Калмы	-13142
▁Мария	-13143
▁Орест	-13144
▁брази	-13145
▁госпо	-13146
▁мысль	-13147
▁опыта	-13148
▁свадь	-13149
▁углуб	-13150
▁хлора	-13151
вещание	-13152
русской	-13153
соналии	-13154
▁Египет	-13155
▁Здание	-13156
▁Придне	-13157
▁приказ	-13158
▁редких	-13159
▁самыми	-13160
▁собаки	-13161
▁созыва	-13162
зируется	-13163
лическая	-13164
▁Максима	-13165
▁вертолё	-13166
▁главная	-13167
▁глубине	-13168
▁говорил	-13169
▁пароход	-13170
▁рациона	-13171
▁склонах	-13172
▁твёрдых	-13173
▁членами	-13174
▁Основная	-13175
▁Сыктывка	-13176
▁активное	-13177
▁бассейне	-13178
▁величина	-13179
▁границей	-13180
▁делается	-13181
▁конфликт	-13182
▁молодёжи	-13183
▁мышления	-13184
▁периодом	-13185
▁раствора	-13186
▁философа	-13187
▁Верховный	-13188
▁Городской	-13189
▁Несколько	-13190
▁диапазоне	-13191
▁опасность	-13192
▁персонажи	-13193
▁тенденция	-13194
▁указывают	-13195
▁исполнение	-13196
▁показатели	-13197
▁старообряд	-13198
▁Севастополя	-13199
▁возвращения	-13200
▁потребности	-13201
▁различаются	-13202
▁Средиземномо	-13203
▁единственной	-13204
▁значительных	-13205
▁органических	-13206
▁температурах	-13207
▁эффективности	-13208
▁устанавливается	-13209
фф	-13210
▁x	-13211
-20	-13212
ано	-13213
—12	-13214
▁ид	-13215
Меди	-13216
лица	-13217
сено	-13218
тями	-13219
цких	-13220
чком	-13221
шала	-13222
▁0,2	-13223
▁1,2	-13224
▁Бей	-13225
▁Бир	-13226
▁Зак	-13227
▁Сти	-13228
▁бои	-13229
▁изы	-13230
▁пом	-13231
Музеи	-13232
жники	-13233
зовая	-13234
логию	-13235
риата	-13236
стным	-13237
тизма	-13238
▁1896	-13239
▁1973	-13240
▁Изма	-13241
▁Сама	-13242
▁отро	-13243
▁полю	-13244
▁сюда	-13245
▁упло	-13246
▁фона	-13247
Послед	-13248
щалось	-13249
▁греки	-13250
▁делам	-13251
▁драмы	-13252
▁звука	-13253
▁звуки	-13254
▁коали	-13255
▁линию	-13256
▁месту	-13257
▁отказ	-13258
▁попал	-13259
▁самим	-13260
▁южном	-13261
▁ярмар	-13262
рийский	-13263
▁Еванге	-13264
▁Иванов	-13265
▁Петров	-13266
▁агрега	-13267
▁гигант	-13268
▁заново	-13269
▁немало	-13270
▁особня	-13271
▁отряды	-13272
▁потока	-13273
▁привер	-13274
▁прямые	-13275
рических	-13276
струкция	-13277
▁Венгрии	-13278
▁Предста	-13279
▁амнисти	-13280
▁входила	-13281
▁компакт	-13282
▁наступа	-13283
▁показал	-13284
▁проекты	-13285
▁прошлое	-13286
▁соедини	-13287
Восточной	-13288
▁Пифагора	-13289
▁включены	-13290
▁воинской	-13291
▁массовые	-13292
▁осталась	-13293
▁суверени	-13294
▁ценности	-13295
▁являлось	-13296
▁водохозяй	-13297
▁вынуждены	-13298
▁ежедневно	-13299
▁консульта	-13300
▁молекуляр	-13301
▁признаков	-13302
▁принимали	-13303
▁разделена	-13304
▁совпадает	-13305
▁участвует	-13306
▁Республике	-13307
▁аминокисло	-13308
▁благотвори	-13309
▁занимаются	-13310
▁музыкантов	-13311
▁находиться	-13312
▁популярной	-13313
▁опубликовал	-13314
▁превратился	-13315
▁увеличилось	-13316
▁контролирова	-13317
▁общественные	-13318
▁университетов	-13319
▁Государственный	-13320
PG	-13321
ВО	-13322
ИК	-13323
ТА	-13324
Бер	-13325
Выс	-13326
дец	-13327
ёры	-13328
▁72	-13329
▁78	-13330
▁Св	-13331
Мета	-13332
Моск	-13333
бера	-13334
ннов	-13335
рали	-13336
сней	-13337
▁70-	-13338
▁Пле	-13339
▁Сал	-13340
▁гон	-13341
▁омы	-13342
манов	-13343
рению	-13344
тоном	-13345
▁1983	-13346
▁Ката	-13347
▁Теат	-13348
▁Юсти	-13349
▁внед	-13350
▁дешё	-13351
▁инну	-13352
▁цены	-13353
Данные	-13354
ненных	-13355
спонде	-13356
▁Автор	-13357
▁Зевса	-13358
▁Летом	-13359
▁Порту	-13360
▁лицам	-13361
▁назем	-13362
▁обмен	-13363
▁проде	-13364
▁русла	-13365
▁трени	-13366
▁трост	-13367
▁чесно	-13368
Электро	-13369
лийский	-13370
▁Вавило	-13371
▁Днепра	-13372
▁Канаде	-13373
▁выступ	-13374
▁голоса	-13375
▁делали	-13376
▁защите	-13377
▁костей	-13378
▁метода	-13379
▁списке	-13380
▁спуска	-13381
▁франко	-13382
▁Голливу	-13383
▁Октавиа	-13384
▁вещания	-13385
▁вначале	-13386
▁военное	-13387
▁игроков	-13388
▁корпора	-13389
▁нараста	-13390
▁поисках	-13391
▁полотни	-13392
▁сильное	-13393
▁собраны	-13394
▁функция	-13395
▁широкой	-13396
Городской	-13397
▁академия	-13398
▁восточно	-13399
▁кларнета	-13400
▁короткий	-13401
▁министра	-13402
▁правилам	-13403
▁треуголь	-13404
▁контролем	-13405
▁пациентов	-13406
▁перспекти	-13407
▁плавления	-13408
▁установил	-13409
Современный	-13410
▁Иерусалима	-13411
▁английской	-13412
▁губернатор	-13413
▁постоянных	-13414
▁построения	-13415
▁разработки	-13416
▁сообщества	-13417
▁стремление	-13418
▁применяться	-13419
▁происходило	-13420
▁участвовали	-13421
▁единственная	-13422
▁периодически	-13423
▁христианских	-13424
▁Международный	-13425
▁возвышенности	-13426
▁принадлежности	-13427
▁художественный	-13428
мм	-13429
ina	-13430
лос	-13431
юрн	-13432
кеты	-13433
лики	-13434
намо	-13435
таль	-13436
теру	-13437
▁Лев	-13438
▁шей	-13439
Тради	-13440
жется	-13441
новым	-13442
раясь	-13443
рывно	-13444
▁1966	-13445
▁Двор	-13446
▁Ирты	-13447
▁блок	-13448
▁бота	-13449
▁дали	-13450
▁лиши	-13451
▁наре	-13452
▁серб	-13453
▁спец	-13454
▁сыну	-13455
▁щита	-13456
герман	-13457
жества	-13458
класси	-13459
лияние	-13460
нистов	-13461
новому	-13462
спекта	-13463
ченной	-13464
чённые	-13465
▁Встре	-13466
▁Кубка	-13467
▁Фёдор	-13468
▁жилой	-13469
▁знако	-13470
▁карье	-13471
▁колба	-13472
▁миром	-13473
▁собак	-13474
▁шелко	-13475
жностью	-13476
▁Теперь	-13477
▁абстра	-13478
▁вестер	-13479
▁заняли	-13480
▁камней	-13481
▁князья	-13482
▁лесных	-13483
▁незако	-13484
▁нейтри	-13485
▁орбиты	-13486
▁плотно	-13487
▁присво	-13488
▁ранние	-13489
▁светло	-13490
▁справа	-13491
степенно	-13492
тивности	-13493
▁Хабаров	-13494
▁автовок	-13495
▁возвыша	-13496
▁женских	-13497
▁захвата	-13498
▁именами	-13499
▁коротко	-13500
▁очистки	-13501
▁погребе	-13502
▁поездов	-13503
▁сильный	-13504
▁служили	-13505
▁спектак	-13506
▁энергия	-13507
▁близлежа	-13508
▁денежной	-13509
▁жидкость	-13510
▁иностран	-13511
▁короткие	-13512
▁медицины	-13513
▁возможных	-13514
▁возобнови	-13515
▁достигают	-13516
▁испытания	-13517
▁массового	-13518
▁населению	-13519
▁окисления	-13520
▁перевозок	-13521
▁помещение	-13522
▁популярны	-13523
▁программе	-13524
▁свободных	-13525
▁старейших	-13526
▁ассоциации	-13527
▁деревянной	-13528
▁институтов	-13529
▁материалом	-13530
▁обозначает	-13531
▁сохранился	-13532
▁спортивные	-13533
▁конституции	-13534
▁музыкальные	-13535
▁обусловлено	-13536
▁сохранилась	-13537
Первоначально	-13538
▁предприятиях	-13539
▁промышленный	-13540
▁разнообразие	-13541
▁установления	-13542
▁регионального	-13543
▁средиземномор	-13544
▁существовании	-13545
▁способствовало	-13546
ct	-13547
sk	-13548
льм	-13549
рые	-13550
фюр	-13551
—30	-13552
▁ый	-13553
ване	-13554
дали	-13555
жина	-13556
мбра	-13557
носа	-13558
рипи	-13559
ряют	-13560
▁2—3	-13561
▁Бай	-13562
▁Бат	-13563
▁Иси	-13564
▁Кру	-13565
▁Хол	-13566
▁аор	-13567
▁бог	-13568
▁дат	-13569
▁лам	-13570
Гидро	-13571
карна	-13572
сской	-13573
стики	-13574
треть	-13575
▁Было	-13576
▁Вест	-13577
▁Нере	-13578
▁Смир	-13579
▁ведь	-13580
▁дала	-13581
▁ледя	-13582
▁пьес	-13583
▁рези	-13584
▁слад	-13585
▁сырь	-13586
ваемая	-13587
католи	-13588
новича	-13589
нскому	-13590
рьевич	-13591
тельна	-13592
щённой	-13593
ющуюся	-13594
▁Смоле	-13595
▁вдвое	-13596
▁домах	-13597
▁здоро	-13598
▁леший	-13599
▁набра	-13600
▁общие	-13601
▁отчёт	-13602
▁пейза	-13603
▁случи	-13604
▁хлоро	-13605
бирский	-13606
государ	-13607
ложении	-13608
провода	-13609
▁Сергея	-13610
▁Сульпи	-13611
▁аквари	-13612
▁булавы	-13613
▁вегета	-13614
▁влияет	-13615
▁малого	-13616
▁менедж	-13617
▁особые	-13618
▁охраня	-13619
▁оценке	-13620
▁писали	-13621
▁племян	-13622
▁развле	-13623
▁расход	-13624
пература	-13625
тельских	-13626
▁Албании	-13627
▁Главный	-13628
▁Евразии	-13629
▁высказа	-13630
▁выходят	-13631
▁диаметр	-13632
▁длинный	-13633
▁казаков	-13634
▁лотереи	-13635
▁мировых	-13636
▁названа	-13637
▁однород	-13638
▁опровер	-13639
▁признан	-13640
▁проспек	-13641
▁сильнее	-13642
▁успехом	-13643
▁Северная	-13644
▁бюстгаль	-13645
▁введение	-13646
▁границах	-13647
▁изобрета	-13648
▁комиксов	-13649
▁новгород	-13650
▁полагают	-13651
▁практики	-13652
▁принципа	-13653
▁принципи	-13654
▁сущности	-13655
▁Советская	-13656
▁вернуться	-13657
▁двигателя	-13658
▁переселен	-13659
▁понимании	-13660
▁следующее	-13661
▁субъектов	-13662
▁устройств	-13663
▁дифференци	-13664
▁колеблется	-13665
▁множеством	-13666
▁свободного	-13667
▁укрепление	-13668
▁наблюдаются	-13669
▁осуществляют	-13670
▁сформулирова	-13671
▁государствами	-13672
▁машиностроения	-13673
74	-13674
amp	-13675
Ино	-13676
влё	-13677
офи	-13678
▁96	-13679
▁Fe	-13680
▁Ян	-13681
▁щё	-13682
вная	-13683
евна	-13684
ката	-13685
льни	-13686
рази	-13687
село	-13688
▁Всё	-13689
▁Жен	-13690
▁Юпи	-13691
▁губ	-13692
▁ток	-13693
▁щит	-13694
водом	-13695
мания	-13696
товым	-13697
▁Союз	-13698
▁берё	-13699
▁виру	-13700
▁вход	-13701
▁купе	-13702
▁моче	-13703
▁полк	-13704
▁приу	-13705
жённый	-13706
шенный	-13707
▁Карфа	-13708
▁Липец	-13709
▁Патри	-13710
▁Повол	-13711
▁Столи	-13712
▁забра	-13713
▁массе	-13714
▁несёт	-13715
▁палом	-13716
▁следы	-13717
▁социо	-13718
▁углом	-13719
менными	-13720
ступить	-13721
ходятся	-13722
▁Сербии	-13723
▁Флорен	-13724
▁важный	-13725
▁оксида	-13726
▁посели	-13727
▁прогно	-13728
▁разное	-13729
▁фигури	-13730
▁физико	-13731
образные	-13732
▁Тиберия	-13733
▁архиере	-13734
▁картине	-13735
▁молекул	-13736
▁называл	-13737
▁находят	-13738
▁поликли	-13739
▁пунктом	-13740
▁строить	-13741
▁трансли	-13742
▁удоволь	-13743
Памятники	-13744
Поскольку	-13745
тическими	-13746
▁Американ	-13747
▁Северный	-13748
▁движении	-13749
▁добиться	-13750
▁западные	-13751
▁погибших	-13752
▁получать	-13753
▁преодоле	-13754
▁районами	-13755
▁состояла	-13756
▁столетий	-13757
логическим	-13758
▁строились	-13759
▁ценностей	-13760
▁Президента	-13761
▁получивший	-13762
▁протестант	-13763
▁сокращение	-13764
▁количествах	-13765
▁низменности	-13766
▁открывается	-13767
▁провинциаль	-13768
▁богослужения	-13769
▁естественной	-13770
▁композиторов	-13771
Географическое	-13772
▁классификация	-13773
▁рекомендуется	-13774
76	-13775
89	-13776
ho	-13777
yp	-13778
бад	-13779
бит	-13780
дум	-13781
нёр	-13782
орк	-13783
сот	-13784
воци	-13785
нуса	-13786
сасы	-13787
▁Оба	-13788
▁Обе	-13789
▁Плу	-13790
▁Фра	-13791
вичем	-13792
несла	-13793
созда	-13794
сталь	-13795
терей	-13796
штейн	-13797
▁1978	-13798
▁Воро	-13799
▁Невы	-13800
▁Якут	-13801
▁буты	-13802
▁думы	-13803
▁линь	-13804
▁трой	-13805
ванный	-13806
зуются	-13807
ремонт	-13808
шенные	-13809
▁Тамер	-13810
▁видно	-13811
▁забро	-13812
▁запла	-13813
▁немед	-13814
▁немцы	-13815
▁олова	-13816
▁полот	-13817
▁преде	-13818
▁рабов	-13819
▁репер	-13820
▁садов	-13821
▁сжига	-13822
▁славы	-13823
▁солей	-13824
▁сотен	-13825
▁устро	-13826
кистане	-13827
лёнными	-13828
шествие	-13829
▁Высота	-13830
▁Средне	-13831
▁Стамбу	-13832
▁братья	-13833
▁взгляд	-13834
▁идеали	-13835
▁миниат	-13836
▁начато	-13837
▁нашего	-13838
▁особым	-13839
▁помило	-13840
▁привед	-13841
▁соборе	-13842
▁удосто	-13843
▁фосфор	-13844
качестве	-13845
рийского	-13846
▁Аполлон	-13847
▁вызвало	-13848
▁главное	-13849
▁кремния	-13850
▁меньшин	-13851
▁объедин	-13852
▁подходя	-13853
▁позиций	-13854
▁продажи	-13855
▁простых	-13856
▁терапии	-13857
▁Болгарии	-13858
▁Председа	-13859
▁народный	-13860
▁никакого	-13861
▁обычного	-13862
▁основное	-13863
▁признаки	-13864
таническое	-13865
▁Екатерины	-13866
▁магазинов	-13867
[...]
