<pad>	0
<s>	0
</s>	0
<unk>	0
ст	-0
▁п	-1
▁в	-2
но	-3
ни	-4
ра	-5
▁с	-6
▁и	-7
на	-8
ро	-9
ко	-10
го	-11
▁о	-12
ре	-13
ны	-14
ли	-15
то	-16
ль	-17
ле	-18
ри	-19
ва	-20
не	-21
▁по	-22
ка	-23
▁д	-24
ло	-25
те	-26
ме	-27
▁на	-28
ки	-29
во	-30
ла	-31
та	-32
ве	-33
да	-34
ми	-35
▁б	-36
че	-37
ся	-38
ти	-39
за	-40
де	-41
▁го	-42
ет	-43
▁м	-44
ско	-45
ру	-46
▁ко	-47
ля	-48
▁у	-49
же	-50
▁со	-51
ви	-52
ци	-53
ния	-54
▁а	-55
ди	-56
▁ра	-57
▁к	-58
ста	-59
ние	-60
по	-61
ски	-62
▁не	-63
ча	-64
▁—	-65
до	-66
▁про	-67
▁В	-68
сто	-69
сти	-70
ма	-71
ер	-72
▁за	-73
▁об	-74
▁1	-75
▁во	-76
▁от	-77
ных	-78
▁при	-79
нно	-80
▁«	-81
чи	-82
ть	-83
▁С	-84
▁г	-85
мо	-86
хо	-87
ду	-88
▁э	-89
си	-90
ры	-91
▁из	-92
бо	-93
▁П	-94
ще	-95
▁до	-96
▁ка	-97
се	-98
▁бы	-99
ные	-100
ги	-101
▁е	-102
со	-103
ной	-104
вы	-105
▁т	-106
ют	-107
ше	-108
▁К	-109
ный	-110
тель	-111
ши	-112
сть	-113
га	-114
сь	-115
▁ф	-116
▁ре	-117
па	-118
▁ме	-119
це	-120
ется	-121
жи	-122
зо	-123
▁то	-124
▁вы	-125
лу	-126
▁пре	-127
са	-128
ере	-129
щи	-130
▁те	-131
▁мо	-132
▁А	-133
ного	-134
ту	-135
ну	-136
му	-137
пе	-138
ку	-139
ты	-140
ня	-141
▁2	-142
▁та	-143
пи	-144
ской	-145
▁М	-146
▁раз	-147
стве	-148
ря	-149
ство	-150
▁ч	-151
▁Р	-152
▁бо	-153
мы	-154
▁Н	-155
▁кото	-156
вля	-157
▁де	-158
▁О	-159
зи	-160
сле	-161
▁ве	-162
спо	-163
ского	-164
сте	-165
▁Т	-166
ная	-167
▁з	-168
ным	-169
▁ма	-170
▁горо	-171
▁я	-172
чески	-173
нии	-174
▁Г	-175
ке	-176
▁че	-177
▁Б	-178
лю	-179
нт	-180
вле	-181
▁19	-182
▁И	-183
жа	-184
ции	-185
▁се	-186
ву	-187
зы	-188
▁года	-189
▁но	-190
▁Д	-191
ска	-192
стра	-193
▁что	-194
су	-195
▁ста	-196
▁году	-197
стро	-198
ды	-199
▁для	-200
ства	-201
▁под	-202
ор	-203
вер	-204
ар	-205
би	-206
▁как	-207
ков	-208
▁ли	-209
ан	-210
сно	-211
▁так	-212
▁это	-213
▁пере	-214
ский	-215
сси	-216
фи	-217
▁ча	-218
▁20	-219
▁х	-220
ний	-221
мя	-222
▁пред	-223
▁си	-224
▁или	-225
ров	-226
ющи	-227
пу	-228
бе	-229
▁По	-230
▁су	-231
нь	-232
▁сво	-233
аль	-234
ются	-235
»,	-236
нных	-237
об	-238
▁же	-239
вя	-240
».	-241
зу	-242
ца	-243
рова	-244
▁Л	-245
▁са	-246
ное	-247
▁ле	-248
тов	-249
▁ми	-250
▁пра	-251
▁которы	-252
гра	-253
ном	-254
ща	-255
▁ро	-256
ем	-257
ходи	-258
▁вре	-259
тся	-260
гу	-261
▁воз	-262
▁его	-263
▁це	-264
▁име	-265
ша	-266
лы	-267
▁кон	-268
ей	-269
ность	-270
▁од	-271
вой	-272
ба	-273
мен	-274
▁па	-275
▁ни	-276
ности	-277
▁рас	-278
▁ви	-279
▁прои	-280
он	-281
бы	-282
ге	-283
зова	-284
ными	-285
▁обра	-286
▁жи	-287
▁был	-288
▁дру	-289
▁ин	-290
нием	-291
вет	-292
тив	-293
нной	-294
лись	-295
ская	-296
про	-297
▁также	-298
лся	-299
▁все	-300
ред	-301
стоя	-302
ха	-303
дов	-304
рии	-305
ских	-306
ней	-307
ран	-308
▁Ф	-309
▁пер	-310
нов	-311
она	-312
▁ру	-313
▁явля	-314
ция	-315
ак	-316
ён	-317
нию	-318
▁пе	-319
▁Е	-320
▁На	-321
ную	-322
лее	-323
вод	-324
сту	-325
▁соста	-326
▁испо	-327
▁бе	-328
ром	-329
зыва	-330
кт	-331
род	-332
жде	-333
рия	-334
ству	-335
стви	-336
▁Ро	-337
▁Э	-338
▁З	-339
00	-340
зна	-341
▁боль	-342
лей	-343
▁ис	-344
▁ку	-345
▁У	-346
мер	-347
▁осно	-348
▁X	-349
▁ш	-350
нного	-351
пра	-352
▁му	-353
▁после	-354
кой	-355
дар	-356
пре	-357
лько	-358
вши	-359
сло	-360
▁города	-361
руп	-362
▁3	-363
▁сто	-364
▁фи	-365
ком	-366
кра	-367
ход	-368
бу	-369
▁да	-370
вые	-371
ложе	-372
II	-373
логи	-374
хи	-375
▁время	-376
нный	-377
цы	-378
дер	-379
▁хо	-380
нные	-381
▁стра	-382
гда	-383
вых	-384
▁нача	-385
▁ком	-386
сы	-387
лось	-388
▁полу	-389
▁ди	-390
ника	-391
том	-392
▁Ка	-393
▁зна	-394
▁исполь	-395
▁Со	-396
ев	-397
ления	-398
ться	-399
лове	-400
▁были	-401
ник	-402
▁201	-403
▁ор	-404
лась	-405
▁18	-406
вания	-407
▁свя	-408
▁чи	-409
кры	-410
фе	-411
ское	-412
▁город	-413
бли	-414
▁Во	-415
▁было	-416
рой	-417
▁мож	-418
тер	-419
ском	-420
нима	-421
▁ар	-422
▁пи	-423
ск	-424
▁ц	-425
▁пу	-426
▁Росси	-427
▁тер	-428
▁други	-429
▁ав	-430
▁произ	-431
▁Х	-432
лё	-433
▁исто	-434
ские	-435
▁является	-436
лав	-437
▁челове	-438
▁сло	-439
▁была	-440
▁рабо	-441
зе	-442
судар	-443
зда	-444
тия	-445
▁он	-446
вание	-447
▁слу	-448
нд	-449
▁их	-450
жду	-451
▁бу	-452
чно	-453
▁фор	-454
▁ки	-455
пы	-456
▁века	-457
веде	-458
▁им	-459
▁ба	-460
По	-461
ческих	-462
ём	-463
▁вой	-464
▁-	-465
каза	-466
▁4	-467
гла	-468
▁цент	-469
▁Ч	-470
лов	-471
нти	-472
при	-473
юще	-474
вре	-475
раль	-476
▁более	-477
▁Ко	-478
ческой	-479
клю	-480
▁%	-481
▁предста	-482
тор	-483
▁объ	-484
тре	-485
ственно	-486
▁пла	-487
нее	-488
сты	-489
▁обла	-490
пера	-491
▁наз	-492
обра	-493
рак	-494
▁ге	-495
рт	-496
▁5	-497
▁отно	-498
▁орга	-499
▁гра	-500
▁государ	-501
торы	-502
тельно	-503
▁пло	-504
▁обще	-505
тери	-506
лек	-507
дин	-508
вого	-509
▁200	-510
▁распо	-511
стре	-512
ление	-513
жда	-514
▁между	-515
от	-516
вая	-517
ёт	-518
рито	-519
▁спо	-520
вления	-521
нения	-522
ен	-523
▁Ш	-524
вый	-525
води	-526
спе	-527
▁вер	-528
рь	-529
стру	-530
дом	-531
циаль	-532
вро	-533
▁лю	-534
▁ю	-535
ят	-536
рта	-537
▁Бо	-538
ких	-539
▁Мо	-540
▁ва	-541
▁обо	-542
ек	-543
▁её	-544
льно	-545
три	-546
▁насе	-547
чение	-548
вест	-549
▁дол	-550
▁только	-551
▁разви	-552
лия	-553
▁рай	-554
На	-555
ман	-556
▁За	-557
чных	-558
▁созда	-559
▁стро	-560
пол	-561
▁При	-562
▁называ	-563
шо	-564
▁эле	-565
ческого	-566
▁России	-567
▁само	-568
ющих	-569
▁сред	-570
ску	-571
фор	-572
им	-573
бра	-574
ческие	-575
▁кра	-576
преде	-577
ин	-578
ческий	-579
▁высо	-580
▁оста	-581
чения	-582
▁око	-583
▁террито	-584
ников	-585
нако	-586
пер	-587
вое	-588
зд	-589
мени	-590
▁тем	-591
▁суще	-592
цио	-593
▁вла	-594
рио	-595
ур	-596
лом	-597
телей	-598
▁может	-599
▁Ма	-600
коно	-601
▁которые	-602
тур	-603
ёр	-604
чита	-605
0-	-606
сли	-607
▁которо	-608
▁круп	-609
▁дей	-610
▁га	-611
▁который	-612
▁авто	-613
▁составля	-614
сла	-615
хра	-616
ствова	-617
жения	-618
нта	-619
дей	-620
▁ты	-621
ходит	-622
▁6	-623
▁тра	-624
▁ха	-625
личи	-626
▁мно	-627
▁Та	-628
ющие	-629
сов	-630
лли	-631
чной	-632
бря	-633
▁тре	-634
рев	-635
▁сте	-636
нная	-637
▁поли	-638
▁Ве	-639
▁часть	-640
емы	-641
ональ	-642
нное	-643
▁ок	-644
ях	-645
▁Ц	-646
▁систе	-647
ат	-648
ники	-649
▁прави	-650
дова	-651
▁поя	-652
▁части	-653
еди	-654
▁ти	-655
▁эти	-656
▁пол	-657
тя	-658
реди	-659
кого	-660
▁куль	-661
теля	-662
зя	-663
▁пар	-664
которы	-665
▁Па	-666
▁эк	-667
▁использова	-668
рез	-669
фа	-670
ским	-671
▁приме	-672
▁осо	-673
▁ак	-674
ств	-675
▁состоя	-676
сса	-677
цу	-678
▁Са	-679
вается	-680
▁органи	-681
▁ши	-682
щё	-683
писа	-684
дь	-685
▁неско	-686
▁поло	-687
нение	-688
нг	-689
▁основ	-690
▁вос	-691
▁Не	-692
▁ла	-693
▁рус	-694
ёл	-695
▁17	-696
лага	-697
▁этом	-698
ками	-699
▁перио	-700
▁уча	-701
ций	-702
▁Се	-703
▁опреде	-704
нови	-705
честве	-706
▁сле	-707
▁использу	-708
кие	-709
фо	-710
шей	-711
лез	-712
▁расположе	-713
бой	-714
▁Го	-715
ссе	-716
тели	-717
▁кре	-718
▁разли	-719
▁образова	-720
▁язы	-721
▁спе	-722
вает	-723
нным	-724
тура	-725
▁би	-726
цию	-727
цо	-728
▁кла	-729
ством	-730
▁7	-731
ших	-732
▁откры	-733
кан	-734
ках	-735
вым	-736
▁том	-737
▁Я	-738
▁199	-739
нности	-740
▁которых	-741
мина	-742
кла	-743
▁Ра	-744
▁лет	-745
мента	-746
▁того	-747
той	-748
▁проис	-749
▁Ю	-750
тра	-751
▁Но	-752
▁находи	-753
тора	-754
али	-755
▁оче	-756
тера	-757
чные	-758
ким	-759
держа	-760
ью	-761
нами	-762
йской	-763
▁этого	-764
▁других	-765
▁ду	-766
нность	-767
жение	-768
ющий	-769
▁XV	-770
▁случа	-771
щая	-772
▁извест	-773
дель	-774
▁много	-775
пад	-776
▁они	-777
вление	-778
ибо	-779
вор	-780
▁харак	-781
нем	-782
▁дву	-783
слу	-784
мож	-785
пло	-786
▁Ре	-787
шения	-788
▁обы	-789
туры	-790
▁городе	-791
личе	-792
▁сторо	-793
▁человек	-794
скую	-795
▁получи	-796
▁около	-797
лаго	-798
▁чем	-799
струк	-800
кре	-801
мой	-802
ним	-803
ствует	-804
цев	-805
вать	-806
нк	-807
стей	-808
▁счита	-809
▁производ	-810
▁где	-811
▁жиз	-812
▁ги	-813
▁некоторы	-814
кономи	-815
▁Ми	-816
▁8	-817
ждения	-818
▁15	-819
соб	-820
шая	-821
▁год	-822
▁Ни	-823
ссо	-824
льта	-825
▁Ки	-826
▁постро	-827
нского	-828
нской	-829
вра	-830
кти	-831
простра	-832
тие	-833
кий	-834
▁ри	-835
мыш	-836
прия	-837
ностью	-838
графи	-839
СР	-840
лии	-841
▁тех	-842
▁н	-843
▁уста	-844
ляр	-845
▁км	-846
▁быть	-847
мати	-848
них	-849
зом	-850
вом	-851
вали	-852
▁упо	-853
шего	-854
нский	-855
▁них	-856
▁территории	-857
▁ту	-858
▁ло	-859
ья	-860
него	-861
▁совре	-862
зма	-863
нах	-864
▁зо	-865
ряд	-866
бор	-867
ческая	-868
мышле	-869
публи	-870
ходя	-871
▁поч	-872
▁место	-873
▁Так	-874
▁фу	-875
▁над	-876
▁есть	-877
▁I	-878
тро	-879
рий	-880
▁тру	-881
▁зем	-882
▁коро	-883
тий	-884
▁груп	-885
▁когда	-886
—1	-887
итель	-888
бри	-889
▁дли	-890
▁9	-891
▁конце	-892
вропе	-893
▁16	-894
▁кор	-895
ступ	-896
сс	-897
мини	-898
циональ	-899
зульта	-900
▁многи	-901
кси	-902
виси	-903
чё	-904
▁через	-905
▁дере	-906
льных	-907
▁свои	-908
нер	-909
▁Ли	-910
▁распростра	-911
▁вое	-912
лен	-913
▁поэ	-914
▁истори	-915
▁Ме	-916
тки	-917
▁элект	-918
▁области	-919
ье	-920
лем	-921
▁фа	-922
▁соот	-923
кон	-924
рая	-925
▁XI	-926
▁помо	-927
▁тор	-928
бер	-929
зации	-930
ября	-931
пример	-932
вич	-933
▁гу	-934
ван	-935
ключа	-936
▁нау	-937
▁результа	-938
▁Ар	-939
▁числе	-940
▁Од	-941
дол	-942
шин	-943
▁10	-944
лий	-945
▁Это	-946
дела	-947
▁тран	-948
▁значи	-949
▁цер	-950
▁мест	-951
верх	-952
III	-953
▁самы	-954
▁ещё	-955
мов	-956
из	-957
▁То	-958
▁поз	-959
▁без	-960
иболее	-961
▁Си	-962
доро	-963
гут	-964
▁несколько	-965
▁можно	-966
▁глав	-967
▁стал	-968
гов	-969
▁ад	-970
▁населения	-971
вший	-972
▁ци	-973
▁право	-974
вед	-975
ден	-976
▁дви	-977
▁Ба	-978
гре	-979
▁древ	-980
вета	-981
▁уже	-982
▁окру	-983
лла	-984
▁До	-985
льные	-986
кус	-987
▁обе	-988
▁совет	-989
▁действи	-990
▁которой	-991
▁12	-992
▁связа	-993
ую	-994
▁приня	-995
▁сы	-996
▁194	-997
▁ию	-998
шение	-999
▁вто	-1000
мери	-1001
нди	-1002
рё	-1003
рав	-1004
дно	-1005
вают	-1006
er	-1007
▁дан	-1008
▁кар	-1009
лле	-1010
удо	-1011
щения	-1012
▁долж	-1013
▁ско	-1014
▁Ви	-1015
▁Пер	-1016
хов	-1017
▁Ва	-1018
▁,	-1019
мости	-1020
тек	-1021
▁имеет	-1022
▁площа	-1023
▁уни	-1024
мент	-1025
▁вну	-1026
Со	-1027
ео	-1028
нном	-1029
мет	-1030
▁войны	-1031
▁которого	-1032
спубли	-1033
▁проце	-1034
ССР	-1035
▁занима	-1036
▁сохра	-1037
▁полити	-1038
▁возмож	-1039
▁матери	-1040
▁промышле	-1041
твер	-1042
▁сти	-1043
▁Из	-1044
чного	-1045
▁экономи	-1046
▁соответ	-1047
вал	-1048
след	-1049
▁послед	-1050
▁государстве	-1051
▁ры	-1052
▁упра	-1053
гласно	-1054
▁название	-1055
ведения	-1056
▁ос	-1057
▁часто	-1058
▁доро	-1059
▁могут	-1060
▁всех	-1061
скому	-1062
▁количе	-1063
пла	-1064
роме	-1065
слови	-1066
▁дея	-1067
▁теле	-1068
тен	-1069
ческое	-1070
рабо	-1071
▁один	-1072
▁реки	-1073
Во	-1074
воз	-1075
▁райо	-1076
▁пос	-1077
▁годы	-1078
▁част	-1079
▁Алек	-1080
▁работа	-1081
ями	-1082
чный	-1083
льной	-1084
an	-1085
тей	-1086
▁виде	-1087
▁всего	-1088
▁кри	-1089
льный	-1090
▁остро	-1091
кло	-1092
▁вс	-1093
вших	-1094
шь	-1095
▁мл	-1096
казыва	-1097
▁искус	-1098
зм	-1099
над	-1100
▁Бе	-1101
кая	-1102
ступа	-1103
▁она	-1104
▁широ	-1105
▁напра	-1106
зии	-1107
▁ж	-1108
▁Су	-1109
йства	-1110
▁одно	-1111
▁период	-1112
▁посе	-1113
▁которая	-1114
мии	-1115
▁Ж	-1116
▁представля	-1117
▁два	-1118
▁музы	-1119
▁собой	-1120
▁реги	-1121
стов	-1122
лет	-1123
рон	-1124
тому	-1125
▁вне	-1126
ристи	-1127
▁другие	-1128
▁мета	-1129
..	-1130
▁качестве	-1131
▁составляет	-1132
яза	-1133
▁водо	-1134
▁гла	-1135
▁тыся	-1136
лён	-1137
лосо	-1138
▁чтобы	-1139
▁относи	-1140
▁Ру	-1141
▁Про	-1142
щих	-1143
▁Вели	-1144
ссий	-1145
▁являются	-1146
▁сере	-1147
▁двух	-1148
пада	-1149
▁хра	-1150
▁соб	-1151
20	-1152
▁способ	-1153
ору	-1154
▁лу	-1155
нача	-1156
▁три	-1157
▁следу	-1158
министра	-1159
▁осу	-1160
щее	-1161
▁встре	-1162
кое	-1163
тных	-1164
▁Ле	-1165
▁состав	-1166
знача	-1167
▁веке	-1168
▁благо	-1169
▁архи	-1170
▁C	-1171
▁строитель	-1172
цион	-1173
▁содержа	-1174
еде	-1175
бле	-1176
ница	-1177
▁бере	-1178
сут	-1179
▁образом	-1180
▁сим	-1181
▁зда	-1182
новле	-1183
▁желез	-1184
рей	-1185
▁дости	-1186
▁СССР	-1187
тем	-1188
цией	-1189
▁Ти	-1190
няя	-1191
▁друго	-1192
▁Гер	-1193
▁свое	-1194
ницы	-1195
▁времени	-1196
бур	-1197
доб	-1198
▁совреме	-1199
▁ино	-1200
шие	-1201
▁Ге	-1202
▁годах	-1203
вар	-1204
▁компа	-1205
▁продол	-1206
▁находится	-1207
▁XIX	-1208
ток	-1209
▁разме	-1210
тиво	-1211
народ	-1212
▁191	-1213
емо	-1214
▁человека	-1215
▁особе	-1216
in	-1217
▁темпера	-1218
ший	-1219
боль	-1220
▁жизни	-1221
▁иссле	-1222
▁вме	-1223
▁большо	-1224
▁мар	-1225
дук	-1226
▁Га	-1227
▁среди	-1228
сом	-1229
лья	-1230
▁мы	-1231
ющей	-1232
▁изме	-1233
▁годов	-1234
▁шко	-1235
▁деятель	-1236
ствие	-1237
▁однако	-1238
ит	-1239
Исто	-1240
▁193	-1241
▁тради	-1242
вшие	-1243
бя	-1244
чки	-1245
▁настоя	-1246
нными	-1247
ститу	-1248
нове	-1249
▁включа	-1250
нова	-1251
▁живо	-1252
▁14	-1253
▁Ку	-1254
туре	-1255
Ра	-1256
▁гру	-1257
ческим	-1258
деля	-1259
стер	-1260
▁позво	-1261
▁начале	-1262
шее	-1263
жной	-1264
рами	-1265
▁практи	-1266
▁например	-1267
▁;	-1268
▁Ста	-1269
▁основа	-1270
▁ря	-1271
ющая	-1272
тно	-1273
▁Однако	-1274
▁уг	-1275
тами	-1276
▁хи	-1277
▁призна	-1278
смо	-1279
ствии	-1280
▁страны	-1281
▁необ	-1282
тельных	-1283
вую	-1284
▁сер	-1285
▁N	-1286
▁кни	-1287
▁выра	-1288
▁восто	-1289
льного	-1290
▁еди	-1291
,5	-1292
▁Фран	-1293
▁стали	-1294
▁возду	-1295
▁XX	-1296
▁отме	-1297
▁услови	-1298
форма	-1299
жу	-1300
санд	-1301
чина	-1302
▁уве	-1303
шим	-1304
стой	-1305
няется	-1306
▁лишь	-1307
▁севе	-1308
ждение	-1309
чь	-1310
бира	-1311
▁сме	-1312
рёх	-1313
▁поль	-1314
▁очень	-1315
лого	-1316
▁198	-1317
щий	-1318
▁иде	-1319
▁слова	-1320
кви	-1321
бре	-1322
▁транспо	-1323
▁кня	-1324
▁стан	-1325
лки	-1326
▁одной	-1327
слав	-1328
▁появи	-1329
▁результате	-1330
нера	-1331
▁электро	-1332
тии	-1333
виде	-1334
▁вз	-1335
▁После	-1336
▁испол	-1337
При	-1338
▁13	-1339
on	-1340
▁против	-1341
▁предприя	-1342
▁изобра	-1343
▁своей	-1344
треб	-1345
▁совер	-1346
▁каж	-1347
▁осуще	-1348
▁литера	-1349
▁гор	-1350
▁этой	-1351
стан	-1352
▁рав	-1353
зов	-1354
ar	-1355
▁Де	-1356
▁офи	-1357
рения	-1358
грам	-1359
▁гре	-1360
жё	-1361
держи	-1362
раз	-1363
жен	-1364
▁уда	-1365
щение	-1366
▁обычно	-1367
щие	-1368
▁196	-1369
▁попу	-1370
▁связи	-1371
мом	-1372
лиги	-1373
▁даже	-1374
тельной	-1375
▁выпу	-1376
▁поверх	-1377
▁Пе	-1378
▁наиболее	-1379
▁дела	-1380
десь	-1381
▁защи	-1382
гото	-1383
▁бли	-1384
▁От	-1385
▁анти	-1386
▁худо	-1387
ствуют	-1388
▁чу	-1389
▁пря	-1390
ющего	-1391
ющим	-1392
мирова	-1393
▁192	-1394
▁ради	-1395
кро	-1396
лича	-1397
того	-1398
▁Кон	-1399
▁себя	-1400
ниче	-1401
▁Александ	-1402
стри	-1403
▁Да	-1404
▁памя	-1405
хва	-1406
логии	-1407
▁Все	-1408
▁11	-1409
▁восста	-1410
▁СШ	-1411
▁смер	-1412
en	-1413
▁ней	-1414
▁диа	-1415
вляется	-1416
Го	-1417
ху	-1418
▁сла	-1419
▁Ав	-1420
▁Он	-1421
▁выпол	-1422
вин	-1423
рода	-1424
нению	-1425
▁S	-1426
▁этот	-1427
▁Моск	-1428
▁некоторых	-1429
▁ана	-1430
▁уров	-1431
тере	-1432
▁США	-1433
▁источ	-1434
▁противо	-1435
Про	-1436
тельные	-1437
▁писа	-1438
▁импера	-1439
▁жа	-1440
зей	-1441
▁руко	-1442
▁района	-1443
▁ули	-1444
▁Ри	-1445
▁изда	-1446
стью	-1447
строй	-1448
▁импе	-1449
нки	-1450
ному	-1451
▁комп	-1452
▁расте	-1453
Ко	-1454
▁важ	-1455
▁влия	-1456
▁перед	-1457
сков	-1458
▁Ла	-1459
▁ша	-1460
тах	-1461
тых	-1462
▁Це	-1463
▁представи	-1464
or	-1465
▁осущест	-1466
▁администра	-1467
▁наб	-1468
▁имени	-1469
ваются	-1470
▁переда	-1471
▁столи	-1472
▁спи	-1473
ющее	-1474
▁кли	-1475
▁гер	-1476
▁неза	-1477
▁гражда	-1478
▁обеспе	-1479
▁материа	-1480
дро	-1481
чная	-1482
▁необходи	-1483
▁бра	-1484
▁тыс	-1485
чу	-1486
▁встреча	-1487
▁специаль	-1488
хе	-1489
скими	-1490
▁видов	-1491
▁фран	-1492
▁образу	-1493
▁моло	-1494
вил	-1495
▁филосо	-1496
▁функ	-1497
▁соеди	-1498
▁веще	-1499
кова	-1500
верси	-1501
▁неболь	-1502
ником	-1503
▁мира	-1504
ню	-1505
▁конт	-1506
кам	-1507
мец	-1508
▁характер	-1509
нё	-1510
▁пор	-1511
фика	-1512
▁фак	-1513
циали	-1514
▁предпо	-1515
рах	-1516
лан	-1517
▁жен	-1518
▁195	-1519
дия	-1520
ственный	-1521
жд	-1522
▁Вер	-1523
▁стре	-1524
▁Вы	-1525
выми	-1526
рд	-1527
ственных	-1528
▁теат	-1529
гово	-1530
▁Му	-1531
▁иг	-1532
ружи	-1533
рен	-1534
трен	-1535
▁свою	-1536
▁эта	-1537
▁Также	-1538
▁0	-1539
дели	-1540
▁ему	-1541
краи	-1542
тый	-1543
▁архитек	-1544
муще	-1545
▁построе	-1546
нет	-1547
▁уме	-1548
000	-1549
лок	-1550
▁него	-1551
▁либо	-1552
▁почти	-1553
▁пя	-1554
▁большин	-1555
▁Для	-1556
▁россий	-1557
▁больше	-1558
▁тя	-1559
ходят	-1560
▁вра	-1561
▁если	-1562
▁мона	-1563
at	-1564
▁ше	-1565
нец	-1566
▁участ	-1567
es	-1568
тая	-1569
▁отра	-1570
мин	-1571
менно	-1572
цуз	-1573
▁Ха	-1574
ственной	-1575
История	-1576
▁центр	-1577
▁197	-1578
зем	-1579
▁объя	-1580
чёт	-1581
мена	-1582
образ	-1583
▁коло	-1584
фек	-1585
▁помощ	-1586
ственного	-1587
тые	-1588
пов	-1589
жении	-1590
▁поста	-1591
▁A	-1592
▁фо	-1593
▁день	-1594
▁обяза	-1595
▁Лу	-1596
жных	-1597
▁полови	-1598
год	-1599
▁нео	-1600
▁отдель	-1601
▁объек	-1602
▁происходит	-1603
al	-1604
шли	-1605
▁пес	-1606
виа	-1607
числе	-1608
▁продук	-1609
волю	-1610
▁утвер	-1611
тельного	-1612
тин	-1613
▁миро	-1614
▁сооб	-1615
▁тысяч	-1616
дой	-1617
▁государства	-1618
нок	-1619
▁менее	-1620
креп	-1621
пита	-1622
лой	-1623
▁Ди	-1624
▁мя	-1625
▁эпо	-1626
рации	-1627
За	-1628
шки	-1629
▁народ	-1630
телем	-1631
тру	-1632
▁зависи	-1633
риа	-1634
▁филь	-1635
▁имеют	-1636
▁многих	-1637
▁положе	-1638
дра	-1639
нци	-1640
▁пара	-1641
▁различных	-1642
▁дво	-1643
▁мор	-1644
мир	-1645
▁власти	-1646
рок	-1647
личие	-1648
лин	-1649
сма	-1650
нча	-1651
доста	-1652
▁религи	-1653
▁затем	-1654
нва	-1655
▁тро	-1656
▁этих	-1657
чка	-1658
версите	-1659
сной	-1660
▁одним	-1661
▁стала	-1662
▁низ	-1663
цей	-1664
▁получа	-1665
▁дома	-1666
▁второй	-1667
восто	-1668
▁четы	-1669
мая	-1670
дя	-1671
▁Те	-1672
нин	-1673
▁начина	-1674
тельства	-1675
зяй	-1676
▁млн	-1677
▁используется	-1678
▁своего	-1679
надле	-1680
▁наблю	-1681
вшего	-1682
рово	-1683
▁сель	-1684
▁янва	-1685
▁цар	-1686
ристиан	-1687
ске	-1688
▁дека	-1689
▁крупней	-1690
хода	-1691
▁Мар	-1692
вли	-1693
нную	-1694
▁евре	-1695
▁котором	-1696
чным	-1697
▁назва	-1698
▁шта	-1699
руг	-1700
▁носи	-1701
▁форма	-1702
раб	-1703
▁обу	-1704
зирова	-1705
тельный	-1706
Ро	-1707
лина	-1708
тар	-1709
▁показа	-1710
▁актив	-1711
▁международ	-1712
▁запад	-1713
▁множе	-1714
▁находя	-1715
вропей	-1716
рус	-1717
▁Вла	-1718
Не	-1719
паде	-1720
▁заня	-1721
▁Евро	-1722
До	-1723
▁V	-1724
▁популяр	-1725
льное	-1726
▁настоящее	-1727
▁располага	-1728
▁принадле	-1729
мерикан	-1730
▁стороны	-1731
▁уч	-1732
зация	-1733
▁выше	-1734
▁количество	-1735
▁гово	-1736
▁националь	-1737
▁две	-1738
▁случае	-1739
▁Об	-1740
ствия	-1741
▁Ту	-1742
чное	-1743
▁истории	-1744
▁которое	-1745
лых	-1746
льная	-1747
сона	-1748
▁уче	-1749
▁чер	-1750
▁огра	-1751
is	-1752
▁торго	-1753
дви	-1754
▁аль	-1755
мор	-1756
▁непо	-1757
вка	-1758
▁Герма	-1759
гли	-1760
▁Боль	-1761
▁сам	-1762
▁програм	-1763
▁эпи	-1764
▁постоя	-1765
тельное	-1766
▁системы	-1767
▁мире	-1768
первые	-1769
▁поме	-1770
▁своих	-1771
▁середи	-1772
▁имя	-1773
▁социаль	-1774
▁Российской	-1775
▁тео	-1776
▁деся	-1777
оз	-1778
цами	-1779
▁Ан	-1780
▁Кар	-1781
▁культур	-1782
даря	-1783
▁класси	-1784
▁империи	-1785
ници	-1786
▁церков	-1787
▁воды	-1788
▁меди	-1789
▁компо	-1790
▁начала	-1791
емых	-1792
пере	-1793
▁места	-1794
▁сент	-1795
▁Бу	-1796
▁заме	-1797
▁отлича	-1798
▁внутрен	-1799
▁применя	-1800
▁стату	-1801
▁вет	-1802
▁гео	-1803
шую	-1804
▁развития	-1805
щей	-1806
▁рим	-1807
дования	-1808
▁Север	-1809
стья	-1810
▁анг	-1811
.1	-1812
рует	-1813
▁месте	-1814
▁возник	-1815
ссей	-1816
▁окт	-1817
▁представле	-1818
▁уби	-1819
ступи	-1820
дий	-1821
▁30	-1822
▁свобо	-1823
сад	-1824
шёл	-1825
дами	-1826
▁25	-1827
логия	-1828
торов	-1829
▁Восто	-1830
пти	-1831
снов	-1832
нан	-1833
▁Ин	-1834
▁крепо	-1835
зь	-1836
▁сдела	-1837
дии	-1838
▁производи	-1839
ген	-1840
▁Пре	-1841
вести	-1842
▁Пи	-1843
▁зе	-1844
▁людей	-1845
▁голо	-1846
ётся	-1847
▁Сред	-1848
нских	-1849
▁коман	-1850
▁течение	-1851
▁север	-1852
▁ал	-1853
город	-1854
лев	-1855
▁доста	-1856
стя	-1857
сколь	-1858
▁зако	-1859
▁кана	-1860
значе	-1861
▁профе	-1862
▁сохрани	-1863
шло	-1864
▁игра	-1865
▁данным	-1866
док	-1867
▁немец	-1868
▁особенно	-1869
ментов	-1870
▁вместе	-1871
писи	-1872
▁музыка	-1873
▁основном	-1874
вались	-1875
▁авгу	-1876
▁иногда	-1877
▁памят	-1878
жный	-1879
вен	-1880
▁комплек	-1881
вей	-1882
▁даль	-1883
лит	-1884
строе	-1885
▁муж	-1886
▁ран	-1887
ic	-1888
▁M	-1889
▁учре	-1890
▁физи	-1891
▁ну	-1892
кола	-1893
▁правило	-1894
бов	-1895
▁поня	-1896
нодоро	-1897
▁первый	-1898
▁заво	-1899
▁отноше	-1900
▁университе	-1901
▁роль	-1902
▁свой	-1903
кар	-1904
спублики	-1905
▁упомина	-1906
▁глу	-1907
▁мето	-1908
▁таких	-1909
дет	-1910
▁Ита	-1911
▁войска	-1912
нев	-1913
▁одного	-1914
▁хотя	-1915
рита	-1916
пара	-1917
▁струк	-1918
▁P	-1919
▁тек	-1920
▁сов	-1921
сматри	-1922
▁установле	-1923
тка	-1924
▁нор	-1925
▁существова	-1926
▁работы	-1927
us	-1928
▁ог	-1929
▁кино	-1930
чей	-1931
▁сол	-1932
▁побе	-1933
▁француз	-1934
▁исследова	-1935
Пер	-1936
▁буду	-1937
▁Влади	-1938
руется	-1939
▁административ	-1940
читы	-1941
зах	-1942
▁вопро	-1943
;.	-1944
вов	-1945
тельство	-1946
Ка	-1947
щего	-1948
▁значение	-1949
▁Вол	-1950
▁пле	-1951
▁учё	-1952
▁бога	-1953
▁здесь	-1954
хани	-1955
▁всё	-1956
▁возра	-1957
ложи	-1958
▁направле	-1959
▁число	-1960
▁позволя	-1961
▁облада	-1962
рю	-1963
нам	-1964
ниц	-1965
▁характери	-1966
ган	-1967
▁Сан	-1968
мость	-1969
▁геро	-1970
▁обна	-1971
▁проводи	-1972
фере	-1973
гии	-1974
▁уз	-1975
▁официаль	-1976
▁продолжа	-1977
▁оборо	-1978
▁тепло	-1979
▁несколь	-1980
▁B	-1981
гие	-1982
▁Пет	-1983
▁фе	-1984
тай	-1985
▁вид	-1986
▁XVIII	-1987
ственные	-1988
▁дерев	-1989
вид	-1990
▁производства	-1991
▁оказа	-1992
▁срав	-1993
▁коми	-1994
обре	-1995
▁Украи	-1996
▁пы	-1997
▁слово	-1998
▁независи	-1999
лим	-2000
▁отсут	-2001
ённые	-2002
лье	-2003
нка	-2004
писы	-2005
▁объеди	-2006
▁нару	-2007
лые	-2008
кими	-2009
▁Кра	-2010
▁описа	-2011
менты	-2012
▁происхо	-2013
▁укра	-2014
▁хоро	-2015
вёр	-2016
▁некоторые	-2017
жо	-2018
вшая	-2019
ческом	-2020
рию	-2021
мь	-2022
жно	-2023
▁определя	-2024
▁зи	-2025
▁трёх	-2026
▁сни	-2027
▁внеш	-2028
▁принима	-2029
▁инстру	-2030
ропо	-2031
никами	-2032
▁опера	-2033
кта	-2034
лка	-2035
▁информа	-2036
—19	-2037
▁многие	-2038
деле	-2039
▁частности	-2040
▁написа	-2041
мерно	-2042
▁чего	-2043
Ре	-2044
мей	-2045
ваться	-2046
ческими	-2047
▁хими	-2048
▁проек	-2049
▁станови	-2050
▁°	-2051
выше	-2052
▁неф	-2053
▁стран	-2054
Пе	-2055
▁причи	-2056
ральной	-2057
дко	-2058
▁золо	-2059
жей	-2060
▁един	-2061
▁T	-2062
▁вок	-2063
▁мень	-2064
▁симво	-2065
▁районе	-2066
▁христиан	-2067
▁тон	-2068
цов	-2069
▁Фи	-2070
▁массо	-2071
▁Пу	-2072
ндии	-2073
Ли	-2074
▁Европе	-2075
бом	-2076
▁позд	-2077
скольку	-2078
▁относя	-2079
▁городов	-2080
жит	-2081
вобо	-2082
▁оце	-2083
▁забо	-2084
▁пода	-2085
чности	-2086
▁жителей	-2087
дах	-2088
нирова	-2089
▁No	-2090
▁Цент	-2091
▁кисло	-2092
емые	-2093
тить	-2094
▁Зем	-2095
▁бан	-2096
тельным	-2097
ссии	-2098
имуще	-2099
▁произо	-2100
▁выс	-2101
стоит	-2102
шла	-2103
▁апре	-2104
▁верх	-2105
▁цвет	-2106
▁эф	-2107
тной	-2108
▁Феде	-2109
▁верси	-2110
лый	-2111
жные	-2112
▁II	-2113
▁употреб	-2114
сер	-2115
▁женщи	-2116
име	-2117
▁культуры	-2118
тика	-2119
▁степе	-2120
▁нас	-2121
носи	-2122
▁пов	-2123
ческую	-2124
лами	-2125
▁формы	-2126
Бо	-2127
▁Сер	-2128
▁роди	-2129
▁энер	-2130
чества	-2131
лью	-2132
тные	-2133
пар	-2134
град	-2135
▁Свя	-2136
Ме	-2137
тный	-2138
циона	-2139
▁другой	-2140
▁транспорт	-2141
льным	-2142
▁завод	-2143
вили	-2144
▁группы	-2145
нены	-2146
щую	-2147
▁Кроме	-2148
▁вели	-2149
моби	-2150
▁центром	-2151
el	-2152
бро	-2153
▁тка	-2154
онов	-2155
▁типа	-2156
куль	-2157
▁Совет	-2158
туа	-2159
▁мини	-2160
▁Ша	-2161
▁названия	-2162
пли	-2163
лко	-2164
▁чле	-2165
▁исклю	-2166
▁церкви	-2167
▁железнодоро	-2168
вшей	-2169
▁род	-2170
▁такие	-2171
▁мас	-2172
▁странах	-2173
▁успе	-2174
▁суб	-2175
После	-2176
▁себе	-2177
▁меся	-2178
мест	-2179
▁скоро	-2180
▁первой	-2181
мат	-2182
▁экс	-2183
бург	-2184
фици	-2185
▁100	-2186
▁обеспечи	-2187
шем	-2188
служи	-2189
▁собы	-2190
▁губер	-2191
▁разру	-2192
▁расска	-2193
▁участи	-2194
▁помощью	-2195
▁рез	-2196
▁авиа	-2197
▁весь	-2198
Ма	-2199
лях	-2200
селение	-2201
тельности	-2202
▁Ло	-2203
▁протя	-2204
поли	-2205
▁2010	-2206
▁%.	-2207
▁получил	-2208
▁зву	-2209
▁полностью	-2210
▁образ	-2211
▁января	-2212
▁образования	-2213
▁преимуще	-2214
▁пти	-2215
вался	-2216
тором	-2217
нен	-2218
там	-2219
мия	-2220
шен	-2221
нений	-2222
рит	-2223
сных	-2224
чении	-2225
▁сопро	-2226
емый	-2227
▁регу	-2228
▁вод	-2229
▁очеред	-2230
▁ряд	-2231
▁маши	-2232
тирова	-2233
it	-2234
▁цве	-2235
▁Ио	-2236
▁Бер	-2237
▁покры	-2238
▁Хо	-2239
▁основе	-2240
▁превра	-2241
шу	-2242
▁аэ	-2243
▁ним	-2244
▁сре	-2245
▁Среди	-2246
▁площадь	-2247
что	-2248
▁дет	-2249
▁наблюда	-2250
гло	-2251
▁одна	-2252
каде	-2253
▁вза	-2254
крати	-2255
▁лё	-2256
тного	-2257
▁общи	-2258
жды	-2259
▁разно	-2260
рам	-2261
лова	-2262
▁R	-2263
▁еже	-2264
▁луч	-2265
▁фев	-2266
ственное	-2267
тельная	-2268
став	-2269
▁уго	-2270
2.	-2271
▁будет	-2272
▁ат	-2273
▁аб	-2274
зиде	-2275
суль	-2276
▁впервые	-2277
▁составе	-2278
▁Ду	-2279
▁Че	-2280
▁поэтому	-2281
▁поверхности	-2282
▁Ча	-2283
▁изу	-2284
▁кол	-2285
▁смерти	-2286
тека	-2287
▁сту	-2288
▁служ	-2289
▁зада	-2290
▁стало	-2291
▁система	-2292
▁нём	-2293
▁уро	-2294
▁контро	-2295
▁состоит	-2296
▁.	-2297
▁бро	-2298
Са	-2299
▁%,	-2300
степе	-2301
▁июля	-2302
ез	-2303
цер	-2304
клад	-2305
▁северо	-2306
▁Франции	-2307
Па	-2308
кс	-2309
▁спа	-2310
▁медици	-2311
няет	-2312
нская	-2313
ологи	-2314
▁самых	-2315
тря	-2316
▁близ	-2317
▁моря	-2318
урна	-2319
▁мая	-2320
▁прожи	-2321
фри	-2322
бере	-2323
▁собра	-2324
▁ниж	-2325
...	-2326
пий	-2327
▁руб	-2328
▁тела	-2329
▁американ	-2330
▁согла	-2331
▁оконча	-2332
▁европей	-2333
жная	-2334
телями	-2335
джи	-2336
ил	-2337
▁кру	-2338
▁режи	-2339
тни	-2340
▁др	-2341
▁Европы	-2342
ённый	-2343
▁Германии	-2344
вно	-2345
▁широко	-2346
50	-2347
▁представляет	-2348
пор	-2349
▁отде	-2350
▁кры	-2351
ющими	-2352
рин	-2353
▁религиоз	-2354
▁дра	-2355
ниципа	-2356
ведение	-2357
чными	-2358
▁практически	-2359
▁рода	-2360
рую	-2361
▁сою	-2362
пасно	-2363
▁Лю	-2364
▁поро	-2365
▁своё	-2366
▁заклю	-2367
▁техно	-2368
гер	-2369
▁сентября	-2370
жет	-2371
шта	-2372
▁вол	-2373
,2	-2374
дина	-2375
▁худож	-2376
▁автомоби	-2377
Из	-2378
кую	-2379
▁кро	-2380
▁быстро	-2381
▁сет	-2382
▁смы	-2383
▁февра	-2384
▁спор	-2385
лирова	-2386
▁револю	-2387
нте	-2388
▁права	-2389
вок	-2390
▁ам	-2391
▁см	-2392
▁Его	-2393
▁фло	-2394
▁нескольких	-2395
▁октября	-2396
▁оби	-2397
стран	-2398
▁запа	-2399
▁разрабо	-2400
фер	-2401
▁сра	-2402
▁именно	-2403
▁монасты	-2404
рец	-2405
▁дней	-2406
▁интере	-2407
▁конструк	-2408
▁персона	-2409
▁организации	-2410
▁называют	-2411
пле	-2412
▁50	-2413
сред	-2414
стом	-2415
топи	-2416
▁интер	-2417
▁выступа	-2418
▁ца	-2419
пуска	-2420
ктор	-2421
пута	-2422
▁центра	-2423
▁расположен	-2424
Мо	-2425
нному	-2426
▁механи	-2427
▁отмеча	-2428
▁сце	-2429
▁феде	-2430
▁приро	-2431
▁Они	-2432
▁радио	-2433
▁языке	-2434
бора	-2435
графия	-2436
Об	-2437
езд	-2438
имо	-2439
▁XVII	-2440
сен	-2441
▁осуществля	-2442
мар	-2443
▁Запад	-2444
▁D	-2445
▁проя	-2446
▁площади	-2447
юр	-2448
ссажи	-2449
▁борь	-2450
▁милли	-2451
пря	-2452
тил	-2453
▁изгото	-2454
▁провин	-2455
нос	-2456
тым	-2457
▁L	-2458
▁Би	-2459
▁нет	-2460
тон	-2461
чен	-2462
▁тот	-2463
▁компози	-2464
▁Ис	-2465
валось	-2466
▁достига	-2467
мых	-2468
ност	-2469
▁тол	-2470
гру	-2471
▁бое	-2472
▁пунк	-2473
▁специали	-2474
▁2011	-2475
▁закры	-2476
▁метал	-2477
ал	-2478
▁согласно	-2479
▁21	-2480
▁23	-2481
▁пора	-2482
▁современ	-2483
гом	-2484
▁Гре	-2485
▁означа	-2486
ис	-2487
▁189	-2488
жного	-2489
▁H	-2490
нес	-2491
либо	-2492
мон	-2493
бина	-2494
▁ска	-2495
▁соору	-2496
▁кам	-2497
▁реак	-2498
▁отпра	-2499
рого	-2500
баты	-2501
▁смо	-2502
▁фон	-2503
тания	-2504
ственным	-2505
▁мощ	-2506
▁рома	-2507
выша	-2508
тво	-2509
хом	-2510
рение	-2511
точно	-2512
▁становится	-2513
▁декабря	-2514
▁институ	-2515
▁городской	-2516
▁Миха	-2517
▁F	-2518
рос	-2519
▁допол	-2520
▁захва	-2521
▁приве	-2522
▁форму	-2523
▁Никола	-2524
▁большой	-2525
▁Ор	-2526
▁ходе	-2527
▁празд	-2528
▁оно	-2529
▁край	-2530
▁подоб	-2531
▁190	-2532
▁стране	-2533
▁л	-2534
сок	-2535
жений	-2536
нении	-2537
ристо	-2538
▁дер	-2539
лог	-2540
▁40	-2541
▁Ива	-2542
▁мир	-2543
зия	-2544
▁клу	-2545
▁зависимости	-2546
▁перво	-2547
▁генера	-2548
чих	-2549
ствен	-2550
▁всей	-2551
▁наро	-2552
▁холо	-2553
▁приводи	-2554
▁увеличи	-2555
рот	-2556
чную	-2557
ябре	-2558
▁взя	-2559
▁кле	-2560
▁расши	-2561
▁многочисле	-2562
▁спосо	-2563
▁Согласно	-2564
риан	-2565
▁раство	-2566
образова	-2567
сей	-2568
▁принци	-2569
▁дальней	-2570
▁муниципа	-2571
▁развитие	-2572
▁существует	-2573
рко	-2574
▁марта	-2575
шру	-2576
▁конца	-2577
▁плане	-2578
▁берегу	-2579
рального	-2580
гна	-2581
тье	-2582
▁коле	-2583
смотря	-2584
▁тогда	-2585
▁августа	-2586
▁юго	-2587
▁крупных	-2588
▁рассматри	-2589
▁2000	-2590
▁долго	-2591
▁разных	-2592
▁эффек	-2593
▁Гу	-2594
толи	-2595
тона	-2596
дения	-2597
▁предприятия	-2598
вари	-2599
чном	-2600
▁Пра	-2601
гну	-2602
труд	-2603
▁заболе	-2604
▁бассей	-2605
▁отличие	-2606
▁частью	-2607
ro	-2608
рина	-2609
▁журна	-2610
▁просто	-2611
▁возвра	-2612
▁деятельности	-2613
щу	-2614
▁Азии	-2615
▁похо	-2616
▁22	-2617
▁техни	-2618
▁благодаря	-2619
▁мет	-2620
▁ноября	-2621
▁поскольку	-2622
нили	-2623
▁температура	-2624
▁24	-2625
▁ск	-2626
▁выделя	-2627
▁мало	-2628
▁деревя	-2629
неве	-2630
▁выз	-2631
▁публи	-2632
послед	-2633
ект	-2634
шка	-2635
▁воору	-2636
▁подвер	-2637
тельность	-2638
▁промышленности	-2639
▁учи	-2640
говор	-2641
чением	-2642
▁мед	-2643
▁2014	-2644
ющихся	-2645
▁млрд	-2646
▁армии	-2647
▁очередь	-2648
мах	-2649
▁пут	-2650
▁грани	-2651
▁художе	-2652
▁компании	-2653
йти	-2654
▁Ги	-2655
,6	-2656
10	-2657
лам	-2658
нина	-2659
▁тому	-2660
▁186	-2661
▁коли	-2662
▁православ	-2663
▁сна	-2664
риаль	-2665
▁поряд	-2666
▁строительство	-2667
▁+	-2668
сные	-2669
▁примерно	-2670
нце	-2671
▁нем	-2672
▁оде	-2673
чер	-2674
поль	-2675
▁хло	-2676
▁оружи	-2677
▁пассажи	-2678
мимо	-2679
сами	-2680
▁маршру	-2681
последствии	-2682
джа	-2683
▁относится	-2684
▁уси	-2685
▁древне	-2686
▁множество	-2687
вень	-2688
Се	-2689
▁первых	-2690
чо	-2691
▁добы	-2692
▁прода	-2693
▁187	-2694
▁предме	-2695
ol	-2696
▁виды	-2697
▁мировой	-2698
▁острова	-2699
▁организа	-2700
▁считается	-2701
▁преимущественно	-2702
▁поле	-2703
мые	-2704
нью	-2705
▁работ	-2706
▁чемпи	-2707
he	-2708
несе	-2709
нить	-2710
▁население	-2711
▁таким	-2712
▁финан	-2713
▁запре	-2714
▁середине	-2715
am	-2716
мос	-2717
▁Рим	-2718
▁Поль	-2719
йского	-2720
▁находятся	-2721
▁изо	-2722
▁умень	-2723
▁называется	-2724
▁G	-2725
влением	-2726
▁используются	-2727
,8	-2728
гип	-2729
сед	-2730
▁ке	-2731
блио	-2732
▁действия	-2733
тием	-2734
▁Воз	-2735
▁июня	-2736
▁преступ	-2737
вала	-2738
▁возника	-2739
▁ан	-2740
▁земли	-2741
▁требо	-2742
ум	-2743
▁законо	-2744
рест	-2745
▁доку	-2746
▁стоя	-2747
ждений	-2748
жением	-2749
▁начало	-2750
начально	-2751
▁\	-2752
навли	-2753
новре	-2754
▁перево	-2755
▁относительно	-2756
30	-2757
▁све	-2758
▁внутри	-2759
▁жан	-2760
▁пси	-2761
▁линии	-2762
▁освобо	-2763
▁принадлежа	-2764
▁свиде	-2765
,1	-2766
вё	-2767
▁учеб	-2768
▁ответ	-2769
▁различные	-2770
лада	-2771
седа	-2772
▁ква	-2773
▁мнению	-2774
▁понима	-2775
фу	-2776
▁воздуха	-2777
ланд	-2778
ковых	-2779
▁попы	-2780
▁свет	-2781
щается	-2782
▁англий	-2783
▁предна	-2784
▁ап	-2785
То	-2786
мира	-2787
▁p	-2788
▁Кали	-2789
▁апреля	-2790
▁здания	-2791
▁Украины	-2792
▁моз	-2793
▁есте	-2794
▁стар	-2795
▁детей	-2796
▁комму	-2797
▁хозяй	-2798
▁ы	-2799
▁счёт	-2800
▁философи	-2801
вить	-2802
▁XVI	-2803
▁Аль	-2804
▁чёр	-2805
▁Если	-2806
▁самым	-2807
кли	-2808
▁море	-2809
ьё	-2810
дёт	-2811
голь	-2812
лект	-2813
▁музей	-2814
▁гг	-2815
талья	-2816
▁формирова	-2817
▁мм	-2818
▁непосред	-2819
▁Чер	-2820
▁лег	-2821
▁власть	-2822
▁другими	-2823
▁оказыва	-2824
▁растений	-2825
ана	-2826
▁условиях	-2827
,4	-2828
Су	-2829
чай	-2830
тья	-2831
▁Республики	-2832
кто	-2833
▁ото	-2834
▁спу	-2835
▁паро	-2836
▁руковод	-2837
▁професси	-2838
▁c	-2839
валась	-2840
le	-2841
▁веков	-2842
▁Велико	-2843
▁област	-2844
▁присут	-2845
▁простран	-2846
их	-2847
гах	-2848
▁пробле	-2849
руса	-2850
▁желе	-2851
▁време	-2852
▁животных	-2853
▁искусства	-2854
,3	-2855
щен	-2856
▁Раз	-2857
▁кур	-2858
ционных	-2859
▁Например	-2860
▁пересе	-2861
кса	-2862
▁сю	-2863
▁лёг	-2864
▁музе	-2865
▁микро	-2866
▁степени	-2867
мб	-2868
тию	-2869
▁2009	-2870
▁сли	-2871
▁своим	-2872
▁приобре	-2873
▁вида	-2874
▁потом	-2875
▁требу	-2876
▁городом	-2877
,7	-2878
▁E	-2879
чность	-2880
▁посвя	-2881
▁должен	-2882
um	-2883
Те	-2884
летия	-2885
которые	-2886
нские	-2887
▁Амери	-2888
▁автобу	-2889
ённых	-2890
▁2012	-2891
▁исполни	-2892
▁Федерации	-2893
Город	-2894
▁первые	-2895
▁церковь	-2896
роят	-2897
▁Рус	-2898
ай	-2899
▁там	-2900
стров	-2901
▁2008	-2902
▁гидро	-2903
▁Италии	-2904
▁термин	-2905
▁t	-2906
спорт	-2907
▁укреп	-2908
as	-2909
▁Пред	-2910
Ку	-2911
ковой	-2912
тан	-2913
тех	-2914
▁2013	-2915
▁объё	-2916
▁чаще	-2917
▁указа	-2918
фра	-2919
един	-2920
▁пись	-2921
ральный	-2922
▁рей	-2923
▁значительно	-2924
жай	-2925
▁Как	-2926
▁тур	-2927
оне	-2928
▁тури	-2929
▁обору	-2930
▁объяс	-2931
▁предела	-2932
▁d	-2933
вало	-2934
▁выбо	-2935
▁пози	-2936
ющиеся	-2937
▁корот	-2938
Ви	-2939
шой	-2940
ныне	-2941
руют	-2942
▁фут	-2943
формирова	-2944
▁существо	-2945
ur	-2946
лением	-2947
▁всегда	-2948
▁вызыва	-2949
доль	-2950
▁жизнь	-2951
Ин	-2952
▁Ев	-2953
▁Васи	-2954
▁поги	-2955
вшихся	-2956
▁188	-2957
▁взаимо	-2958
гля	-2959
вшим	-2960
▁неу	-2961
станти	-2962
▁употребля	-2963
нией	-2964
роди	-2965
▁2015	-2966
▁Основ	-2967
▁реаль	-2968
▁городского	-2969
стр	-2970
▁Анг	-2971
стива	-2972
▁этим	-2973
Си	-2974
рона	-2975
▁Анд	-2976
▁Эти	-2977
▁рам	-2978
течестве	-2979
▁общества	-2980
вии	-2981
лая	-2982
▁закон	-2983
▁момент	-2984
чего	-2985
▁безо	-2986
▁дороги	-2987
▁главным	-2988
▁насчиты	-2989
▁управления	-2990
▁Пере	-2991
▁вклю	-2992
вшиеся	-2993
▁постепе	-2994
▁движения	-2995
▁„	-2996
емой	-2997
нять	-2998
▁путём	-2999
▁форме	-3000
▁природ	-3001
▁Мон	-3002
рое	-3003
чек	-3004
новь	-3005
▁твор	-3006
▁трак	-3007
▁целью	-3008
▁экспе	-3009
▁сне	-3010
▁группа	-3011
▁которым	-3012
▁приходи	-3013
езда	-3014
▁построен	-3015
▁цвета	-3016
кор	-3017
▁друг	-3018
способ	-3019
▁болез	-3020
-1	-3021
om	-3022
шед	-3023
▁28	-3024
▁изде	-3025
ственная	-3026
тики	-3027
клады	-3028
гами	-3029
стана	-3030
тании	-3031
▁догово	-3032
новременно	-3033
лют	-3034
щим	-3035
▁юри	-3036
▁силы	-3037
▁полно	-3038
▁чув	-3039
▁каме	-3040
▁воздей	-3041
▁Бы	-3042
поло	-3043
▁кто	-3044
годня	-3045
▁электри	-3046
зер	-3047
емого	-3048
▁кажды	-3049
▁новых	-3050
вича	-3051
▁разре	-3052
—2	-3053
тет	-3054
береж	-3055
▁веду	-3056
▁подчи	-3057
▁свобод	-3058
лад	-3059
хан	-3060
влека	-3061
▁Москов	-3062
▁влияние	-3063
▁половине	-3064
▁расположены	-3065
▁честь	-3066
▁помощи	-3067
▁соответству	-3068
ac	-3069
тине	-3070
▁район	-3071
ведений	-3072
▁свойства	-3073
▁ль	-3074
лиза	-3075
▁озе	-3076
▁республи	-3077
▁дом	-3078
▁арти	-3079
▁войск	-3080
▁библио	-3081
сный	-3082
вляет	-3083
сного	-3084
▁каза	-3085
▁услу	-3086
▁сильно	-3087
▁центре	-3088
▁средства	-3089
▁советский	-3090
Ве	-3091
сах	-3092
лений	-3093
▁пяти	-3094
▁Город	-3095
▁депута	-3096
▁производство	-3097
▁р	-3098
виду	-3099
▁первого	-3100
▁гро	-3101
▁2016	-3102
▁двор	-3103
▁прямо	-3104
▁отношения	-3105
Но	-3106
стойчи	-3107
тивных	-3108
▁реали	-3109
торой	-3110
вольно	-3111
▁избира	-3112
▁возможно	-3113
водя	-3114
▁достаточно	-3115
лах	-3116
рица	-3117
▁вновь	-3118
▁занимает	-3119
▁определё	-3120
шими	-3121
▁зая	-3122
скоре	-3123
▁норма	-3124
▁такой	-3125
час	-3126
▁воло	-3127
стрирова	-3128
▁Великобри	-3129
▁произведения	-3130
ia	-3131
▁Мак	-3132
▁бес	-3133
▁моне	-3134
▁кроме	-3135
▁прекра	-3136
нда	-3137
▁27	-3138
▁служи	-3139
▁региона	-3140
бир	-3141
гани	-3142
▁величи	-3143
▁периода	-3144
▁февраля	-3145
тельную	-3146
▁которую	-3147
куп	-3148
▁статус	-3149
▁относятся	-3150
гам	-3151
каз	-3152
ционной	-3153
▁уничто	-3154
рои	-3155
Петер	-3156
▁доба	-3157
▁пути	-3158
▁указыва	-3159
тков	-3160
вшее	-3161
▁выпуска	-3162
▁содержи	-3163
дор	-3164
нюю	-3165
▁выда	-3166
▁язык	-3167
▁атмос	-3168
▁верну	-3169
▁италья	-3170
▁образование	-3171
писко	-3172
▁последова	-3173
цам	-3174
▁метров	-3175
▁Дж	-3176
▁ори	-3177
▁фигу	-3178
▁коллек	-3179
▁большое	-3180
пан	-3181
▁княже	-3182
▁числа	-3183
тили	-3184
▁Она	-3185
▁внима	-3186
▁этому	-3187
▁сочи	-3188
▁автор	-3189
Так	-3190
кнове	-3191
чество	-3192
▁следует	-3193
цом	-3194
▁бю	-3195
▁неко	-3196
▁расстоя	-3197
▁появились	-3198
еты	-3199
вила	-3200
▁новые	-3201
▁положение	-3202
▁используют	-3203
зиден	-3204
▁сбор	-3205
▁сезо	-3206
▁акаде	-3207
▁корпу	-3208
▁самостоя	-3209
40	-3210
АО	-3211
▁мусуль	-3212
et	-3213
▁26	-3214
▁позже	-3215
▁четыре	-3216
вки	-3217
гой	-3218
чие	-3219
▁кораб	-3220
▁хорошо	-3221
гни	-3222
▁охо	-3223
Му	-3224
дри	-3225
▁шо	-3226
▁неё	-3227
▁большинство	-3228
гар	-3229
ниях	-3230
▁био	-3231
▁нес	-3232
▁опы	-3233
▁концент	-3234
Для	-3235
деб	-3236
▁000	-3237
▁жерт	-3238
▁стол	-3239
▁Санкт	-3240
мым	-3241
чем	-3242
▁Чи	-3243
стые	-3244
ющую	-3245
▁печа	-3246
▁новый	-3247
нностью	-3248
Вы	-3249
циях	-3250
▁ранее	-3251
▁вокруг	-3252
il	-3253
▁Ир	-3254
падает	-3255
▁досто	-3256
влении	-3257
▁президе	-3258
-2	-3259
рек	-3260
пании	-3261
▁ситуа	-3262
ква	-3263
евич	-3264
▁Бра	-3265
▁окра	-3266
▁пожа	-3267
▁сопрово	-3268
леко	-3269
чены	-3270
▁инди	-3271
▁сказа	-3272
▁предприятий	-3273
▁мел	-3274
▁дене	-3275
▁ниже	-3276
▁возможность	-3277
»:	-3278
▁Сол	-3279
близи	-3280
соеди	-3281
▁нового	-3282
ковые	-3283
▁преду	-3284
▁включая	-3285
▁ей	-3286
▁сей	-3287
чиная	-3288
▁школы	-3289
▁Константи	-3290
ус	-3291
▁Под	-3292
▁кате	-3293
▁люди	-3294
▁встречается	-3295
▁тан	-3296
готов	-3297
▁неиз	-3298
,9	-3299
рги	-3300
тина	-3301
▁заг	-3302
зуется	-3303
▁должны	-3304
▁недоста	-3305
▁предоста	-3306
ева	-3307
ссы	-3308
чий	-3309
жены	-3310
туру	-3311
иболь	-3312
▁высоко	-3313
све	-3314
▁названием	-3315
лл	-3316
▁первым	-3317
принима	-3318
ясь	-3319
▁оз	-3320
лена	-3321
меча	-3322
▁голов	-3323
▁входит	-3324
▁случаях	-3325
▁завер	-3326
▁ныне	-3327
ходили	-3328
▁прибы	-3329
ям	-3330
▁s	-3331
▁Ал	-3332
емая	-3333
▁сотруд	-3334
▁значения	-3335
▁точки	-3336
▁уровня	-3337
▁собственно	-3338
▁соответствии	-3339
фы	-3340
нике	-3341
▁Тур	-3342
вшийся	-3343
нением	-3344
▁пользова	-3345
▁Александр	-3346
плу	-3347
▁гим	-3348
▁2018	-3349
▁напо	-3350
▁пове	-3351
▁Пла	-3352
▁сум	-3353
▁огром	-3354
▁целом	-3355
щает	-3356
▁дополни	-3357
Население	-3358
тыми	-3359
▁Бело	-3360
вляются	-3361
▁предназначе	-3362
чём	-3363
обще	-3364
▁Сою	-3365
▁коне	-3366
▁тяжё	-3367
ющийся	-3368
▁положи	-3369
▁связыва	-3370
▁протяжении	-3371
Гео	-3372
Согласно	-3373
▁четырёх	-3374
▁современной	-3375
рыв	-3376
▁2006	-3377
▁моно	-3378
▁РФ	-3379
▁вся	-3380
▁Этот	-3381
лер	-3382
▁разде	-3383
следова	-3384
▁предполага	-3385
.2	-3386
▁n	-3387
нена	-3388
▁отвер	-3389
ционные	-3390
стры	-3391
сылки	-3392
руются	-3393
стых	-3394
▁скло	-3395
рирова	-3396
▁аэропо	-3397
▁побереж	-3398
▁законода	-3399
Фи	-3400
парта	-3401
▁духов	-3402
мно	-3403
▁2007	-3404
▁доли	-3405
▁Великой	-3406
▁граждан	-3407
гистра	-3408
▁утвержда	-3409
▁тю	-3410
держ	-3411
▁ограниче	-3412
лик	-3413
▁акт	-3414
▁языка	-3415
▁основных	-3416
▁происхождения	-3417
▁Ие	-3418
слов	-3419
тиви	-3420
▁Глав	-3421
▁пово	-3422
▁Между	-3423
▁сторон	-3424
▁характеристи	-3425
ряз	-3426
тически	-3427
ниями	-3428
▁процесс	-3429
йки	-3430
раи	-3431
тое	-3432
стен	-3433
щении	-3434
графии	-3435
▁двига	-3436
▁количества	-3437
▁ау	-3438
▁реше	-3439
▁угле	-3440
облада	-3441
▁пласти	-3442
▁двумя	-3443
▁самого	-3444
▁позволяет	-3445
сят	-3446
ждён	-3447
мель	-3448
▁дня	-3449
ложение	-3450
▁Государ	-3451
▁связано	-3452
os	-3453
воль	-3454
жным	-3455
мера	-3456
▁Оди	-3457
ждении	-3458
▁конку	-3459
▁необходимо	-3460
Га	-3461
дат	-3462
▁29	-3463
ними	-3464
▁Древ	-3465
▁ката	-3466
▁отда	-3467
▁фами	-3468
▁Земли	-3469
▁макси	-3470
▁Тем	-3471
▁семь	-3472
▁футбо	-3473
▁императора	-3474
лым	-3475
шке	-3476
цвет	-3477
▁газ	-3478
▁хозя	-3479
▁парла	-3480
▁десяти	-3481
▁исследования	-3482
чик	-3483
цент	-3484
▁каз	-3485
кульп	-3486
▁весьма	-3487
щён	-3488
рана	-3489
ссия	-3490
▁Афри	-3491
▁охра	-3492
тивные	-3493
▁Казах	-3494
Ми	-3495
пись	-3496
▁проходит	-3497
дж	-3498
хар	-3499
циа	-3500
▁2017	-3501
▁строи	-3502
▁обнару	-3503
▁съ	-3504
▁катего	-3505
▁последу	-3506
сне	-3507
▁Поэ	-3508
раста	-3509
▁рамках	-3510
▁Наиболее	-3511
няются	-3512
▁Таким	-3513
▁ще	-3514
▁жела	-3515
▁постепенно	-3516
▁прав	-3517
брь	-3518
▁оди	-3519
ральных	-3520
▁зрения	-3521
▁устрой	-3522
▁обознача	-3523
▁профессиональ	-3524
вёл	-3525
дца	-3526
лон	-3527
мый	-3528
▁III	-3529
▁сек	-3530
насти	-3531
▁подо	-3532
ционного	-3533
▁ды	-3534
▁аре	-3535
▁мог	-3536
▁эпоху	-3537
▁военно	-3538
тических	-3539
▁русский	-3540
▁литератур	-3541
re	-3542
плуа	-3543
▁Кре	-3544
▁суд	-3545
вании	-3546
▁движение	-3547
▁создания	-3548
кут	-3549
рея	-3550
годно	-3551
▁изменения	-3552
дам	-3553
тке	-3554
купа	-3555
▁рек	-3556
хозяй	-3557
▁ново	-3558
▁здание	-3559
▁Северной	-3560
▁император	-3561
▁применяется	-3562
тивно	-3563
▁украин	-3564
▁сокра	-3565
▁торгов	-3566
▁говори	-3567
пасности	-3568
▁литературе	-3569
нён	-3570
дование	-3571
▁Извест	-3572
▁впоследствии	-3573
ппо	-3574
▁60	-3575
занти	-3576
▁времена	-3577
▁довольно	-3578
ряду	-3579
лении	-3580
▁мате	-3581
▁реши	-3582
лимпий	-3583
▁держа	-3584
▁фабри	-3585
ционный	-3586
▁Москве	-3587
▁страхо	-3588
▁продолжи	-3589
▁Ци	-3590
▁умер	-3591
жности	-3592
▁описы	-3593
Ле	-3594
дио	-3595
▁Кор	-3596
▁o	-3597
бло	-3598
▁отве	-3599
▁полуо	-3600
▁решение	-3601
кана	-3602
тива	-3603
льном	-3604
звание	-3605
менные	-3606
кора	-3607
▁расти	-3608
▁самой	-3609
▁начали	-3610
От	-3611
ion	-3612
мян	-3613
▁Дру	-3614
▁ору	-3615
льными	-3616
▁друга	-3617
▁высокой	-3618
▁иностра	-3619
▁вещества	-3620
ъек	-3621
▁180	-3622
▁Яро	-3623
▁песни	-3624
▁вероят	-3625
▁исключи	-3626
▁уровень	-3627
никах	-3628
▁посёл	-3629
▁встречаются	-3630
▁деятельность	-3631
сна	-3632
▁колибри	-3633
▁дре	-3634
▁осад	-3635
▁поля	-3636
Литера	-3637
▁участие	-3638
▁приводит	-3639
▁присоеди	-3640
19	-3641
▁гото	-3642
▁река	-3643
▁потреб	-3644
▁соверше	-3645
нтов	-3646
тная	-3647
▁бри	-3648
▁оса	-3649
▁удо	-3650
▁семе	-3651
мую	-3652
рай	-3653
▁кило	-3654
фикация	-3655
▁обслужи	-3656
▁стандар	-3657
▁которому	-3658
▁получили	-3659
▁пока	-3660
▁ряда	-3661
▁причём	-3662
течественной	-3663
арь	-3664
обо	-3665
сон	-3666
мато	-3667
▁зали	-3668
Де	-3669
▁Ши	-3670
дого	-3671
жает	-3672
▁гене	-3673
▁легко	-3674
▁территория	-3675
луч	-3676
язы	-3677
▁мыш	-3678
▁2005	-3679
▁демо	-3680
▁стать	-3681
▁переме	-3682
▁знамени	-3683
Кли	-3684
▁испы	-3685
▁традиции	-3686
▁пище	-3687
▁разо	-3688
▁округа	-3689
ствовали	-3690
▁русских	-3691
▁получила	-3692
рхи	-3693
▁клю	-3694
▁реке	-3695
▁начал	-3696
▁технологи	-3697
Раз	-3698
лень	-3699
▁подраз	-3700
▁строительства	-3701
▁185	-3702
▁капита	-3703
▁превыша	-3704
мана	-3705
варти	-3706
▁поко	-3707
▁славя	-3708
▁российский	-3709
.«	-3710
ляции	-3711
▁означает	-3712
▁одновременно	-3713
▁Фа	-3714
доне	-3715
▁Афи	-3716
▁меж	-3717
▁това	-3718
фикации	-3719
рождения	-3720
ствовать	-3721
▁организова	-3722
▁сопровожда	-3723
сток	-3724
споль	-3725
▁мере	-3726
жность	-3727
▁глубо	-3728
▁могли	-3729
Од	-3730
тения	-3731
▁открыт	-3732
.#	-3733
80	-3734
сная	-3735
▁союз	-3736
▁Москвы	-3737
▁меньше	-3738
▁разнови	-3739
▁государств	-3740
жён	-3741
рных	-3742
▁184	-3743
▁аппара	-3744
▁Ад	-3745
▁потому	-3746
▁скульп	-3747
▁металли	-3748
гель	-3749
плоть	-3750
▁Арме	-3751
▁дета	-3752
▁крити	-3753
▁эпохи	-3754
▁ограни	-3755
▁основания	-3756
ed	-3757
un	-3758
сур	-3759
реги	-3760
ходы	-3761
▁опа	-3762
▁эту	-3763
ногие	-3764
▁силу	-3765
▁общей	-3766
▁первая	-3767
▁Поэтому	-3768
▁2019	-3769
▁пыта	-3770
тивный	-3771
▁одном	-3772
▁строе	-3773
▁регуляр	-3774
лиа	-3775
вшись	-3776
▁реко	-3777
тивной	-3778
▁государство	-3779
вато	-3780
дных	-3781
▁газо	-3782
ложения	-3783
▁первую	-3784
тельством	-3785
лега	-3786
лист	-3787
нович	-3788
▁особы	-3789
▁крупные	-3790
хео	-3791
ьёз	-3792
тины	-3793
Дру	-3794
гент	-3795
▁най	-3796
▁сил	-3797
имено	-3798
▁сами	-3799
▁большая	-3800
бин	-3801
йский	-3802
▁Здесь	-3803
▁психо	-3804
▁театр	-3805
12	-3806
под	-3807
лями	-3808
чению	-3809
▁Второй	-3810
jp	-3811
▁−	-3812
▁мяг	-3813
▁бого	-3814
▁версии	-3815
▁хол	-3816
Основ	-3817
ходов	-3818
▁орке	-3819
▁титу	-3820
▁окружа	-3821
▁частей	-3822
Тран	-3823
гота	-3824
▁гар	-3825
▁твёр	-3826
▁распространение	-3827
зин	-3828
лиз	-3829
чат	-3830
▁Пари	-3831
▁прежде	-3832
сия	-3833
▁точ	-3834
▁коль	-3835
тность	-3836
ционно	-3837
▁защиты	-3838
▁среднем	-3839
гро	-3840
▁Им	-3841
ерез	-3842
леку	-3843
▁Пар	-3844
▁Греции	-3845
▁эксплуа	-3846
ллю	-3847
пто	-3848
рье	-3849
няют	-3850
▁гри	-3851
возгла	-3852
возмож	-3853
▁фестива	-3854
▁растения	-3855
льную	-3856
ферен	-3857
▁бума	-3858
▁предо	-3859
▁каждый	-3860
▁философ	-3861
▁комплекс	-3862
▁составляют	-3863
▁использовать	-3864
бай	-3865
щем	-3866
▁ред	-3867
▁Суще	-3868
▁рублей	-3869
▁начинается	-3870
Та	-3871
▁ие	-3872
▁той	-3873
▁прида	-3874
▁своём	-3875
эль	-3876
ябрь	-3877
▁ито	-3878
▁юге	-3879
▁веществ	-3880
▁подтвер	-3881
зал	-3882
▁IV	-3883
▁Фе	-3884
▁ву	-3885
▁Кры	-3886
риста	-3887
▁служа	-3888
новление	-3889
▁состоянию	-3890
ch	-3891
Ки	-3892
▁ь	-3893
jpg	-3894
▁исти	-3895
▁Благо	-3896
▁имели	-3897
▁соверша	-3898
▁включает	-3899
▁современных	-3900
▁непосредственно	-3901
тное	-3902
▁лиц	-3903
▁инже	-3904
▁брита	-3905
зад	-3906
нут	-3907
сам	-3908
▁Гра	-3909
▁наук	-3910
смотре	-3911
▁вдоль	-3912
▁рядом	-3913
▁самый	-3914
ствовал	-3915
▁вариан	-3916
▁другим	-3917
тельными	-3918
▁составил	-3919
гина	-3920
ссив	-3921
филь	-3922
▁Ана	-3923
▁неред	-3924
▁Совета	-3925
нке	-3926
роз	-3927
▁ст	-3928
следствие	-3929
▁отношении	-3930
▁Отечественной	-3931
Ди	-3932
пя	-3933
▁O	-3934
▁Же	-3935
▁хро	-3936
▁пять	-3937
▁проте	-3938
▁большей	-3939
▁больших	-3940
▁русской	-3941
▁финансо	-3942
▁средневе	-3943
▁крупнейших	-3944
▁направления	-3945
влен	-3946
▁пье	-3947
▁люби	-3948
▁прош	-3949
▁главе	-3950
▁китай	-3951
Литература	-3952
▁сформирова	-3953
bs	-3954
▁яр	-3955
емое	-3956
▁Гор	-3957
▁Пав	-3958
ступает	-3959
▁собира	-3960
фицирова	-3961
▁крестья	-3962
▁систему	-3963
дже	-3964
▁оке	-3965
▁спра	-3966
▁введе	-3967
▁имеется	-3968
▁станции	-3969
бель	-3970
нуть	-3971
▁сравни	-3972
▁позднее	-3973
стройства	-3974
▁Великобритании	-3975
щены	-3976
▁крепости	-3977
▁началось	-3978
▁свидетель	-3979
▁государственный	-3980
мён	-3981
нто	-3982
визи	-3983
нему	-3984
▁Осо	-3985
▁пят	-3986
лению	-3987
▁путе	-3988
▁криста	-3989
▁обнаружи	-3990
▁Ке	-3991
▁пои	-3992
довой	-3993
начала	-3994
▁народов	-3995
▁произошло	-3996
▁философии	-3997
вия	-3998
чин	-3999
форм	-4000
▁бло	-4001
▁2004	-4002
▁объектов	-4003
▁революции	-4004
оло	-4005
ёлок	-4006
▁Лон	-4007
▁Коро	-4008
▁партии	-4009
▁первое	-4010
▁сторону	-4011
ризо	-4012
▁бит	-4013
▁очи	-4014
▁стиле	-4015
▁средств	-4016
▁отдельных	-4017
▁преоблада	-4018
ьев	-4019
били	-4020
вели	-4021
▁183	-4022
▁сын	-4023
лённые	-4024
▁терми	-4025
▁генерал	-4026
▁подписа	-4027
▁совмест	-4028
▁современного	-4029
вай	-4030
вода	-4031
пусти	-4032
▁1941	-4033
▁культуре	-4034
▁правления	-4035
▁информации	-4036
▁m	-4037
ума	-4038
▁фото	-4039
▁молит	-4040
▁события	-4041
▁возраста	-4042
▁чемпиона	-4043
60	-4044
оны	-4045
телю	-4046
надца	-4047
Ссылки	-4048
▁треть	-4049
▁концер	-4050
тической	-4051
телям	-4052
▁объём	-4053
▁действу	-4054
нил	-4055
жать	-4056
перь	-4057
щими	-4058
▁соче	-4059
▁собор	-4060
▁евреев	-4061
▁экономики	-4062
▁университет	-4063
ad	-4064
цен	-4065
щена	-4066
▁сро	-4067
▁назад	-4068
▁напря	-4069
▁опубли	-4070
▁национа	-4071
▁системе	-4072
▁Националь	-4073
▁Некоторые	-4074
3.	-4075
стями	-4076
▁особо	-4077
▁вместо	-4078
▁католи	-4079
значения	-4080
никам	-4081
▁испа	-4082
▁сеть	-4083
▁прото	-4084
▁равно	-4085
▁часов	-4086
▁поселения	-4087
▁учреждения	-4088
▁использования	-4089
кин	-4090
веро	-4091
тации	-4092
▁выну	-4093
▁принято	-4094
▁республики	-4095
▁b	-4096
сел	-4097
фон	-4098
▁отказа	-4099
▁королев	-4100
▁поддержи	-4101
▁руководи	-4102
гор	-4103
вказ	-4104
дить	-4105
▁нако	-4106
▁ними	-4107
ландии	-4108
▁экспо	-4109
▁вплоть	-4110
▁времён	-4111
▁севере	-4112
▁контине	-4113
▁поддерж	-4114
строитель	-4115
▁провозгла	-4116
вос	-4117
нца	-4118
анта	-4119
лены	-4120
▁Егип	-4121
▁тело	-4122
▁заключа	-4123
▁нередко	-4124
▁устанавли	-4125
дил	-4126
бран	-4127
▁Гри	-4128
▁баш	-4129
▁Руси	-4130
▁инду	-4131
▁сухо	-4132
▁царя	-4133
▁метро	-4134
▁сосед	-4135
▁температуры	-4136
ot	-4137
циями	-4138
▁1991	-4139
▁игры	-4140
▁загряз	-4141
,0	-4142
чено	-4143
▁сви	-4144
значи	-4145
▁пото	-4146
▁прис	-4147
▁чере	-4148
▁устойчи	-4149
▁пределах	-4150
▁получения	-4151
▁последние	-4152
▁ОО	-4153
вому	-4154
▁Япо	-4155
▁всю	-4156
▁Англии	-4157
хождение	-4158
▁материалов	-4159
дон	-4160
тным	-4161
▁теории	-4162
лео	-4163
▁обрабо	-4164
▁преобразова	-4165
▁упоминается	-4166
Эти	-4167
кет	-4168
▁31	-4169
▁70	-4170
тета	-4171
▁недо	-4172
▁нефте	-4173
▁серебря	-4174
▁элементов	-4175
▁соответственно	-4176
ТВ	-4177
хам	-4178
метри	-4179
▁края	-4180
▁лица	-4181
▁пусты	-4182
▁семей	-4183
▁местах	-4184
▁границы	-4185
▁районах	-4186
▁организация	-4187
▁япо	-4188
▁мифо	-4189
▁трам	-4190
▁веках	-4191
▁школа	-4192
▁народа	-4193
▁подготов	-4194
КО	-4195
пру	-4196
тую	-4197
▁Ком	-4198
метра	-4199
▁гипо	-4200
▁завое	-4201
мология	-4202
▁состава	-4203
▁временем	-4204
▁тай	-4205
запад	-4206
▁замет	-4207
▁подви	-4208
ческому	-4209
▁различа	-4210
▁действует	-4211
▁состоянии	-4212
страи	-4213
▁мага	-4214
▁чита	-4215
▁конкре	-4216
▁наказа	-4217
▁театра	-4218
▁мусульман	-4219
они	-4220
жида	-4221
▁1918	-4222
▁бело	-4223
▁математи	-4224
▁середины	-4225
▁государственной	-4226
▁W	-4227
нено	-4228
▁Эта	-4229
▁наде	-4230
знания	-4231
провод	-4232
▁случаев	-4233
▁основной	-4234
зан	-4235
зме	-4236
сив	-4237
▁осе	-4238
Климат	-4239
▁стары	-4240
▁умере	-4241
▁половины	-4242
скре	-4243
▁выя	-4244
ровки	-4245
ностей	-4246
▁насле	-4247
▁утопи	-4248
▁форми	-4249
ксирова	-4250
▁губернии	-4251
▁компания	-4252
бан	-4253
▁Ль	-4254
▁парк	-4255
ствием	-4256
▁ресур	-4257
▁успеш	-4258
▁холод	-4259
примеча	-4260
▁отрица	-4261
ступления	-4262
▁постоянно	-4263
зне	-4264
▁фра	-4265
ходил	-4266
▁жидко	-4267
тивного	-4268
▁магистра	-4269
▁возникнове	-4270
25	-4271
мед	-4272
вляют	-4273
▁редко	-4274
зование	-4275
▁общего	-4276
тические	-4277
XV	-4278
жное	-4279
лика	-4280
поста	-4281
▁дело	-4282
▁ника	-4283
▁суда	-4284
▁чисто	-4285
▁смысле	-4286
▁приходится	-4287
▁осуществляется	-4288
сми	-4289
Обра	-4290
кови	-4291
рией	-4292
▁бар	-4293
▁ими	-4294
нисти	-4295
▁зелё	-4296
▁крем	-4297
▁класса	-4298
новления	-4299
▁военных	-4300
▁внимание	-4301
▁русского	-4302
пен	-4303
вале	-4304
вестен	-4305
▁герои	-4306
▁леген	-4307
▁потре	-4308
шинство	-4309
▁Аб	-4310
вило	-4311
лово	-4312
шему	-4313
щихся	-4314
тивное	-4315
▁писал	-4316
▁такого	-4317
▁основан	-4318
▁протека	-4319
▁отличается	-4320
гия	-4321
льт	-4322
Боль	-4323
▁Ино	-4324
▁Кита	-4325
▁воздуш	-4326
▁еписко	-4327
▁серьёз	-4328
2,	-4329
70	-4330
▁35	-4331
стую	-4332
▁сор	-4333
туаль	-4334
▁домов	-4335
▁новой	-4336
▁солне	-4337
▁железной	-4338
▁сравнению	-4339
эн	-4340
пом	-4341
▁Ом	-4342
▁ия	-4343
▁кост	-4344
▁именем	-4345
▁районов	-4346
▁элемента	-4347
коло	-4348
▁тём	-4349
▁приз	-4350
▁случай	-4351
▁континента	-4352
▁разнообраз	-4353
▁Пло	-4354
произ	-4355
стами	-4356
▁ассо	-4357
▁удоб	-4358
метров	-4359
▁синте	-4360
▁зданий	-4361
▁уровне	-4362
▁Республи	-4363
▁ата	-4364
▁буд	-4365
▁поте	-4366
▁сына	-4367
▁сразу	-4368
▁судеб	-4369
▁большую	-4370
Бе	-4371
эта	-4372
▁сосу	-4373
готавли	-4374
▁управля	-4375
▁столицей	-4376
▁транспорта	-4377
роб	-4378
▁конф	-4379
жается	-4380
катери	-4381
▁войне	-4382
▁земле	-4383
▁область	-4384
▁шпа	-4385
▁абсо	-4386
▁одну	-4387
▁птиц	-4388
▁владе	-4389
▁решения	-4390
▁дальнейшем	-4391
▁представителей	-4392
нат	-4393
лета	-4394
цкий	-4395
▁азо	-4396
▁гли	-4397
▁газа	-4398
ментом	-4399
▁работу	-4400
▁правительство	-4401
Би	-4402
ент	-4403
рис	-4404
▁бур	-4405
▁Апол	-4406
▁форм	-4407
▁юриди	-4408
▁алкого	-4409
▁доступ	-4410
▁самолё	-4411
▁пригото	-4412
регистрирова	-4413
▁правительства	-4414
пля	-4415
нику	-4416
▁ого	-4417
доров	-4418
кость	-4419
▁сети	-4420
▁стади	-4421
ральная	-4422
▁должна	-4423
▁Западной	-4424
▁применение	-4425
эй	-4426
▁Рас	-4427
▁напи	-4428
▁архео	-4429
▁органов	-4430
тел	-4431
шан	-4432
▁жё	-4433
▁ов	-4434
турой	-4435
▁паль	-4436
▁цели	-4437
▁позволи	-4438
▁показыва	-4439
▁K	-4440
лию	-4441
▁Чу	-4442
▁чет	-4443
листи	-4444
▁вино	-4445
ванием	-4446
▁иметь	-4447
▁преда	-4448
▁a	-4449
стар	-4450
▁Сте	-4451
▁тен	-4452
▁поки	-4453
▁утра	-4454
Экономи	-4455
▁обусло	-4456
▁функции	-4457
▁экспери	-4458
▁региональ	-4459
ложен	-4460
▁процессе	-4461
▁существуют	-4462
пии	-4463
▁оки	-4464
▁повы	-4465
лённых	-4466
▁книги	-4467
▁масшта	-4468
ter	-4469
Пре	-4470
зой	-4471
▁убе	-4472
ведён	-4473
▁имел	-4474
▁пост	-4475
▁беско	-4476
▁Верхов	-4477
▁артилле	-4478
▁комбина	-4479
▁сегодня	-4480
▁крепость	-4481
феры	-4482
▁эфи	-4483
▁раза	-4484
нейших	-4485
жена	-4486
▁Тер	-4487
▁сня	-4488
ницей	-4489
▁ство	-4490
▁водой	-4491
▁самоу	-4492
▁концеп	-4493
▁службы	-4494
▁Владимир	-4495
ъя	-4496
Ста	-4497
стый	-4498
лизма	-4499
▁Кана	-4500
▁клад	-4501
▁коме	-4502
▁кора	-4503
▁Петер	-4504
▁Австра	-4505
▁географи	-4506
▁предлага	-4507
▁»	-4508
рас	-4509
▁500	-4510
▁круг	-4511
ровать	-4512
▁рекон	-4513
▁остров	-4514
▁династи	-4515
Ба	-4516
▁2-	-4517
веси	-4518
▁жили	-4519
▁астро	-4520
▁мастер	-4521
▁невозмож	-4522
▁большинстве	-4523
сное	-4524
▁Дми	-4525
▁стои	-4526
льский	-4527
▁секре	-4528
▁длиной	-4529
▁войсками	-4530
▁полуостро	-4531
▁провинции	-4532
лта	-4533
сид	-4534
▁всем	-4535
▁тонн	-4536
▁Когда	-4537
▁улицы	-4538
▁переписи	-4539
▁появился	-4540
▁восстановле	-4541
▁университета	-4542
▁РС	-4543
▁щи	-4544
щено	-4545
▁арми	-4546
▁учили	-4547
▁декора	-4548
▁полага	-4549
▁спорта	-4550
▁имеются	-4551
▁паралле	-4552
▁использование	-4553
ul	-4554
ъём	-4555
▁Ниж	-4556
▁зве	-4557
▁реб	-4558
бычно	-4559
▁судь	-4560
ступил	-4561
▁Союза	-4562
▁процесса	-4563
▁взаимодей	-4564
bsp	-4565
▁зу	-4566
нями	-4567
▁2001	-4568
▁Иеруса	-4569
▁женщин	-4570
▁пользу	-4571
▁территорию	-4572
Рас	-4573
мами	-4574
▁век	-4575
жению	-4576
▁доказа	-4577
▁режисс	-4578
▁наиболь	-4579
▁действий	-4580
▁содержание	-4581
ri	-4582
льд	-4583
сля	-4584
▁Жи	-4585
рота	-4586
ющем	-4587
▁зер	-4588
менный	-4589
▁сверх	-4590
▁напомина	-4591
нье	-4592
твор	-4593
чена	-4594
▁179	-4595
ваний	-4596
▁брон	-4597
дности	-4598
лённый	-4599
рабаты	-4600
▁наличи	-4601
▁центральной	-4602
▁зарегистрирова	-4603
▁Дне	-4604
торая	-4605
▁проз	-4606
вающих	-4607
логических	-4608
гей	-4609
▁Ры	-4610
▁XIV	-4611
льник	-4612
▁приё	-4613
▁судо	-4614
ённого	-4615
▁концу	-4616
▁самом	-4617
▁аналоги	-4618
▁большим	-4619
▁максима	-4620
▁острове	-4621
▁ху	-4622
▁сос	-4623
▁Ново	-4624
▁коре	-4625
▁путеше	-4626
15	-4627
18	-4628
влено	-4629
▁возгла	-4630
▁понятие	-4631
▁исключительно	-4632
рья	-4633
чет	-4634
вере	-4635
охра	-4636
▁фер	-4637
циони	-4638
▁исче	-4639
руссии	-4640
▁римля	-4641
▁создан	-4642
▁городских	-4643
▁возможности	-4644
рее	-4645
стье	-4646
теат	-4647
ложил	-4648
▁армя	-4649
▁воин	-4650
▁колле	-4651
ального	-4652
рования	-4653
▁русском	-4654
▁известны	-4655
▁численность	-4656
▁араб	-4657
▁долла	-4658
▁вообще	-4659
▁городу	-4660
▁площад	-4661
▁систем	-4662
▁порядка	-4663
▁содержит	-4664
нях	-4665
отя	-4666
▁Сы	-4667
лизм	-4668
прав	-4669
рные	-4670
▁клуб	-4671
▁соба	-4672
▁лагер	-4673
▁своими	-4674
▁обыкнове	-4675
зок	-4676
тник	-4677
▁листь	-4678
фраструк	-4679
▁Екатери	-4680
▁зависит	-4681
▁посёлок	-4682
▁называли	-4683
▁известных	-4684
сал	-4685
свя	-4686
фак	-4687
nbsp	-4688
спек	-4689
стая	-4690
▁зри	-4691
▁Ряза	-4692
▁опти	-4693
▁труб	-4694
▁брига	-4695
▁проведе	-4696
▁удалось	-4697
▁программы	-4698
▁особенности	-4699
▁Бал	-4700
▁сих	-4701
▁тип	-4702
▁пита	-4703
▁топо	-4704
▁горизо	-4705
▁районы	-4706
▁субъек	-4707
▁история	-4708
▁привело	-4709
▁отношению	-4710
дови	-4711
▁300	-4712
▁Сиби	-4713
▁попа	-4714
▁роли	-4715
▁чрез	-4716
▁вариа	-4717
▁имуще	-4718
▁молеку	-4719
▁активно	-4720
▁историю	-4721
▁уровнем	-4722
▁установи	-4723
▁Международ	-4724
▁Мини	-4725
▁веща	-4726
▁улуч	-4727
▁подра	-4728
▁сложи	-4729
▁входят	-4730
▁центров	-4731
▁индивиду	-4732
▁вследствие	-4733
▁Шами	-4734
▁обши	-4735
роприя	-4736
ходить	-4737
▁говоря	-4738
▁неодно	-4739
▁депутатов	-4740
▁применения	-4741
зю	-4742
вол	-4743
нья	-4744
днев	-4745
▁Кур	-4746
Совре	-4747
полне	-4748
▁Исто	-4749
▁опер	-4750
▁тяже	-4751
▁состояние	-4752
эф	-4753
шек	-4754
—18	-4755
▁кг	-4756
лона	-4757
▁бер	-4758
▁дири	-4759
▁симфо	-4760
▁повыше	-4761
▁материала	-4762
йн	-4763
кле	-4764
ллы	-4765
▁звё	-4766
▁упа	-4767
рович	-4768
▁види	-4769
шается	-4770
▁равни	-4771
▁осадков	-4772
▁подверга	-4773
.19	-4774
фро	-4775
спод	-4776
▁Цер	-4777
▁1990-	-4778
▁Ленин	-4779
▁ежегодно	-4780
▁элементы	-4781
▁семейства	-4782
▁располагается	-4783
еха	-4784
кну	-4785
▁боя	-4786
▁сан	-4787
▁фир	-4788
▁член	-4789
кового	-4790
▁потен	-4791
хранили	-4792
▁изобре	-4793
шет	-4794
веща	-4795
▁сем	-4796
▁связь	-4797
▁Восточной	-4798
▁продукции	-4799
▁организаций	-4800
ницу	-4801
▁хле	-4802
нское	-4803
▁Киев	-4804
тности	-4805
▁дворя	-4806
▁ткани	-4807
▁сейчас	-4808
▁искусстве	-4809
▁хозяйства	-4810
▁Бар	-4811
▁Цице	-4812
▁игро	-4813
▁пала	-4814
▁летом	-4815
▁фильм	-4816
▁земель	-4817
▁рабочих	-4818
▁существу	-4819
дре	-4820
зре	-4821
нде	-4822
чку	-4823
кому	-4824
мого	-4825
▁храм	-4826
▁интен	-4827
▁сорев	-4828
▁городах	-4829
▁застрой	-4830
▁разработа	-4831
▁Александра	-4832
ra	-4833
бурга	-4834
водят	-4835
новки	-4836
прави	-4837
▁реже	-4838
▁какой	-4839
▁вопрос	-4840
▁пассажир	-4841
11	-4842
шё	-4843
цеп	-4844
лита	-4845
▁зоны	-4846
▁лицо	-4847
▁домаш	-4848
▁науки	-4849
▁Именно	-4850
▁действие	-4851
ЭС	-4852
тку	-4853
Куль	-4854
жном	-4855
▁Лит	-4856
вшаяся	-4857
▁оружия	-4858
▁противополо	-4859
Ком	-4860
▁идёт	-4861
▁погиб	-4862
▁разные	-4863
циалисти	-4864
▁соединения	-4865
▁составляла	-4866
мур	-4867
цар	-4868
ласси	-4869
▁любо	-4870
▁альбо	-4871
▁отверсти	-4872
▁расположена	-4873
цем	-4874
▁90	-4875
▁Их	-4876
редо	-4877
▁нам	-4878
▁эко	-4879
▁Послед	-4880
▁архитектур	-4881
зор	-4882
▁80	-4883
дные	-4884
лыми	-4885
реза	-4886
сова	-4887
ссов	-4888
▁178	-4889
▁сда	-4890
▁удар	-4891
пления	-4892
▁Израи	-4893
▁измени	-4894
▁уголов	-4895
сю	-4896
пой	-4897
тью	-4898
шев	-4899
ливо	-4900
част	-4901
▁завода	-4902
▁членов	-4903
▁назначе	-4904
▁торговли	-4905
рат	-4906
▁неда	-4907
▁свыше	-4908
▁Калигу	-4909
▁искусство	-4910
▁президент	-4911
▁заболевания	-4912
▁представления	-4913
мое	-4914
▁Смо	-4915
▁1917	-4916
▁руки	-4917
▁вынужде	-4918
▁главных	-4919
▁сначала	-4920
▁энергии	-4921
▁f	-4922
ent	-4923
ing	-4924
ФСР	-4925
вери	-4926
няли	-4927
▁куп	-4928
▁Твер	-4929
▁нему	-4930
лизова	-4931
▁Брита	-4932
▁кварта	-4933
▁проект	-4934
▁известно	-4935
▁северной	-4936
▁телекана	-4937
▁следующие	-4938
Пра	-4939
луб	-4940
цах	-4941
▁45	-4942
даго	-4943
▁Мор	-4944
▁апо	-4945
▁дорог	-4946
▁малень	-4947
▁препара	-4948
▁мероприя	-4949
▁изображения	-4950
▁l	-4951
ссу	-4952
пира	-4953
▁Виль	-4954
▁деле	-4955
▁гости	-4956
▁заста	-4957
▁повре	-4958
▁сведения	-4959
вто	-4960
▁Ху	-4961
ходе	-4962
Также	-4963
нском	-4964
▁проб	-4965
▁угро	-4966
▁карто	-4967
▁данных	-4968
▁музыки	-4969
▁работе	-4970
▁момента	-4971
тического	-4972
▁писатель	-4973
▁профессо	-4974
▁известный	-4975
▁мон	-4976
▁Петра	-4977
▁крови	-4978
тельном	-4979
скохозяй	-4980
▁местного	-4981
▁памятник	-4982
▁архитектуры	-4983
дё	-4984
Как	-4985
Пред	-4986
бами	-4987
ллей	-4988
▁2002	-4989
кратно	-4990
▁прито	-4991
▁остаётся	-4992
▁инструмента	-4993
and	-4994
рти	-4995
дный	-4996
стки	-4997
тение	-4998
▁2003	-4999
▁мото	-5000
▁стари	-5001
▁компью	-5002
ственном	-5003
▁разруше	-5004
▁институт	-5005
▁качества	-5006
▁конститу	-5007
▁частично	-5008
▁численности	-5009
▁произведений	-5010
риф	-5011
дыха	-5012
▁книге	-5013
водство	-5014
▁жители	-5015
▁известен	-5016
Этимология	-5017
▁находился	-5018
▁безопасности	-5019
ut	-5020
поле	-5021
сным	-5022
▁Авгу	-5023
▁доме	-5024
▁РСФСР	-5025
▁выход	-5026
▁массы	-5027
▁рассказыва	-5028
▁32	-5029
лежа	-5030
тает	-5031
▁гусе	-5032
▁охва	-5033
▁след	-5034
▁взгля	-5035
▁выска	-5036
▁оболо	-5037
▁средней	-5038
Экономика	-5039
▁документа	-5040
▁появляется	-5041
▁of	-5042
▁Фё	-5043
▁Кам	-5044
▁Нов	-5045
▁зад	-5046
торое	-5047
▁путь	-5048
▁топли	-5049
▁принял	-5050
ственную	-5051
▁понятия	-5052
ственности	-5053
id	-5054
вшими	-5055
▁коммер	-5056
▁древних	-5057
▁наличие	-5058
▁рекомен	-5059
▁обладает	-5060
▁председа	-5061
14	-5062
im	-5063
линд	-5064
шает	-5065
▁крайне	-5066
▁основные	-5067
▁телевиде	-5068
▁изготавли	-5069
▁основании	-5070
бах	-5071
Суще	-5072
рыва	-5073
▁Том	-5074
цкого	-5075
▁тоже	-5076
▁шири	-5077
ллейбу	-5078
▁услуг	-5079
тическая	-5080
▁большинства	-5081
▁многочисленные	-5082
Ти	-5083
сии	-5084
бели	-5085
граф	-5086
дона	-5087
▁Дан	-5088
▁полё	-5089
▁ряде	-5090
ющаяся	-5091
▁агент	-5092
манской	-5093
▁проведения	-5094
▁учреждений	-5095
▁европейских	-5096
Кон	-5097
дых	-5098
зий	-5099
груз	-5100
това	-5101
▁182	-5102
▁Эль	-5103
▁XIII	-5104
▁рубе	-5105
▁Затем	-5106
▁краси	-5107
▁найде	-5108
▁света	-5109
рование	-5110
ствовало	-5111
▁местности	-5112
Ар	-5113
Пи	-5114
чил	-5115
коль	-5116
▁Ген	-5117
техни	-5118
▁Стра	-5119
женный	-5120
▁война	-5121
▁серии	-5122
падения	-5123
▁плоско	-5124
▁посред	-5125
География	-5126
▁распреде	-5127
бал	-5128
дан	-5129
лег	-5130
нёс	-5131
▁ВВ	-5132
ньше	-5133
▁бле	-5134
▁вес	-5135
элект	-5136
▁лоша	-5137
▁окрест	-5138
▁своему	-5139
▁бесконе	-5140
пят	-5141
чён	-5142
▁Хи	-5143
ноше	-5144
▁нер	-5145
влены	-5146
▁горы	-5147
▁даёт	-5148
▁порт	-5149
▁сюжет	-5150
▁наслед	-5151
▁назнача	-5152
▁среднего	-5153
▁должность	-5154
▁водохранили	-5155
XI	-5156
града	-5157
когда	-5158
▁Нидер	-5159
▁Южной	-5160
▁разби	-5161
водятся	-5162
ральным	-5163
▁монеты	-5164
▁словам	-5165
▁военной	-5166
▁термина	-5167
▁несмотря	-5168
▁официально	-5169
▁сельскохозяй	-5170
▁государственных	-5171
кля	-5172
лга	-5173
▁1-	-5174
▁Зе	-5175
зами	-5176
▁Вар	-5177
▁гне	-5178
стане	-5179
▁Верх	-5180
▁каль	-5181
▁снова	-5182
▁Иногда	-5183
▁сопроти	-5184
▁стороне	-5185
▁направлении	-5186
17	-5187
бен	-5188
емым	-5189
рома	-5190
шком	-5191
▁дис	-5192
нести	-5193
ровка	-5194
товых	-5195
▁далее	-5196
▁монет	-5197
▁нарко	-5198
▁непре	-5199
▁должно	-5200
▁наряду	-5201
▁тысячи	-5202
▁большие	-5203
▁привлека	-5204
нял	-5205
▁тё	-5206
▁бор	-5207
▁зим	-5208
рация	-5209
чений	-5210
▁Даль	-5211
▁жёст	-5212
▁леса	-5213
▁собо	-5214
▁слабо	-5215
▁органы	-5216
▁основы	-5217
▁теперь	-5218
▁Армении	-5219
▁верхней	-5220
▁условий	-5221
▁получить	-5222
▁работает	-5223
35	-5224
уго	-5225
хла	-5226
вока	-5227
гора	-5228
жено	-5229
лено	-5230
товой	-5231
тивная	-5232
▁транс	-5233
▁потеря	-5234
▁определяется	-5235
айл	-5236
▁оли	-5237
▁глуби	-5238
▁старо	-5239
▁такое	-5240
▁машино	-5241
▁сообще	-5242
▁крупный	-5243
▁представители	-5244
iv	-5245
Бу	-5246
вий	-5247
збе	-5248
лаг	-5249
ента	-5250
▁150	-5251
грани	-5252
▁трудо	-5253
▁академи	-5254
▁русские	-5255
▁столицы	-5256
▁основным	-5257
жан	-5258
жем	-5259
▁Гон	-5260
▁Лат	-5261
нициа	-5262
пания	-5263
▁Риме	-5264
▁месяцев	-5265
▁Великого	-5266
▁существования	-5267
лиру	-5268
▁Сау	-5269
тными	-5270
▁Анти	-5271
▁любов	-5272
▁резко	-5273
▁труда	-5274
▁пережи	-5275
▁миллионов	-5276
▁управление	-5277
ян	-5278
лло	-5279
сея	-5280
▁зам	-5281
▁ощу	-5282
▁1990	-5283
▁срок	-5284
▁верши	-5285
▁кризи	-5286
▁среды	-5287
▁начинает	-5288
▁носители	-5289
Сред	-5290
поля	-5291
чины	-5292
▁пого	-5293
▁рису	-5294
вшейся	-5295
▁грузо	-5296
▁масте	-5297
▁стены	-5298
▁шести	-5299
▁эпизо	-5300
▁вскоре	-5301
▁номина	-5302
▁каждого	-5303
▁начиная	-5304
▁отдельные	-5305
▁представляют	-5306
ремо	-5307
вокуп	-5308
совой	-5309
▁дели	-5310
▁кафе	-5311
▁ядер	-5312
▁Верги	-5313
▁будут	-5314
▁магни	-5315
▁судов	-5316
ральные	-5317
▁одноим	-5318
▁событий	-5319
▁наблюдается	-5320
Ва	-5321
уна	-5322
▁XII	-5323
бурге	-5324
▁газе	-5325
жённых	-5326
▁конта	-5327
▁фильма	-5328
▁изделий	-5329
▁принадлежит	-5330
»;	-5331
ёв	-5332
дили	-5333
▁Мер	-5334
мигра	-5335
▁Анто	-5336
▁воде	-5337
Извест	-5338
альной	-5339
фициаль	-5340
▁языках	-5341
▁местных	-5342
▁большого	-5343
▁началась	-5344
▁образует	-5345
▁описание	-5346
▁использовались	-5347
ос	-5348
▁U	-5349
сни	-5350
тла	-5351
▁Име	-5352
казом	-5353
чиков	-5354
▁мозже	-5355
▁говорит	-5356
▁перевоз	-5357
▁небольшо	-5358
▁продуктов	-5359
рик	-5360
▁36	-5361
мани	-5362
▁Вен	-5363
▁жид	-5364
▁ске	-5365
воохра	-5366
▁масса	-5367
▁спорт	-5368
станции	-5369
▁динами	-5370
▁страда	-5371
▁болезни	-5372
▁предпринима	-5373
▁общественного	-5374
жную	-5375
мыми	-5376
энер	-5377
▁зло	-5378
▁Индии	-5379
▁Китая	-5380
▁солдат	-5381
▁тракта	-5382
▁планеты	-5383
▁символи	-5384
вропейской	-5385
▁появилась	-5386
дея	-5387
фера	-5388
▁Ман	-5389
▁Иван	-5390
▁воен	-5391
▁лежа	-5392
▁1960-	-5393
▁гимна	-5394
▁повто	-5395
▁Многие	-5396
▁неизвест	-5397
▁поддержа	-5398
▁достигает	-5399
▁внутренних	-5400
op	-5401
—20	-5402
дной	-5403
▁177	-5404
▁Ара	-5405
▁ОАО	-5406
ковая	-5407
стной	-5408
▁Архи	-5409
▁меня	-5410
ходила	-5411
▁демон	-5412
▁стихо	-5413
▁сфере	-5414
▁разделе	-5415
▁компаний	-5416
▁монастыря	-5417
▁существенно	-5418
бар	-5419
вига	-5420
рика	-5421
▁Шот	-5422
ирова	-5423
товые	-5424
▁избе	-5425
▁ислам	-5426
▁нефти	-5427
вшегося	-5428
дравоохра	-5429
▁инфраструк	-5430
3,	-5431
чев	-5432
гона	-5433
▁Чёр	-5434
▁Юго	-5435
▁1992	-5436
▁школ	-5437
▁делает	-5438
▁Испании	-5439
▁переход	-5440
▁правитель	-5441
▁политической	-5442
гры	-5443
сев	-5444
сем	-5445
▁жёл	-5446
▁фар	-5447
▁кожи	-5448
▁узна	-5449
▁групп	-5450
ционная	-5451
▁выращи	-5452
▁каждой	-5453
▁красно	-5454
▁отвеча	-5455
▁определи	-5456
▁конструкции	-5457
▁руководством	-5458
▁независимости	-5459
ила	-5460
вятся	-5461
▁пери	-5462
вающие	-5463
▁любой	-5464
▁марте	-5465
▁округ	-5466
▁увиде	-5467
льского	-5468
▁список	-5469
▁известные	-5470
▁построена	-5471
▁источников	-5472
▁происхождение	-5473
▁отря	-5474
влению	-5475
ленной	-5476
менная	-5477
▁вызва	-5478
▁плани	-5479
▁теоре	-5480
▁Обычно	-5481
▁предше	-5482
▁Нидерлан	-5483
▁возрасте	-5484
▁горизонта	-5485
▁побережье	-5486
16	-5487
ec	-5488
ёра	-5489
лера	-5490
▁Мек	-5491
▁Фри	-5492
сения	-5493
▁каса	-5494
▁кипу	-5495
▁пору	-5496
▁рост	-5497
альных	-5498
▁препо	-5499
▁закреп	-5500
▁письме	-5501
тический	-5502
▁Белоруссии	-5503
▁поверхность	-5504
▁распространё	-5505
▁Й	-5506
чне	-5507
▁Ше	-5508
тани	-5509
шить	-5510
▁Сто	-5511
▁бук	-5512
новых	-5513
▁обви	-5514
▁данные	-5515
▁консер	-5516
▁партия	-5517
▁проводится	-5518
▁устройство	-5519
Тер	-5520
▁Шу	-5521
вшую	-5522
▁Вме	-5523
вился	-5524
▁свяще	-5525
▁Первой	-5526
▁Помимо	-5527
▁страте	-5528
▁Святого	-5529
▁считать	-5530
Транспорт	-5531
ственными	-5532
38	-5533
гена	-5534
чить	-5535
▁мае	-5536
кости	-5537
▁дочь	-5538
▁трав	-5539
редото	-5540
▁крово	-5541
▁москов	-5542
▁сделать	-5543
▁считают	-5544
▁троллейбу	-5545
Ад	-5546
Воз	-5547
рил	-5548
чит	-5549
▁иу	-5550
Файл	-5551
▁Тре	-5552
▁Вене	-5553
▁деву	-5554
▁мече	-5555
▁реда	-5556
▁Через	-5557
▁герцо	-5558
▁еврей	-5559
▁научно	-5560
▁другого	-5561
▁передачи	-5562
▁проблемы	-5563
▁российских	-5564
жки	-5565
▁слов	-5566
работа	-5567
торами	-5568
щаются	-5569
▁Макси	-5570
▁проро	-5571
▁борьбы	-5572
▁короля	-5573
▁кустар	-5574
▁минера	-5575
▁Америки	-5576
▁условия	-5577
▁составила	-5578
зон	-5579
мона	-5580
ванию	-5581
▁доче	-5582
▁педаго	-5583
чивается	-5584
▁древнегре	-5585
▁способность	-5586
1.	-5587
ag	-5588
вами	-5589
дора	-5590
ради	-5591
стым	-5592
▁крае	-5593
▁лесо	-5594
▁план	-5595
▁дерева	-5596
Название	-5597
▁скорость	-5598
▁построены	-5599
▁существование	-5600
:«	-5601
ig	-5602
йка	-5603
тео	-5604
▁Фу	-5605
чков	-5606
▁рыб	-5607
образи	-5608
▁Народ	-5609
▁озера	-5610
▁Японии	-5611
▁культура	-5612
▁получают	-5613
▁иностранных	-5614
▁Фо	-5615
Пере	-5616
блей	-5617
▁Зна	-5618
ностях	-5619
▁выбра	-5620
▁другом	-5621
▁инициа	-5622
▁абсолют	-5623
▁станция	-5624
▁устройства	-5625
чок	-5626
▁Ура	-5627
вычай	-5628
дение	-5629
терна	-5630
страда	-5631
▁жизне	-5632
▁Олимпий	-5633
▁разделя	-5634
▁представлены	-5635
4.	-5636
сил	-5637
горо	-5638
хими	-5639
щают	-5640
▁бата	-5641
▁наме	-5642
▁небе	-5643
▁князя	-5644
▁траге	-5645
▁западе	-5646
▁астроно	-5647
▁декабре	-5648
▁техники	-5649
▁промышленность	-5650
ir	-5651
Ни	-5652
все	-5653
или	-5654
▁ом	-5655
ждая	-5656
змом	-5657
рной	-5658
▁шах	-5659
Кроме	-5660
▁1920	-5661
▁снаб	-5662
▁Китае	-5663
▁Дмитри	-5664
▁насеко	-5665
▁основу	-5666
▁цивили	-5667
▁проходят	-5668
▁реконструк	-5669
дие	-5670
лерея	-5671
▁зимой	-5672
▁насто	-5673
▁посла	-5674
▁вертика	-5675
▁совокуп	-5676
▁операции	-5677
▁работают	-5678
▁литературы	-5679
стям	-5680
▁ато	-5681
▁пан	-5682
влена	-5683
ённой	-5684
▁доля	-5685
льской	-5686
▁модер	-5687
▁оцени	-5688
▁уника	-5689
деления	-5690
▁звание	-5691
▁служит	-5692
▁главный	-5693
▁поднима	-5694
▁определения	-5695
▁окончательно	-5696
вах	-5697
лип	-5698
мьер	-5699
нским	-5700
▁вода	-5701
▁саха	-5702
▁графи	-5703
нования	-5704
▁Большо	-5705
▁местом	-5706
▁четвер	-5707
▁никогда	-5708
▁полномо	-5709
▁природе	-5710
▁общество	-5711
▁отношение	-5712
фов	-5713
чке	-5714
▁Ско	-5715
▁втор	-5716
рупней	-5717
ченных	-5718
востоке	-5719
▁договор	-5720
▁отсутствие	-5721
13	-5722
Хо	-5723
ново	-5724
рить	-5725
▁Отта	-5726
▁стоит	-5727
▁магази	-5728
▁партий	-5729
▁высотой	-5730
логические	-5731
▁состояния	-5732
Ге	-5733
Ги	-5734
зже	-5735
зоб	-5736
рож	-5737
делы	-5738
енти	-5739
льзя	-5740
▁Пор	-5741
лакти	-5742
▁Геор	-5743
▁базе	-5744
▁расс	-5745
▁проме	-5746
▁Сибири	-5747
▁Ставро	-5748
▁помощь	-5749
ствовала	-5750
▁августе	-5751
▁изделия	-5752
▁участок	-5753
▁получает	-5754
▁развитию	-5755
▁создание	-5756
▁поселение	-5757
▁международных	-5758
дел	-5759
▁Мин	-5760
уголь	-5761
ходом	-5762
▁1919	-5763
▁Бого	-5764
▁Поло	-5765
▁1930-	-5766
▁ребён	-5767
▁Всемир	-5768
▁востоке	-5769
▁являлся	-5770
▁Несмотря	-5771
▁небольшой	-5772
▁фактически	-5773
▁изготовления	-5774
45	-5775
нета	-5776
▁Бен	-5777
▁вои	-5778
стные	-5779
▁Рима	-5780
▁боло	-5781
▁девя	-5782
▁преж	-5783
▁скры	-5784
▁этни	-5785
▁стаби	-5786
▁Северо	-5787
▁стреми	-5788
ничества	-5789
▁вариант	-5790
▁природы	-5791
▁элемент	-5792
▁автомати	-5793
▁связанные	-5794
▁политических	-5795
зья	-5796
рпи	-5797
казу	-5798
манд	-5799
▁НТВ	-5800
▁беспо	-5801
▁выбор	-5802
▁герой	-5803
▁клима	-5804
▁награ	-5805
▁дорога	-5806
▁общины	-5807
▁старей	-5808
▁следова	-5809
▁фамилии	-5810
▁вероятно	-5811
▁долларов	-5812
▁самоупра	-5813
▁категории	-5814
▁использовали	-5815
▁–	-5816
бля	-5817
дит	-5818
▁мэ	-5819
▁Тру	-5820
▁фро	-5821
стрии	-5822
▁Один	-5823
▁боже	-5824
▁зача	-5825
▁лета	-5826
▁обре	-5827
▁сове	-5828
▁ликви	-5829
▁пишет	-5830
▁покро	-5831
▁дирижа	-5832
▁колони	-5833
▁сентябре	-5834
бби	-5835
▁Зи	-5836
гает	-5837
спол	-5838
▁170	-5839
▁дни	-5840
▁опу	-5841
новой	-5842
ствий	-5843
тисти	-5844
▁1000	-5845
▁желу	-5846
▁заим	-5847
▁Перво	-5848
▁самые	-5849
▁эффектив	-5850
Ла	-5851
йо	-5852
гое	-5853
пия	-5854
цифи	-5855
▁Рей	-5856
▁Тибе	-5857
▁живу	-5858
▁тира	-5859
▁немного	-5860
od	-5861
сою	-5862
чика	-5863
▁Ещё	-5864
▁Кан	-5865
▁блю	-5866
▁дио	-5867
ктябрь	-5868
▁изуча	-5869
▁патри	-5870
▁усили	-5871
▁Одиссе	-5872
▁январе	-5873
Ор	-5874
мас	-5875
нул	-5876
▁яй	-5877
ната	-5878
цина	-5879
щина	-5880
▁оши	-5881
▁схо	-5882
▁боги	-5883
▁слой	-5884
дность	-5885
россий	-5886
▁земля	-5887
▁сыгра	-5888
▁шипов	-5889
▁граница	-5890
▁инженер	-5891
▁действуют	-5892
▁противоре	-5893
▁сосредото	-5894
ТО	-5895
бок	-5896
реб	-5897
▁Её	-5898
▁Гру	-5899
▁1945	-5900
▁Трои	-5901
▁доби	-5902
▁замо	-5903
▁зоне	-5904
строен	-5905
щением	-5906
▁конкур	-5907
▁контра	-5908
▁Римской	-5909
▁биологи	-5910
▁предложе	-5911
▁сооружения	-5912
90	-5913
ндо	-5914
сме	-5915
шко	-5916
▁Дю	-5917
▁Ган	-5918
личия	-5919
части	-5920
▁1999	-5921
▁Алла	-5922
▁двой	-5923
▁выста	-5924
▁длина	-5925
▁увели	-5926
▁герман	-5927
▁второго	-5928
▁отношений	-5929
бка	-5930
кке	-5931
чеб	-5932
Памя	-5933
▁ВВП	-5934
▁Джо	-5935
стных	-5936
▁воду	-5937
▁сати	-5938
▁улиц	-5939
Класси	-5940
▁вошли	-5941
▁профи	-5942
▁стано	-5943
лизации	-5944
▁Михаил	-5945
▁первом	-5946
▁попада	-5947
▁воспита	-5948
▁сообщение	-5949
st	-5950
гри	-5951
неш	-5952
шил	-5953
▁Нью	-5954
▁июле	-5955
▁возбу	-5956
▁семьи	-5957
▁дворец	-5958
▁оригина	-5959
▁учебных	-5960
▁должности	-5961
▁человеком	-5962
▁совершенно	-5963
▁обозначения	-5964
▁необходимости	-5965
ЕС	-5966
Виды	-5967
▁1,5	-5968
▁Дио	-5969
краин	-5970
▁тюль	-5971
▁чинов	-5972
▁адвока	-5973
▁кладби	-5974
▁нижней	-5975
▁помимо	-5976
▁женщины	-5977
Петербург	-5978
▁инструментов	-5979
▁дел	-5980
Приме	-5981
раздо	-5982
▁горя	-5983
▁семи	-5984
▁сход	-5985
шением	-5986
▁Более	-5987
▁новое	-5988
▁высоте	-5989
▁играет	-5990
▁металла	-5991
▁промежу	-5992
▁аэропорт	-5993
▁кинотеат	-5994
▁температуре	-5995
ами	-5996
тран	-5997
▁Фло	-5998
▁пой	-5999
▁шер	-6000
▁фоне	-6001
▁Волго	-6002
▁нагре	-6003
▁улице	-6004
▁воздухе	-6005
▁приблизи	-6006
▁населением	-6007
▁оборудования	-6008
▁производстве	-6009
кол	-6010
лда	-6011
мум	-6012
рите	-6013
щиков	-6014
▁1998	-6015
▁Вале	-6016
▁запу	-6017
▁Брази	-6018
▁Иркут	-6019
▁длины	-6020
▁конец	-6021
▁линия	-6022
▁флота	-6023
▁четвёр	-6024
▁Австралии	-6025
▁положения	-6026
▁помещения	-6027
тес	-6028
▁Сам	-6029
▁опо	-6030
▁Бога	-6031
▁стру	-6032
▁литов	-6033
▁масло	-6034
▁торже	-6035
ношения	-6036
▁Россия	-6037
▁деревьев	-6038
▁возникает	-6039
▁княжества	-6040
примечательности	-6041
кл	-6042
гий	-6043
йло	-6044
тец	-6045
▁38	-6046
мыка	-6047
снеф	-6048
▁вку	-6049
▁Высо	-6050
▁другу	-6051
▁раско	-6052
▁Красно	-6053
▁Москва	-6054
▁выпуск	-6055
▁совета	-6056
▁обороны	-6057
▁связаны	-6058
▁библиоте	-6059
▁западной	-6060
ственность	-6061
▁остальные	-6062
▁специально	-6063
лум	-6064
▁3-	-6065
▁33	-6066
твра	-6067
▁ССР	-6068
▁пок	-6069
жными	-6070
▁речи	-6071
▁Григо	-6072
▁вокза	-6073
▁титул	-6074
именова	-6075
кистана	-6076
▁Америке	-6077
▁перевод	-6078
▁периоди	-6079
▁программ	-6080
▁образуется	-6081
▁характеризу	-6082
хии	-6083
купи	-6084
риса	-6085
леком	-6086
щений	-6087
▁лице	-6088
влений	-6089
▁Особе	-6090
▁выдви	-6091
нностей	-6092
▁выдели	-6093
▁правом	-6094
▁Советского	-6095
▁опубликова	-6096
▁современном	-6097
▁православной	-6098
бии	-6099
фом	-6100
чёр	-6101
щер	-6102
лана	-6103
лков	-6104
▁вак	-6105
▁Кара	-6106
▁логи	-6107
▁нужно	-6108
▁порта	-6109
▁расту	-6110
водится	-6111
▁Первый	-6112
▁берега	-6113
▁водоро	-6114
▁гипоте	-6115
▁раньше	-6116
ссийской	-6117
▁Королев	-6118
▁одинако	-6119
▁реакции	-6120
▁увеличе	-6121
▁Известные	-6122
▁требования	-6123
▁независимость	-6124
Да	-6125
цве	-6126
баль	-6127
дума	-6128
▁Фео	-6129
ation	-6130
нтами	-6131
▁кого	-6132
▁Выбор	-6133
▁анали	-6134
▁господ	-6135
▁здоров	-6136
▁подзем	-6137
▁Византи	-6138
▁резиден	-6139
▁изобрази	-6140
▁контроль	-6141
▁парламент	-6142
▁советской	-6143
▁чрезвычай	-6144
бия	-6145
зму	-6146
мам	-6147
зиру	-6148
фект	-6149
▁Джа	-6150
▁мер	-6151
ганро	-6152
ковым	-6153
новка	-6154
▁1944	-6155
▁2020	-6156
▁лати	-6157
▁орде	-6158
ждению	-6159
няться	-6160
▁возоб	-6161
▁релье	-6162
▁тысяче	-6163
▁Русской	-6164
ционирова	-6165
▁договора	-6166
▁исторических	-6167
чия	-6168
варе	-6169
▁ссы	-6170
▁тво	-6171
▁уезд	-6172
▁царь	-6173
емости	-6174
▁ничего	-6175
дованием	-6176
▁Конститу	-6177
▁преврати	-6178
▁сельского	-6179
▁характера	-6180
▁Центральной	-6181
▁промышленных	-6182
Ту	-6183
Ча	-6184
Под	-6185
берг	-6186
нтро	-6187
жского	-6188
нились	-6189
▁мозга	-6190
▁непри	-6191
▁нынеш	-6192
▁опере	-6193
▁позна	-6194
▁роста	-6195
▁клеток	-6196
▁модели	-6197
▁отдыха	-6198
▁началом	-6199
▁организма	-6200
▁сочинения	-6201
НР	-6202
яз	-6203
ково	-6204
▁лед	-6205
▁голу	-6206
▁млад	-6207
нялись	-6208
▁1980-	-6209
▁Прави	-6210
▁обита	-6211
▁промы	-6212
▁престо	-6213
▁тенден	-6214
▁высоких	-6215
▁приказа	-6216
фиксирова	-6217
▁превышает	-6218
▁предотвра	-6219
▁структура	-6220
▁Большинство	-6221
▁распространены	-6222
▁37	-6223
▁ий	-6224
види	-6225
дует	-6226
жают	-6227
номо	-6228
тена	-6229
▁Гла	-6230
▁жил	-6231
формы	-6232
▁1996	-6233
▁излу	-6234
▁кара	-6235
▁кров	-6236
▁орби	-6237
▁Тогда	-6238
▁индей	-6239
▁князь	-6240
▁деление	-6241
▁влиянием	-6242
▁интенсив	-6243
▁отличаются	-6244
▁исключением	-6245
Ха	-6246
▁VI	-6247
▁сай	-6248
▁фос	-6249
▁кине	-6250
▁кори	-6251
▁осве	-6252
льному	-6253
▁плодо	-6254
▁связан	-6255
▁связана	-6256
▁поражения	-6257
▁эксплуата	-6258
▁предусматри	-6259
вел	-6260
жал	-6261
зию	-6262
щик	-6263
щадь	-6264
▁1989	-6265
▁иска	-6266
▁лето	-6267
▁приш	-6268
ходило	-6269
▁продо	-6270
▁роман	-6271
▁южной	-6272
▁октябре	-6273
▁наследия	-6274
▁политики	-6275
—3	-6276
Рус	-6277
вец	-6278
нкт	-6279
фио	-6280
▁Эр	-6281
▁ЮН	-6282
гене	-6283
стка	-6284
▁наи	-6285
щиеся	-6286
▁Позд	-6287
▁отца	-6288
▁изото	-6289
▁исчез	-6290
▁косми	-6291
▁лекар	-6292
▁целях	-6293
▁называются	-6294
▁памятников	-6295
▁появляются	-6296
▁применяются	-6297
дут	-6298
юри	-6299
воды	-6300
тиру	-6301
нился	-6302
номор	-6303
севдо	-6304
▁Волги	-6305
▁Приме	-6306
▁самая	-6307
▁тропи	-6308
▁данной	-6309
▁лукови	-6310
▁студен	-6311
▁Николай	-6312
▁Министер	-6313
▁причиной	-6314
исхождение	-6315
▁сохранились	-6316
▁42	-6317
мета	-6318
сную	-6319
▁хан	-6320
рядок	-6321
▁Узбе	-6322
против	-6323
▁возро	-6324
▁землю	-6325
▁железа	-6326
▁кварти	-6327
▁сочета	-6328
▁гораздо	-6329
▁проекта	-6330
▁экспеди	-6331
▁которыми	-6332
▁библиотека	-6333
▁распространён	-6334
гно	-6335
душ	-6336
ЕСКО	-6337
ровая	-6338
терпе	-6339
▁Хотя	-6340
▁нату	-6341
▁типи	-6342
▁фено	-6343
▁данный	-6344
▁диамет	-6345
▁молодё	-6346
▁военный	-6347
▁трамвай	-6348
▁пассажиров	-6349
▁зафиксирова	-6350
кты	-6351
льф	-6352
рный	-6353
тном	-6354
▁сом	-6355
▁цен	-6356
▁идеи	-6357
▁рука	-6358
▁конфе	-6359
▁канала	-6360
▁обстоя	-6361
▁энерге	-6362
▁материал	-6363
▁использоваться	-6364
em	-6365
Лу	-6366
бий	-6367
▁In	-6368
▁Ос	-6369
Топо	-6370
▁чёт	-6371
стыми	-6372
▁арте	-6373
▁коор	-6374
▁моги	-6375
▁Китай	-6376
▁сахар	-6377
▁храма	-6378
▁числу	-6379
ждением	-6380
▁цилинд	-6381
▁вызывает	-6382
▁европейской	-6383
нём	-6384
▁Дер	-6385
ковый	-6386
▁вспо	-6387
▁запо	-6388
▁посо	-6389
влетво	-6390
ющейся	-6391
экономи	-6392
▁борьбе	-6393
▁машины	-6394
▁почита	-6395
▁превос	-6396
▁создал	-6397
▁спекта	-6398
▁текста	-6399
▁упразд	-6400
▁данного	-6401
▁допуска	-6402
▁незначи	-6403
▁династии	-6404
▁хранения	-6405
▁протекает	-6406
▁структуры	-6407
▁составляли	-6408
Все	-6409
нты	-6410
пки	-6411
рим	-6412
пами	-6413
тьев	-6414
▁Сим	-6415
▁оси	-6416
лести	-6417
▁1942	-6418
▁1994	-6419
▁мело	-6420
▁спро	-6421
▁Андре	-6422
▁героя	-6423
▁птицы	-6424
▁среде	-6425
▁шесть	-6426
▁штата	-6427
▁мужчин	-6428
▁учёный	-6429
▁корпуса	-6430
▁металлу	-6431
▁столетия	-6432
▁заведения	-6433
▁определён	-6434
▁строительстве	-6435
бая	-6436
змов	-6437
рубе	-6438
трия	-6439
▁Тор	-6440
▁1995	-6441
▁Джон	-6442
▁любы	-6443
▁родо	-6444
сторон	-6445
▁заслу	-6446
▁окраи	-6447
▁средне	-6448
▁считал	-6449
▁единица	-6450
▁инвести	-6451
▁распада	-6452
▁туристи	-6453
ступление	-6454
▁бассейна	-6455
▁Благодаря	-6456
▁появления	-6457
▁располагаются	-6458
ваи	-6459
исто	-6460
▁Сле	-6461
▁Фин	-6462
логов	-6463
ссель	-6464
▁Швей	-6465
▁пато	-6466
байджа	-6467
▁броне	-6468
▁буква	-6469
▁звёзд	-6470
▁воскре	-6471
▁вступи	-6472
▁перено	-6473
▁губерна	-6474
зербайджа	-6475
▁предвари	-6476
▁развитии	-6477
▁монастырь	-6478
▁социально	-6479
пок	-6480
▁55	-6481
снаб	-6482
тную	-6483
▁120	-6484
▁Бан	-6485
▁мат	-6486
▁Сара	-6487
▁брат	-6488
▁штаб	-6489
▁железо	-6490
▁оккупа	-6491
▁питания	-6492
▁слишком	-6493
▁высокого	-6494
▁искусств	-6495
▁металлов	-6496
▁практике	-6497
▁фестиваль	-6498
▁источником	-6499
▁крупнейший	-6500
▁территорий	-6501
▁Константино	-6502
▁использовался	-6503
меда	-6504
тяну	-6505
▁Лео	-6506
носит	-6507
рного	-6508
▁инте	-6509
▁поэт	-6510
▁реку	-6511
▁реме	-6512
▁Литов	-6513
▁имела	-6514
▁смеси	-6515
▁Африки	-6516
▁ЮНЕСКО	-6517
▁прибли	-6518
▁третье	-6519
Культура	-6520
строения	-6521
▁крупным	-6522
▁создана	-6523
▁главного	-6524
▁последний	-6525
22	-6526
Ру	-6527
▁:	-6528
▁75	-6529
пати	-6530
ряет	-6531
▁доб	-6532
▁люб	-6533
вающий	-6534
органи	-6535
▁здании	-6536
▁собора	-6537
▁Большой	-6538
▁бывшего	-6539
▁переста	-6540
▁окончания	-6541
▁воспринима	-6542
Гер	-6543
хта	-6544
▁Оде	-6545
▁Тро	-6546
крепи	-6547
право	-6548
▁горе	-6549
▁зара	-6550
▁всеми	-6551
▁дирек	-6552
▁апреле	-6553
▁дерево	-6554
нической	-6555
▁главной	-6556
▁регионе	-6557
▁выступает	-6558
▁сооружений	-6559
▁единственный	-6560
Зна	-6561
лое	-6562
пей	-6563
▁34	-6564
▁ед	-6565
Если	-6566
тике	-6567
чень	-6568
▁Что	-6569
▁чел	-6570
▁дыха	-6571
▁зави	-6572
▁пада	-6573
▁Таджи	-6574
▁Такие	-6575
▁выделе	-6576
Наиболее	-6577
значение	-6578
▁широкое	-6579
▁пострада	-6580
▁скорости	-6581
матических	-6582
▁действием	-6583
▁постройки	-6584
▁становятся	-6585
▁J	-6586
ису	-6587
▁Ак	-6588
▁Фор	-6589
рован	-6590
цвета	-6591
▁1997	-6592
▁иной	-6593
▁лиде	-6594
▁мост	-6595
▁хлоп	-6596
▁чешу	-6597
▁этно	-6598
Города	-6599
▁сцена	-6600
ционным	-6601
▁спустя	-6602
▁морской	-6603
▁специфи	-6604
▁значении	-6605
▁рождения	-6606
▁восточной	-6607
▁содержания	-6608
▁посредством	-6609
▁национальной	-6610
ant	-6611
▁НА	-6612
▁Уи	-6613
зелё	-6614
▁Нор	-6615
▁Поли	-6616
▁агре	-6617
▁засе	-6618
▁охла	-6619
продук	-6620
▁Акаде	-6621
▁Всего	-6622
▁месяц	-6623
▁нельзя	-6624
▁обосно	-6625
▁размер	-6626
▁страна	-6627
▁возвыше	-6628
▁средних	-6629
▁давления	-6630
▁Население	-6631
▁специальных	-6632
Пло	-6633
жая	-6634
чая	-6635
▁in	-6636
дьми	-6637
моно	-6638
щины	-6639
▁жар	-6640
ваясь	-6641
тники	-6642
▁1943	-6643
▁Иоан	-6644
▁Коми	-6645
льника	-6646
▁Серге	-6647
▁песня	-6648
▁столе	-6649
▁важным	-6650
▁выраже	-6651
▁мнение	-6652
▁началу	-6653
▁оружие	-6654
▁Октябрь	-6655
▁Украине	-6656
▁высоким	-6657
▁достоин	-6658
▁позиции	-6659
▁порядке	-6660
▁правила	-6661
▁протяжё	-6662
▁товаров	-6663
▁сравнительно	-6664
▁использованием	-6665
дру	-6666
ётр	-6667
▁39	-6668
вана	-6669
стил	-6670
▁Спа	-6671
▁Обра	-6672
▁веру	-6673
▁огне	-6674
▁опро	-6675
▁села	-6676
Истори	-6677
альные	-6678
▁дипло	-6679
▁мигра	-6680
▁мысли	-6681
▁созна	-6682
▁фунда	-6683
▁черты	-6684
▁верхов	-6685
▁раскры	-6686
тическое	-6687
▁древности	-6688
▁множества	-6689
▁полуострова	-6690
oc	-6691
▁e	-6692
зды	-6693
шён	-6694
мура	-6695
нице	-6696
порт	-6697
тари	-6698
▁Кли	-6699
▁ара	-6700
▁реа	-6701
верса	-6702
▁база	-6703
▁раст	-6704
▁село	-6705
тского	-6706
▁канди	-6707
▁книга	-6708
▁линий	-6709
▁пребы	-6710
▁Сергей	-6711
▁записа	-6712
▁автоном	-6713
▁древней	-6714
▁распоря	-6715
▁созданы	-6716
▁феврале	-6717
▁занимают	-6718
логический	-6719
▁президента	-6720
▁технологии	-6721
▁французский	-6722
▁национального	-6723
▁Щ	-6724
пту	-6725
рый	-6726
▁48	-6727
▁65	-6728
▁».	-6729
▁шу	-6730
Глав	-6731
пуль	-6732
▁Дей	-6733
▁бен	-6734
▁игр	-6735
▁уса	-6736
ально	-6737
довая	-6738
▁зато	-6739
▁стен	-6740
ченные	-6741
▁Мухам	-6742
▁изгна	-6743
▁костю	-6744
▁носит	-6745
▁почвы	-6746
▁психи	-6747
▁сигна	-6748
▁Ярослав	-6749
Администра	-6750
▁небольшие	-6751
▁последнего	-6752
▁обеспечения	-6753
▁значительной	-6754
▁неоднократно	-6755
39	-6756
ари	-6757
ровой	-6758
▁кано	-6759
▁клар	-6760
▁осла	-6761
Однако	-6762
▁непро	-6763
▁оформ	-6764
▁строй	-6765
▁намест	-6766
▁Одиссей	-6767
▁проблем	-6768
▁перерабо	-6769
▁небольших	-6770
▁отделения	-6771
эр	-6772
▁v	-6773
жин	-6774
шены	-6775
жский	-6776
▁духо	-6777
▁силь	-6778
▁церк	-6779
вшееся	-6780
▁Длина	-6781
▁Можай	-6782
▁метод	-6783
▁музея	-6784
▁орган	-6785
писание	-6786
▁Костро	-6787
▁микрорай	-6788
▁площадью	-6789
▁участник	-6790
▁некоторое	-6791
▁источниках	-6792
▁обязанности	-6793
▁соответствует	-6794
ru	-6795
дю	-6796
лив	-6797
▁мг	-6798
шать	-6799
▁400	-6800
▁тюр	-6801
щению	-6802
ристиа	-6803
▁годом	-6804
▁общее	-6805
▁версия	-6806
▁прогре	-6807
▁Европей	-6808
▁ориенти	-6809
▁военного	-6810
▁последних	-6811
▁здравоохра	-6812
▁находилась	-6813
▁представлен	-6814
▁развивается	-6815
—4	-6816
вит	-6817
пец	-6818
сить	-6819
▁вни	-6820
▁выи	-6821
приня	-6822
стого	-6823
▁Инди	-6824
▁Клав	-6825
▁кирпи	-6826
▁метра	-6827
▁нашей	-6828
▁сорта	-6829
▁Исполь	-6830
▁горных	-6831
▁написал	-6832
▁народных	-6833
▁художник	-6834
▁появилось	-6835
▁советских	-6836
Образование	-6837
▁исследований	-6838
▁первоначально	-6839
лке	-6840
сио	-6841
▁юг	-6842
арди	-6843
дыду	-6844
раку	-6845
ране	-6846
тивы	-6847
шена	-6848
совер	-6849
чками	-6850
▁1993	-6851
▁Каза	-6852
▁безу	-6853
▁бомб	-6854
оборот	-6855
ряется	-6856
▁Ивана	-6857
▁Пушки	-6858
▁лучше	-6859
▁голосо	-6860
▁клетки	-6861
▁компонен	-6862
▁регионов	-6863
▁территориаль	-6864
▁w	-6865
▁вв	-6866
ряда	-6867
—200	-6868
▁Сей	-6869
▁диф	-6870
▁лес	-6871
▁хво	-6872
брати	-6873
▁клет	-6874
чённых	-6875
▁Герой	-6876
▁Позже	-6877
▁входя	-6878
▁инфек	-6879
▁комна	-6880
▁минут	-6881
▁пункт	-6882
▁скорее	-6883
▁трудно	-6884
▁зачастую	-6885
▁настолько	-6886
▁связанных	-6887
▁различными	-6888
▁соединений	-6889
▁религиозных	-6890
▁традиционно	-6891
кру	-6892
▁маг	-6893
ленно	-6894
стить	-6895
ционе	-6896
▁адре	-6897
▁вось	-6898
▁маль	-6899
▁опла	-6900
▁расп	-6901
▁урав	-6902
▁вечер	-6903
▁вышел	-6904
▁лежит	-6905
ковский	-6906
▁святых	-6907
▁массовой	-6908
▁ограничи	-6909
▁способом	-6910
▁планирова	-6911
▁принимает	-6912
▁Верховного	-6913
▁внутренней	-6914
▁формирования	-6915
▁эксперимента	-6916
НК	-6917
ить	-6918
сках	-6919
▁176	-6920
▁Кол	-6921
водов	-6922
▁погре	-6923
▁целей	-6924
▁экзем	-6925
▁Польши	-6926
▁Спарта	-6927
▁важней	-6928
▁память	-6929
▁тюльпа	-6930
ничество	-6931
▁внешней	-6932
▁наимено	-6933
▁сообщения	-6934
бек	-6935
вив	-6936
зел	-6937
лец	-6938
▁ТЭ	-6939
▁ус	-6940
Поли	-6941
жига	-6942
щать	-6943
▁Бре	-6944
Среди	-6945
ловой	-6946
▁егип	-6947
▁исла	-6948
▁леги	-6949
▁плат	-6950
▁степ	-6951
кварти	-6952
▁1970-	-6953
▁валют	-6954
▁пригла	-6955
▁попытки	-6956
▁проекту	-6957
▁считает	-6958
▁требует	-6959
▁Шотландии	-6960
▁количестве	-6961
▁производится	-6962
▁администрации	-6963
78	-6964
сё	-6965
▁$	-6966
ксо	-6967
лую	-6968
сий	-6969
стях	-6970
▁гло	-6971
долго	-6972
▁выро	-6973
▁книг	-6974
▁осна	-6975
▁спла	-6976
ографи	-6977
тового	-6978
▁армия	-6979
▁неуда	-6980
▁патро	-6981
▁пород	-6982
▁татар	-6983
▁парово	-6984
▁русско	-6985
американ	-6986
▁кислоты	-6987
▁посёлка	-6988
▁присвое	-6989
▁торговых	-6990
▁произведе	-6991
▁профессор	-6992
▁характеризуется	-6993
гон	-6994
лай	-6995
лога	-6996
▁июне	-6997
▁свер	-6998
▁посад	-6999
сколько	-7000
ционное	-7001
▁препят	-7002
▁размно	-7003
▁богослу	-7004
▁установлен	-7005
чье	-7006
чью	-7007
галь	-7008
▁ООН	-7009
менте	-7010
▁креди	-7011
▁озеро	-7012
▁песен	-7013
▁равен	-7014
▁редак	-7015
▁апосто	-7016
▁избран	-7017
▁модель	-7018
▁ноябре	-7019
▁средняя	-7020
▁переимено	-7021
▁пространства	-7022
диа	-7023
дям	-7024
▁43	-7025
стрий	-7026
▁Иису	-7027
▁Стро	-7028
▁оппо	-7029
щаться	-7030
▁Петро	-7031
▁ведёт	-7032
▁космо	-7033
▁спект	-7034
стояние	-7035
▁вполне	-7036
▁объёма	-7037
▁одежды	-7038
▁прямой	-7039
▁формой	-7040
▁Таганро	-7041
▁водного	-7042
▁интерес	-7043
▁пунктов	-7044
▁столица	-7045
Некоторые	-7046
▁личности	-7047
▁образуют	-7048
▁нарушения	-7049
▁расположено	-7050
▁единственным	-7051
▁специализирова	-7052
▁экономического	-7053
ap	-7054
▁ул	-7055
зуме	-7056
зыка	-7057
▁Фер	-7058
▁пет	-7059
▁вело	-7060
альный	-7061
тивным	-7062
▁лобби	-7063
▁учиты	-7064
▁вблизи	-7065
ковского	-7066
▁потреби	-7067
▁предыду	-7068
▁сократи	-7069
▁приспособ	-7070
▁развитием	-7071
▁предприятие	-7072
рка	-7073
зацию	-7074
▁Осно	-7075
▁соли	-7076
тников	-7077
▁взрос	-7078
▁вошёл	-7079
▁семян	-7080
▁фанта	-7081
тельств	-7082
▁иденти	-7083
▁одному	-7084
▁пункты	-7085
▁услуги	-7086
▁частиц	-7087
нических	-7088
▁владель	-7089
▁древеси	-7090
▁течения	-7091
▁структур	-7092
▁представлена	-7093
иды	-7094
лём	-7095
тик	-7096
▁Ря	-7097
▁уд	-7098
Цент	-7099
▁дал	-7100
▁дзю	-7101
▁уто	-7102
жской	-7103
цизма	-7104
шению	-7105
▁убий	-7106
прочем	-7107
▁Монго	-7108
▁вопло	-7109
▁всему	-7110
▁самое	-7111
▁союза	-7112
▁полной	-7113
▁привле	-7114
▁романа	-7115
▁священ	-7116
▁сортов	-7117
▁влияния	-7118
▁лечения	-7119
▁ребёнка	-7120
▁частных	-7121
риториаль	-7122
▁открытия	-7123
▁достижения	-7124
▁изображение	-7125
▁общественных	-7126
Ис	-7127
гих	-7128
жий	-7129
спи	-7130
зиат	-7131
мино	-7132
рачи	-7133
▁VII	-7134
▁Бор	-7135
▁Све	-7136
▁роз	-7137
дание	-7138
▁Евге	-7139
▁души	-7140
▁линей	-7141
▁найти	-7142
▁новую	-7143
▁парка	-7144
▁единиц	-7145
▁стадии	-7146
▁границе	-7147
ствования	-7148
▁вещество	-7149
Распростра	-7150
▁кристалли	-7151
;°	-7152
нга	-7153
сим	-7154
▁;.	-7155
▁St	-7156
мому	-7157
стое	-7158
▁Три	-7159
▁коп	-7160
лланд	-7161
▁диск	-7162
▁ремо	-7163
видные	-7164
▁общем	-7165
▁одино	-7166
▁супру	-7167
ждается	-7168
низации	-7169
ющегося	-7170
▁автора	-7171
▁высота	-7172
▁газеты	-7173
▁авторов	-7174
▁объекты	-7175
▁называть	-7176
▁президен	-7177
▁растение	-7178
▁Существует	-7179
▁исследователи	-7180
▁насчитывалось	-7181
▁многочисленных	-7182
27	-7183
нибу	-7184
▁Шве	-7185
▁оча	-7186
печат	-7187
▁оцен	-7188
▁хреб	-7189
Первые	-7190
▁1950-	-7191
▁Генри	-7192
▁Распо	-7193
▁канал	-7194
▁чисел	-7195
▁другое	-7196
▁квадра	-7197
▁минима	-7198
▁неприя	-7199
▁экспер	-7200
▁византи	-7201
▁возникают	-7202
▁процессов	-7203
▁возникновения	-7204
▁g	-7205
Осно	-7206
▁Иль	-7207
дного	-7208
ждает	-7209
▁1939	-7210
▁речь	-7211
▁факт	-7212
вающая	-7213
жённые	-7214
▁консу	-7215
▁масси	-7216
▁снизи	-7217
Государ	-7218
личество	-7219
▁деревни	-7220
▁подгото	-7221
▁приписы	-7222
▁романти	-7223
▁первонача	-7224
▁находились	-7225
▁невозможно	-7226
▁распространения	-7227
ёд	-7228
кри	-7229
пси	-7230
уре	-7231
▁Шта	-7232
славя	-7233
▁1940	-7234
▁Пара	-7235
▁нена	-7236
▁пони	-7237
▁занял	-7238
▁полез	-7239
▁путей	-7240
▁руках	-7241
▁Первые	-7242
▁конфли	-7243
нический	-7244
▁Средняя	-7245
▁высокая	-7246
▁явления	-7247
▁туристов	-7248
▁восстания	-7249
▁Казахстана	-7250
▁определение	-7251
▁приблизительно	-7252
—5	-7253
бие	-7254
ими	-7255
зовы	-7256
чики	-7257
чкой	-7258
▁160	-7259
▁Дон	-7260
вляли	-7261
▁агло	-7262
▁мину	-7263
восток	-7264
евский	-7265
▁соблю	-7266
▁турни	-7267
льности	-7268
▁авторы	-7269
▁бывает	-7270
▁группе	-7271
▁деньги	-7272
▁зарубе	-7273
▁музыке	-7274
▁популя	-7275
▁ассоциа	-7276
▁листьев	-7277
▁премьер	-7278
▁Средизем	-7279
▁мозжечка	-7280
▁обладают	-7281
▁обществе	-7282
▁содержат	-7283
▁источники	-7284
▁указывает	-7285
▁противника	-7286
▁социальной	-7287
▁международный	-7288
47	-7289
48	-7290
6.	-7291
ha	-7292
Лю	-7293
ань	-7294
май	-7295
чны	-7296
чти	-7297
▁Ам	-7298
плек	-7299
▁the	-7300
▁меры	-7301
▁2000-	-7302
▁всеоб	-7303
▁диапа	-7304
▁драма	-7305
▁прибо	-7306
▁устья	-7307
▁Солнца	-7308
▁альбом	-7309
▁мелких	-7310
▁сердца	-7311
▁историк	-7312
Известные	-7313
▁областях	-7314
▁работать	-7315
▁создании	-7316
▁расстояние	-7317
ist	-7318
здо	-7319
рем	-7320
самб	-7321
Восто	-7322
▁евро	-7323
▁нега	-7324
▁отли	-7325
рского	-7326
эффици	-7327
▁Совре	-7328
▁вверх	-7329
▁ожида	-7330
▁хокке	-7331
▁Аристо	-7332
▁Вместе	-7333
▁высших	-7334
▁рейтин	-7335
▁епископ	-7336
▁относят	-7337
▁причине	-7338
▁городами	-7339
▁областей	-7340
▁последней	-7341
Осо	-7342
одо	-7343
льят	-7344
▁кот	-7345
▁ски	-7346
влять	-7347
клопе	-7348
▁1930	-7349
▁Гали	-7350
▁ланд	-7351
▁рыбо	-7352
▁элли	-7353
▁Музей	-7354
▁возле	-7355
▁добро	-7356
▁ключе	-7357
▁сериа	-7358
▁таком	-7359
▁цифро	-7360
▁Индоне	-7361
▁выхода	-7362
▁колеба	-7363
▁скепти	-7364
▁языков	-7365
хождения	-7366
▁вопросы	-7367
▁открыта	-7368
▁теплово	-7369
▁училище	-7370
▁живописи	-7371
▁начинают	-7372
▁размеров	-7373
▁рассмотре	-7374
▁удовлетво	-7375
▁изначально	-7376
▁заключается	-7377
▁расположенный	-7378
сл	-7379
полу	-7380
тила	-7381
физи	-7382
▁XXI	-7383
▁Тар	-7384
▁имён	-7385
▁иных	-7386
▁1920-	-7387
▁исход	-7388
▁машин	-7389
▁приви	-7390
▁упомя	-7391
деление	-7392
▁боевых	-7393
▁словом	-7394
▁жидкости	-7395
▁координа	-7396
▁предметов	-7397
▁популярность	-7398
нит	-7399
пах	-7400
▁4-	-7401
▁Тю	-7402
вина	-7403
слож	-7404
▁рее	-7405
▁схе	-7406
меров	-7407
▁епар	-7408
▁невы	-7409
▁палу	-7410
▁сюже	-7411
▁швед	-7412
▁Часто	-7413
▁конди	-7414
▁черте	-7415
▁Яросла	-7416
▁бывают	-7417
▁вырази	-7418
▁месяца	-7419
▁силами	-7420
▁стекло	-7421
▁белорус	-7422
▁местные	-7423
▁объединения	-7424
▁специальные	-7425
98	-7426
сит	-7427
▁Аф	-7428
коми	-7429
▁рит	-7430
новые	-7431
▁Пётр	-7432
▁алле	-7433
▁моди	-7434
▁неве	-7435
ляется	-7436
▁азота	-7437
▁вести	-7438
▁закан	-7439
▁итоге	-7440
▁офице	-7441
▁турец	-7442
▁эволю	-7443
евского	-7444
▁Первая	-7445
▁людьми	-7446
▁победи	-7447
нциклопе	-7448
▁команды	-7449
▁пришлось	-7450
логической	-7451
тельностью	-7452
▁наблюдения	-7453
▁предположи	-7454
▁проводятся	-7455
▁общественный	-7456
75	-7457
Пу	-7458
Чи	-7459
дка	-7460
льде	-7461
суще	-7462
ьера	-7463
благо	-7464
довых	-7465
рокко	-7466
▁Свет	-7467
▁Теле	-7468
▁швей	-7469
западе	-7470
▁грамо	-7471
▁стиля	-7472
▁строя	-7473
▁трубо	-7474
▁улица	-7475
ператор	-7476
▁ежегод	-7477
▁теория	-7478
▁устраи	-7479
▁Николая	-7480
▁прекрати	-7481
▁заведений	-7482
▁современные	-7483
▁муниципального	-7484
23	-7485
вной	-7486
кали	-7487
комо	-7488
тину	-7489
ткой	-7490
▁сфе	-7491
▁Нача	-7492
▁атом	-7493
▁герб	-7494
▁сино	-7495
метрии	-7496
стской	-7497
ющееся	-7498
▁вклад	-7499
▁имену	-7500
▁красо	-7501
▁столь	-7502
ральное	-7503
▁премии	-7504
▁прочих	-7505
▁сделал	-7506
▁склады	-7507
▁Позднее	-7508
▁появление	-7509
▁художников	-7510
▁отсутствует	-7511
сль	-7512
зной	-7513
роне	-7514
▁ООО	-7515
▁жел	-7516
ющему	-7517
▁дель	-7518
▁иско	-7519
▁парт	-7520
Религи	-7521
▁Перед	-7522
▁подня	-7523
▁воздух	-7524
▁войско	-7525
▁служат	-7526
▁издания	-7527
▁отрасли	-7528
▁прошлом	-7529
▁средство	-7530
▁городская	-7531
▁восстанови	-7532
▁государством	-7533
▁существовало	-7534
.—	-7535
1,	-7536
qu	-7537
Кра	-7538
жие	-7539
▁ой	-7540
ваку	-7541
горе	-7542
мога	-7543
рное	-7544
▁Оно	-7545
▁пру	-7546
служа	-7547
спита	-7548
▁каче	-7549
▁океа	-7550
▁селе	-7551
▁фраг	-7552
▁ярко	-7553
ведены	-7554
нибудь	-7555
фрикан	-7556
▁ворот	-7557
▁дзюдо	-7558
▁звуча	-7559
▁марки	-7560
▁метео	-7561
▁расчё	-7562
▁типов	-7563
вленные	-7564
вляться	-7565
▁раздели	-7566
▁кораблей	-7567
▁народной	-7568
▁оказался	-7569
▁островов	-7570
▁работали	-7571
▁статисти	-7572
▁пределами	-7573
▁функциони	-7574
Происхождение	-7575
▁национальных	-7576
▁административно	-7577
воло	-7578
куда	-7579
▁165	-7580
▁Там	-7581
▁брю	-7582
▁оба	-7583
Север	-7584
▁тера	-7585
▁войну	-7586
▁почёт	-7587
▁высоты	-7588
▁повыша	-7589
пасность	-7590
▁прилега	-7591
▁Ленинград	-7592
▁побережья	-7593
▁предложил	-7594
▁применяют	-7595
▁системати	-7596
▁химических	-7597
▁автомобилей	-7598
▁исследователь	-7599
▁приготовления	-7600
ВД	-7601
Же	-7602
Кар	-7603
гая	-7604
жка	-7605
мбу	-7606
нцы	-7607
Физи	-7608
вяза	-7609
двор	-7610
▁фео	-7611
тропи	-7612
▁поми	-7613
ологии	-7614
ректор	-7615
▁итогам	-7616
▁претен	-7617
▁единицы	-7618
▁поступа	-7619
▁примеру	-7620
▁выделяют	-7621
▁стратеги	-7622
▁состоялся	-7623
▁обеспечивает	-7624
.:	-7625
og	-7626
ta	-7627
Жи	-7628
зки	-7629
тана	-7630
▁ант	-7631
говой	-7632
▁гарни	-7633
▁проду	-7634
▁резер	-7635
▁аристо	-7636
▁весной	-7637
▁подчёр	-7638
▁стекла	-7639
рической	-7640
▁Древней	-7641
ствование	-7642
▁преступления	-7643
▁употребляется	-7644
44	-7645
гром	-7646
▁дро	-7647
▁пен	-7648
Досто	-7649
Между	-7650
▁Галь	-7651
▁Сици	-7652
▁вина	-7653
▁Библи	-7654
▁Интер	-7655
▁англо	-7656
▁колон	-7657
▁могла	-7658
льников	-7659
▁ближай	-7660
▁вторая	-7661
▁отличи	-7662
▁поезда	-7663
▁севера	-7664
▁цветов	-7665
▁религии	-7666
▁ситуации	-7667
▁Московской	-7668
▁крупнейшим	-7669
▁расстоянии	-7670
▁направление	-7671
▁французского	-7672
бр	-7673
хой	-7674
шку	-7675
зиди	-7676
ляет	-7677
печа	-7678
▁Тол	-7679
▁Хай	-7680
▁шёл	-7681
▁югу	-7682
▁яко	-7683
мской	-7684
совет	-7685
▁иллю	-7686
▁вытес	-7687
▁гипер	-7688
▁любви	-7689
▁людям	-7690
▁парти	-7691
▁стихи	-7692
▁достиг	-7693
▁залива	-7694
▁ежеднев	-7695
▁открыто	-7696
▁напротив	-7697
следования	-7698
▁восстание	-7699
▁температур	-7700
▁гражданской	-7701
бат	-7702
▁5-	-7703
теле	-7704
хоро	-7705
цкой	-7706
▁Май	-7707
тории	-7708
щийся	-7709
▁1960	-7710
▁Карл	-7711
▁коры	-7712
▁нере	-7713
▁окси	-7714
альное	-7715
щались	-7716
▁Непту	-7717
▁избра	-7718
▁обоих	-7719
▁поезд	-7720
▁ступе	-7721
▁выстав	-7722
▁керами	-7723
▁климат	-7724
▁листья	-7725
▁нагруз	-7726
▁радика	-7727
▁послужи	-7728
▁привели	-7729
▁размеры	-7730
▁функций	-7731
▁мифологии	-7732
▁последнее	-7733
▁хозяйство	-7734
▁Впоследствии	-7735
▁экономической	-7736
ксу	-7737
▁IX	-7738
жали	-7739
циан	-7740
▁Али	-7741
▁Вое	-7742
▁Оль	-7743
▁наше	-7744
▁ноги	-7745
▁ночь	-7746
▁секу	-7747
льятти	-7748
▁взаим	-7749
▁листо	-7750
▁обста	-7751
▁точка	-7752
▁Швейца	-7753
▁замени	-7754
▁недели	-7755
▁фронта	-7756
▁команди	-7757
▁соединя	-7758
▁автодоро	-7759
▁конферен	-7760
▁компьютер	-7761
▁остальных	-7762
▁подразуме	-7763
▁требуется	-7764
▁называемый	-7765
юн	-7766
бки	-7767
мпи	-7768
ёрт	-7769
лесо	-7770
скур	-7771
▁Хар	-7772
завод	-7773
▁1929	-7774
▁виду	-7775
▁паци	-7776
▁стер	-7777
Другие	-7778
вающей	-7779
емость	-7780
▁Право	-7781
▁волок	-7782
▁вторы	-7783
▁снима	-7784
ровский	-7785
▁назван	-7786
строение	-7787
▁выходит	-7788
▁масштаб	-7789
▁научных	-7790
▁Иерусали	-7791
▁индустри	-7792
▁кинемато	-7793
▁пригород	-7794
▁километров	-7795
▁социальных	-7796
▁американский	-7797
▁классической	-7798
5.	-7799
ov	-7800
змы	-7801
ука	-7802
вшем	-7803
нцев	-7804
роны	-7805
▁Доб	-7806
▁сущ	-7807
сками	-7808
▁Золо	-7809
▁амми	-7810
▁вста	-7811
▁куро	-7812
▁реша	-7813
▁балла	-7814
▁затра	-7815
▁песча	-7816
▁ансамб	-7817
▁лучших	-7818
▁охваты	-7819
▁плодов	-7820
▁растёт	-7821
▁эффект	-7822
Основные	-7823
Существует	-7824
▁поведения	-7825
Классификация	-7826
24	-7827
26	-7828
рки	-7829
фей	-7830
Авто	-7831
сном	-7832
тиве	-7833
▁Кри	-7834
▁Тай	-7835
низма	-7836
▁Оста	-7837
▁Рабо	-7838
▁Тран	-7839
▁скон	-7840
ющимся	-7841
▁масла	-7842
▁феода	-7843
▁правил	-7844
▁сезона	-7845
▁препода	-7846
▁свободы	-7847
нического	-7848
▁Новгород	-7849
▁воспроиз	-7850
▁источник	-7851
▁основана	-7852
▁политика	-7853
▁высказыва	-7854
▁построено	-7855
▁своеобраз	-7856
▁исполнения	-7857
▁воздействия	-7858
▁окрестностях	-7859
▁месторождения	-7860
Ло	-7861
чни	-7862
груп	-7863
зель	-7864
изме	-7865
кона	-7866
▁The	-7867
▁Брю	-7868
▁Бур	-7869
▁Хор	-7870
▁афи	-7871
▁сва	-7872
▁заве	-7873
▁насы	-7874
▁рога	-7875
▁розы	-7876
▁чуть	-7877
женных	-7878
▁митро	-7879
▁необы	-7880
▁ресто	-7881
▁цвето	-7882
▁Ленина	-7883
▁мелкие	-7884
▁полуша	-7885
▁попере	-7886
▁поэзии	-7887
▁принят	-7888
▁ранних	-7889
▁деревня	-7890
▁закончи	-7891
▁основой	-7892
▁создать	-7893
▁будущего	-7894
▁регионах	-7895
▁стихотво	-7896
▁экземпля	-7897
▁измерения	-7898
▁российской	-7899
▁способности	-7900
ce	-7901
—6	-7902
XIX	-7903
лмы	-7904
сец	-7905
зина	-7906
▁ано	-7907
▁има	-7908
вость	-7909
лости	-7910
▁Пала	-7911
▁варь	-7912
▁войн	-7913
▁всём	-7914
▁мине	-7915
▁озёр	-7916
▁фина	-7917
▁чека	-7918
▁штур	-7919
▁Астра	-7920
▁Филип	-7921
▁обуча	-7922
▁поход	-7923
▁пропа	-7924
▁солда	-7925
ношение	-7926
побрати	-7927
▁Латвии	-7928
▁газета	-7929
▁закона	-7930
▁заседа	-7931
▁осенью	-7932
▁Большая	-7933
▁подверг	-7934
▁свойств	-7935
единённых	-7936
▁медицине	-7937
▁отметить	-7938
▁проживало	-7939
▁федерального	-7940
if	-7941
дию	-7942
пет	-7943
фия	-7944
мане	-7945
нгер	-7946
нимы	-7947
фаль	-7948
▁156	-7949
▁Ага	-7950
▁гет	-7951
▁выво	-7952
▁пола	-7953
▁сама	-7954
▁тона	-7955
менным	-7956
▁видом	-7957
▁водоё	-7958
▁денег	-7959
▁имена	-7960
▁ракет	-7961
водства	-7962
▁Москву	-7963
▁долгое	-7964
▁испыты	-7965
▁строго	-7966
▁Михайло	-7967
▁альбома	-7968
▁говорят	-7969
▁объекта	-7970
▁крупными	-7971
▁советское	-7972
▁структуре	-7973
▁произраста	-7974
▁эксплуатацию	-7975
Че	-7976
нц	-7977
▁'	-7978
бня	-7979
мчу	-7980
жела	-7981
реме	-7982
тику	-7983
шено	-7984
▁2,5	-7985
▁Уни	-7986
▁эмо	-7987
Росте	-7988
несён	-7989
распо	-7990
▁бази	-7991
▁деля	-7992
▁подъ	-7993
▁Мерку	-7994
▁ветви	-7995
▁вулка	-7996
▁длину	-7997
▁жанра	-7998
▁оперы	-7999
льность	-8000
▁домини	-8001
▁дочери	-8002
▁языком	-8003
▁военные	-8004
▁выборах	-8005
▁драмати	-8006
▁заводов	-8007
▁законом	-8008
▁имеющие	-8009
▁степень	-8010
▁считали	-8011
▁Иерусалим	-8012
▁памятники	-8013
▁программа	-8014
▁Социалисти	-8015
▁оказывается	-8016
▁переименова	-8017
▁командованием	-8018
ess	-8019
дое	-8020
кимо	-8021
орда	-8022
штей	-8023
▁600	-8024
▁бак	-8025
рский	-8026
▁миру	-8027
▁мифа	-8028
▁обсу	-8029
▁левом	-8030
▁наших	-8031
▁текст	-8032
вленных	-8033
▁Христо	-8034
▁банков	-8035
▁белого	-8036
▁заводы	-8037
▁король	-8038
▁преодо	-8039
▁проник	-8040
▁Австрии	-8041
▁покрови	-8042
▁полиции	-8043
▁ресурсов	-8044
▁института	-8045
▁концентра	-8046
▁материалы	-8047
▁метрополи	-8048
▁природных	-8049
▁считаются	-8050
следователь	-8051
▁определяет	-8052
▁содержится	-8053
32	-8054
зен	-8055
чом	-8056
джет	-8057
кипа	-8058
кома	-8059
▁ван	-8060
рении	-8061
▁Бере	-8062
▁Полу	-8063
▁грам	-8064
▁дети	-8065
▁заро	-8066
ционер	-8067
▁жемчу	-8068
▁кален	-8069
▁стиму	-8070
▁термо	-8071
▁дивизи	-8072
▁подроб	-8073
▁симпто	-8074
▁порядок	-8075
▁интернет	-8076
▁получило	-8077
▁совершен	-8078
▁составлял	-8079
▁окружающей	-8080
▁составляло	-8081
▁Олимпийских	-8082
▁заболеваний	-8083
37	-8084
la	-8085
тю	-8086
Это	-8087
упо	-8088
▁de	-8089
▁»,	-8090
обер	-8091
циал	-8092
ьями	-8093
▁175	-8094
▁Бог	-8095
▁Оре	-8096
▁бал	-8097
зовые	-8098
чатые	-8099
чники	-8100
▁копи	-8101
ваемых	-8102
города	-8103
▁погло	-8104
▁Африке	-8105
▁Украин	-8106
▁Фридри	-8107
▁законы	-8108
▁учёные	-8109
▁Владими	-8110
▁работал	-8111
▁финанси	-8112
▁миллиона	-8113
▁регулирова	-8114
▁технологий	-8115
▁количеством	-8116
-0	-8117
36	-8118
:#	-8119
МИ	-8120
бил	-8121
вла	-8122
дце	-8123
лио	-8124
пин	-8125
рёл	-8126
ноко	-8127
тори	-8128
штад	-8129
▁250	-8130
▁Джу	-8131
▁Дом	-8132
Запад	-8133
вшему	-8134
сными	-8135
▁Гене	-8136
▁банк	-8137
▁гвар	-8138
▁мясо	-8139
▁нема	-8140
▁обли	-8141
▁битве	-8142
▁поэта	-8143
▁точно	-8144
▁втором	-8145
▁головы	-8146
▁звания	-8147
▁орудий	-8148
▁церемо	-8149
▁Крупней	-8150
▁Средней	-8151
▁фабрика	-8152
▁Название	-8153
▁символом	-8154
▁городские	-8155
▁наказания	-8156
▁укрепления	-8157
▁республикан	-8158
▁значительное	-8159
▁исторического	-8160
вие	-8161
зона	-8162
кина	-8163
лиал	-8164
▁Цеза	-8165
▁буль	-8166
▁знак	-8167
▁могу	-8168
▁оско	-8169
ватель	-8170
▁Земле	-8171
▁жесто	-8172
▁жилых	-8173
▁могло	-8174
▁нефтя	-8175
▁новая	-8176
▁стрем	-8177
▁испыта	-8178
▁объект	-8179
▁Президе	-8180
▁восприя	-8181
▁кандида	-8182
▁месторо	-8183
▁судоход	-8184
▁туризма	-8185
▁поражение	-8186
▁регулярно	-8187
▁артиллерий	-8188
▁заимствова	-8189
шаф	-8190
▁куда	-8191
вились	-8192
▁близо	-8193
▁видео	-8194
▁герба	-8195
▁дисци	-8196
▁лично	-8197
▁новым	-8198
▁снаря	-8199
вленный	-8200
▁памяти	-8201
лекопита	-8202
▁берегах	-8203
▁властью	-8204
▁патриар	-8205
▁размера	-8206
▁Иванович	-8207
▁идеологи	-8208
▁сознания	-8209
▁маршрутов	-8210
▁перевозки	-8211
▁принимать	-8212
▁образуются	-8213
▁результаты	-8214
▁результатам	-8215
▁французской	-8216
▁образованием	-8217
▁промышленного	-8218
th	-8219
ub	-8220
жек	-8221
ппе	-8222
теи	-8223
▁47	-8224
▁Мы	-8225
▁140	-8226
▁тел	-8227
▁хищ	-8228
емыми	-8229
кисло	-8230
▁1921	-8231
▁Джей	-8232
▁взрыв	-8233
▁рынка	-8234
▁силой	-8235
▁дворян	-8236
▁третий	-8237
▁Впервые	-8238
▁выполне	-8239
▁высшего	-8240
▁начался	-8241
▁ситуация	-8242
Применение	-8243
▁демократи	-8244
▁плотность	-8245
▁инструмент	-8246
▁областного	-8247
▁парламента	-8248
▁Первоначально	-8249
▁характеристика	-8250
▁здравоохранения	-8251
49	-8252
Пла	-8253
рена	-8254
сюда	-8255
ентов	-8256
тивов	-8257
▁1924	-8258
▁водя	-8259
▁меда	-8260
▁меха	-8261
▁пищи	-8262
▁пояс	-8263
▁Донец	-8264
▁Марии	-8265
▁горах	-8266
▁едино	-8267
▁кости	-8268
▁склад	-8269
▁супер	-8270
▁Гражда	-8271
▁второе	-8272
▁Алексей	-8273
▁Палести	-8274
▁высокие	-8275
▁участки	-8276
▁академии	-8277
▁восходит	-8278
▁подготовки	-8279
▁Московского	-8280
▁несколькими	-8281
▁соревнования	-8282
▁насчитывается	-8283
▁международного	-8284
.-	-8285
ул	-8286
ёй	-8287
кер	-8288
вида	-8289
рная	-8290
шний	-8291
▁Кер	-8292
▁Уже	-8293
▁бой	-8294
▁мра	-8295
стави	-8296
стема	-8297
тский	-8298
▁1988	-8299
▁VIII	-8300
▁Пифа	-8301
▁Успе	-8302
▁либе	-8303
летний	-8304
▁Волог	-8305
▁ветра	-8306
▁кафед	-8307
▁терро	-8308
▁уезда	-8309
надцати	-8310
▁Предпо	-8311
▁восток	-8312
▁затруд	-8313
▁случаи	-8314
▁смерть	-8315
видимому	-8316
▁Василий	-8317
▁Одиссея	-8318
▁достато	-8319
▁телеком	-8320
▁Аполлона	-8321
▁величине	-8322
▁должност	-8323
▁известна	-8324
▁немецкий	-8325
▁протеста	-8326
▁родствен	-8327
▁телевизи	-8328
▁являлись	-8329
▁Ставрополь	-8330
▁греческого	-8331
▁называемые	-8332
▁электроэнер	-8333
21	-8334
ame	-8335
кка	-8336
лови	-8337
наго	-8338
▁Бли	-8339
▁Чем	-8340
▁ово	-8341
йская	-8342
порта	-8343
▁боро	-8344
▁вече	-8345
▁глаз	-8346
▁жена	-8347
▁имму	-8348
▁пехо	-8349
рактер	-8350
▁подве	-8351
▁версий	-8352
▁высокий	-8353
▁топлива	-8354
▁христиа	-8355
▁царства	-8356
▁явление	-8357
▁владения	-8358
▁человеку	-8359
▁плоскости	-8360
▁происходя	-8361
территориаль	-8362
▁расположенных	-8363
▁самоуправления	-8364
29	-8365
ae	-8366
ow	-8367
ина	-8368
рун	-8369
емую	-8370
ждый	-8371
ндия	-8372
циям	-8373
▁Зев	-8374
Произ	-8375
дётся	-8376
несли	-8377
чника	-8378
▁Луны	-8379
▁Эсто	-8380
▁вниз	-8381
▁лока	-8382
▁наси	-8383
▁стой	-8384
мского	-8385
падают	-8386
сполни	-8387
▁богов	-8388
▁освое	-8389
▁серде	-8390
▁сопер	-8391
▁эпиде	-8392
Галерея	-8393
образие	-8394
▁Андрей	-8395
▁мотоци	-8396
▁офицер	-8397
▁такими	-8398
▁Василье	-8399
▁Институ	-8400
▁расстре	-8401
▁альтерна	-8402
▁пересека	-8403
▁продукты	-8404
▁населённых	-8405
▁состоялась	-8406
▁музыкальных	-8407
▁существовали	-8408
▁употребления	-8409
34	-8410
ip	-8411
блю	-8412
веды	-8413
евро	-8414
лите	-8415
люко	-8416
▁ГЭС	-8417
▁бед	-8418
▁вру	-8419
▁фру	-8420
▁шла	-8421
▁эры	-8422
голов	-8423
лькло	-8424
▁Воль	-8425
▁соло	-8426
еписко	-8427
▁Карла	-8428
▁гармо	-8429
▁гибри	-8430
▁пьесы	-8431
▁смесь	-8432
▁стара	-8433
ждённых	-8434
▁Христа	-8435
▁артери	-8436
▁будучи	-8437
▁вокзал	-8438
▁выбира	-8439
▁выборы	-8440
▁далеко	-8441
▁диалек	-8442
▁земной	-8443
▁окисле	-8444
▁оккупи	-8445
▁частях	-8446
▁столице	-8447
▁опублико	-8448
▁народного	-8449
▁переходит	-8450
▁установлена	-8451
▁чрезвычайно	-8452
28	-8453
ТС	-8454
▁Y	-8455
лля	-8456
тос	-8457
хма	-8458
Фран	-8459
ковь	-8460
▁Вой	-8461
▁Рай	-8462
▁Соб	-8463
логод	-8464
сский	-8465
▁1987	-8466
▁Теге	-8467
▁актё	-8468
▁гале	-8469
▁прио	-8470
▁сути	-8471
Первый	-8472
▁Публи	-8473
▁Чтобы	-8474
▁граду	-8475
▁такая	-8476
▁тремя	-8477
▁усадь	-8478
▁эваку	-8479
▁Нового	-8480
▁ворота	-8481
▁гибели	-8482
▁дважды	-8483
▁каждом	-8484
▁какого	-8485
▁контек	-8486
▁лабора	-8487
▁многом	-8488
▁назвал	-8489
▁северу	-8490
▁символ	-8491
▁выборов	-8492
▁Советской	-8493
▁животного	-8494
▁застройки	-8495
▁млекопита	-8496
▁культурных	-8497
▁отмечается	-8498
▁предусмотре	-8499
Ша	-8500
Пар	-8501
гию	-8502
ида	-8503
шал	-8504
ьях	-8505
чник	-8506
▁Кие	-8507
▁лей	-8508
▁соз	-8509
невмо	-8510
▁Воло	-8511
▁ману	-8512
▁нике	-8513
▁слия	-8514
дуется	-8515
▁Уилья	-8516
▁каких	-8517
▁латин	-8518
▁рецеп	-8519
▁такси	-8520
▁Смолен	-8521
▁велико	-8522
рический	-8523
▁законов	-8524
▁сохраня	-8525
▁успешно	-8526
▁водорода	-8527
▁изучения	-8528
▁контроля	-8529
▁универса	-8530
▁километра	-8531
▁оставался	-8532
▁совместно	-8533
▁экономике	-8534
▁культурного	-8535
▁представление	-8536
▁Z	-8537
бую	-8538
дые	-8539
жев	-8540
лёв	-8541
—15	-8542
▁дю	-8543
гиба	-8544
гови	-8545
лавы	-8546
меся	-8547
ниям	-8548
▁Яко	-8549
▁вар	-8550
▁риф	-8551
дении	-8552
споли	-8553
стная	-8554
шений	-8555
▁узел	-8556
▁выгля	-8557
▁группу	-8558
▁золота	-8559
▁поступ	-8560
низирова	-8561
▁Средние	-8562
▁причина	-8563
▁публика	-8564
▁рассказ	-8565
▁реформы	-8566
▁Бразилии	-8567
▁остаются	-8568
▁атмосферы	-8569
▁комплекса	-8570
▁оборудова	-8571
▁оказались	-8572
▁реализации	-8573
▁способствует	-8574
ьи	-8575
▁h	-8576
чко	-8577
▁КП	-8578
Древ	-8579
дная	-8580
кура	-8581
льти	-8582
южет	-8583
▁ава	-8584
▁зре	-8585
ченко	-8586
▁Улья	-8587
▁дати	-8588
▁зака	-8589
▁поче	-8590
▁смог	-8591
▁тюрк	-8592
словно	-8593
▁плато	-8594
▁снего	-8595
▁стиль	-8596
влялись	-8597
▁делают	-8598
▁массив	-8599
▁мотива	-8600
▁отделя	-8601
▁тканей	-8602
▁имеющих	-8603
▁церквей	-8604
побратимы	-8605
▁привести	-8606
▁системой	-8607
▁изменение	-8608
▁насекомых	-8609
▁некоторым	-8610
▁произошёл	-8611
▁следующим	-8612
▁выполнения	-8613
▁фундамента	-8614
▁архитектора	-8615
▁содержанием	-8616
▁установлены	-8617
▁железнодорожный	-8618
up	-8619
эт	-8620
ian	-8621
вят	-8622
лие	-8623
▁Жу	-8624
ваны	-8625
вляя	-8626
дера	-8627
мень	-8628
пред	-8629
фора	-8630
▁Ким	-8631
▁Сем	-8632
▁ува	-8633
ездов	-8634
▁бара	-8635
▁идей	-8636
▁инсу	-8637
▁насо	-8638
▁пищу	-8639
▁выбро	-8640
▁камер	-8641
▁остры	-8642
▁прось	-8643
▁токси	-8644
▁Библии	-8645
▁Париже	-8646
▁прошло	-8647
▁старых	-8648
нические	-8649
▁Красной	-8650
▁вокзала	-8651
▁команда	-8652
▁олимпий	-8653
▁принцип	-8654
▁чемпион	-8655
▁чувстви	-8656
лезнодоро	-8657
▁крестьян	-8658
▁подчёрки	-8659
▁транспор	-8660
▁благоприя	-8661
▁основного	-8662
▁концентрации	-8663
▁производству	-8664
,.	-8665
ens	-8666
лент	-8667
чами	-8668
▁ада	-8669
▁вдо	-8670
▁сде	-8671
▁фре	-8672
вости	-8673
ответ	-8674
▁Коло	-8675
▁мемо	-8676
▁моро	-8677
▁ущер	-8678
▁главы	-8679
▁дворе	-8680
▁режим	-8681
▁решил	-8682
▁филиа	-8683
▁Возмож	-8684
▁доктор	-8685
▁низкой	-8686
▁причин	-8687
▁учёных	-8688
▁Михаила	-8689
▁Посполи	-8690
▁авианос	-8691
▁серебра	-8692
▁экспорт	-8693
▁Основные	-8694
▁Особенно	-8695
▁качество	-8696
▁коэффици	-8697
▁металлурги	-8698
▁спортивных	-8699
▁объясняется	-8700
Распространение	-8701
ie	-8702
Гра	-8703
ака	-8704
жом	-8705
зар	-8706
чее	-8707
▁44	-8708
жник	-8709
мбле	-8710
▁0,5	-8711
▁Гар	-8712
▁Пас	-8713
▁кух	-8714
▁оре	-8715
▁реф	-8716
▁рос	-8717
васто	-8718
водит	-8719
▁коде	-8720
▁экра	-8721
начале	-8722
▁Робер	-8723
▁корне	-8724
▁малых	-8725
▁моста	-8726
▁мульт	-8727
▁рекла	-8728
▁Европу	-8729
▁Церкви	-8730
▁дороге	-8731
▁замеча	-8732
▁налого	-8733
▁речной	-8734
▁холоди	-8735
ствующих	-8736
читается	-8737
▁меньшей	-8738
▁образуя	-8739
▁прикреп	-8740
▁справед	-8741
сленность	-8742
▁катастро	-8743
логическая	-8744
▁Вселенной	-8745
▁древнерус	-8746
▁творчества	-8747
▁осуществляет	-8748
▁произведение	-8749
дне	-8750
зде	-8751
плы	-8752
▁58	-8753
пали	-8754
тино	-8755
▁поо	-8756
менту	-8757
шении	-8758
▁ариф	-8759
▁диви	-8760
▁рыбы	-8761
▁сухи	-8762
Помимо	-8763
▁глава	-8764
▁кормо	-8765
▁героев	-8766
▁персид	-8767
▁римлян	-8768
▁придвор	-8769
▁проходя	-8770
▁сколько	-8771
▁включают	-8772
▁давление	-8773
▁кладбище	-8774
▁перехода	-8775
▁персонаж	-8776
▁писателя	-8777
▁персонажа	-8778
▁занимается	-8779
▁Возрождения	-8780
▁мероприятия	-8781
▁пространство	-8782
67	-8783
рэ	-8784
лку	-8785
ппи	-8786
рмо	-8787
скус	-8788
тать	-8789
фана	-8790
▁биз	-8791
▁пля	-8792
▁сад	-8793
▁цир	-8794
берна	-8795
▁Авто	-8796
▁НАТО	-8797
▁бесс	-8798
▁Ташке	-8799
▁накло	-8800
ровской	-8801
электро	-8802
▁Тимура	-8803
▁обрати	-8804
▁пришёл	-8805
▁развед	-8806
▁учение	-8807
▁замести	-8808
▁корабля	-8809
▁железных	-8810
▁предметы	-8811
▁английский	-8812
▁характерны	-8813
▁императором	-8814
▁собственности	-8815
95	-8816
XX	-8817
жь	-8818
Фор	-8819
кии	-8820
нис	-8821
реи	-8822
вных	-8823
хана	-8824
цизм	-8825
▁аук	-8826
▁нака	-8827
▁руби	-8828
▁таба	-8829
▁ябло	-8830
▁корпо	-8831
▁облик	-8832
▁общим	-8833
▁Другие	-8834
▁корпус	-8835
▁методы	-8836
▁особый	-8837
▁портре	-8838
▁фильме	-8839
▁намного	-8840
▁падения	-8841
▁Большого	-8842
▁бомбарди	-8843
▁десятков	-8844
▁наоборот	-8845
▁процессы	-8846
▁различия	-8847
▁собрание	-8848
матические	-8849
▁Северного	-8850
▁известным	-8851
▁разрабаты	-8852
▁упоминание	-8853
▁значительные	-8854
▁формирование	-8855
io	-8856
АЗ	-8857
жеб	-8858
люс	-8859
лёт	-8860
ьер	-8861
▁яи	-8862
анха	-8863
вера	-8864
гере	-8865
рист	-8866
▁Обо	-8867
тиков	-8868
▁Иоси	-8869
▁Сове	-8870
▁небо	-8871
виться	-8872
▁Госпо	-8873
ющимися	-8874
▁живопи	-8875
▁стрель	-8876
▁реестра	-8877
▁Монголии	-8878
▁директор	-8879
▁достигну	-8880
▁субтропи	-8881
▁недостато	-8882
▁обработки	-8883
▁поверхност	-8884
▁участников	-8885
▁характерно	-8886
▁собственной	-8887
▁определённых	-8888
▁совокупность	-8889
▁специалистов	-8890
ib	-8891
Кри	-8892
кте	-8893
мию	-8894
▁Хе	-8895
хова	-8896
▁Пен	-8897
Элект	-8898
стное	-8899
▁дать	-8900
▁друж	-8901
▁типо	-8902
▁уско	-8903
стного	-8904
▁Мекси	-8905
▁Новый	-8906
▁богат	-8907
▁смысл	-8908
▁Только	-8909
▁записи	-8910
▁победы	-8911
▁сверху	-8912
ническая	-8913
становле	-8914
▁конечно	-8915
▁полного	-8916
▁средний	-8917
националь	-8918
▁десятиле	-8919
▁углерода	-8920
▁следующий	-8921
▁исторический	-8922
▁политический	-8923
est	-8924
▁ЕС	-8925
▁Шо	-8926
вита	-8927
нело	-8928
плав	-8929
щики	-8930
▁ина	-8931
▁ног	-8932
рений	-8933
теров	-8934
▁Одна	-8935
▁Уэль	-8936
▁неот	-8937
▁отец	-8938
кистан	-8939
▁Подоб	-8940
▁Твери	-8941
▁будди	-8942
▁живых	-8943
▁облег	-8944
▁прису	-8945
▁устра	-8946
▁бывший	-8947
▁парков	-8948
▁филиал	-8949
Несмотря	-8950
▁деталей	-8951
▁молодых	-8952
▁органом	-8953
▁родился	-8954
▁атмосфер	-8955
▁здоровья	-8956
▁использовал	-8957
▁противопоста	-8958
▁собственного	-8959
▁экономический	-8960
96	-8961
мий	-8962
нгу	-8963
цет	-8964
▁ир	-8965
атре	-8966
гант	-8967
тору	-8968
▁155	-8969
▁700	-8970
▁Гай	-8971
▁Дол	-8972
▁КНР	-8973
▁Нар	-8974
▁Поя	-8975
▁вис	-8976
▁вот	-8977
▁рев	-8978
дации	-8979
обрёл	-8980
▁1922	-8981
▁1926	-8982
▁Льво	-8983
▁кожу	-8984
▁пыль	-8985
▁акций	-8986
▁книгу	-8987
▁общая	-8988
▁праве	-8989
▁сцене	-8990
▁трети	-8991
ральную	-8992
▁добычи	-8993
▁оппози	-8994
▁продви	-8995
▁сахара	-8996
тическим	-8997
▁Президи	-8998
▁служить	-8999
▁увидеть	-9000
▁драматур	-9001
▁консерва	-9002
▁обучения	-9003
▁прошлого	-9004
▁северных	-9005
▁собрания	-9006
▁происходят	-9007
▁вооружённых	-9008
гим	-9009
гин	-9010
жим	-9011
кал	-9012
уса	-9013
шни	-9014
шно	-9015
▁2.	-9016
▁СН	-9017
емом	-9018
люми	-9019
▁Жан	-9020
▁зуб	-9021
Интер	-9022
Слово	-9023
зовый	-9024
метро	-9025
мысле	-9026
стром	-9027
ьюсто	-9028
▁1950	-9029
▁Геро	-9030
▁Стар	-9031
▁вещи	-9032
▁зона	-9033
▁копе	-9034
▁мону	-9035
Роснеф	-9036
ковыми	-9037
льская	-9038
отланд	-9039
револю	-9040
▁Черни	-9041
▁бюдже	-9042
▁имело	-9043
▁отста	-9044
▁Кавказ	-9045
▁долине	-9046
▁короле	-9047
▁летопи	-9048
▁отделе	-9049
▁Востока	-9050
▁Востоке	-9051
▁иммигра	-9052
▁климата	-9053
▁монархи	-9054
▁статуса	-9055
▁фолькло	-9056
▁Среднего	-9057
▁объектом	-9058
▁раствори	-9059
▁Османской	-9060
▁проходили	-9061
▁художника	-9062
▁телевидения	-9063
тс	-9064
дки	-9065
худ	-9066
щал	-9067
▁1,	-9068
▁46	-9069
▁Ат	-9070
круг	-9071
оном	-9072
тяги	-9073
▁Таи	-9074
спект	-9075
▁Евра	-9076
▁граф	-9077
▁дают	-9078
▁колё	-9079
▁певи	-9080
▁поса	-9081
▁похи	-9082
▁псал	-9083
▁тром	-9084
водных	-9085
кавказ	-9086
▁корре	-9087
▁приём	-9088
▁тесно	-9089
ральном	-9090
▁заявил	-9091
▁знания	-9092
▁набере	-9093
▁образе	-9094
▁отдела	-9095
▁безрабо	-9096
▁исполня	-9097
▁картины	-9098
▁оборони	-9099
▁святого	-9100
▁течении	-9101
▁немецкой	-9102
▁способны	-9103
▁торговые	-9104
▁обязательно	-9105
▁водохранилища	-9106
31	-9107
бн	-9108
ang	-9109
Оди	-9110
заи	-9111
сро	-9112
фии	-9113
▁95	-9114
гать	-9115
льев	-9116
▁Ахи	-9117
▁сож	-9118
ровал	-9119
▁1961	-9120
▁Тихо	-9121
▁воро	-9122
▁креп	-9123
▁мать	-9124
▁нове	-9125
лённым	-9126
▁Павла	-9127
▁Хорез	-9128
▁груди	-9129
▁напол	-9130
▁низме	-9131
▁покло	-9132
▁рассе	-9133
▁суток	-9134
▁храни	-9135
▁Сталин	-9136
▁играют	-9137
▁образа	-9138
▁полков	-9139
▁сказал	-9140
▁тексти	-9141
▁заметно	-9142
▁методом	-9143
▁музыкан	-9144
▁примени	-9145
▁состоят	-9146
▁Тольятти	-9147
▁немецких	-9148
▁принятия	-9149
▁Индонезии	-9150
▁Поскольку	-9151
▁восточных	-9152
▁наступает	-9153
▁Администра	-9154
▁независимо	-9155
▁российского	-9156
▁использовалась	-9157
гне	-9158
Архи	-9159
▁СМИ	-9160
▁пау	-9161
XVIII	-9162
ветки	-9163
▁Марк	-9164
▁мара	-9165
▁чему	-9166
ченный	-9167
▁глаза	-9168
▁живут	-9169
▁испан	-9170
▁рынок	-9171
▁слобо	-9172
▁соцве	-9173
▁султа	-9174
носится	-9175
▁покупа	-9176
▁связей	-9177
▁смешан	-9178
▁страну	-9179
ствующие	-9180
▁Площадь	-9181
▁госпита	-9182
▁научной	-9183
▁повторя	-9184
▁продукт	-9185
▁старого	-9186
▁Цицерона	-9187
▁открытие	-9188
▁показали	-9189
▁считалось	-9190
▁предполагает	-9191
▁существовала	-9192
▁реконструкции	-9193
ид	-9194
сор	-9195
—17	-9196
▁Ch	-9197
▁ут	-9198
▁—,	-9199
гова	-9200
дила	-9201
слей	-9202
спий	-9203
▁кад	-9204
▁меч	-9205
▁оле	-9206
▁1900	-9207
▁1932	-9208
▁Побе	-9209
▁крат	-9210
▁пары	-9211
Россия	-9212
▁Финля	-9213
▁квали	-9214
▁каждая	-9215
▁откуда	-9216
▁разным	-9217
▁экстра	-9218
▁Севасто	-9219
▁допусти	-9220
▁комедии	-9221
▁участия	-9222
▁фильмов	-9223
значально	-9224
▁впадения	-9225
▁западных	-9226
▁являлась	-9227
▁компанией	-9228
▁отсутствия	-9229
▁десятилетия	-9230
▁заключённых	-9231
▁противостоя	-9232
▁употребление	-9233
42	-9234
46	-9235
СС	-9236
щему	-9237
▁Пол	-9238
жнему	-9239
порож	-9240
сериа	-9241
форму	-9242
▁1970	-9243
▁глад	-9244
▁опор	-9245
▁опри	-9246
▁сена	-9247
▁суме	-9248
▁теку	-9249
гности	-9250
рованы	-9251
▁Брест	-9252
▁вошла	-9253
▁карты	-9254
▁южных	-9255
▁Балтий	-9256
▁Вскоре	-9257
▁Польше	-9258
▁задачи	-9259
▁команд	-9260
▁океана	-9261
▁Платона	-9262
▁Россией	-9263
▁бассейн	-9264
▁возраст	-9265
▁монголь	-9266
▁создаёт	-9267
▁благород	-9268
▁конкурен	-9269
▁обозначе	-9270
▁римского	-9271
▁позволило	-9272
▁позволяют	-9273
▁наименование	-9274
▁использовании	-9275
43	-9276
Ри	-9277
Фо	-9278
Мар	-9279
—16	-9280
гали	-9281
опар	-9282
теро	-9283
▁ров	-9284
совые	-9285
стила	-9286
▁Есть	-9287
▁Клео	-9288
▁Окта	-9289
▁муче	-9290
▁Марка	-9291
▁Павел	-9292
▁выпла	-9293
▁мелко	-9294
▁рожда	-9295
▁смени	-9296
▁тёмно	-9297
▁экипа	-9298
станция	-9299
▁отожде	-9300
▁приста	-9301
лагается	-9302
▁Дмитрий	-9303
▁бригады	-9304
▁делится	-9305
▁доброво	-9306
▁оркестр	-9307
▁согласи	-9308
Националь	-9309
▁вращения	-9310
▁торговля	-9311
▁утверждён	-9312
▁советского	-9313
▁английского	-9314
▁построенный	-9315
▁принадлежат	-9316
▁установлено	-9317
▁исторической	-9318
▁православных	-9319
▁подразделения	-9320
▁разновидность	-9321
▁рассматривается	-9322
▁свидетельствует	-9323
анг	-9324
оке	-9325
чна	-9326
▁68	-9327
жнее	-9328
кции	-9329
пози	-9330
▁жив	-9331
▁мне	-9332
▁ора	-9333
▁рук	-9334
▁тёп	-9335
ворец	-9336
▁засу	-9337
▁лири	-9338
▁надё	-9339
▁плем	-9340
▁скан	-9341
валент	-9342
рально	-9343
▁Около	-9344
▁Сокра	-9345
▁актёр	-9346
▁погру	-9347
▁снега	-9348
▁члены	-9349
Топоним	-9350
низация	-9351
▁Египте	-9352
▁границ	-9353
▁любого	-9354
▁семена	-9355
географи	-9356
ровского	-9357
▁входили	-9358
▁голланд	-9359
▁конфлик	-9360
▁приказал	-9361
▁Владимира	-9362
▁столкнове	-9363
▁Азербайджа	-9364
▁работников	-9365
▁разновидности	-9366
▁правительством	-9367
.0	-9368
КА	-9369
Сле	-9370
уме	-9371
чим	-9372
влял	-9373
метр	-9374
нося	-9375
рили	-9376
слой	-9377
▁юга	-9378
перёд	-9379
▁1959	-9380
▁Бель	-9381
▁латы	-9382
теллек	-9383
▁Одним	-9384
▁Произ	-9385
▁газов	-9386
▁лицом	-9387
ритория	-9388
▁Сейчас	-9389
▁группи	-9390
▁делать	-9391
рованных	-9392
▁именова	-9393
▁морских	-9394
▁наконец	-9395
▁зрителей	-9396
▁выражение	-9397
▁студентов	-9398
▁архиеписко	-9399
▁внутреннего	-9400
▁современный	-9401
исследователь	-9402
▁железнодорожной	-9403
ад	-9404
▁85	-9405
голо	-9406
сомо	-9407
▁Вин	-9408
▁бре	-9409
▁лав	-9410
▁ссу	-9411
▁1980	-9412
▁Были	-9413
▁гора	-9414
▁льда	-9415
▁обру	-9416
▁угла	-9417
▁угол	-9418
Другое	-9419
вшимся	-9420
жаются	-9421
▁бизне	-9422
▁запол	-9423
▁рынке	-9424
надцать	-9425
невеков	-9426
спомина	-9427
чностью	-9428
▁Алексе	-9429
▁двадца	-9430
▁носили	-9431
▁отобра	-9432
▁ствола	-9433
Промышле	-9434
▁авиации	-9435
▁закрепи	-9436
▁кальция	-9437
▁ландшаф	-9438
▁минимум	-9439
▁молитвы	-9440
▁предска	-9441
▁создано	-9442
▁открытый	-9443
▁перегово	-9444
▁Император	-9445
▁оказалась	-9446
▁Республика	-9447
▁инициативе	-9448
▁обнаружены	-9449
▁химической	-9450
▁собственные	-9451
▁оборудование	-9452
▁классификации	-9453
▁необходимость	-9454
,,	-9455
Ци	-9456
пр	-9457
▁r	-9458
вез	-9459
леб	-9460
▁Ай	-9461
▁Дэ	-9462
▁Эн	-9463
Внеш	-9464
воря	-9465
гают	-9466
дент	-9467
люби	-9468
сыпа	-9469
▁ков	-9470
▁мач	-9471
▁сбо	-9472
Благо	-9473
дится	-9474
логом	-9475
стный	-9476
▁1936	-9477
▁Бава	-9478
▁веку	-9479
▁взят	-9480
▁долю	-9481
▁плен	-9482
единён	-9483
▁жилищ	-9484
▁носят	-9485
▁Турции	-9486
▁Шамиль	-9487
▁дворца	-9488
▁лотере	-9489
▁победу	-9490
▁регион	-9491
▁австрий	-9492
▁предмет	-9493
▁Тверской	-9494
▁вынужден	-9495
▁недалеко	-9496
▁останови	-9497
▁предводи	-9498
▁умеренно	-9499
▁Швейцарии	-9500
▁имущества	-9501
▁назывался	-9502
▁описывает	-9503
▁определить	-9504
▁персонажей	-9505
▁президентом	-9506
▁национальный	-9507
▁произведениях	-9508
▁человеческого	-9509
▁государственные	-9510
Вер	-9511
Кор	-9512
мок	-9513
езде	-9514
феру	-9515
▁Дже	-9516
▁Иго	-9517
▁бег	-9518
▁крю	-9519
▁хва	-9520
ванге	-9521
▁жанр	-9522
▁запи	-9523
▁личи	-9524
▁твер	-9525
альным	-9526
▁камня	-9527
▁монар	-9528
▁писто	-9529
▁псевдо	-9530
▁африкан	-9531
▁барокко	-9532
▁обратно	-9533
▁пищевой	-9534
▁работах	-9535
ительство	-9536
▁Византии	-9537
▁открылся	-9538
▁поддержку	-9539
логического	-9540
▁ответственности	-9541
ard	-9542
ллу	-9543
лму	-9544
мма	-9545
▁49	-9546
▁Вя	-9547
Стро	-9548
веда	-9549
гоце	-9550
пала	-9551
▁вен	-9552
▁зла	-9553
▁кля	-9554
▁нея	-9555
▁опи	-9556
▁рем	-9557
ласти	-9558
▁Саль	-9559
▁Саха	-9560
ложена	-9561
▁Общая	-9562
▁Свято	-9563
▁брата	-9564
▁музее	-9565
▁прину	-9566
▁родов	-9567
▁созре	-9568
▁Первым	-9569
▁вперёд	-9570
▁племён	-9571
▁повтор	-9572
▁прошли	-9573
▁сообщи	-9574
▁удержи	-9575
▁употре	-9576
▁выполня	-9577
▁горожан	-9578
▁деревья	-9579
▁корабли	-9580
▁ликвиди	-9581
▁методов	-9582
▁пределы	-9583
▁приняли	-9584
▁движений	-9585
▁крупного	-9586
▁непрерыв	-9587
▁рассчита	-9588
▁регистра	-9589
▁режиссёр	-9590
▁изменений	-9591
▁установки	-9592
▁представитель	-9593
Ана	-9594
Йор	-9595
Сим	-9596
бет	-9597
рва	-9598
син	-9599
хро	-9600
▁41	-9601
ллер	-9602
ризм	-9603
▁пев	-9604
▁тут	-9605
конец	-9606
несса	-9607
новей	-9608
стера	-9609
▁Хаба	-9610
▁жить	-9611
▁инде	-9612
▁нали	-9613
▁наса	-9614
▁орна	-9615
▁плав	-9616
зового	-9617
листов	-9618
ология	-9619
▁Колум	-9620
▁ближе	-9621
▁горно	-9622
▁полка	-9623
▁проли	-9624
▁пропи	-9625
▁устье	-9626
▁баталь	-9627
▁важную	-9628
▁грузов	-9629
▁пневмо	-9630
▁пример	-9631
▁центры	-9632
▁имеющий	-9633
▁крайней	-9634
▁мануфак	-9635
▁неправи	-9636
▁объявил	-9637
▁сослови	-9638
▁шириной	-9639
▁вернулся	-9640
▁вспомога	-9641
▁обрабаты	-9642
▁факторов	-9643
Ростелеком	-9644
▁нарушение	-9645
▁небольшое	-9646
▁связывают	-9647
▁назначения	-9648
▁воздействие	-9649
▁объединение	-9650
▁Министерства	-9651
▁определённой	-9652
▁функционирова	-9653
ob	-9654
мит	-9655
мут	-9656
ноз	-9657
пон	-9658
тип	-9659
логе	-9660
роде	-9661
семь	-9662
сена	-9663
ссом	-9664
тарь	-9665
▁Сар	-9666
▁ход	-9667
▁ько	-9668
слова	-9669
тория	-9670
храни	-9671
▁Венг	-9672
▁Дели	-9673
▁Демо	-9674
▁Ники	-9675
▁взял	-9676
▁набе	-9677
▁угля	-9678
▁ухуд	-9679
▁эсте	-9680
ваемые	-9681
жество	-9682
менной	-9683
▁гаран	-9684
▁казах	-9685
▁комик	-9686
▁массу	-9687
▁навод	-9688
▁плоды	-9689
▁поляр	-9690
▁прока	-9691
▁рассу	-9692
▁сыном	-9693
▁сырья	-9694
▁языки	-9695
новский	-9696
▁бизнес	-9697
▁значит	-9698
▁концов	-9699
▁музеев	-9700
▁орудия	-9701
▁охраны	-9702
▁попыта	-9703
▁прибре	-9704
▁пропор	-9705
▁сувере	-9706
▁членом	-9707
прежнему	-9708
▁миллиар	-9709
▁назвать	-9710
▁Калигула	-9711
▁многолет	-9712
▁начались	-9713
▁педагоги	-9714
▁проявляется	-9715
▁собственных	-9716
ine	-9717
▁вд	-9718
хами	-9719
▁Бос	-9720
▁Объ	-9721
▁Шар	-9722
любле	-9723
трибу	-9724
▁1934	-9725
▁Цари	-9726
▁боли	-9727
▁вычи	-9728
▁кали	-9729
▁обря	-9730
▁отре	-9731
▁рыба	-9732
▁слоя	-9733
носить	-9734
рением	-9735
▁Свяще	-9736
▁волны	-9737
▁подда	-9738
▁порту	-9739
▁почве	-9740
▁привы	-9741
▁удель	-9742
▁целый	-9743
▁Египта	-9744
▁Прибал	-9745
▁Шамиля	-9746
▁благоу	-9747
▁впечат	-9748
▁голову	-9749
▁гумани	-9750
▁мнения	-9751
▁похоро	-9752
▁провед	-9753
▁романе	-9754
▁синаго	-9755
совершен	-9756
▁аэропор	-9757
▁детских	-9758
▁команду	-9759
▁наличии	-9760
▁стрелко	-9761
▁эпители	-9762
▁интеллек	-9763
▁послевое	-9764
▁оказывает	-9765
▁военнослужа	-9766
▁мероприятий	-9767
▁присутствует	-9768
ay	-9769
Бы	-9770
Дан	-9771
Свя	-9772
жья	-9773
изм	-9774
йма	-9775
фан	-9776
Золо	-9777
Теле	-9778
демо	-9779
▁Дар	-9780
▁Иже	-9781
▁аце	-9782
▁вяз	-9783
▁шка	-9784
витие	-9785
вится	-9786
▁1923	-9787
▁1938	-9788
▁Атла	-9789
▁каби	-9790
▁пече	-9791
▁став	-9792
▁тюрь	-9793
▁упро	-9794
▁цело	-9795
ведена	-9796
недель	-9797
щённые	-9798
▁Такой	-9799
▁мощей	-9800
▁наход	-9801
▁нормы	-9802
▁общий	-9803
▁факты	-9804
новение	-9805
▁Канады	-9806
▁Органи	-9807
▁восьми	-9808
▁ископа	-9809
▁прозви	-9810
▁прозра	-9811
▁просве	-9812
▁властей	-9813
▁надпись	-9814
▁проника	-9815
▁решений	-9816
▁сыновей	-9817
▁отдельно	-9818
▁проститу	-9819
▁разговор	-9820
▁фантасти	-9821
▁концепции	-9822
▁составило	-9823
▁основанный	-9824
▁соглашение	-9825
▁восстанавли	-9826
▁преобладают	-9827
▁существовал	-9828
▁исторические	-9829
▁Александрович	-9830
97	-9831
eg	-9832
као	-9833
нея	-9834
нса	-9835
▁Пя	-9836
▁ио	-9837
▁—.	-9838
льфи	-9839
тали	-9840
шина	-9841
▁Ере	-9842
▁чём	-9843
тками	-9844
товый	-9845
▁1985	-9846
▁Гроз	-9847
▁Моло	-9848
▁убор	-9849
щённый	-9850
▁градо	-9851
▁иного	-9852
▁Пенело	-9853
▁Швеции	-9854
▁быстры	-9855
Описание	-9856
▁Израиля	-9857
▁востоку	-9858
▁впадает	-9859
▁референ	-9860
▁русская	-9861
▁комитета	-9862
▁переводе	-9863
▁половина	-9864
▁известной	-9865
▁английском	-9866
▁древнейших	-9867
▁известного	-9868
▁напоминает	-9869
▁природного	-9870
41	-9871
9.	-9872
ex	-9873
АН	-9874
Ши	-9875
мс	-9876
ell	-9877
дли	-9878
иде	-9879
мие	-9880
сня	-9881
▁57	-9882
ллов	-9883
меры	-9884
пель	-9885
пуск	-9886
теры	-9887
▁800	-9888
▁Сур	-9889
▁Эри	-9890
▁оль	-9891
▁час	-9892
графа	-9893
ждена	-9894
ждены	-9895
зобра	-9896
опера	-9897
▁1948	-9898
▁Львов	-9899
▁Свето	-9900
▁вещей	-9901
▁песню	-9902
▁поэмы	-9903
▁преем	-9904
▁приез	-9905
▁прими	-9906
▁равна	-9907
▁судна	-9908
Впервые	-9909
▁Наполе	-9910
▁водных	-9911
▁выигра	-9912
▁данном	-9913
▁десять	-9914
▁долины	-9915
▁лёгких	-9916
▁рубеже	-9917
Географи	-9918
▁Наиболь	-9919
▁Француз	-9920
▁Цицерон	-9921
▁местной	-9922
▁столицу	-9923
▁подобные	-9924
Петербурге	-9925
▁немецкого	-9926
▁скоростью	-9927
▁состоящий	-9928
▁Университе	-9929
▁социалисти	-9930
▁загрязнения	-9931
▁инструменты	-9932
▁общественно	-9933
▁общественной	-9934
▁расположенные	-9935
▁характеристики	-9936
86	-9937
Ду	-9938
пь	-9939
ers	-9940
ври	-9941
▁Эд	-9942
▁ых	-9943
низм	-9944
фона	-9945
▁Луи	-9946
▁гиб	-9947
носят	-9948
▁Алба	-9949
▁Рома	-9950
▁Эфио	-9951
▁забы	-9952
▁наци	-9953
▁озна	-9954
▁цикл	-9955
динами	-9956
кратии	-9957
менное	-9958
рующих	-9959
щённых	-9960
▁Феодо	-9961
▁букси	-9962
▁мигре	-9963
▁огонь	-9964
▁отряд	-9965
▁толщи	-9966
▁борьба	-9967
▁вторым	-9968
▁детали	-9969
▁золото	-9970
▁импуль	-9971
▁совсем	-9972
▁учётом	-9973
держание	-9974
▁коричне	-9975
▁неожида	-9976
▁взрослых	-9977
▁основная	-9978
▁прямоуго	-9979
▁условиям	-9980
▁коммуника	-9981
▁мощностью	-9982
▁опасности	-9983
▁деревянных	-9984
▁еврейского	-9985
▁предшествен	-9986
▁достопримеча	-9987
▁увеличивается	-9988
85	-9989
tr	-9990
хт	-9991
нги	-9992
шок	-9993
▁Иа	-9994
▁ём	-9995
Обще	-9996
нист	-9997
чили	-9998
▁10-	-9999
▁май	-10000
▁ску	-10001
▁счё	-10002
ктора	-10003
нутри	-10004
▁1946	-10005
▁диза	-10006
▁мяса	-10007
▁надо	-10008
▁пиво	-10009
▁резо	-10010
▁сила	-10011
▁труп	-10012
ложены	-10013
ральди	-10014
▁Самар	-10015
▁волей	-10016
▁лечеб	-10017
▁повер	-10018
▁сезон	-10019
▁сотни	-10020
▁сферы	-10021
▁шоссе	-10022
▁Россию	-10023
▁кикимо	-10024
▁лагере	-10025
▁печати	-10026
▁поводу	-10027
▁прикры	-10028
▁прошёл	-10029
▁спокой	-10030
▁выступи	-10031
▁издание	-10032
▁личного	-10033
▁принять	-10034
▁словами	-10035
▁станций	-10036
▁больница	-10037
▁выпадает	-10038
▁отмечает	-10039
▁строение	-10040
▁торговле	-10041
▁поведение	-10042
▁повышение	-10043
▁сложности	-10044
▁Константин	-10045
▁Октябрьской	-10046
▁музыкальный	-10047
▁Национальный	-10048
▁продолжается	-10049
бю	-10050
мп	-10051
жуа	-10052
зап	-10053
зво	-10054
пка	-10055
рет	-10056
чья	-10057
бова	-10058
зади	-10059
нент	-10060
паду	-10061
сель	-10062
скет	-10063
ссио	-10064
шель	-10065
▁Com	-10066
▁Ван	-10067
▁Мур	-10068
▁Пан	-10069
довые	-10070
ногих	-10071
▁Обще	-10072
▁выру	-10073
▁мужа	-10074
▁пари	-10075
▁ский	-10076
▁труд	-10077
▁ядра	-10078
ссоциа	-10079
▁Солне	-10080
▁белый	-10081
▁газет	-10082
культур	-10083
тивными	-10084
▁активи	-10085
▁видами	-10086
▁всемир	-10087
▁лагеря	-10088
▁посети	-10089
▁раздра	-10090
рические	-10091
ционными	-10092
▁женщина	-10093
▁журнала	-10094
▁римской	-10095
▁уменьши	-10096
▁античных	-10097
▁энциклопе	-10098
▁Посполитой	-10099
▁продолжает	-10100
▁реальности	-10101
▁переименован	-10102
▁политические	-10103
▁председатель	-10104
4,	-10105
ун	-10106
ала	-10107
бое	-10108
нид	-10109
спа	-10110
▁Ты	-10111
▁Эк	-10112
мено	-10113
мова	-10114
сили	-10115
▁Гео	-10116
▁Тео	-10117
▁джа	-10118
▁уль	-10119
летря	-10120
▁1928	-10121
▁жены	-10122
▁несу	-10123
▁папи	-10124
▁съём	-10125
▁Анато	-10126
▁Центр	-10127
▁битвы	-10128
▁евреи	-10129
▁жилья	-10130
▁лауре	-10131
▁откло	-10132
▁слове	-10133
ватории	-10134
ходится	-10135
▁беспла	-10136
▁бывшей	-10137
▁запада	-10138
▁мечеть	-10139
▁порода	-10140
▁сердце	-10141
▁бизнеса	-10142
▁гусениц	-10143
▁империя	-10144
▁примыка	-10145
▁реакция	-10146
▁стадион	-10147
▁столько	-10148
▁третьей	-10149
▁функцию	-10150
восточной	-10151
▁большеви	-10152
▁министер	-10153
▁подобных	-10154
▁странами	-10155
▁важнейших	-10156
▁древесины	-10157
▁отделение	-10158
▁структуру	-10159
▁Существуют	-10160
▁активности	-10161
▁появлением	-10162
▁развиваться	-10163
▁транспортных	-10164
бол	-10165
жих	-10166
лёй	-10167
чах	-10168
чув	-10169
зоне	-10170
коро	-10171
роко	-10172
тком	-10173
▁Лин	-10174
▁сма	-10175
довое	-10176
мский	-10177
ранже	-10178
стили	-10179
чному	-10180
▁1967	-10181
▁Гера	-10182
▁Меди	-10183
▁бюро	-10184
▁ваго	-10185
▁взры	-10186
▁квар	-10187
▁пожи	-10188
▁свин	-10189
ваемый	-10190
ровали	-10191
▁Значи	-10192
▁варьи	-10193
▁казни	-10194
▁каким	-10195
▁класс	-10196
▁толко	-10197
тайской	-10198
▁Гомера	-10199
▁бюджет	-10200
▁федера	-10201
▁Древнем	-10202
▁десятки	-10203
▁социали	-10204
▁чистого	-10205
▁Вильгель	-10206
▁участием	-10207
▁аэропорта	-10208
▁оккупации	-10209
▁соревнова	-10210
▁активность	-10211
▁называться	-10212
▁подразделя	-10213
▁потенциаль	-10214
▁предпочита	-10215
▁разновидно	-10216
▁утверждает	-10217
▁исторически	-10218
▁официальным	-10219
▁освобождения	-10220
▁пространстве	-10221
▁взаимодействия	-10222
▁использовалось	-10223
91	-10224
—7	-10225
нар	-10226
тит	-10227
Полу	-10228
льда	-10229
шкой	-10230
шной	-10231
▁30-	-10232
▁бол	-10233
▁кан	-10234
слава	-10235
▁Тере	-10236
▁дума	-10237
▁капи	-10238
▁освя	-10239
▁серы	-10240
▁трех	-10241
▁эска	-10242
зависи	-10243
▁Дании	-10244
▁Новой	-10245
▁вывод	-10246
▁индий	-10247
▁лесах	-10248
▁наука	-10249
▁нитро	-10250
▁регла	-10251
▁скота	-10252
Архитек	-10253
лийской	-10254
новения	-10255
▁Выборг	-10256
▁Гонкон	-10257
▁Первое	-10258
▁египет	-10259
▁желудо	-10260
▁ислама	-10261
▁компен	-10262
▁началь	-10263
▁театре	-10264
▁занимал	-10265
▁остатки	-10266
▁отчасти	-10267
▁перекры	-10268
▁племени	-10269
▁ремесле	-10270
струирова	-10271
▁Вергилия	-10272
▁Является	-10273
▁возникла	-10274
▁рассказа	-10275
▁трагедии	-10276
▁источника	-10277
▁обращения	-10278
▁философия	-10279
▁Количество	-10280
▁находилось	-10281
▁свойствами	-10282
▁увеличение	-10283
▁христианства	-10284
▁млекопитающих	-10285
▁экономических	-10286
▁самостоятельно	-10287
Эне	-10288
гал	-10289
ффи	-10290
хло	-10291
▁66	-10292
▁Ах	-10293
Вели	-10294
рядо	-10295
▁Ала	-10296
▁Осе	-10297
▁зал	-10298
нулся	-10299
совых	-10300
▁1979	-10301
▁name	-10302
▁неде	-10303
▁нейт	-10304
▁пару	-10305
▁часа	-10306
женной	-10307
лённой	-10308
сского	-10309
▁алюми	-10310
▁ввиду	-10311
▁задач	-10312
▁карта	-10313
▁лесов	-10314
▁любом	-10315
▁набор	-10316
▁навер	-10317
▁номер	-10318
▁содей	-10319
▁сутки	-10320
▁цирко	-10321
▁Аллаха	-10322
▁библей	-10323
▁полное	-10324
▁потери	-10325
▁службе	-10326
▁статьи	-10327
▁ассоции	-10328
▁больных	-10329
▁рыболов	-10330
▁Германия	-10331
▁железная	-10332
▁изобража	-10333
▁традиция	-10334
▁Казахстан	-10335
▁повышения	-10336
▁положении	-10337
▁стоимость	-10338
▁Президиума	-10339
▁продолжали	-10340
▁разрушения	-10341
▁медицинских	-10342
▁путешествен	-10343
▁социального	-10344
▁государствах	-10345
▁издательство	-10346
▁человечества	-10347
▁сопротивление	-10348
Административное	-10349
ОС	-10350
Фа	-10351
тр	-10352
эк	-10353
all	-10354
гка	-10355
емле	-10356
ехал	-10357
зией	-10358
лией	-10359
пять	-10360
ссию	-10361
▁Ада	-10362
▁Сво	-10363
▁аро	-10364
▁фла	-10365
ковое	-10366
левой	-10367
ровке	-10368
▁Спар	-10369
▁заму	-10370
▁земе	-10371
▁хода	-10372
менных	-10373
точных	-10374
▁Дербе	-10375
▁Откры	-10376
▁играх	-10377
▁конфи	-10378
▁крыла	-10379
▁призы	-10380
▁рекой	-10381
▁травя	-10382
бирской	-10383
▁арифме	-10384
▁пригод	-10385
▁товары	-10386
▁ширина	-10387
▁Августа	-10388
▁Начиная	-10389
▁ведётся	-10390
▁мужчины	-10391
▁передви	-10392
▁пограни	-10393
▁процеду	-10394
▁технику	-10395
▁геометри	-10396
▁называет	-10397
▁оболочки	-10398
▁отказыва	-10399
▁отождест	-10400
▁придержи	-10401
▁строения	-10402
▁кислорода	-10403
▁шиповника	-10404
▁транспорти	-10405
▁увеличения	-10406
▁последствия	-10407
ht	-10408
ik	-10409
кен	-10410
хоз	-10411
▁Ау	-10412
▁ее	-10413
▁ии	-10414
▁св	-10415
нков	-10416
сипе	-10417
сопо	-10418
▁166	-10419
▁50-	-10420
▁Кла	-10421
▁Ски	-10422
Когда	-10423
вёрну	-10424
ловых	-10425
мемно	-10426
▁Речи	-10427
▁асси	-10428
▁выжи	-10429
▁днём	-10430
▁жени	-10431
▁изба	-10432
▁сост	-10433
▁тока	-10434
ленных	-10435
матери	-10436
семест	-10437
▁башни	-10438
▁блоки	-10439
▁пояса	-10440
▁цикла	-10441
мерации	-10442
стройки	-10443
▁атрибу	-10444
▁бумаги	-10445
▁отстав	-10446
▁старой	-10447
▁статье	-10448
▁ведущих	-10449
▁коммуна	-10450
▁основал	-10451
▁позвоно	-10452
▁равнове	-10453
▁русское	-10454
▁фамилия	-10455
▁футболу	-10456
▁вопросам	-10457
▁красного	-10458
▁операций	-10459
▁остались	-10460
▁снижение	-10461
▁созданию	-10462
▁уничтожи	-10463
▁программу	-10464
▁проживает	-10465
▁различают	-10466
▁результат	-10467
▁артиллерии	-10468
▁использует	-10469
▁состоялось	-10470
строительный	-10471
▁Средневеков	-10472
▁распростран	-10473
▁религиозной	-10474
▁страхования	-10475
▁формируется	-10476
▁значительную	-10477
▁международные	-10478
▁исследователей	-10479
▁художественной	-10480
7.	-10481
Фе	-10482
ate	-10483
клы	-10484
▁64	-10485
▁ГУ	-10486
дать	-10487
хоза	-10488
▁Ама	-10489
▁бир	-10490
▁дав	-10491
гмати	-10492
ждено	-10493
▁1956	-10494
▁Чере	-10495
▁апри	-10496
▁выса	-10497
▁кише	-10498
▁куби	-10499
▁опол	-10500
▁пило	-10501
▁щело	-10502
▁эндо	-10503
▁юрис	-10504
▁яйца	-10505
альная	-10506
ваемой	-10507
зацией	-10508
конода	-10509
пление	-10510
тивную	-10511
чается	-10512
▁Афины	-10513
▁вовсе	-10514
▁втори	-10515
▁малой	-10516
▁общих	-10517
▁царём	-10518
комбина	-10519
▁Афгани	-10520
▁Царицы	-10521
▁занято	-10522
▁играть	-10523
▁князей	-10524
▁лагерь	-10525
▁породы	-10526
▁провёл	-10527
▁чёрный	-10528
▁Сегодня	-10529
▁департа	-10530
▁молодой	-10531
▁открыты	-10532
▁потребо	-10533
▁призыва	-10534
ментирова	-10535
▁Калигулы	-10536
▁праздник	-10537
▁считался	-10538
▁убийства	-10539
Петербурга	-10540
▁достигать	-10541
▁производя	-10542
Большинство	-10543
▁количеству	-10544
▁композитор	-10545
▁популярным	-10546
▁физической	-10547
▁преступлений	-10548
▁средневековой	-10549
др	-10550
art	-10551
джу	-10552
мпе	-10553
рут	-10554
цин	-10555
▁сё	-10556
нича	-10557
нули	-10558
пари	-10559
сыла	-10560
торе	-10561
чато	-10562
▁Джи	-10563
▁СНГ	-10564
▁пей	-10565
ловек	-10566
тника	-10567
▁1949	-10568
▁Арка	-10569
▁днев	-10570
▁иные	-10571
▁спло	-10572
▁флей	-10573
▁фрон	-10574
совета	-10575
▁Борис	-10576
▁Герак	-10577
▁Такая	-10578
▁белые	-10579
▁готов	-10580
▁давно	-10581
▁ритуа	-10582
▁фарма	-10583
▁фонда	-10584
▁якобы	-10585
станций	-10586
ционную	-10587
▁Хьюсто	-10588
▁гепати	-10589
▁знаком	-10590
▁испове	-10591
▁прошед	-10592
▁слегка	-10593
ключения	-10594
▁введена	-10595
▁заверши	-10596
▁кризиса	-10597
▁племена	-10598
▁сторона	-10599
▁упомяну	-10600
▁медленно	-10601
▁осталось	-10602
▁сообщает	-10603
▁интересов	-10604
▁продоволь	-10605
▁обеспечить	-10606
▁эксплуатации	-10607
▁деятельностью	-10608
▁k	-10609
und	-10610
ьет	-10611
▁ВС	-10612
виль	-10613
кори	-10614
нила	-10615
▁Боб	-10616
▁Хан	-10617
▁зон	-10618
▁ико	-10619
ровок	-10620
сторо	-10621
щался	-10622
▁дожд	-10623
▁заря	-10624
▁игру	-10625
▁опыт	-10626
▁отте	-10627
▁суды	-10628
Исполь	-10629
Многие	-10630
метрия	-10631
нников	-10632
рована	-10633
▁Кауна	-10634
▁Киева	-10635
▁Рыбин	-10636
▁ведом	-10637
▁какое	-10638
▁самки	-10639
▁серия	-10640
▁узлов	-10641
вленной	-10642
▁Иоанна	-10643
▁важных	-10644
▁инжене	-10645
▁музыку	-10646
▁пришли	-10647
▁рекорд	-10648
▁древние	-10649
▁мужской	-10650
▁потерпе	-10651
▁русским	-10652
▁частицы	-10653
▁говорить	-10654
▁интерпре	-10655
▁третьего	-10656
▁императри	-10657
▁повсемест	-10658
▁различным	-10659
▁режиссёра	-10660
▁занимались	-10661
▁руководство	-10662
▁сохраняется	-10663
▁цивилизации	-10664
▁международной	-10665
▁муниципальных	-10666
▁железнодорожных	-10667
Ан	-10668
“,	-10669
Ещё	-10670
шеб	-10671
Илиа	-10672
сант	-10673
шные	-10674
▁and	-10675
▁Мат	-10676
▁Мен	-10677
▁руд	-10678
▁сар	-10679
▁сег	-10680
вказа	-10681
граде	-10682
должи	-10683
лимпи	-10684
лливу	-10685
менён	-10686
сение	-10687
▁1500	-10688
▁Само	-10689
▁вспы	-10690
▁мель	-10691
▁сидя	-10692
▁Тимур	-10693
▁Элект	-10694
▁армян	-10695
▁верху	-10696
▁вышла	-10697
▁глюко	-10698
▁длине	-10699
▁дожде	-10700
▁лицен	-10701
▁обыча	-10702
▁превы	-10703
▁табли	-10704
▁фирмы	-10705
▁химии	-10706
▁храня	-10707
▁этими	-10708
востоку	-10709
ливость	-10710
▁Входит	-10711
▁Каждый	-10712
▁Клеопа	-10713
▁автома	-10714
▁зарабо	-10715
▁землях	-10716
▁кавале	-10717
▁камень	-10718
▁массой	-10719
▁оценки	-10720
▁сухопу	-10721
▁францу	-10722
формации	-10723
▁Лондоне	-10724
▁Чёрного	-10725
▁антропо	-10726
▁картина	-10727
▁отмечал	-10728
▁перешли	-10729
▁подража	-10730
▁приказу	-10731
▁прихода	-10732
▁пытался	-10733
▁развива	-10734
правление	-10735
▁Академии	-10736
▁великого	-10737
▁генерала	-10738
▁западное	-10739
▁мирового	-10740
▁офицеров	-10741
▁познания	-10742
▁проектов	-10743
▁торговый	-10744
▁небольшая	-10745
▁постоянной	-10746
▁проявления	-10747
▁постоянного	-10748
▁обслуживания	-10749
33	-10750
ГУ	-10751
Гу	-10752
неф	-10753
хах	-10754
Стра	-10755
берт	-10756
бить	-10757
ганы	-10758
деся	-10759
ляют	-10760
рены	-10761
▁Выс	-10762
▁Мир	-10763
Распо	-10764
ковод	-10765
ляция	-10766
равни	-10767
ровых	-10768
стика	-10769
тание	-10770
▁1935	-10771
▁1962	-10772
▁1986	-10773
▁арен	-10774
▁взро	-10775
▁гроб	-10776
▁душа	-10777
▁нера	-10778
▁побо	-10779
▁схва	-10780
Первое	-10781
нилась	-10782
▁аэрод	-10783
▁какие	-10784
▁парке	-10785
▁плохо	-10786
▁семье	-10787
▁хлебо	-10788
▁эпите	-10789
▁дальше	-10790
▁князем	-10791
▁подъём	-10792
▁полный	-10793
▁прочие	-10794
▁служил	-10795
▁тексты	-10796
▁частные	-10797
▁Возможно	-10798
▁древнего	-10799
▁сочинений	-10800
▁выделяется	-10801
▁заключения	-10802
▁километрах	-10803
▁подчинения	-10804
▁направлений	-10805
88	-10806
Вт	-10807
ium	-10808
нку	-10809
счё	-10810
фен	-10811
—10	-10812
▁Йо	-10813
тицы	-10814
толе	-10815
▁...	-10816
▁Мюн	-10817
▁Сен	-10818
▁ожи	-10819
▁шку	-10820
Перво	-10821
видно	-10822
токси	-10823
▁1905	-10824
▁Азов	-10825
▁ауди	-10826
▁ввёл	-10827
▁идею	-10828
▁идея	-10829
▁пива	-10830
▁типу	-10831
▁цита	-10832
славии	-10833
▁армию	-10834
▁банка	-10835
▁иначе	-10836
▁корни	-10837
▁наиме	-10838
▁подно	-10839
▁греков	-10840
▁конден	-10841
▁лёгкой	-10842
▁повлия	-10843
▁просла	-10844
▁службу	-10845
▁уступа	-10846
▁высокую	-10847
▁лошадей	-10848
▁остался	-10849
▁принята	-10850
▁публици	-10851
▁рельефа	-10852
▁шотланд	-10853
▁Богороди	-10854
▁Меркурия	-10855
▁Таганрог	-10856
▁обучение	-10857
▁огромное	-10858
▁островах	-10859
▁провести	-10860
▁спортсме	-10861
▁Волгоград	-10862
▁греческой	-10863
▁образован	-10864
▁организме	-10865
▁писателей	-10866
▁правление	-10867
▁произошла	-10868
▁фиксирова	-10869
▁деревянные	-10870
▁отношениях	-10871
▁соглашения	-10872
▁функциональ	-10873
▁ответственность	-10874
92	-10875
чле	-10876
▁56	-10877
дное	-10878
зора	-10879
кара	-10880
пове	-10881
▁60-	-10882
▁еще	-10883
▁ибо	-10884
▁нов	-10885
форми	-10886
▁Бори	-10887
▁Крем	-10888
▁веса	-10889
▁дево	-10890
▁мышц	-10891
▁нити	-10892
▁тума	-10893
▁Литвы	-10894
▁будто	-10895
▁диску	-10896
▁храме	-10897
Начиная	-10898
Религия	-10899
▁внешне	-10900
▁другая	-10901
▁кислот	-10902
▁кольца	-10903
▁опуска	-10904
▁шокола	-10905
▁эмигра	-10906
▁Запорож	-10907
▁золотом	-10908
▁королём	-10909
▁особого	-10910
▁участке	-10911
▁царство	-10912
▁Астрахан	-10913
▁Восточно	-10914
▁введения	-10915
▁возникли	-10916
▁комиссии	-10917
▁получали	-10918
▁решением	-10919
▁говорится	-10920
▁известная	-10921
▁предметом	-10922
▁показывает	-10923
▁показывают	-10924
▁популярных	-10925
▁упоминания	-10926
▁образованию	-10927
▁ограничения	-10928
▁современным	-10929
▁специальной	-10930
▁Государственной	-10931
▁континентальный	-10932
-3	-10933
-5	-10934
ev	-10935
ud	-10936
Сер	-10937
где	-10938
еть	-10939
рид	-10940
сан	-10941
▁Ну	-10942
▁ас	-10943
▁пше	-10944
▁шлю	-10945
Право	-10946
зовой	-10947
▁1812	-10948
▁1910	-10949
▁Свер	-10950
▁гава	-10951
▁зале	-10952
▁идут	-10953
вского	-10954
несены	-10955
ничных	-10956
ставра	-10957
щенных	-10958
▁Берди	-10959
▁Болга	-10960
▁нации	-10961
▁обсер	-10962
▁уделя	-10963
губерна	-10964
лённого	-10965
ционном	-10966
▁Нерона	-10967
▁высоту	-10968
▁заводе	-10969
▁натрия	-10970
▁недель	-10971
▁осозна	-10972
▁похода	-10973
▁спарта	-10974
▁темати	-10975
▁факуль	-10976
▁бюджета	-10977
▁голосов	-10978
▁магазин	-10979
▁отнести	-10980
▁Вергилий	-10981
▁аппарата	-10982
▁большими	-10983
▁гусеницы	-10984
▁землетря	-10985
▁меняется	-10986
▁оркестра	-10987
▁основано	-10988
▁способен	-10989
▁участков	-10990
пределение	-10991
▁демонстра	-10992
▁поколения	-10993
▁художники	-10994
▁информация	-10995
▁республике	-10996
▁промышленные	-10997
▁электроэнергии	-10998
79	-10999
ТР	-11000
ity	-11001
ran	-11002
вна	-11003
зит	-11004
▁ЦК	-11005
Анти	-11006
день	-11007
защи	-11008
мети	-11009
пина	-11010
тент	-11011
▁0,1	-11012
▁мол	-11013
ждают	-11014
твори	-11015
удоже	-11016
ённое	-11017
▁1914	-11018
▁Джор	-11019
▁Маке	-11020
▁Усть	-11021
▁убил	-11022
▁чугу	-11023
рующие	-11024
▁Волге	-11025
▁Талму	-11026
▁Часть	-11027
▁берёт	-11028
▁видел	-11029
▁домой	-11030
▁любое	-11031
▁точке	-11032
▁черта	-11033
ваемого	-11034
вающего	-11035
востока	-11036
▁Виктор	-11037
▁Иисуса	-11038
▁Людови	-11039
▁аресто	-11040
▁бывших	-11041
▁воинов	-11042
▁высшее	-11043
▁кольце	-11044
▁кресто	-11045
▁поэтов	-11046
▁телефо	-11047
▁цветки	-11048
▁Великий	-11049
▁анализа	-11050
▁драгоце	-11051
▁другому	-11052
▁единого	-11053
▁историо	-11054
▁комитет	-11055
▁неблаго	-11056
▁окраине	-11057
▁оценкам	-11058
▁перешёл	-11059
▁пригоро	-11060
▁разруши	-11061
▁больного	-11062
▁избежать	-11063
▁культиви	-11064
▁образовы	-11065
▁пытается	-11066
▁четверти	-11067
▁воспомина	-11068
▁следствие	-11069
▁характере	-11070
▁Всемирного	-11071
▁полномочий	-11072
▁Узбекистана	-11073
▁выступления	-11074
▁компонентов	-11075
▁особенностей	-11076
▁христианской	-11077
▁восстановления	-11078
▁инфраструктуры	-11079
гис	-11080
шне	-11081
▁52	-11082
▁жу	-11083
▁яд	-11084
XVII	-11085
жисс	-11086
леты	-11087
нига	-11088
рием	-11089
▁130	-11090
▁Гам	-11091
▁Цар	-11092
▁зво	-11093
литов	-11094
пиона	-11095
скопи	-11096
фильм	-11097
▁1931	-11098
▁Крон	-11099
▁Турк	-11100
▁масс	-11101
▁моби	-11102
▁обер	-11103
▁роза	-11104
▁убит	-11105
нутрен	-11106
▁Гиппо	-11107
▁Шанха	-11108
▁блока	-11109
▁второ	-11110
▁двора	-11111
▁низко	-11112
▁подли	-11113
▁попро	-11114
▁совме	-11115
▁сцены	-11116
дерланд	-11117
кратный	-11118
стралий	-11119
▁автоно	-11120
▁вытяну	-11121
▁годами	-11122
▁другую	-11123
▁защиту	-11124
▁община	-11125
▁покров	-11126
▁усилия	-11127
рованные	-11128
▁Франция	-11129
▁колонии	-11130
▁местами	-11131
▁многими	-11132
▁найдены	-11133
▁округов	-11134
▁перешла	-11135
▁подобно	-11136
▁причины	-11137
▁возникло	-11138
▁приобрёл	-11139
▁проводят	-11140
▁оказалось	-11141
▁основными	-11142
▁советская	-11143
▁представлял	-11144
▁проводились	-11145
▁сотрудников	-11146
▁значительная	-11147
▁расположения	-11148
▁рассказывает	-11149
▁действительно	-11150
▁происхождении	-11151
▁восстановление	-11152
бла	-11153
ера	-11154
руя	-11155
▁3.	-11156
лава	-11157
лицы	-11158
союз	-11159
цена	-11160
щали	-11161
▁Ори	-11162
▁Сак	-11163
▁Спе	-11164
▁сты	-11165
ксида	-11166
новая	-11167
новке	-11168
систе	-11169
стрее	-11170
▁Ниже	-11171
▁Пело	-11172
▁Румы	-11173
▁иуда	-11174
▁лест	-11175
▁цель	-11176
Термин	-11177
ктывка	-11178
образу	-11179
▁Новая	-11180
▁вырос	-11181
▁жилые	-11182
▁какао	-11183
▁канад	-11184
▁крепи	-11185
▁репре	-11186
▁сумму	-11187
▁танце	-11188
▁тепла	-11189
ловский	-11190
язычных	-11191
▁входил	-11192
▁городи	-11193
▁журнал	-11194
▁режима	-11195
▁славян	-11196
▁ультра	-11197
▁храмов	-11198
▁равнины	-11199
▁средние	-11200
▁течению	-11201
▁тяжёлых	-11202
снабжения	-11203
▁автобусы	-11204
▁античной	-11205
▁женского	-11206
▁напитков	-11207
▁политику	-11208
▁выполняет	-11209
▁давлением	-11210
▁самолётов	-11211
▁скульптур	-11212
▁советские	-11213
▁элементом	-11214
▁Расположен	-11215
▁расстояния	-11216
▁расширения	-11217
▁чемпионата	-11218
▁обеспечение	-11219
▁развиваются	-11220
▁сохранилось	-11221
▁естественных	-11222
▁сопровождается	-11223
71	-11224
ne	-11225
ord	-11226
жье	-11227
сой	-11228
сях	-11229
Хими	-11230
кета	-11231
люзи	-11232
регу	-11233
▁Еже	-11234
▁Мед	-11235
▁вле	-11236
▁убы	-11237
▁эми	-11238
вказе	-11239
родом	-11240
стрия	-11241
тской	-11242
чести	-11243
▁1913	-11244
▁1933	-11245
▁1957	-11246
▁1964	-11247
▁Нико	-11248
▁вице	-11249
▁вкус	-11250
▁душу	-11251
▁като	-11252
▁коно	-11253
▁мене	-11254
▁мощи	-11255
▁укры	-11256
▁экви	-11257
ложить	-11258
льское	-11259
ничной	-11260
ствами	-11261
▁Викто	-11262
▁Далее	-11263
▁Павло	-11264
▁израи	-11265
▁истре	-11266
▁морем	-11267
▁обеих	-11268
▁реаги	-11269
▁серий	-11270
рактери	-11271
▁восемь	-11272
▁герцог	-11273
▁могуще	-11274
▁оборот	-11275
▁История	-11276
▁Ульянов	-11277
▁внешних	-11278
▁занятия	-11279
▁красный	-11280
▁металло	-11281
▁никаких	-11282
▁образцы	-11283
▁радиоак	-11284
▁сказать	-11285
▁фабрики	-11286
ственному	-11287
▁величины	-11288
▁велосипе	-11289
▁договору	-11290
▁мощность	-11291
▁автобусов	-11292
▁выполнять	-11293
▁принимают	-11294
▁присвоено	-11295
▁составили	-11296
▁Николаевич	-11297
▁образовано	-11298
▁показатель	-11299
▁Конституции	-11300
▁агломерации	-11301
▁приходилось	-11302
▁тысячелетия	-11303
▁американских	-11304
▁воздействием	-11305
▁свидетельствуют	-11306
ab	-11307
Ав	-11308
вь	-11309
▁‰	-11310
ica	-11311
жор	-11312
нор	-11313
▁АО	-11314
▁Мэ	-11315
дуют	-11316
морф	-11317
шают	-11318
▁ани	-11319
▁яго	-11320
зовых	-11321
пуляр	-11322
техно	-11323
▁Агри	-11324
▁гран	-11325
▁лепе	-11326
▁моду	-11327
▁пиро	-11328
Первая	-11329
вшуюся	-11330
жников	-11331
зирует	-11332
костью	-11333
▁Армии	-11334
▁Иоган	-11335
▁Молда	-11336
▁Самый	-11337
▁кровь	-11338
▁убить	-11339
▁этимо	-11340
фестива	-11341
▁Италия	-11342
▁Рязани	-11343
▁введён	-11344
▁жертву	-11345
▁получе	-11346
▁привёл	-11347
▁фигуры	-11348
▁Впрочем	-11349
▁крупной	-11350
▁повести	-11351
▁полноце	-11352
▁технике	-11353
▁Агамемно	-11354
▁внимания	-11355
▁морского	-11356
▁встретить	-11357
▁министров	-11358
▁отражение	-11359
▁проводить	-11360
▁реализова	-11361
▁следующих	-11362
▁средством	-11363
▁информацию	-11364
▁профилакти	-11365
▁Нидерландов	-11366
▁архитектуре	-11367
▁полуострове	-11368
▁присутствии	-11369
▁музыкального	-11370
▁протяжённость	-11371
72	-11372
Це	-11373
ол	-11374
man	-11375
био	-11376
взо	-11377
вью	-11378
мея	-11379
шёт	-11380
▁51	-11381
▁ею	-11382
Хотя	-11383
зины	-11384
леры	-11385
сила	-11386
стам	-11387
туро	-11388
цесс	-11389
▁Иса	-11390
▁Лей	-11391
▁Син	-11392
▁душ	-11393
▁нра	-11394
▁съе	-11395
▁тща	-11396
▁эро	-11397
Сюжет	-11398
нитар	-11399
тером	-11400
шками	-11401
▁1947	-11402
▁Отно	-11403
▁вдох	-11404
▁веры	-11405
▁мяте	-11406
▁плён	-11407
▁риск	-11408
▁фила	-11409
▁фонд	-11410
▁чудо	-11411
вязыва	-11412
ленные	-11413
тельны	-11414
▁берег	-11415
▁оправ	-11416
▁сетей	-11417
▁слизи	-11418
ведении	-11419
ностями	-11420
▁Оттавы	-11421
▁баскет	-11422
▁главой	-11423
▁нападе	-11424
▁утопии	-11425
▁учения	-11426
▁экскур	-11427
тивность	-11428
▁англича	-11429
▁каналов	-11430
▁сложных	-11431
▁экспози	-11432
▁виноград	-11433
▁обитания	-11434
▁органами	-11435
▁посвящён	-11436
▁примером	-11437
▁совершил	-11438
▁участках	-11439
Международ	-11440
▁диаметром	-11441
▁отверстия	-11442
▁рациональ	-11443
▁Михайлович	-11444
▁документов	-11445
▁подразделе	-11446
▁действующих	-11447
▁известность	-11448
▁трудоспособ	-11449
▁французских	-11450
▁гражданского	-11451
▁располагался	-11452
▁температурой	-11453
▁располагались	-11454
Вол	-11455
Спи	-11456
вяз	-11457
дая	-11458
зеи	-11459
най	-11460
опа	-11461
ори	-11462
эро	-11463
▁1.	-11464
▁Ву	-11465
▁ля	-11466
▁ум	-11467
дана	-11468
деры	-11469
мара	-11470
рока	-11471
сило	-11472
щика	-11473
▁Тра	-11474
▁бом	-11475
▁опе	-11476
▁ужа	-11477
▁юно	-11478
...».	-11479
ликам	-11480
▁День	-11481
▁бюст	-11482
▁гиль	-11483
▁иили	-11484
▁курс	-11485
▁обоб	-11486
▁хиру	-11487
говора	-11488
дового	-11489
лирует	-11490
▁Сверд	-11491
▁башня	-11492
▁ведут	-11493
▁вечно	-11494
▁живёт	-11495
▁извле	-11496
▁одних	-11497
▁охоты	-11498
▁планы	-11499
▁слоёв	-11500
▁сынов	-11501
▁этапе	-11502
▁важное	-11503
▁дефици	-11504
▁исчеза	-11505
▁кризис	-11506
▁крупно	-11507
▁неделю	-11508
▁объёму	-11509
▁особой	-11510
▁печени	-11511
▁поворо	-11512
▁Кавказа	-11513
▁обычных	-11514
▁построй	-11515
▁рестора	-11516
▁училища	-11517
▁вырабаты	-11518
▁историки	-11519
▁коммента	-11520
▁назначен	-11521
логическое	-11522
▁городским	-11523
▁обращение	-11524
▁плотности	-11525
▁завоевания	-11526
▁называемых	-11527
▁творчестве	-11528
▁сегодняшний	-11529
▁специальный	-11530
▁Одновременно	-11531
▁исследование	-11532
▁христианство	-11533
▁Константинополь	-11534
▁представителями	-11535
8.	-11536
лак	-11537
шер	-11538
▁2,	-11539
▁Иу	-11540
бота	-11541
вные	-11542
литы	-11543
льфа	-11544
рять	-11545
трук	-11546
▁Сло	-11547
▁рок	-11548
▁уте	-11549
ровку	-11550
ровые	-11551
▁Горь	-11552
▁Поле	-11553
▁Юрий	-11554
▁всад	-11555
▁кожа	-11556
▁лопа	-11557
▁рыно	-11558
▁туда	-11559
женные	-11560
ляются	-11561
седнев	-11562
шенных	-11563
▁Ранее	-11564
▁Тради	-11565
▁Хорва	-11566
▁аспек	-11567
▁балан	-11568
▁весен	-11569
▁движу	-11570
▁подъё	-11571
▁течёт	-11572
▁услов	-11573
летнего	-11574
▁буржуа	-11575
▁гастро	-11576
▁добыча	-11577
▁западу	-11578
▁навига	-11579
▁ремонт	-11580
▁служба	-11581
▁станет	-11582
▁углево	-11583
западной	-11584
▁золотой	-11585
▁раннего	-11586
▁сектора	-11587
▁сильным	-11588
▁старший	-11589
▁княжество	-11590
▁нападения	-11591
▁помещений	-11592
▁упоминает	-11593
▁внутренние	-11594
▁отсутствии	-11595
▁постановле	-11596
▁Гражданской	-11597
▁национально	-11598
▁последующие	-11599
▁центральных	-11600
▁экземпляров	-11601
▁традиционных	-11602
▁функционирует	-11603
жур	-11604
нду	-11605
тры	-11606
▁6-	-11607
▁Ar	-11608
▁Эй	-11609
▁мс	-11610
Теат	-11611
гета	-11612
жима	-11613
спор	-11614
сыха	-11615
таны	-11616
▁Был	-11617
▁Оси	-11618
▁ТЭЦ	-11619
Через	-11620
ланда	-11621
ловые	-11622
манду	-11623
совая	-11624
ённом	-11625
▁Родо	-11626
▁аргу	-11627
▁аэро	-11628
▁брак	-11629
▁купи	-11630
▁огня	-11631
▁пеще	-11632
▁руку	-11633
▁сели	-11634
▁хлеб	-11635
▁цари	-11636
Интере	-11637
точные	-11638
▁Много	-11639
▁Норве	-11640
▁оттен	-11641
▁подпо	-11642
▁самих	-11643
▁свето	-11644
▁сексу	-11645
▁фигур	-11646
вленная	-11647
лизация	-11648
▁Лондон	-11649
▁вырабо	-11650
▁мульти	-11651
▁одержа	-11652
▁перифе	-11653
▁Калифор	-11654
▁Пушкина	-11655
▁Черного	-11656
▁братьев	-11657
▁вещание	-11658
▁вступил	-11659
▁группой	-11660
▁создали	-11661
▁достовер	-11662
▁летописи	-11663
▁предупре	-11664
▁Петербург	-11665
▁выражения	-11666
▁головного	-11667
▁используя	-11668
▁основание	-11669
▁композиции	-11670
▁литература	-11671
▁некоторыми	-11672
▁заслуженный	-11673
▁руководства	-11674
▁общеобразова	-11675
▁популярности	-11676
▁расположение	-11677
▁популярностью	-11678
▁представлений	-11679
▁многочисленными	-11680
ъю	-11681
мяг	-11682
обы	-11683
▁54	-11684
▁НК	-11685
кове	-11686
суда	-11687
▁Глу	-11688
▁бру	-11689
▁бух	-11690
▁гнё	-11691
брасы	-11692
женцы	-11693
компа	-11694
стков	-11695
фесси	-11696
▁1912	-11697
▁1937	-11698
▁Абха	-11699
▁Афин	-11700
▁волы	-11701
▁мыше	-11702
▁нрав	-11703
▁одни	-11704
▁сдви	-11705
▁типы	-11706
водить	-11707
ленная	-11708
▁Киеве	-11709
▁гетто	-11710
▁добра	-11711
▁иконо	-11712
▁импер	-11713
▁опира	-11714
▁плана	-11715
▁поток	-11716
▁саксо	-11717
▁смеши	-11718
▁товар	-11719
▁храмы	-11720
несения	-11721
▁Солнце	-11722
▁боевой	-11723
▁борьбу	-11724
▁видеть	-11725
▁внезап	-11726
▁лошади	-11727
▁первич	-11728
▁разгро	-11729
▁сроком	-11730
▁тромбо	-11731
ссельдор	-11732
▁Вологод	-11733
▁Клавдий	-11734
▁аппарат	-11735
▁артерии	-11736
▁мастера	-11737
▁привела	-11738
▁привиле	-11739
▁Основной	-11740
▁алкоголя	-11741
▁выделить	-11742
▁выступил	-11743
▁колоколь	-11744
▁размером	-11745
▁симфонии	-11746
▁тысячеле	-11747
▁астрономи	-11748
▁наказание	-11749
▁небольшим	-11750
▁поддержки	-11751
▁утверждал	-11752
▁экономика	-11753
▁называемая	-11754
▁получается	-11755
▁параллельно	-11756
▁повреждения	-11757
▁особенностью	-11758
Промышленность	-11759
▁автомобильных	-11760
▁определённого	-11761
▁обстоятельства	-11762
6,	-11763
ап	-11764
ish	-11765
жке	-11766
лея	-11767
нны	-11768
▁69	-11769
Нача	-11770
Фами	-11771
бура	-11772
гера	-11773
нгви	-11774
свет	-11775
▁0,0	-11776
▁Бру	-11777
▁Ени	-11778
▁Лан	-11779
▁Ска	-11780
▁Чар	-11781
глице	-11782
делие	-11783
косно	-11784
магни	-11785
нятие	-11786
шенко	-11787
▁1968	-11788
▁Соло	-11789
▁врач	-11790
▁дизе	-11791
▁зеле	-11792
▁моде	-11793
▁сана	-11794
▁тата	-11795
▁тему	-11796
▁флаг	-11797
Одиссе	-11798
нового	-11799
▁Архан	-11800
▁Крыма	-11801
▁взять	-11802
▁наста	-11803
▁санти	-11804
▁Аполло	-11805
▁анализ	-11806
▁взрыва	-11807
▁высшей	-11808
▁конгре	-11809
▁округе	-11810
▁письма	-11811
▁подход	-11812
▁товари	-11813
▁энерго	-11814
ническом	-11815
▁Золотой	-11816
▁Соответ	-11817
▁актуаль	-11818
▁включён	-11819
▁вычисли	-11820
▁делятся	-11821
▁длинные	-11822
▁погибли	-11823
▁поздней	-11824
▁престол	-11825
▁свободу	-11826
▁броненос	-11827
▁граждане	-11828
▁культуру	-11829
▁мощности	-11830
▁мужского	-11831
▁практику	-11832
▁агентства	-11833
▁изображён	-11834
▁китайской	-11835
▁поступает	-11836
▁выделяются	-11837
▁называлась	-11838
▁назывались	-11839
▁напряжения	-11840
▁продолжают	-11841
▁производит	-11842
▁характерна	-11843
▁литературных	-11844
▁промышленной	-11845
▁традиционной	-11846
▁муниципальное	-11847
▁Великобритания	-11848
▁распространена	-11849
▁соответствующие	-11850
av	-11851
ill	-11852
▁лы	-11853
жеве	-11854
каты	-11855
мене	-11856
чева	-11857
шков	-11858
▁110	-11859
▁Нау	-11860
▁мио	-11861
▁сжа	-11862
▁шту	-11863
довал	-11864
листы	-11865
обряд	-11866
океан	-11867
ритет	-11868
▁1954	-11869
▁зиму	-11870
▁избы	-11871
▁несо	-11872
▁снег	-11873
▁этап	-11874
торных	-11875
▁Варша	-11876
▁клапа	-11877
▁контр	-11878
▁нужда	-11879
▁рейсы	-11880
▁рукоя	-11881
▁сухой	-11882
▁Святой	-11883
▁длится	-11884
▁захоро	-11885
▁любовь	-11886
▁округу	-11887
▁приток	-11888
▁развер	-11889
▁уровню	-11890
Памятник	-11891
тическом	-11892
христиан	-11893
▁автором	-11894
▁главные	-11895
▁епархии	-11896
▁корабль	-11897
▁научный	-11898
▁попытка	-11899
▁предпоч	-11900
▁приняла	-11901
▁рабочей	-11902
▁размере	-11903
▁сопоста	-11904
▁участка	-11905
▁целиком	-11906
▁античные	-11907
▁историко	-11908
▁организм	-11909
▁построил	-11910
▁свободно	-11911
▁кинотеатр	-11912
▁разнообра	-11913
▁Казахстане	-11914
▁библиотеки	-11915
▁коммунисти	-11916
▁населённый	-11917
▁сохранения	-11918
▁учреждение	-11919
▁отсутствуют	-11920
▁поверхностью	-11921
▁пользовались	-11922
-,	-11923
ph	-11924
Дей	-11925
хим	-11926
“».	-11927
Кино	-11928
валь	-11929
ктей	-11930
мута	-11931
цкая	-11932
▁лов	-11933
▁шли	-11934
движи	-11935
мерза	-11936
тация	-11937
▁1897	-11938
▁Аргу	-11939
▁Семё	-11940
▁мане	-11941
▁норм	-11942
▁роду	-11943
▁тяго	-11944
Музыка	-11945
жаться	-11946
летней	-11947
спекти	-11948
▁Воору	-11949
▁Ураль	-11950
▁амино	-11951
▁женой	-11952
▁карти	-11953
▁никто	-11954
▁распа	-11955
▁своем	-11956
▁серви	-11957
▁слабы	-11958
▁тёпло	-11959
▁ущерб	-11960
▁члена	-11961
коснове	-11962
▁Матери	-11963
▁безопа	-11964
▁заклад	-11965
▁невысо	-11966
▁нейтро	-11967
▁низкая	-11968
▁планет	-11969
▁пожара	-11970
▁пункта	-11971
▁распла	-11972
жённость	-11973
▁Армения	-11974
▁Атланти	-11975
▁большом	-11976
▁границу	-11977
▁периоды	-11978
▁погибло	-11979
▁подлежа	-11980
▁пустыни	-11981
▁страной	-11982
▁дисципли	-11983
▁массовых	-11984
▁попадает	-11985
▁проводит	-11986
▁рейтинге	-11987
▁стациона	-11988
▁атмосфере	-11989
▁отказался	-11990
▁хозяйстве	-11991
▁препаратов	-11992
▁республика	-11993
▁элементами	-11994
▁наступления	-11995
▁приобретает	-11996
▁территориях	-11997
▁превращается	-11998
▁свидетельства	-11999
▁железнодорожная	-12000
▁последовательно	-12001
вр	-12002
—8	-12003
Вла	-12004
▁Тя	-12005
дным	-12006
▁20-	-12007
▁Вет	-12008
▁або	-12009
▁иду	-12010
▁циф	-12011
ствию	-12012
▁1975	-12013
▁Армя	-12014
▁Мари	-12015
▁Памя	-12016
▁домо	-12017
▁нелю	-12018
▁номе	-12019
▁проф	-12020
▁скла	-12021
ровень	-12022
родные	-12023
стерои	-12024
стских	-12025
тифика	-12026
▁брака	-12027
▁доход	-12028
▁отрас	-12029
▁переу	-12030
▁сгора	-12031
▁тетра	-12032
▁трибу	-12033
▁хотел	-12034
▁школе	-12035
венство	-12036
точного	-12037
▁армией	-12038
▁голова	-12039
▁полосы	-12040
▁руками	-12041
▁семина	-12042
▁старше	-12043
▁школах	-12044
селённые	-12045
▁Мухамма	-12046
▁деревне	-12047
▁заповед	-12048
▁швейцар	-12049
отношения	-12050
▁болезней	-12051
▁описания	-12052
▁рабочего	-12053
▁Последний	-12054
▁атмосферу	-12055
▁нидерланд	-12056
▁окончании	-12057
▁повседнев	-12058
▁построить	-12059
▁украшения	-12060
▁Васильевич	-12061
▁настоящего	-12062
▁проживания	-12063
▁Центральный	-12064
▁насчитывает	-12065
▁технических	-12066
▁обеспечивают	-12067
▁централизова	-12068
▁американского	-12069
км	-12070
Сан	-12071
вку	-12072
нио	-12073
тус	-12074
▁62	-12075
дуар	-12076
коко	-12077
ргии	-12078
фран	-12079
▁125	-12080
▁Ира	-12081
▁Эпи	-12082
▁аку	-12083
Радио	-12084
дости	-12085
новок	-12086
пенди	-12087
тному	-12088
щейся	-12089
▁1925	-12090
▁1965	-12091
▁Импе	-12092
▁Писа	-12093
▁игре	-12094
▁кабе	-12095
▁краю	-12096
▁рели	-12097
▁фору	-12098
▁чаше	-12099
генера	-12100
▁Досто	-12101
▁Имеет	-12102
▁верто	-12103
▁загла	-12104
▁зерка	-12105
▁морфо	-12106
▁сквоз	-12107
▁траги	-12108
венства	-12109
▁Вильню	-12110
▁блестя	-12111
▁заняла	-12112
▁запасы	-12113
▁низких	-12114
▁формах	-12115
▁бактери	-12116
▁быстрее	-12117
▁военача	-12118
▁выдержи	-12119
▁деления	-12120
▁журнале	-12121
▁неподви	-12122
▁оружием	-12123
▁педагог	-12124
▁первыми	-12125
▁легендар	-12126
▁объединя	-12127
▁отвечает	-12128
▁открытым	-12129
▁продукта	-12130
▁Православ	-12131
▁идеологии	-12132
▁культурно	-12133
▁осуществи	-12134
▁польского	-12135
▁телевизио	-12136
▁чемпионат	-12137
▁средствами	-12138
▁конструкция	-12139
▁медицинской	-12140
▁находящихся	-12141
▁обыкновенно	-12142
▁официальных	-12143
▁концентрация	-12144
▁представляли	-12145
▁художественных	-12146
▁художественного	-12147
Тем	-12148
Тех	-12149
Что	-12150
деи	-12151
дис	-12152
дры	-12153
йна	-12154
хаи	-12155
хот	-12156
▁АН	-12157
▁Зу	-12158
▁Ур	-12159
Алек	-12160
зует	-12161
льпи	-12162
хлад	-12163
чнее	-12164
шали	-12165
▁Гей	-12166
▁Пау	-12167
▁ане	-12168
▁бою	-12169
▁пас	-12170
▁яиц	-12171
ковом	-12172
куляр	-12173
летов	-12174
мьера	-12175
салти	-12176
ссией	-12177
телях	-12178
товая	-12179
▁1870	-12180
▁1969	-12181
▁Богу	-12182
▁корм	-12183
▁наго	-12184
▁овла	-12185
▁птен	-12186
Состав	-12187
ладель	-12188
▁Саула	-12189
▁Созда	-12190
▁Такое	-12191
▁замок	-12192
▁колла	-12193
▁корня	-12194
▁листа	-12195
▁полио	-12196
▁посту	-12197
▁спаса	-12198
▁срока	-12199
▁ткань	-12200
тинской	-12201
ференци	-12202
▁корона	-12203
▁органа	-12204
▁прибыл	-12205
▁приход	-12206
▁провод	-12207
▁указом	-12208
ведением	-12209
образных	-12210
промышле	-12211
тельству	-12212
▁Нептуна	-12213
▁большее	-12214
▁маршрут	-12215
▁ресурсы	-12216
▁термино	-12217
▁воскресе	-12218
▁гимнасти	-12219
▁домашних	-12220
▁наличием	-12221
▁соседних	-12222
▁ценность	-12223
▁Солнечной	-12224
▁Считается	-12225
▁Финляндии	-12226
▁известное	-12227
▁контексте	-12228
▁начальник	-12229
▁поселений	-12230
▁усовершен	-12231
▁неофициаль	-12232
▁оставалась	-12233
▁соединение	-12234
▁социальные	-12235
▁экспедиции	-12236
▁исполнитель	-12237
▁королевства	-12238
▁изображением	-12239
▁присутствуют	-12240
▁соревнований	-12241
▁предположение	-12242
▁разнообразных	-12243
▁дополнительные	-12244
▁соответствующих	-12245
99	-12246
▁α	-12247
боя	-12248
вик	-12249
выс	-12250
еры	-12251
зам	-12252
хен	-12253
▁ТВ	-12254
▁пр	-12255
жней	-12256
льси	-12257
лять	-12258
мора	-12259
нину	-12260
риод	-12261
туда	-12262
чьих	-12263
▁Спи	-12264
▁бла	-12265
▁пры	-12266
▁слы	-12267
▁яде	-12268
дений	-12269
мирал	-12270
чатых	-12271
▁1955	-12272
▁1958	-12273
▁Даже	-12274
▁Крым	-12275
▁Олег	-12276
▁Стре	-12277
▁едва	-12278
▁флот	-12279
▁хали	-12280
нимает	-12281
родный	-12282
▁Елиза	-12283
▁Нерон	-12284
▁бензо	-12285
▁левой	-12286
▁ослож	-12287
▁пасту	-12288
▁подро	-12289
▁прича	-12290
▁решёт	-12291
Сегодня	-12292
строены	-12293
▁Каспий	-12294
▁дворов	-12295
▁захват	-12296
▁кимоно	-12297
▁кольцо	-12298
▁локомо	-12299
▁металл	-12300
▁новоро	-12301
▁объёме	-12302
▁очевид	-12303
▁предъя	-12304
▁приёма	-12305
▁прямым	-12306
▁самцов	-12307
▁святой	-12308
▁старые	-12309
▁Эстонии	-12310
▁вызвать	-12311
▁исключа	-12312
▁состоял	-12313
▁тяжести	-12314
▁Чернигов	-12315
▁варианты	-12316
▁маршруты	-12317
▁механизм	-12318
▁половину	-12319
следование	-12320
▁демонстри	-12321
▁документы	-12322
▁журналист	-12323
▁сочетании	-12324
▁культурный	-12325
▁специалист	-12326
▁установить	-12327
▁возвращается	-12328
▁определённые	-12329
▁разнообразные	-12330
.20	-12331
ort	-12332
жок	-12333
лел	-12334
нус	-12335
сны	-12336
▁88	-12337
▁Al	-12338
гана	-12339
ллий	-12340
нора	-12341
ремя	-12342
томи	-12343
чими	-12344
▁Иоа	-12345
▁гря	-12346
Особе	-12347
Таким	-12348
маном	-12349
нцефа	-12350
▁Перу	-12351
▁гром	-12352
▁мили	-12353
▁морю	-12354
▁мэра	-12355
▁ряду	-12356
▁соля	-12357
▁фаса	-12358
▁фрак	-12359
▁ясно	-12360
▁глаго	-12361
▁звуко	-12362
▁нераз	-12363
▁нитей	-12364
▁ночью	-12365
▁семья	-12366
▁смену	-12367
▁трапе	-12368
дельные	-12369
строена	-12370
▁атомов	-12371
▁гульде	-12372
▁методи	-12373
▁нижнем	-12374
▁олицет	-12375
▁открыл	-12376
▁отрази	-12377
▁хоккей	-12378
ническую	-12379
рованной	-12380
тельному	-12381
▁Лондона	-12382
▁Церковь	-12383
▁берегов	-12384
▁волокна	-12385
▁волокон	-12386
▁коопера	-12387
▁недвижи	-12388
▁прибыли	-12389
▁способы	-12390
▁частями	-12391
▁Русского	-12392
▁геральди	-12393
▁известня	-12394
▁каменные	-12395
▁мастеров	-12396
▁научного	-12397
▁немецкие	-12398
▁разрушен	-12399
▁захватили	-12400
▁поддержке	-12401
▁популяции	-12402
▁правителя	-12403
▁различной	-12404
Архитектура	-12405
▁архитектор	-12406
▁называемой	-12407
▁основатель	-12408
▁пользуются	-12409
▁размещения	-12410
▁расширение	-12411
▁физических	-12412
▁гражданских	-12413
▁потребления	-12414
▁католической	-12415
▁строительных	-12416
▁политического	-12417
rac	-12418
».«	-12419
Сто	-12420
Эко	-12421
пав	-12422
▁86	-12423
вати	-12424
дием	-12425
золо	-12426
тури	-12427
▁Аре	-12428
Одним	-12429
лками	-12430
нента	-12431
редка	-12432
чиной	-12433
▁Саму	-12434
▁внут	-12435
▁долл	-12436
▁зимы	-12437
▁коче	-12438
▁лесу	-12439
▁цепи	-12440
переди	-12441
тивном	-12442
▁Берли	-12443
▁Малой	-12444
▁Рожде	-12445
▁Самая	-12446
▁грудь	-12447
▁заказ	-12448
▁имено	-12449
▁карбо	-12450
▁муску	-12451
▁нерав	-12452
▁новом	-12453
▁роско	-12454
▁сбора	-12455
▁снизу	-12456
▁тормо	-12457
ловской	-12458
▁Остров	-12459
▁Примор	-12460
▁Ростов	-12461
▁запись	-12462
▁растут	-12463
▁стремя	-12464
▁Благове	-12465
▁Василия	-12466
▁Евгений	-12467
▁Кавказе	-12468
▁берегам	-12469
▁горения	-12470
▁мужское	-12471
▁простой	-12472
▁прямого	-12473
▁реформа	-12474
▁театров	-12475
▁текстов	-12476
▁Гиппокра	-12477
▁вопросов	-12478
▁животные	-12479
▁жителями	-12480
▁инсулина	-12481
▁листьями	-12482
▁луковицы	-12483
▁названий	-12484
▁принципы	-12485
▁разделён	-12486
▁запрещено	-12487
▁излучения	-12488
▁конфликта	-12489
▁монумента	-12490
▁проведена	-12491
▁следующем	-12492
▁снижается	-12493
▁торгового	-12494
▁наибольшее	-12495
▁образована	-12496
▁определяют	-12497
▁отправился	-12498
▁пребывания	-12499
▁различного	-12500
▁финансовых	-12501
▁конференции	-12502
▁значительный	-12503
▁представлено	-12504
▁существовать	-12505
!»	-12506
93	-12507
ут	-12508
end	-12509
вам	-12510
дым	-12511
коп	-12512
лат	-12513
лес	-12514
ппа	-12515
пут	-12516
рью	-12517
шел	-12518
▁въ	-12519
деть	-12520
льеф	-12521
нете	-12522
сста	-12523
трак	-12524
кации	-12525
щаяся	-12526
▁Альф	-12527
▁абсе	-12528
▁выго	-12529
▁замы	-12530
▁изъя	-12531
▁ядро	-12532
Физико	-12533
ведено	-12534
западу	-12535
переда	-12536
▁Витов	-12537
▁Иорда	-12538
▁Самые	-12539
▁Слово	-12540
▁Труда	-12541
▁Число	-12542
▁древе	-12543
▁кисте	-12544
▁комби	-12545
▁науке	-12546
▁неудо	-12547
▁правя	-12548
▁слоем	-12549
▁судно	-12550
▁таджи	-12551
▁тираж	-12552
▁удара	-12553
▁хочет	-12554
▁чекан	-12555
граниче	-12556
▁внутрь	-12557
▁задача	-12558
▁описал	-12559
▁подвод	-12560
▁полным	-12561
▁правой	-12562
▁реформ	-12563
▁студии	-12564
▁упадок	-12565
▁числом	-12566
▁будущем	-12567
▁картофе	-12568
▁критики	-12569
▁полицей	-12570
▁пророка	-12571
▁просуще	-12572
▁различи	-12573
▁расширя	-12574
▁слияния	-12575
▁смертью	-12576
▁событие	-12577
▁участии	-12578
▁широком	-12579
▁Характер	-12580
▁головной	-12581
▁градусов	-12582
▁комбинат	-12583
▁отмечают	-12584
▁приходит	-12585
▁причинам	-12586
▁проблема	-12587
▁экспорта	-12588
▁Основными	-12589
▁возглавля	-12590
▁провинций	-12591
▁продолжал	-12592
▁проживают	-12593
▁создавать	-12594
▁планируется	-12595
▁Центрального	-12596
200	-12597
Кур	-12598
йбы	-12599
хей	-12600
▁ев	-12601
ляли	-12602
мили	-12603
родя	-12604
суди	-12605
▁Фон	-12606
▁зао	-12607
▁син	-12608
▁шоу	-12609
Совет	-12610
вного	-12611
вский	-12612
дость	-12613
метры	-12614
подоб	-12615
слежи	-12616
телен	-12617
теран	-12618
чатки	-12619
▁Исла	-12620
▁мёрт	-12621
▁чесо	-12622
вилась	-12623
льники	-12624
мостью	-12625
титься	-12626
▁балет	-12627
▁венти	-12628
▁клуба	-12629
▁любых	-12630
▁отдел	-12631
▁упраж	-12632
▁ядови	-12633
мейстер	-12634
ссамбле	-12635
тинский	-12636
▁грунта	-12637
▁каждые	-12638
▁обмена	-12639
▁партнё	-12640
▁письмо	-12641
▁ростом	-12642
русского	-12643
тическую	-12644
▁Соликам	-12645
▁введены	-12646
▁верхнем	-12647
▁водород	-12648
▁востока	-12649
▁заканчи	-12650
▁интегра	-12651
▁краевед	-12652
▁оставил	-12653
▁посёлке	-12654
▁рабочие	-12655
▁решению	-12656
▁конденса	-12657
▁кондитер	-12658
▁политике	-12659
▁реставра	-12660
▁диагности	-12661
▁имущество	-12662
▁мемориаль	-12663
▁появлению	-12664
▁произошли	-12665
▁сохранить	-12666
▁формально	-12667
▁исполнении	-12668
▁культурной	-12669
▁российские	-12670
▁Александров	-12671
▁уменьшается	-12672
▁значительным	-12673
▁центрального	-12674
▁человеческой	-12675
▁месторождений	-12676
▁разновидностей	-12677
▁государственная	-12678
',	-12679
нс	-12680
щь	-12681
▁ё	-12682
дал	-12683
кур	-12684
рых	-12685
▁Тэ	-12686
гией	-12687
дена	-12688
конг	-12689
маты	-12690
нару	-12691
тров	-12692
ходу	-12693
▁Два	-12694
▁раб	-12695
Образ	-12696
дился	-12697
дород	-12698
лософ	-12699
терия	-12700
▁1915	-12701
▁1971	-12702
▁1974	-12703
▁Бела	-12704
▁Един	-12705
▁Мала	-12706
▁Сино	-12707
▁жало	-12708
▁зону	-12709
▁куко	-12710
▁семя	-12711
▁тала	-12712
▁хвой	-12713
▁эрек	-12714
▁южно	-12715
▁юсти	-12716
▁явно	-12717
льских	-12718
ненные	-12719
несена	-12720
чников	-12721
▁Почти	-12722
▁буквы	-12723
▁весом	-12724
▁вскры	-12725
▁декла	-12726
▁доспе	-12727
▁крест	-12728
▁нашли	-12729
▁прися	-12730
▁разво	-12731
▁растя	-12732
▁сфера	-12733
▁такую	-12734
▁увере	-12735
коричне	-12736
нинград	-12737
▁Македо	-12738
▁Термин	-12739
▁землёй	-12740
▁маркси	-12741
▁обязан	-12742
▁оранже	-12743
▁ордена	-12744
▁особое	-12745
▁служеб	-12746
числения	-12747
▁Наконец	-12748
▁дивизии	-12749
▁контакт	-12750
▁назвали	-12751
▁назначи	-12752
▁находит	-12753
▁недавно	-12754
▁разными	-12755
▁раствор	-12756
▁расходы	-12757
▁сосудов	-12758
▁Архимеда	-12759
▁Известно	-12760
▁Кронштад	-12761
▁единицей	-12762
▁календар	-12763
▁полковод	-12764
▁преданию	-12765
▁Архангель	-12766
▁агентство	-12767
▁механизма	-12768
▁настоящий	-12769
▁отверстие	-12770
▁приобрета	-12771
▁употребле	-12772
▁фестиваля	-12773
▁проведение	-12774
▁действовали	-12775
▁классицизма	-12776
▁производить	-12777
▁результатом	-12778
▁религиозные	-12779
▁телевидение	-12780
▁рассматривать	-12781
ИИ	-12782
цк	-12783
Гор	-12784
дзи	-12785
еда	-12786
жия	-12787
сье	-12788
▁сх	-12789
ации	-12790
вины	-12791
жели	-12792
куро	-12793
мита	-12794
чках	-12795
щами	-12796
▁вир	-12797
▁уди	-12798
▁шар	-12799
▁шпи	-12800
говые	-12801
чатый	-12802
▁3000	-12803
▁«...	-12804
▁Ближ	-12805
▁Чаще	-12806
▁вере	-12807
▁греб	-12808
▁звук	-12809
▁иера	-12810
▁очер	-12811
▁сбли	-12812
▁хана	-12813
▁штат	-12814
блется	-12815
интере	-12816
▁Ирана	-12817
▁Монре	-12818
▁Собор	-12819
▁видам	-12820
▁враща	-12821
▁лидер	-12822
▁птица	-12823
▁ранне	-12824
▁среду	-12825
▁точек	-12826
ждённый	-12827
ленного	-12828
▁Месопо	-12829
▁дорогу	-12830
▁лесной	-12831
▁некото	-12832
▁прости	-12833
▁рефлек	-12834
▁шерсти	-12835
зировать	-12836
новского	-12837
ствующий	-12838
▁вакцина	-12839
▁доброде	-12840
▁покрова	-12841
▁присваи	-12842
▁рабочий	-12843
▁римляне	-12844
▁римских	-12845
▁соверши	-12846
▁чёрного	-12847
спользова	-12848
▁Ирландии	-12849
▁ансамбль	-12850
▁интересы	-12851
▁полимери	-12852
▁помогает	-12853
▁процвета	-12854
▁снижения	-12855
▁церковью	-12856
▁Всероссий	-12857
▁австралий	-12858
▁буквально	-12859
▁воздушных	-12860
▁застройка	-12861
▁документах	-12862
▁магистрали	-12863
▁творчество	-12864
▁европейские	-12865
▁нефтепродук	-12866
▁образовании	-12867
▁проектирова	-12868
▁Таджикистана	-12869
▁американской	-12870
▁интеллектуаль	-12871
77	-12872
Зе	-12873
Ры	-12874
ам	-12875
▁й	-12876
жёр	-12877
изо	-12878
кат	-12879
шах	-12880
▁76	-12881
▁IS	-12882
▁СП	-12883
пром	-12884
степ	-12885
▁Car	-12886
▁Неа	-12887
берга	-12888
вской	-12889
слове	-12890
ссейн	-12891
чиком	-12892
▁1976	-12893
▁алге	-12894
▁вене	-12895
▁карт	-12896
▁окон	-12897
▁синд	-12898
▁услы	-12899
▁экзо	-12900
женцев	-12901
точный	-12902
щенный	-12903
▁Земля	-12904
▁Игорь	-12905
▁Талли	-12906
▁Эдуар	-12907
▁вакци	-12908
▁годам	-12909
▁круга	-12910
▁осады	-12911
▁пости	-12912
▁продю	-12913
▁удили	-12914
▁цвету	-12915
▁южнее	-12916
Крупней	-12917
видение	-12918
невосто	-12919
▁Истори	-12920
▁ботани	-12921
▁венгер	-12922
▁задней	-12923
▁носить	-12924
▁одежда	-12925
▁прести	-12926
▁прокля	-12927
▁родила	-12928
▁сектор	-12929
▁теорию	-12930
▁фильмы	-12931
земномор	-12932
▁Алексея	-12933
▁Аналоги	-12934
▁Тираспо	-12935
▁депутат	-12936
▁доступа	-12937
▁доходов	-12938
▁заранее	-12939
▁легенде	-12940
▁налогов	-12941
▁составу	-12942
▁травяни	-12943
▁умерших	-12944
▁чувства	-12945
▁явлений	-12946
▁византий	-12947
▁выставки	-12948
▁достигла	-12949
▁изучение	-12950
▁касается	-12951
▁молекулы	-12952
▁статусом	-12953
▁выделения	-12954
▁митрополи	-12955
▁мультфиль	-12956
▁последняя	-12957
▁препараты	-12958
▁прочности	-12959
▁стоимости	-12960
▁Изначально	-12961
▁латинского	-12962
▁назначение	-12963
▁обнаружено	-12964
▁совершения	-12965
▁украинский	-12966
▁эвакуирова	-12967
▁максимально	-12968
▁переработки	-12969
▁применялись	-12970
▁итальянского	-12971
▁способностью	-12972
▁водохранилище	-12973
-6	-12974
Сы	-12975
рг	-12976
пал	-12977
▁Кы	-12978
дому	-12979
куля	-12980
лием	-12981
нома	-12982
скле	-12983
фина	-12984
▁3,5	-12985
▁Еди	-12986
▁РАН	-12987
▁тяж	-12988
ладен	-12989
лесте	-12990
▁Жене	-12991
▁базы	-12992
▁стри	-12993
▁темы	-12994
▁указ	-12995
Россий	-12996
вающее	-12997
ленный	-12998
роятно	-12999
щенные	-13000
▁Адриа	-13001
▁Джона	-13002
▁Лозан	-13003
▁Мордо	-13004
▁Немец	-13005
▁Париж	-13006
▁монта	-13007
▁мышцы	-13008
▁общин	-13009
▁попол	-13010
грирова	-13011
▁Фёдоро	-13012
▁важной	-13013
▁выстре	-13014
▁записы	-13015
▁картин	-13016
▁лингви	-13017
▁молока	-13018
▁пришла	-13019
▁протек	-13020
▁прошла	-13021
▁рассея	-13022
▁смогли	-13023
▁солнце	-13024
▁транзи	-13025
▁чертой	-13026
рованный	-13027
▁вернуть	-13028
▁выдержа	-13029
▁желание	-13030
▁наличия	-13031
▁практика	-13032
▁принимал	-13033
▁русскими	-13034
▁свойство	-13035
▁соцветия	-13036
▁строится	-13037
▁выступают	-13038
▁греческих	-13039
▁областной	-13040
▁останавли	-13041
▁потенциал	-13042
формулирова	-13043
▁оставаться	-13044
▁полуостров	-13045
▁преследова	-13046
▁повсеместно	-13047
Использование	-13048
▁недостаточно	-13049
▁заканчивается	-13050
ДР	-13051
рб	-13052
яр	-13053
Сте	-13054
алы	-13055
зра	-13056
шня	-13057
▁53	-13058
▁ет	-13059
клов	-13060
ктов	-13061
муля	-13062
штаб	-13063
весто	-13064
комму	-13065
нскую	-13066
▁выяс	-13067
▁углу	-13068
▁хули	-13069
шедших	-13070
▁Литве	-13071
▁вошло	-13072
▁курси	-13073
▁нашёл	-13074
▁опять	-13075
▁телом	-13076
▁успех	-13077
▁ювели	-13078
Фамилия	-13079
вшимися	-13080
▁Афинах	-13081
▁априор	-13082
▁данное	-13083
▁жертво	-13084
▁закрыт	-13085
▁мечети	-13086
▁одежду	-13087
▁посоль	-13088
▁туризм	-13089
▁аммиака	-13090
▁ведения	-13091
▁комисса	-13092
▁прохлад	-13093
▁чувство	-13094
Благодаря	-13095
Представи	-13096
логически	-13097
нокоманду	-13098
стройство	-13099
▁конечном	-13100
▁передней	-13101
▁потенциа	-13102
▁проходил	-13103
▁расцвета	-13104
▁случайно	-13105
▁традиций	-13106
▁памятника	-13107
▁перечисле	-13108
▁связывает	-13109
▁физиологи	-13110
Железнодоро	-13111
▁небольшого	-13112
▁оставались	-13113
▁разделение	-13114
▁телеканала	-13115
▁эмоциональ	-13116
▁принадлежал	-13117
▁управлением	-13118
▁национальные	-13119
▁пассажирских	-13120
▁производителей	-13121
ak	-13122
йм	-13123
our	-13124
Вен	-13125
ево	-13126
йне	-13127
сью	-13128
▁Ще	-13129
авто	-13130
бита	-13131
ксид	-13132
нель	-13133
нерт	-13134
нтий	-13135
рины	-13136
склю	-13137
▁Лаэ	-13138
▁Пок	-13139
▁Хри	-13140
▁инф	-13141
▁кап	-13142
нники	-13143
▁1963	-13144
▁1972	-13145
▁1984	-13146
▁АССР	-13147
▁Дани	-13148
▁Испа	-13149
▁Калу	-13150
▁Ладо	-13151
▁Одно	-13152
▁Уста	-13153
▁мани	-13154
▁мезо	-13155
▁руба	-13156
▁счет	-13157
▁чумы	-13158
грамма	-13159
точной	-13160
▁Калмы	-13161
▁Мария	-13162
▁Орест	-13163
▁брази	-13164
▁госпо	-13165
▁мысль	-13166
▁опыта	-13167
▁свадь	-13168
▁углуб	-13169
▁хлора	-13170
вещание	-13171
русской	-13172
соналии	-13173
▁Египет	-13174
▁Здание	-13175
▁Придне	-13176
▁приказ	-13177
▁редких	-13178
▁самыми	-13179
▁собаки	-13180
▁созыва	-13181
зируется	-13182
лическая	-13183
▁Максима	-13184
▁вертолё	-13185
▁главная	-13186
▁глубине	-13187
▁говорил	-13188
▁пароход	-13189
▁рациона	-13190
▁склонах	-13191
▁твёрдых	-13192
▁членами	-13193
▁Основная	-13194
▁Сыктывка	-13195
▁активное	-13196
▁бассейне	-13197
▁величина	-13198
▁границей	-13199
▁делается	-13200
▁конфликт	-13201
▁молодёжи	-13202
▁мышления	-13203
▁периодом	-13204
▁раствора	-13205
▁философа	-13206
▁Верховный	-13207
▁Городской	-13208
▁Несколько	-13209
▁диапазоне	-13210
▁опасность	-13211
▁персонажи	-13212
▁тенденция	-13213
▁указывают	-13214
▁исполнение	-13215
▁показатели	-13216
▁старообряд	-13217
▁Севастополя	-13218
▁возвращения	-13219
▁потребности	-13220
▁различаются	-13221
▁Средиземномо	-13222
▁единственной	-13223
▁значительных	-13224
▁органических	-13225
▁температурах	-13226
▁эффективности	-13227
▁устанавливается	-13228
фф	-13229
▁x	-13230
▁×	-13231
-20	-13232
ано	-13233
—12	-13234
▁ид	-13235
Меди	-13236
лица	-13237
сено	-13238
тями	-13239
цких	-13240
чком	-13241
шала	-13242
▁0,2	-13243
▁1,2	-13244
▁Бей	-13245
▁Бир	-13246
▁Зак	-13247
▁Сти	-13248
▁бои	-13249
▁изы	-13250
▁пом	-13251
Музеи	-13252
жники	-13253
зовая	-13254
логию	-13255
риата	-13256
стным	-13257
тизма	-13258
▁1896	-13259
▁1973	-13260
▁Изма	-13261
▁Сама	-13262
▁отро	-13263
▁полю	-13264
▁сюда	-13265
▁упло	-13266
▁фона	-13267
Послед	-13268
щалось	-13269
▁греки	-13270
▁делам	-13271
▁драмы	-13272
▁звука	-13273
▁звуки	-13274
▁коали	-13275
▁линию	-13276
▁месту	-13277
▁отказ	-13278
▁попал	-13279
▁самим	-13280
▁южном	-13281
▁ярмар	-13282
рийский	-13283
▁Еванге	-13284
▁Иванов	-13285
▁Петров	-13286
▁агрега	-13287
▁гигант	-13288
▁заново	-13289
▁немало	-13290
▁особня	-13291
▁отряды	-13292
▁потока	-13293
▁привер	-13294
▁прямые	-13295
рических	-13296
струкция	-13297
▁Венгрии	-13298
▁Предста	-13299
▁амнисти	-13300
▁входила	-13301
▁компакт	-13302
▁наступа	-13303
▁показал	-13304
▁проекты	-13305
▁прошлое	-13306
▁соедини	-13307
Восточной	-13308
▁Пифагора	-13309
▁включены	-13310
▁воинской	-13311
▁массовые	-13312
▁осталась	-13313
▁суверени	-13314
▁ценности	-13315
▁являлось	-13316
▁водохозяй	-13317
▁вынуждены	-13318
▁ежедневно	-13319
▁консульта	-13320
▁молекуляр	-13321
▁признаков	-13322
▁принимали	-13323
▁разделена	-13324
▁совпадает	-13325
▁участвует	-13326
▁Республике	-13327
▁аминокисло	-13328
▁благотвори	-13329
▁занимаются	-13330
▁музыкантов	-13331
▁находиться	-13332
▁популярной	-13333
▁опубликовал	-13334
▁превратился	-13335
▁увеличилось	-13336
▁контролирова	-13337
▁общественные	-13338
▁университетов	-13339
▁Государственный	-13340
PG	-13341
ВО	-13342
ИК	-13343
ТА	-13344
!».	-13345
Бер	-13346
Выс	-13347
дец	-13348
ёры	-13349
▁72	-13350
▁78	-13351
▁Св	-13352
Мета	-13353
Моск	-13354
бера	-13355
ннов	-13356
рали	-13357
сней	-13358
▁70-	-13359
▁Пле	-13360
▁Сал	-13361
▁гон	-13362
▁омы	-13363
манов	-13364
рению	-13365
тоном	-13366
▁1983	-13367
▁Ката	-13368
▁Теат	-13369
▁Юсти	-13370
▁внед	-13371
▁дешё	-13372
▁инну	-13373
▁цены	-13374
Данные	-13375
ненных	-13376
спонде	-13377
▁Автор	-13378
▁Зевса	-13379
▁Летом	-13380
▁Порту	-13381
▁лицам	-13382
▁назем	-13383
▁обмен	-13384
▁проде	-13385
▁русла	-13386
▁трени	-13387
▁трост	-13388
▁чесно	-13389
Электро	-13390
лийский	-13391
▁Вавило	-13392
▁Днепра	-13393
▁Канаде	-13394
▁выступ	-13395
▁голоса	-13396
▁делали	-13397
▁защите	-13398
▁костей	-13399
▁метода	-13400
▁списке	-13401
▁спуска	-13402
▁франко	-13403
▁Голливу	-13404
▁Октавиа	-13405
▁вещания	-13406
▁вначале	-13407
▁военное	-13408
▁игроков	-13409
▁корпора	-13410
▁нараста	-13411
▁поисках	-13412
▁полотни	-13413
▁сильное	-13414
▁собраны	-13415
▁функция	-13416
▁широкой	-13417
Городской	-13418
▁академия	-13419
▁восточно	-13420
▁кларнета	-13421
▁короткий	-13422
▁министра	-13423
▁правилам	-13424
▁треуголь	-13425
▁контролем	-13426
▁пациентов	-13427
▁перспекти	-13428
▁плавления	-13429
▁установил	-13430
Современный	-13431
▁Иерусалима	-13432
▁английской	-13433
▁губернатор	-13434
▁постоянных	-13435
▁построения	-13436
▁разработки	-13437
▁сообщества	-13438
▁стремление	-13439
▁применяться	-13440
▁происходило	-13441
▁участвовали	-13442
▁единственная	-13443
▁периодически	-13444
▁христианских	-13445
▁Международный	-13446
▁возвышенности	-13447
▁принадлежности	-13448
▁художественный	-13449
мм	-13450
ina	-13451
лос	-13452
юрн	-13453
▁Жо	-13454
кеты	-13455
лики	-13456
намо	-13457
таль	-13458
теру	-13459
▁Лев	-13460
▁шей	-13461
Тради	-13462
жется	-13463
новым	-13464
раясь	-13465
рывно	-13466
▁1966	-13467
▁Двор	-13468
▁Ирты	-13469
▁блок	-13470
▁бота	-13471
▁дали	-13472
▁лиши	-13473
▁наре	-13474
▁серб	-13475
▁спец	-13476
▁сыну	-13477
▁щита	-13478
герман	-13479
жества	-13480
класси	-13481
лияние	-13482
нистов	-13483
новому	-13484
спекта	-13485
ченной	-13486
чённые	-13487
▁Встре	-13488
▁Кубка	-13489
▁Фёдор	-13490
▁жилой	-13491
▁знако	-13492
▁карье	-13493
▁колба	-13494
▁миром	-13495
▁собак	-13496
▁шелко	-13497
жностью	-13498
▁Теперь	-13499
▁абстра	-13500
▁вестер	-13501
▁заняли	-13502
▁камней	-13503
▁князья	-13504
▁лесных	-13505
▁незако	-13506
▁нейтри	-13507
▁орбиты	-13508
▁плотно	-13509
▁присво	-13510
▁ранние	-13511
▁светло	-13512
▁справа	-13513
степенно	-13514
тивности	-13515
▁Хабаров	-13516
▁автовок	-13517
▁возвыша	-13518
▁женских	-13519
▁захвата	-13520
▁именами	-13521
▁коротко	-13522
▁очистки	-13523
▁погребе	-13524
▁поездов	-13525
▁сильный	-13526
▁служили	-13527
▁спектак	-13528
▁энергия	-13529
▁близлежа	-13530
▁денежной	-13531
▁жидкость	-13532
▁иностран	-13533
▁короткие	-13534
▁медицины	-13535
▁возможных	-13536
▁возобнови	-13537
▁достигают	-13538
▁испытания	-13539
▁массового	-13540
▁населению	-13541
▁окисления	-13542
▁перевозок	-13543
▁помещение	-13544
▁популярны	-13545
▁программе	-13546
▁свободных	-13547
▁старейших	-13548
▁ассоциации	-13549
▁деревянной	-13550
▁институтов	-13551
▁материалом	-13552
▁обозначает	-13553
▁сохранился	-13554
▁спортивные	-13555
▁конституции	-13556
▁музыкальные	-13557
▁обусловлено	-13558
▁сохранилась	-13559
Первоначально	-13560
▁предприятиях	-13561
▁промышленный	-13562
▁разнообразие	-13563
▁установления	-13564
▁регионального	-13565
▁средиземномор	-13566
▁существовании	-13567
▁способствовало	-13568
ct	-13569
sk	-13570
льм	-13571
рые	-13572
фюр	-13573
—30	-13574
▁ый	-13575
ване	-13576
дали	-13577
жина	-13578
мбра	-13579
носа	-13580
рипи	-13581
ряют	-13582
▁2—3	-13583
▁Бай	-13584
▁Бат	-13585
▁Иси	-13586
▁Кру	-13587
▁Хол	-13588
▁аор	-13589
▁бог	-13590
▁дат	-13591
▁лам	-13592
Гидро	-13593
карна	-13594
сской	-13595
стики	-13596
треть	-13597
▁Было	-13598
▁Вест	-13599
▁Нере	-13600
▁Смир	-13601
▁ведь	-13602
▁дала	-13603
▁ледя	-13604
▁пьес	-13605
▁рези	-13606
▁слад	-13607
▁сырь	-13608
ваемая	-13609
католи	-13610
новича	-13611
нскому	-13612
рьевич	-13613
тельна	-13614
щённой	-13615
ющуюся	-13616
▁Смоле	-13617
▁вдвое	-13618
▁домах	-13619
▁здоро	-13620
▁леший	-13621
▁набра	-13622
▁общие	-13623
▁отчёт	-13624
▁пейза	-13625
▁случи	-13626
▁хлоро	-13627
бирский	-13628
государ	-13629
ложении	-13630
провода	-13631
▁Сергея	-13632
▁Сульпи	-13633
▁аквари	-13634
▁булавы	-13635
▁вегета	-13636
▁влияет	-13637
▁малого	-13638
▁менедж	-13639
▁особые	-13640
▁охраня	-13641
▁оценке	-13642
▁писали	-13643
▁племян	-13644
▁развле	-13645
▁расход	-13646
пература	-13647
тельских	-13648
▁Албании	-13649
▁Главный	-13650
▁Евразии	-13651
▁высказа	-13652
▁выходят	-13653
▁диаметр	-13654
▁длинный	-13655
▁казаков	-13656
▁лотереи	-13657
▁мировых	-13658
▁названа	-13659
▁однород	-13660
▁опровер	-13661
▁признан	-13662
▁проспек	-13663
▁сильнее	-13664
▁успехом	-13665
▁Северная	-13666
▁бюстгаль	-13667
▁введение	-13668
▁границах	-13669
▁изобрета	-13670
▁комиксов	-13671
▁новгород	-13672
▁полагают	-13673
▁практики	-13674
▁принципа	-13675
▁принципи	-13676
▁сущности	-13677
▁Советская	-13678
▁вернуться	-13679
▁двигателя	-13680
▁переселен	-13681
▁понимании	-13682
▁следующее	-13683
▁субъектов	-13684
▁устройств	-13685
▁дифференци	-13686
▁колеблется	-13687
▁множеством	-13688
▁свободного	-13689
▁укрепление	-13690
▁наблюдаются	-13691
▁осуществляют	-13692
▁сформулирова	-13693
▁государствами	-13694
▁машиностроения	-13695
74	-13696
amp	-13697
Ино	-13698
влё	-13699
офи	-13700
▁96	-13701
▁Fe	-13702
▁Ян	-13703
▁щё	-13704
вная	-13705
евна	-13706
ката	-13707
льни	-13708
рази	-13709
село	-13710
▁Всё	-13711
▁Жен	-13712
▁Юпи	-13713
▁губ	-13714
▁ток	-13715
▁щит	-13716
водом	-13717
мания	-13718
товым	-13719
▁Союз	-13720
▁берё	-13721
▁виру	-13722
▁вход	-13723
▁купе	-13724
▁моче	-13725
▁полк	-13726
▁приу	-13727
жённый	-13728
шенный	-13729
▁Карфа	-13730
▁Липец	-13731
▁Патри	-13732
▁Повол	-13733
▁Столи	-13734
▁забра	-13735
▁массе	-13736
▁несёт	-13737
▁палом	-13738
▁следы	-13739
▁социо	-13740
▁углом	-13741
менными	-13742
ступить	-13743
ходятся	-13744
▁Сербии	-13745
▁Флорен	-13746
▁важный	-13747
▁оксида	-13748
▁посели	-13749
▁прогно	-13750
▁разное	-13751
▁фигури	-13752
▁физико	-13753
образные	-13754
▁Тиберия	-13755
▁архиере	-13756
▁картине	-13757
▁молекул	-13758
▁называл	-13759
▁находят	-13760
▁поликли	-13761
▁пунктом	-13762
▁строить	-13763
▁трансли	-13764
▁удоволь	-13765
Памятники	-13766
Поскольку	-13767
тическими	-13768
▁Американ	-13769
▁Северный	-13770
▁движении	-13771
▁добиться	-13772
▁западные	-13773
▁погибших	-13774
▁получать	-13775
▁преодоле	-13776
▁районами	-13777
▁состояла	-13778
▁столетий	-13779
логическим	-13780
▁строились	-13781
▁ценностей	-13782
▁Президента	-13783
▁получивший	-13784
▁протестант	-13785
▁сокращение	-13786
▁количествах	-13787
▁низменности	-13788
▁открывается	-13789
▁провинциаль	-13790
▁богослужения	-13791
▁естественной	-13792
▁композиторов	-13793
Географическое	-13794
▁классификация	-13795
▁рекомендуется	-13796
76	-13797
89	-13798
ho	-13799
yp	-13800
бад	-13801
бит	-13802
дум	-13803
нёр	-13804
сот	-13805
воци	-13806
нуса	-13807
сасы	-13808
▁Оба	-13809
▁Обе	-13810
▁Плу	-13811
▁Фра	-13812
вичем	-13813
несла	-13814
созда	-13815
сталь	-13816
терей	-13817
штейн	-13818
▁1978	-13819
▁Воро	-13820
▁Невы	-13821
▁Якут	-13822
▁буты	-13823
▁думы	-13824
▁линь	-13825
▁трой	-13826
ванный	-13827
зуются	-13828
ремонт	-13829
шенные	-13830
▁Тамер	-13831
▁видно	-13832
▁забро	-13833
▁запла	-13834
▁немед	-13835
▁немцы	-13836
▁олова	-13837
▁полот	-13838
▁преде	-13839
▁рабов	-13840
▁репер	-13841
▁садов	-13842
▁сжига	-13843
▁славы	-13844
▁солей	-13845
▁сотен	-13846
▁устро	-13847
кистане	-13848
лёнными	-13849
шествие	-13850
▁Высота	-13851
▁Средне	-13852
▁Стамбу	-13853
▁братья	-13854
▁взгляд	-13855
▁идеали	-13856
▁миниат	-13857
▁начато	-13858
▁нашего	-13859
▁особым	-13860
▁помило	-13861
▁привед	-13862
▁соборе	-13863
▁удосто	-13864
▁фосфор	-13865
качестве	-13866
рийского	-13867
▁Аполлон	-13868
▁вызвало	-13869
▁главное	-13870
▁кремния	-13871
▁меньшин	-13872
▁объедин	-13873
▁подходя	-13874
▁позиций	-13875
▁продажи	-13876
▁простых	-13877
▁терапии	-13878
▁Болгарии	-13879
▁Председа	-13880
▁народный	-13881
▁никакого	-13882
▁обычного	-13883
▁основное	-13884
▁признаки	-13885
таническое	-13886
▁Екатерины	-13887
▁магазинов	-13888
▁признание	-13889
▁связанный	-13890
▁улучшения	-13891
▁федерации	-13892
▁Дюссельдор	-13893
▁вооружении	-13894
▁культурным	-13895
▁отдельного	-13896
▁полномочия	-13897
▁пользуется	-13898
▁солнечного	-13899
▁сооружение	-13900
▁характерен	-13901
▁воспользова	-13902
▁последующих	-13903
▁региональных	-13904
▁руководитель	-13905
▁университете	-13906
81	-13907
84	-13908
ep	-13909
Эк	-13910
фя	-13911
▁i	-13912
.18	-13913
.».	-13914
Чер	-13915
дик	-13916
крё	-13917
нту	-13918
ньи	-13919
рип	-13920
рян	-13921
сол	-13922
хин	-13923
▁to	-13924
▁РК	-13925
▁ив	-13926
▁ун	-13927
Герб	-13928
зить	-13929
изда	-13930
прос	-13931
рьмя	-13932
слом	-13933
чила	-13934
▁Бел	-13935
▁Тан	-13936
▁зат	-13937
▁ибн	-13938
▁сча	-13939
Казах	-13940
ждать	-13941
корре	-13942
эропо	-13943
▁1911	-13944
▁1927	-13945
▁1952	-13946
▁1953	-13947
▁алма	-13948
▁гомо	-13949
▁иным	-13950
▁кофе	-13951
▁лега	-13952
▁наве	-13953
▁пифа	-13954
▁шаро	-13955
▁яйце	-13956
вардей	-13957
вилось	-13958
знание	-13959
ландия	-13960
стские	-13961
тирует	-13962
▁азиат	-13963
▁крова	-13964
▁обога	-13965
▁палео	-13966
▁разда	-13967
▁слева	-13968
▁смеша	-13969
▁стерж	-13970
▁умира	-13971
Площадь	-13972
разному	-13973
▁валент	-13974
▁друзья	-13975
▁епархи	-13976
▁знание	-13977
▁крахма	-13978
▁личное	-13979
▁перего	-13980
▁посеща	-13981
▁работо	-13982
▁ранней	-13983
▁сезоне	-13984
▁сконча	-13985
▁увенча	-13986
▁улицах	-13987
▁военным	-13988
▁иерархи	-13989
▁полости	-13990
▁прилага	-13991
▁работой	-13992
▁римский	-13993
▁сборник	-13994
▁торгово	-13995
▁частной	-13996
▁юстиции	-13997
▁Основным	-13998
▁акционер	-13999
▁достигло	-14000
▁заинтере	-14001
▁открытом	-14002
▁подобное	-14003
▁польской	-14004
▁построек	-14005
▁претерпе	-14006
▁развитых	-14007
▁сельское	-14008
▁симметри	-14009
▁способов	-14010
▁термином	-14011
▁центрами	-14012
▁превосход	-14013
▁предсказа	-14014
▁состоящие	-14015
▁философов	-14016
▁Украинской	-14017
▁античности	-14018
▁внутренний	-14019
▁знаменитый	-14020
▁крупнейшие	-14021
▁набережной	-14022
▁основанная	-14023
▁производят	-14024
▁сочинениях	-14025
▁называемого	-14026
▁специального	-14027
▁естественного	-14028
▁сопротивления	-14029
▁археологических	-14030
73	-14031
Cl	-14032
[...]
