{
  "version": "1.0",
  "truncation": null,
  "padding": null,
  "added_tokens": [
    {
      "id": 0,
      "content": "<PAD>",
      "single_word": false,
      "lstrip": false,
      "rstrip": false,
      "normalized": false,
      "special": true
    },
    {
      "id": 1,
      "content": "<UNK>",
      "single_word": false,
      "lstrip": false,
      "rstrip": false,
      "normalized": false,
      "special": true
    },
    {
      "id": 2,
      "content": "<BOS>",
      "single_word": false,
      "lstrip": false,
      "rstrip": false,
      "normalized": false,
      "special": true
    },
    {
      "id": 3,
      "content": "<EOS>",
      "single_word": false,
      "lstrip": false,
      "rstrip": false,
      "normalized": false,
      "special": true
    }
  ],
  "normalizer": null,
  "pre_tokenizer": {
    "type": "Whitespace"
  },
  "post_processor": null,
  "decoder": {
    "type": "BPEDecoder",
    "suffix": "</w>"
  },
  "model": {
    "type": "BPE",
    "dropout": null,
    "unk_token": "<UNK>",
    "continuing_subword_prefix": null,
    "end_of_word_suffix": null,
    "fuse_unk": false,
    "byte_fallback": false,
    "ignore_merges": false,
    "vocab": {
      "<PAD>": 0,
      "<UNK>": 1,
      "<BOS>": 2,
      "<EOS>": 3,
      "!": 4,
      "#": 5,
      "$": 6,
      "%": 7,
      "&": 8,
      "'": 9,
      "+": 10,
      ",": 11,
      "-": 12,
      ".": 13,
      "0": 14,
      "1": 15,
      "2": 16,
      "3": 17,
      "4": 18,
      "5": 19,
      "6": 20,
      "7": 21,
      "8": 22,
      "9": 23,
      ":": 24,
      ";": 25,
      "?": 26,
      "@": 27,
      "A": 28,
      "B": 29,
      "C": 30,
      "D": 31,
      "E": 32,
      "F": 33,
      "G": 34,
      "H": 35,
      "I": 36,
      "J": 37,
      "K": 38,
      "L": 39,
      "M": 40,
      "N": 41,
      "O": 42,
      "P": 43,
      "Q": 44,
      "R": 45,
      "S": 46,
      "T": 47,
      "U": 48,
      "V": 49,
      "W": 50,
      "X": 51,
      "Y": 52,
      "Z": 53,
      "\\": 54,
      "^": 55,
      "_": 56,
      "`": 57,
      "a": 58,
      "b": 59,
      "c": 60,
      "d": 61,
      "e": 62,
      "f": 63,
      "g": 64,
      "h": 65,
      "i": 66,
      "j": 67,
      "k": 68,
      "l": 69,
      "m": 70,
      "n": 71,
      "o": 72,
      "p": 73,
      "q": 74,
      "r": 75,
      "s": 76,
      "t": 77,
      "u": 78,
      "v": 79,
      "w": 80,
      "x": 81,
      "y": 82,
      "z": 83,
      "~": 84,
      "¢": 85,
      "£": 86,
      "¥": 87,
      "¦": 88,
      "§": 89,
      "«": 90,
      "¬": 91,
      "­": 92,
      "®": 93,
      "°": 94,
      "±": 95,
      "²": 96,
      "³": 97,
      "µ": 98,
      "·": 99,
      "¹": 100,
      "º": 101,
      "»": 102,
      "¼": 103,
      "½": 104,
      "¾": 105,
      "¿": 106,
      "À": 107,
      "Á": 108,
      "Â": 109,
      "Ä": 110,
      "Å": 111,
      "Æ": 112,
      "Ç": 113,
      "É": 114,
      "Î": 115,
      "Ó": 116,
      "Ö": 117,
      "×": 118,
      "Ü": 119,
      "Þ": 120,
      "ß": 121,
      "à": 122,
      "á": 123,
      "â": 124,
      "ã": 125,
      "ä": 126,
      "å": 127,
      "æ": 128,
      "ç": 129,
      "è": 130,
      "é": 131,
      "ê": 132,
      "ë": 133,
      "ì": 134,
      "í": 135,
      "î": 136,
      "ï": 137,
      "ð": 138,
      "ñ": 139,
      "ò": 140,
      "ó": 141,
      "ô": 142,
      "õ": 143,
      "ö": 144,
      "÷": 145,
      "ø": 146,
      "ù": 147,
      "ú": 148,
      "û": 149,
      "ü": 150,
      "ý": 151,
      "þ": 152,
      "Ā": 153,
      "ā": 154,
      "ă": 155,
      "ą": 156,
      "ć": 157,
      "č": 158,
      "ď": 159,
      "đ": 160,
      "Ē": 161,
      "ē": 162,
      "ĕ": 163,
      "ė": 164,
      "ę": 165,
      "ě": 166,
      "ġ": 167,
      "Ĥ": 168,
      "Ī": 169,
      "ī": 170,
      "ĭ": 171,
      "Į": 172,
      "İ": 173,
      "ı": 174,
      "Ĳ": 175,
      "ĸ": 176,
      "ļ": 177,
      "ł": 178,
      "ń": 179,
      "ō": 180,
      "œ": 181,
      "ř": 182,
      "Ś": 183,
      "ś": 184,
      "ŝ": 185,
      "ş": 186,
      "Š": 187,
      "š": 188,
      "ţ": 189,
      "ū": 190,
      "ŭ": 191,
      "ů": 192,
      "ų": 193,
      "ź": 194,
      "Ż": 195,
      "ż": 196,
      "Ž": 197,
      "ž": 198,
      "ǎ": 199,
      "ǝ": 200,
      "ǣ": 201,
      "ǫ": 202,
      "ǯ": 203,
      "ǰ": 204,
      "ə": 205,
      "ɛ": 206,
      "ɣ": 207,
      "ɦ": 208,
      "ɨ": 209,
      "ʘ": 210,
      "ʷ": 211,
      "ʻ": 212,
      "ʼ": 213,
      "ʾ": 214,
      "ʿ": 215,
      "ˊ": 216,
      "ˌ": 217,
      "ː": 218,
      "˚": 219,
      "̀": 220,
      "̃": 221,
      "̄": 222,
      "̣": 223,
      "̥": 224,
      "̯": 225,
      "͠": 226,
      "͡": 227,
      "Ώ": 228,
      "ΐ": 229,
      "Α": 230,
      "Β": 231,
      "Γ": 232,
      "Δ": 233,
      "Ε": 234,
      "Η": 235,
      "Θ": 236,
      "Ι": 237,
      "Κ": 238,
      "Λ": 239,
      "Μ": 240,
      "Ν": 241,
      "Ο": 242,
      "Π": 243,
      "Ρ": 244,
      "Σ": 245,
      "Τ": 246,
      "Υ": 247,
      "Φ": 248,
      "Χ": 249,
      "Ψ": 250,
      "Ω": 251,
      "Ϊ": 252,
      "ά": 253,
      "έ": 254,
      "ή": 255,
      "ί": 256,
      "α": 257,
      "β": 258,
      "γ": 259,
      "δ": 260,
      "ε": 261,
      "ζ": 262,
      "η": 263,
      "θ": 264,
      "ι": 265,
      "κ": 266,
      "λ": 267,
      "μ": 268,
      "ν": 269,
      "ξ": 270,
      "ο": 271,
      "π": 272,
      "ρ": 273,
      "ς": 274,
      "σ": 275,
      "τ": 276,
      "υ": 277,
      "φ": 278,
      "χ": 279,
      "ψ": 280,
      "ω": 281,
      "ό": 282,
      "ύ": 283,
      "ώ": 284,
      "Ё": 285,
      "Є": 286,
      "Ѕ": 287,
      "І": 288,
      "Ї": 289,
      "Ј": 290,
      "Ў": 291,
      "А": 292,
      "Б": 293,
      "В": 294,
      "Г": 295,
      "Д": 296,
      "Е": 297,
      "Ж": 298,
      "З": 299,
      "И": 300,
      "Й": 301,
      "К": 302,
      "Л": 303,
      "М": 304,
      "Н": 305,
      "О": 306,
      "П": 307,
      "Р": 308,
      "С": 309,
      "Т": 310,
      "У": 311,
      "Ф": 312,
      "Х": 313,
      "Ц": 314,
      "Ч": 315,
      "Ш": 316,
      "Щ": 317,
      "Ъ": 318,
      "Ы": 319,
      "Ь": 320,
      "Э": 321,
      "Ю": 322,
      "Я": 323,
      "а": 324,
      "б": 325,
      "в": 326,
      "г": 327,
      "д": 328,
      "е": 329,
      "ж": 330,
      "з": 331,
      "и": 332,
      "й": 333,
      "к": 334,
      "л": 335,
      "м": 336,
      "н": 337,
      "о": 338,
      "п": 339,
      "р": 340,
      "с": 341,
      "т": 342,
      "у": 343,
      "ф": 344,
      "х": 345,
      "ц": 346,
      "ч": 347,
      "ш": 348,
      "щ": 349,
      "ъ": 350,
      "ы": 351,
      "ь": 352,
      "э": 353,
      "ю": 354,
      "я": 355,
      "ё": 356,
      "ђ": 357,
      "ѓ": 358,
      "є": 359,
      "ѕ": 360,
      "і": 361,
      "ї": 362,
      "ј": 363,
      "љ": 364,
      "њ": 365,
      "ћ": 366,
      "ѝ": 367,
      "ў": 368,
      "Ѡ": 369,
      "ѡ": 370,
      "Ѣ": 371,
      "ѣ": 372,
      "ѥ": 373,
      "Ѧ": 374,
      "ѧ": 375,
      "ѫ": 376,
      "Ѳ": 377,
      "ѳ": 378,
      "Ѵ": 379,
      "ѵ": 380,
      "ѹ": 381,
      "ѿ": 382,
      "ғ": 383,
      "Ҙ": 384,
      "қ": 385,
      "ң": 386,
      "ү": 387,
      "ұ": 388,
      "Ҳ": 389,
      "ҳ": 390,
      "Ҷ": 391,
      "Ӏ": 392,
      "ӈ": 393,
      "ӏ": 394,
      "ә": 395,
      "ӣ": 396,
      "ө": 397,
      "Ӯ": 398,
      "ӯ": 399,
      "ӹ": 400,
      "ԥ": 401,
      "Լ": 402,
      "Ն": 403,
      "է": 404,
      "ն": 405,
      "ո": 406,
      "վ": 407,
      "ւ": 408,
      "ְ": 409,
      "ִ": 410,
      "ֶ": 411,
      "ַ": 412,
      "ָ": 413,
      "ֹ": 414,
      "ֻ": 415,
      "ּ": 416,
      "ׁ": 417,
      "ׂ": 418,
      "א": 419,
      "ב": 420,
      "ג": 421,
      "ד": 422,
      "ה": 423,
      "ו": 424,
      "ז": 425,
      "ח": 426,
      "י": 427,
      "ך": 428,
      "כ": 429,
      "ל": 430,
      "ם": 431,
      "מ": 432,
      "נ": 433,
      "ע": 434,
      "ץ": 435,
      "ק": 436,
      "ר": 437,
      "ש": 438,
      "ת": 439,
      "ا": 440,
      "ب": 441,
      "ة": 442,
      "ت": 443,
      "د": 444,
      "ر": 445,
      "س": 446,
      "ش": 447,
      "ع": 448,
      "غ": 449,
      "ق": 450,
      "ل": 451,
      "م": 452,
      "ن": 453,
      "ه": 454,
      "و": 455,
      "ى": 456,
      "ي": 457,
      "ُ": 458,
      "گ": 459,
      "ی": 460,
      "ܐ": 461,
      "ܓ": 462,
      "ܗ": 463,
      "ܢ": 464,
      "ગ": 465,
      "જ": 466,
      "ત": 467,
      "ર": 468,
      "ા": 469,
      "ી": 470,
      "ુ": 471,
      "ข": 472,
      "ม": 473,
      "ล": 474,
      "ว": 475,
      "ห": 476,
      "า": 477,
      "้": 478,
      "ა": 479,
      "ბ": 480,
      "ე": 481,
      "ვ": 482,
      "ზ": 483,
      "თ": 484,
      "ი": 485,
      "კ": 486,
      "ლ": 487,
      "ნ": 488,
      "ო": 489,
      "პ": 490,
      "რ": 491,
      "ს": 492,
      "უ": 493,
      "ღ": 494,
      "შ": 495,
      "Ḥ": 496,
      "ḥ": 497,
      "Ḫ": 498,
      "ṓ": 499,
      "ṗ": 500,
      "ṣ": 501,
      "ṷ": 502,
      "ṻ": 503,
      "ἀ": 504,
      "ἁ": 505,
      "ἄ": 506,
      "Ἀ": 507,
      "Ἄ": 508,
      "ἐ": 509,
      "ἡ": 510,
      "Ἡ": 511,
      "ἰ": 512,
      "ἱ": 513,
      "Ἱ": 514,
      "ὁ": 515,
      "ὄ": 516,
      "Ὀ": 517,
      "ὐ": 518,
      "ὦ": 519,
      "ὰ": 520,
      "ὴ": 521,
      "ὶ": 522,
      "ὸ": 523,
      "ὺ": 524,
      "᾽": 525,
      "ῆ": 526,
      "ῖ": 527,
      "ῦ": 528,
      "ῶ": 529,
      "​": 530,
      "‎": 531,
      "‐": 532,
      "‑": 533,
      "‒": 534,
      "–": 535,
      "—": 536,
      "―": 537,
      "‘": 538,
      "’": 539,
      "“": 540,
      "”": 541,
      "„": 542,
      "†": 543,
      "‡": 544,
      "•": 545,
      "…": 546,
      "‰": 547,
      "′": 548,
      "″": 549,
      "‹": 550,
      "›": 551,
      "₁": 552,
      "₆": 553,
      "₈": 554,
      "€": 555,
      "₮": 556,
      "₲": 557,
      "₸": 558,
      "℃": 559,
      "ℓ": 560,
      "№": 561,
      "™": 562,
      "⅓": 563,
      "⅔": 564,
      "⅛": 565,
      "←": 566,
      "↑": 567,
      "→": 568,
      "↔": 569,
      "−": 570,
      "∕": 571,
      "∙": 572,
      "√": 573,
      "∞": 574,
      "∨": 575,
      "∩": 576,
      "∪": 577,
      "≈": 578,
      "≡": 579,
      "≤": 580,
      "≥": 581,
      "⋅": 582,
      "─": 583,
      "♂": 584,
      "♠": 585,
      "♣": 586,
      "♥": 587,
      "♦": 588,
      "Ⰶ": 589,
      "「": 590,
      "」": 591,
      "い": 592,
      "か": 593,
      "こ": 594,
      "し": 595,
      "で": 596,
      "な": 597,
      "の": 598,
      "ま": 599,
      "ア": 600,
      "ィ": 601,
      "ス": 602,
      "テ": 603,
      "ト": 604,
      "ー": 605,
      "㎕": 606,
      "㎖": 607,
      "㎗": 608,
      "㎘": 609,
      "三": 610,
      "京": 611,
      "仙": 612,
      "円": 613,
      "写": 614,
      "准": 615,
      "刺": 616,
      "助": 617,
      "勧": 618,
      "北": 619,
      "原": 620,
      "吗": 621,
      "夜": 622,
      "奔": 623,
      "女": 624,
      "好": 625,
      "子": 626,
      "宣": 627,
      "屯": 628,
      "市": 629,
      "師": 630,
      "平": 631,
      "年": 632,
      "延": 633,
      "徳": 634,
      "授": 635,
      "教": 636,
      "斯": 637,
      "日": 638,
      "明": 639,
      "星": 640,
      "曜": 641,
      "期": 642,
      "浦": 643,
      "源": 644,
      "潮": 645,
      "王": 646,
      "生": 647,
      "申": 648,
      "盛": 649,
      "真": 650,
      "禁": 651,
      "私": 652,
      "能": 653,
      "花": 654,
      "藤": 655,
      "衡": 656,
      "衰": 657,
      "解": 658,
      "記": 659,
      "講": 660,
      "進": 661,
      "醬": 662,
      "里": 663,
      "顧": 664,
      "顾": 665,
      "馬": 666,
      "马": 667,
      "Ꙁ": 668,
      "ꙑ": 669,
      "Ꙗ": 670,
      "ꙗ": 671,
      "！": 672,
      "𐤀": 673,
      "𐤁": 674,
      "𐤇": 675,
      "𐤋": 676,
      "𐤍": 677,
      "𐤏": 678,
      "𐤓": 679,
      "𐤕": 680,
      "ст": 681,
      "но": 682,
      "ни": 683,
      "ра": 684,
      "на": 685,
      "ро": 686,
      "ко": 687,
      "го": 688,
      "ре": 689,
      "по": 690,
      "ны": 691,
      "ли": 692,
      "то": 693,
      "во": 694,
      "ль": 695,
      "ле": 696,
      "ри": 697,
      "ва": 698,
      "не": 699,
      "ка": 700,
      "ве": 701,
      "ло": 702,
      "те": 703,
      "ме": 704,
      "ки": 705,
      "ла": 706,
      "да": 707,
      "де": 708,
      "та": 709,
      "со": 710,
      "ми": 711,
      "че": 712,
      "до": 713,
      "ти": 714,
      "ся": 715,
      "за": 716,
      "ви": 717,
      "ско": 718,
      "ет": 719,
      "ру": 720,
      "мо": 721,
      "ди": 722,
      "ма": 723,
      "ля": 724,
      "бо": 725,
      "же": 726,
      "пе": 727,
      "ци": 728,
      "ния": 729,
      "вы": 730,
      "про": 731,
      "ста": 732,
      "се": 733,
      "ние": 734,
      "об": 735,
      "ски": 736,
      "из": 737,
      "си": 738,
      "от": 739,
      "ча": 740,
      "при": 741,
      "сти": 742,
      "сто": 743,
      "бы": 744,
      "ных": 745,
      "ду": 746,
      "па": 747,
      "нно": 748,
      "чи": 749,
      "ть": 750,
      "ры": 751,
      "са": 752,
      "раз": 753,
      "хо": 754,
      "ги": 755,
      "ще": 756,
      "пре": 757,
      "ные": 758,
      "га": 759,
      "ной": 760,
      "му": 761,
      "ку": 762,
      "це": 763,
      "ше": 764,
      "ют": 765,
      "ный": 766,
      "тель": 767,
      "ши": 768,
      "сть": 769,
      "сь": 770,
      "су": 771,
      "пи": 772,
      "ту": 773,
      "ется": 774,
      "ты": 775,
      "лу": 776,
      "щи": 777,
      "бе": 778,
      "ного": 779,
      "ну": 780,
      "кото": 781,
      "жи": 782,
      "спо": 783,
      "ня": 784,
      "сле": 785,
      "мы": 786,
      "ской": 787,
      "стве": 788,
      "ор": 789,
      "ря": 790,
      "ство": 791,
      "сте": 792,
      "вля": 793,
      "горо": 794,
      "ос": 795,
      "19": 796,
      "ского": 797,
      "ная": 798,
      "фи": 799,
      "ке": 800,
      "вер": 801,
      "ным": 802,
      "пу": 803,
      "года": 804,
      "чески": 805,
      "ба": 806,
      "ска": 807,
      "нии": 808,
      "пра": 809,
      "зо": 810,
      "вле": 811,
      "лю": 812,
      "ге": 813,
      "что": 814,
      "нт": 815,
      "ву": 816,
      "ции": 817,
      "жа": 818,
      "По": 819,
      "вой": 820,
      "вре": 821,
      "би": 822,
      "зи": 823,
      "зы": 824,
      "20": 825,
      "стра": 826,
      "году": 827,
      "ды": 828,
      "он": 829,
      "гра": 830,
      "стро": 831,
      "это": 832,
      "под": 833,
      "ар": 834,
      "так": 835,
      "для": 836,
      "пере": 837,
      "ства": 838,
      "ер": 839,
      "как": 840,
      "ков": 841,
      "которы": 842,
      "зна": 843,
      "мя": 844,
      "ский": 845,
      "или": 846,
      "кон": 847,
      "ком": 848,
      "ин": 849,
      "ха": 850,
      "рас": 851,
      "од": 852,
      "пред": 853,
      "ний": 854,
      "гу": 855,
      "сло": 856,
      "мен": 857,
      "воз": 858,
      "На": 859,
      "нов": 860,
      "ан": 861,
      "ющи": 862,
      "ров": 863,
      "его": 864,
      "пер": 865,
      "бу": 866,
      "ис": 867,
      "ак": 868,
      "»,": 869,
      "ются": 870,
      "тер": 871,
      "ное": 872,
      "вя": 873,
      "име": 874,
      "зе": 875,
      "».": 876,
      "ца": 877,
      "рова": 878,
      "ном": 879,
      "тов": 880,
      "аль": 881,
      "ща": 882,
      "сво": 883,
      "она": 884,
      "тра": 885,
      "ходи": 886,
      "тся": 887,
      "нных": 888,
      "фе": 889,
      "ней": 890,
      "ности": 891,
      "боль": 892,
      "ность": 893,
      "ша": 894,
      "образ": 895,
      "вет": 896,
      "лы": 897,
      "явля": 898,
      "ред": 899,
      "нь": 900,
      "все": 901,
      "дру": 902,
      "зу": 903,
      "ными": 904,
      "кра": 905,
      "был": 906,
      "гла": 907,
      "том": 908,
      "вод": 909,
      "нием": 910,
      "тив": 911,
      "ская": 912,
      "фор": 913,
      "нной": 914,
      "также": 915,
      "лись": 916,
      "стоя": 917,
      "лся": 918,
      "ских": 919,
      "дов": 920,
      "им": 921,
      "рии": 922,
      "боле": 923,
      "мож": 924,
      "ция": 925,
      "сы": 926,
      "нию": 927,
      "ён": 928,
      "нача": 929,
      "тре": 930,
      "ей": 931,
      "вто": 932,
      "испо": 933,
      "ную": 934,
      "Со": 935,
      "слу": 936,
      "соста": 937,
      "сту": 938,
      "ром": 939,
      "18": 940,
      "после": 941,
      "кру": 942,
      "зыва": 943,
      "рабо": 944,
      "жде": 945,
      "хи": 946,
      "мер": 947,
      "ству": 948,
      "лей": 949,
      "стви": 950,
      "вания": 951,
      "лек": 952,
      "род": 953,
      "пол": 954,
      "нного": 955,
      "Во": 956,
      "дер": 957,
      "бли": 958,
      "пло": 959,
      "Ка": 960,
      "их": 961,
      "города": 962,
      "сси": 963,
      "кой": 964,
      "спе": 965,
      "дей": 966,
      "три": 967,
      "дар": 968,
      "более": 969,
      "город": 970,
      "вши": 971,
      "00": 972,
      "лько": 973,
      "зда": 974,
      "ран": 975,
      "свя": 976,
      "ход": 977,
      "пла": 978,
      "века": 979,
      "вые": 980,
      "нный": 981,
      "произ": 982,
      "нные": 983,
      "кры": 984,
      "II": 985,
      "ев": 986,
      "время": 987,
      "вание": 988,
      "ем": 989,
      "ника": 990,
      "полу": 991,
      "логи": 992,
      "цы": 993,
      "кре": 994,
      "ложе": 995,
      "вых": 996,
      "гда": 997,
      "лось": 998,
      "еди": 999,
      "Рос": 1000,
      "исполь": 1001,
      "были": 1002,
      "дол": 1003,
      "ник": 1004,
      "пы": 1005,
      "сла": 1006,
      "ления": 1007,
      "цент": 1008,
      "ться": 1009,
      "Росси": 1010,
      "тор": 1011,
      "вое": 1012,
      "лась": 1013,
      "которо": 1014,
      "является": 1015,
      "Ко": 1016,
      "исто": 1017,
      "кла": 1018,
      "ское": 1019,
      "было": 1020,
      "ском": 1021,
      "обще": 1022,
      "нима": 1023,
      "тро": 1024,
      "други": 1025,
      "чело": 1026,
      "201": 1027,
      "образо": 1028,
      "ские": 1029,
      "фа": 1030,
      "чё": 1031,
      "суще": 1032,
      "веде": 1033,
      "была": 1034,
      "При": 1035,
      "тем": 1036,
      "судар": 1037,
      "тия": 1038,
      "клю": 1039,
      "соб": 1040,
      "хра": 1041,
      "жду": 1042,
      "лё": 1043,
      "каза": 1044,
      "чно": 1045,
      "нд": 1046,
      "обла": 1047,
      "которые": 1048,
      "ческих": 1049,
      "За": 1050,
      "рт": 1051,
      "отно": 1052,
      "тя": 1053,
      "рь": 1054,
      "200": 1055,
      "лет": 1056,
      "време": 1057,
      "гру": 1058,
      "лов": 1059,
      "юще": 1060,
      "них": 1061,
      "орга": 1062,
      "предста": 1063,
      "ческой": 1064,
      "объ": 1065,
      "нова": 1066,
      "сред": 1067,
      "рия": 1068,
      "ственно": 1069,
      "обо": 1070,
      "нее": 1071,
      "дом": 1072,
      "пар": 1073,
      "Бо": 1074,
      "ск": 1075,
      "государ": 1076,
      "ек": 1077,
      "сты": 1078,
      "преде": 1079,
      "пера": 1080,
      "ман": 1081,
      "распо": 1082,
      "рай": 1083,
      "мно": 1084,
      "рев": 1085,
      "наз": 1086,
      "рез": 1087,
      "писа": 1088,
      "поли": 1089,
      "Ма": 1090,
      "раль": 1091,
      "вого": 1092,
      "Ра": 1093,
      "тери": 1094,
      "тельно": 1095,
      "Ве": 1096,
      "части": 1097,
      "зова": 1098,
      "жда": 1099,
      "ление": 1100,
      "стре": 1101,
      "между": 1102,
      "вра": 1103,
      "авто": 1104,
      "вый": 1105,
      "коло": 1106,
      "води": 1107,
      "вления": 1108,
      "сов": 1109,
      "ят": 1110,
      "год": 1111,
      "ём": 1112,
      "нения": 1113,
      "Не": 1114,
      "рус": 1115,
      "рито": 1116,
      "над": 1117,
      "того": 1118,
      "рак": 1119,
      "которых": 1120,
      "СС": 1121,
      "ску": 1122,
      "стано": 1123,
      "шо": 1124,
      "циаль": 1125,
      "Го": 1126,
      "прави": 1127,
      "вла": 1128,
      "реди": 1129,
      "они": 1130,
      "насе": 1131,
      "стру": 1132,
      "тур": 1133,
      "сли": 1134,
      "нако": 1135,
      "Па": 1136,
      "доро": 1137,
      "лич": 1138,
      "льно": 1139,
      "вая": 1140,
      "ких": 1141,
      "разви": 1142,
      "поло": 1143,
      "вест": 1144,
      "чение": 1145,
      "её": 1146,
      "нным": 1147,
      "созда": 1148,
      "только": 1149,
      "17": 1150,
      "чита": 1151,
      "Са": 1152,
      "Та": 1153,
      "террито": 1154,
      "высо": 1155,
      "России": 1156,
      "само": 1157,
      "челове": 1158,
      "оста": 1159,
      "ческого": 1160,
      "называ": 1161,
      "ющих": 1162,
      "ен": 1163,
      "ческие": 1164,
      "фо": 1165,
      "ческий": 1166,
      "ников": 1167,
      "приме": 1168,
      "чения": 1169,
      "тру": 1170,
      "куль": 1171,
      "коно": 1172,
      "вос": 1173,
      "рта": 1174,
      "может": 1175,
      "част": 1176,
      "Ре": 1177,
      "лия": 1178,
      "собо": 1179,
      "него": 1180,
      "телей": 1181,
      "пери": 1182,
      "личи": 1183,
      "Се": 1184,
      "рав": 1185,
      "круп": 1186,
      "обра": 1187,
      "гре": 1188,
      "ху": 1189,
      "который": 1190,
      "часть": 1191,
      "эти": 1192,
      "жения": 1193,
      "рой": 1194,
      "стан": 1195,
      "нная": 1196,
      "ствова": 1197,
      "составля": 1198,
      "систе": 1199,
      "лом": 1200,
      "виде": 1201,
      "ходит": 1202,
      "зем": 1203,
      "теле": 1204,
      "ним": 1205,
      "кого": 1206,
      "бря": 1207,
      "ющие": 1208,
      "нта": 1209,
      "ональ": 1210,
      "числе": 1211,
      "сторо": 1212,
      "15": 1213,
      "органи": 1214,
      "эк": 1215,
      "10": 1216,
      "лли": 1217,
      "нное": 1218,
      "емы": 1219,
      "дова": 1220,
      "язы": 1221,
      "кан": 1222,
      "ники": 1223,
      "теля": 1224,
      "дви": 1225,
      "зя": 1226,
      "бри": 1227,
      "сно": 1228,
      "ях": 1229,
      "состоя": 1230,
      "много": 1231,
      "Про": 1232,
      "держа": 1233,
      "Но": 1234,
      "ским": 1235,
      "Ме": 1236,
      "бра": 1237,
      "больши": 1238,
      "той": 1239,
      "Пе": 1240,
      "тех": 1241,
      "ств": 1242,
      "гово": 1243,
      "простра": 1244,
      "нк": 1245,
      "чем": 1246,
      "цу": 1247,
      "чной": 1248,
      "ок": 1249,
      "мини": 1250,
      "вается": 1251,
      "щё": 1252,
      "жен": 1253,
      "ал": 1254,
      "Мо": 1255,
      "опреде": 1256,
      "ат": 1257,
      "Ев": 1258,
      "XV": 1259,
      "фу": 1260,
      "неско": 1261,
      "этом": 1262,
      "дь": 1263,
      "нение": 1264,
      "основ": 1265,
      "199": 1266,
      "публи": 1267,
      "поз": 1268,
      "мест": 1269,
      "действи": 1270,
      "извест": 1271,
      "кар": 1272,
      "До": 1273,
      "можно": 1274,
      "ками": 1275,
      "Из": 1276,
      "дела": 1277,
      "кор": 1278,
      "чу": 1279,
      "тек": 1280,
      "честве": 1281,
      "кро": 1282,
      "расположе": 1283,
      "ций": 1284,
      "пример": 1285,
      "Ли": 1286,
      "мыш": 1287,
      "оди": 1288,
      "лага": 1289,
      "нем": 1290,
      "строи": 1291,
      "ёл": 1292,
      "запа": 1293,
      "обы": 1294,
      "гли": 1295,
      "Пер": 1296,
      "кие": 1297,
      "сса": 1298,
      "откры": 1299,
      "использу": 1300,
      "16": 1301,
      "шей": 1302,
      "ян": 1303,
      "тера": 1304,
      "тели": 1305,
      "вает": 1306,
      "тура": 1307,
      "Так": 1308,
      "цо": 1309,
      "цию": 1310,
      "дли": 1311,
      "Ми": 1312,
      "дель": 1313,
      "вым": 1314,
      "ством": 1315,
      "народ": 1316,
      "ках": 1317,
      "оче": 1318,
      "мина": 1319,
      "нности": 1320,
      "Ки": 1321,
      "ур": 1322,
      "мента": 1323,
      "счита": 1324,
      "тий": 1325,
      "где": 1326,
      "нами": 1327,
      "пле": 1328,
      "графи": 1329,
      "ору": 1330,
      "находи": 1331,
      "али": 1332,
      "верх": 1333,
      "проис": 1334,
      "ким": 1335,
      "Ни": 1336,
      "городе": 1337,
      "жение": 1338,
      "производ": 1339,
      "ответ": 1340,
      "других": 1341,
      "харак": 1342,
      "дву": 1343,
      "грани": 1344,
      "ью": 1345,
      "восто": 1346,
      "случа": 1347,
      "ёт": 1348,
      "этого": 1349,
      "щая": 1350,
      "ющий": 1351,
      "нность": 1352,
      "вление": 1353,
      "После": 1354,
      "одно": 1355,
      "форма": 1356,
      "ссе": 1357,
      "строе": 1358,
      "коли": 1359,
      "получи": 1360,
      "право": 1361,
      "вид": 1362,
      "йской": 1363,
      "человек": 1364,
      "ёр": 1365,
      "шения": 1366,
      "XI": 1367,
      "когда": 1368,
      "поя": 1369,
      "туры": 1370,
      "жиз": 1371,
      "мой": 1372,
      "бере": 1373,
      "упо": 1374,
      "скую": 1375,
      "Од": 1376,
      "стей": 1377,
      "точ": 1378,
      "около": 1379,
      "послед": 1380,
      "нове": 1381,
      "Ар": 1382,
      "Ге": 1383,
      "струк": 1384,
      "цер": 1385,
      "ствует": 1386,
      "цев": 1387,
      "вич": 1388,
      "осо": 1389,
      "ждения": 1390,
      "работа": 1391,
      "кономи": 1392,
      "км": 1393,
      "шая": 1394,
      "То": 1395,
      "коро": 1396,
      "12": 1397,
      "тора": 1398,
      "ностью": 1399,
      "Си": 1400,
      "истори": 1401,
      "льта": 1402,
      "вать": 1403,
      "ссо": 1404,
      "нер": 1405,
      "обе": 1406,
      "тие": 1407,
      "элек": 1408,
      "Бе": 1409,
      "место": 1410,
      "значи": 1411,
      "быть": 1412,
      "ад": 1413,
      "кти": 1414,
      "Су": 1415,
      "мет": 1416,
      "30": 1417,
      "Ви": 1418,
      "дея": 1419,
      "стал": 1420,
      "груп": 1421,
      "кий": 1422,
      "лез": 1423,
      "ческая": 1424,
      "ляр": 1425,
      "цио": 1426,
      "рей": 1427,
      "лен": 1428,
      "использова": 1429,
      "Ле": 1430,
      "ропе": 1431,
      "зави": 1432,
      "шего": 1433,
      "территории": 1434,
      "рая": 1435,
      "вали": 1436,
      "различ": 1437,
      "мати": 1438,
      "тран": 1439,
      "нах": 1440,
      "мар": 1441,
      "строй": 1442,
      "есть": 1443,
      "ряд": 1444,
      "многи": 1445,
      "ходя": 1446,
      "бер": 1447,
      "поль": 1448,
      "цион": 1449,
      "Об": 1450,
      "поч": 1451,
      "мор": 1452,
      "нау": 1453,
      "ден": 1454,
      "способ": 1455,
      "ья": 1456,
      "приня": 1457,
      "тен": 1458,
      "тан": 1459,
      "чных": 1460,
      "месте": 1461,
      "Это": 1462,
      "Ан": 1463,
      "рий": 1464,
      "бор": 1465,
      "циональ": 1466,
      "изме": 1467,
      "реги": 1468,
      "Ру": 1469,
      "Де": 1470,
      "194": 1471,
      "льных": 1472,
      "зульта": 1473,
      "уни": 1474,
      "бле": 1475,
      "мышле": 1476,
      "остро": 1477,
      "смо": 1478,
      "через": 1479,
      "распростра": 1480,
      "полити": 1481,
      "прия": 1482,
      "Ин": 1483,
      "без": 1484,
      "ших": 1485,
      "кри": 1486,
      "помо": 1487,
      "совет": 1488,
      "зависи": 1489,
      "области": 1490,
      "ключа": 1491,
      "14": 1492,
      "результа": 1493,
      "выше": 1494,
      "большо": 1495,
      "вед": 1496,
      "лан": 1497,
      "зации": 1498,
      "мета": 1499,
      "бро": 1500,
      "ана": 1501,
      "низ": 1502,
      "50": 1503,
      "глав": 1504,
      "Ку": 1505,
      "доста": 1506,
      "экономи": 1507,
      "усло": 1508,
      "основа": 1509,
      "верси": 1510,
      "пря": 1511,
      "Ва": 1512,
      "вом": 1513,
      "рен": 1514,
      "пор": 1515,
      "бла": 1516,
      "наи": 1517,
      "III": 1518,
      "самы": 1519,
      "шу": 1520,
      "пара": 1521,
      "строитель": 1522,
      "могу": 1523,
      "ещё": 1524,
      "ье": 1525,
      "гов": 1526,
      "населения": 1527,
      "рё": 1528,
      "ква": 1529,
      "которой": 1530,
      "несколько": 1531,
      "матери": 1532,
      "нской": 1533,
      "мов": 1534,
      "вший": 1535,
      "окру": 1536,
      "твер": 1537,
      "Те": 1538,
      "ию": 1539,
      "вета": 1540,
      "нского": 1541,
      "СР": 1542,
      "хот": 1543,
      "кус": 1544,
      "уже": 1545,
      "вал": 1546,
      "древ": 1547,
      "связа": 1548,
      "сс": 1549,
      "площа": 1550,
      "являются": 1551,
      "государстве": 1552,
      "бур": 1553,
      "годы": 1554,
      "Га": 1555,
      "вели": 1556,
      "два": 1557,
      "льные": 1558,
      "часто": 1559,
      "спи": 1560,
      "носи": 1561,
      "мери": 1562,
      "мости": 1563,
      "долж": 1564,
      "От": 1565,
      "которого": 1566,
      "упра": 1567,
      "работ": 1568,
      "ведения": 1569,
      "конце": 1570,
      "чество": 1571,
      "вну": 1572,
      "дра": 1573,
      "сме": 1574,
      "Ба": 1575,
      "сни": 1576,
      "вают": 1577,
      "er": 1578,
      "хов": 1579,
      "нский": 1580,
      "нет": 1581,
      "Алек": 1582,
      "нару": 1583,
      "дво": 1584,
      "имеет": 1585,
      "компа": 1586,
      "соответ": 1587,
      "рода": 1588,
      "ток": 1589,
      "кам": 1590,
      "спубли": 1591,
      "райо": 1592,
      "13": 1593,
      "мент": 1594,
      "мира": 1595,
      "войны": 1596,
      "сохра": 1597,
      "нном": 1598,
      "занима": 1599,
      "либо": 1600,
      "соеди": 1601,
      "Исто": 1602,
      "образова": 1603,
      "вс": 1604,
      "ческое": 1605,
      "собой": 1606,
      "сим": 1607,
      "водо": 1608,
      "следу": 1609,
      "название": 1610,
      "дии": 1611,
      "реки": 1612,
      "мень": 1613,
      "скому": 1614,
      "промышле": 1615,
      "льной": 1616,
      "Вели": 1617,
      "вне": 1618,
      "всех": 1619,
      "уда": 1620,
      "гласно": 1621,
      "мая": 1622,
      "проце": 1623,
      "шко": 1624,
      "мл": 1625,
      "могут": 1626,
      "один": 1627,
      "пти": 1628,
      "кли": 1629,
      "ступ": 1630,
      "музы": 1631,
      "искус": 1632,
      "сом": 1633,
      "качестве": 1634,
      "гор": 1635,
      "гер": 1636,
      "посе": 1637,
      "мир": 1638,
      "тей": 1639,
      "всего": 1640,
      "вших": 1641,
      "Ро": 1642,
      "Фе": 1643,
      "лии": 1644,
      "Ста": 1645,
      "an": 1646,
      "широ": 1647,
      "тыся": 1648,
      "времен": 1649,
      "шь": 1650,
      "сут": 1651,
      "гото": 1652,
      "которая": 1653,
      "дели": 1654,
      "ступа": 1655,
      "ристи": 1656,
      "Ти": 1657,
      "лла": 1658,
      "период": 1659,
      "относи": 1660,
      "шта": 1661,
      "Гер": 1662,
      "министра": 1663,
      "мии": 1664,
      "ями": 1665,
      "шение": 1666,
      "льный": 1667,
      "представля": 1668,
      "XIX": 1669,
      "дости": 1670,
      "гро": 1671,
      "казыва": 1672,
      "архи": 1673,
      "другие": 1674,
      "жё": 1675,
      "пада": 1676,
      "содержа": 1677,
      "желез": 1678,
      "кая": 1679,
      "двух": 1680,
      "щих": 1681,
      "чтобы": 1682,
      "стов": 1683,
      "сер": 1684,
      "чные": 1685,
      "щения": 1686,
      "дук": 1687,
      "составляет": 1688,
      "зма": 1689,
      "Вы": 1690,
      "ради": 1691,
      "эта": 1692,
      "вен": 1693,
      "доб": 1694,
      "ему": 1695,
      "туре": 1696,
      "веро": 1697,
      "встре": 1698,
      "лле": 1699,
      "яза": 1700,
      "ино": 1701,
      "состав": 1702,
      "напра": 1703,
      "кое": 1704,
      "этому": 1705,
      "СССР": 1706,
      "лён": 1707,
      "лосо": 1708,
      "росси": 1709,
      "Однако": 1710,
      "образом": 1711,
      "тии": 1712,
      "чер": 1713,
      "знача": 1714,
      "Для": 1715,
      "дет": 1716,
      "спорт": 1717,
      "веке": 1718,
      "проти": 1719,
      "деля": 1720,
      "следова": 1721,
      "деятель": 1722,
      "электро": 1723,
      "офи": 1724,
      "Кон": 1725,
      "продол": 1726,
      "ологи": 1727,
      "против": 1728,
      "начале": 1729,
      "цией": 1730,
      "зии": 1731,
      "хе": 1732,
      "друго": 1733,
      "ван": 1734,
      "тон": 1735,
      "няя": 1736,
      "щее": 1737,
      "времени": 1738,
      "стой": 1739,
      "чь": 1740,
      "сам": 1741,
      "среди": 1742,
      "слова": 1743,
      "анти": 1744,
      "Фран": 1745,
      "Му": 1746,
      "годах": 1747,
      "начи": 1748,
      "темпера": 1749,
      "форми": 1750,
      "Це": 1751,
      "первые": 1752,
      "находится": 1753,
      "тных": 1754,
      "совер": 1755,
      "диа": 1756,
      "становле": 1757,
      "наб": 1758,
      "198": 1759,
      "жу": 1760,
      "тради": 1761,
      "станови": 1762,
      "человека": 1763,
      "особе": 1764,
      "разме": 1765,
      "жизни": 1766,
      "степе": 1767,
      "стали": 1768,
      "кни": 1769,
      "пя": 1770,
      "чный": 1771,
      "настоя": 1772,
      "эле": 1773,
      "служи": 1774,
      "нера": 1775,
      "in": 1776,
      "расте": 1777,
      "льного": 1778,
      "кси": 1779,
      "однако": 1780,
      "годов": 1781,
      "60": 1782,
      "ститу": 1783,
      "чества": 1784,
      "ющей": 1785,
      "живо": 1786,
      "Все": 1787,
      "вшие": 1788,
      "хозя": 1789,
      "грам": 1790,
      "пози": 1791,
      "тво": 1792,
      "вз": 1793,
      "призна": 1794,
      "бя": 1795,
      "рели": 1796,
      "дро": 1797,
      "вин": 1798,
      "включа": 1799,
      "фак": 1800,
      "возду": 1801,
      "практи": 1802,
      "Ла": 1803,
      "зд": 1804,
      "нё": 1805,
      "мом": 1806,
      "Да": 1807,
      "филь": 1808,
      "лича": 1809,
      "позво": 1810,
      "изи": 1811,
      "чёт": 1812,
      "защи": 1813,
      "ческим": 1814,
      "возмож": 1815,
      "шее": 1816,
      "жной": 1817,
      "отме": 1818,
      "например": 1819,
      "зах": 1820,
      "держи": 1821,
      "испол": 1822,
      "ющая": 1823,
      "стои": 1824,
      "кви": 1825,
      "свой": 1826,
      "услови": 1827,
      "тка": 1828,
      "ший": 1829,
      "кана": 1830,
      "страны": 1831,
      "продук": 1832,
      "оз": 1833,
      "Также": 1834,
      "бре": 1835,
      "йский": 1836,
      "нными": 1837,
      "тельных": 1838,
      "вую": 1839,
      "кня": 1840,
      "тин": 1841,
      "тами": 1842,
      "щу": 1843,
      "даже": 1844,
      "очень": 1845,
      "чего": 1846,
      "веще": 1847,
      "25": 1848,
      "стер": 1849,
      "ждение": 1850,
      "Мос": 1851,
      "лишь": 1852,
      "мона": 1853,
      "каж": 1854,
      "предприя": 1855,
      "осуще": 1856,
      "щий": 1857,
      "няется": 1858,
      "бира": 1859,
      "одной": 1860,
      "санд": 1861,
      "чного": 1862,
      "слав": 1863,
      "появи": 1864,
      "гло": 1865,
      "запад": 1866,
      "связи": 1867,
      "результате": 1868,
      "положе": 1869,
      "ному": 1870,
      "попу": 1871,
      "Ос": 1872,
      "йского": 1873,
      "XX": 1874,
      "ули": 1875,
      "воды": 1876,
      "рёх": 1877,
      "смер": 1878,
      "цар": 1879,
      "худо": 1880,
      "литера": 1881,
      "вари": 1882,
      "кло": 1883,
      "своей": 1884,
      "on": 1885,
      "Че": 1886,
      "кт": 1887,
      "рения": 1888,
      "роди": 1889,
      "этой": 1890,
      "ница": 1891,
      "нство": 1892,
      "изда": 1893,
      "пита": 1894,
      "обычно": 1895,
      "начала": 1896,
      "влия": 1897,
      "облада": 1898,
      "руко": 1899,
      "став": 1900,
      "принима": 1901,
      "ar": 1902,
      "Он": 1903,
      "70": 1904,
      "Боль": 1905,
      "дия": 1906,
      "уче": 1907,
      "выпу": 1908,
      "тельной": 1909,
      "щие": 1910,
      "ствии": 1911,
      "наиболее": 1912,
      "Александ": 1913,
      "памя": 1914,
      "треб": 1915,
      "ября": 1916,
      "поверх": 1917,
      "уров": 1918,
      "ствуют": 1919,
      "ав": 1920,
      "ографи": 1921,
      "значе": 1922,
      "комп": 1923,
      "хозяй": 1924,
      "ющим": 1925,
      "обходи": 1926,
      "зов": 1927,
      "десь": 1928,
      "сол": 1929,
      "моло": 1930,
      "района": 1931,
      "гражда": 1932,
      "ющего": 1933,
      "выпол": 1934,
      "Ди": 1935,
      "лки": 1936,
      "там": 1937,
      "переда": 1938,
      "стри": 1939,
      "каз": 1940,
      "СШ": 1941,
      "конт": 1942,
      "себя": 1943,
      "мин": 1944,
      "роль": 1945,
      "уч": 1946,
      "образу": 1947,
      "источ": 1948,
      "кто": 1949,
      "Пре": 1950,
      "Кро": 1951,
      "проек": 1952,
      "спа": 1953,
      "важ": 1954,
      "нению": 1955,
      "деле": 1956,
      "сфе": 1957,
      "рами": 1958,
      "йских": 1959,
      "глу": 1960,
      "en": 1961,
      "Вер": 1962,
      "фран": 1963,
      "этот": 1964,
      "выра": 1965,
      "евре": 1966,
      "импера": 1967,
      "тельные": 1968,
      "объек": 1969,
      "противо": 1970,
      "США": 1971,
      "некоторых": 1972,
      "заме": 1973,
      "актив": 1974,
      "осущест": 1975,
      "40": 1976,
      "нстве": 1977,
      "тки": 1978,
      "цвет": 1979,
      "дере": 1980,
      "представи": 1981,
      "обеспе": 1982,
      "вода": 1983,
      "администра": 1984,
      "рам": 1985,
      "видов": 1986,
      "ске": 1987,
      "которое": 1988,
      "функ": 1989,
      "ствие": 1990,
      "тых": 1991,
      "зм": 1992,
      "осно": 1993,
      "сель": 1994,
      "филосо": 1995,
      "кора": 1996,
      "мость": 1997,
      "имени": 1998,
      "сков": 1999,
      "лав": 2000,
      "миро": 2001,
      "день": 2002,
      "кова": 2003,
      "зей": 2004,
      "лок": 2005,
      "ваются": 2006,
      "ющее": 2007,
      "or": 2008,
      "История": 2009,
      "пас": 2010,
      "специаль": 2011,
      "необходи": 2012,
      "193": 2013,
      "вол": 2014,
      "мец": 2015,
      "тыс": 2016,
      "нам": 2017,
      ";.": 2018,
      "Сред": 2019,
      "тере": 2020,
      "ню": 2021,
      "скими": 2022,
      "встреча": 2023,
      "две": 2024,
      "националь": 2025,
      "рим": 2026,
      "лого": 2027,
      "100": 2028,
      "неф": 2029,
      "циали": 2030,
      "тах": 2031,
      "совреме": 2032,
      "иму": 2033,
      "голо": 2034,
      "центра": 2035,
      "дера": 2036,
      "Вла": 2037,
      "ницы": 2038,
      "характер": 2039,
      "шли": 2040,
      "нки": 2041,
      "тео": 2042,
      "хоро": 2043,
      "Восто": 2044,
      "ником": 2045,
      "вил": 2046,
      "почти": 2047,
      "пов": 2048,
      "величи": 2049,
      "участ": 2050,
      "трен": 2051,
      "архитек": 2052,
      "деся": 2053,
      "док": 2054,
      "краи": 2055,
      "обяза": 2056,
      "оборо": 2057,
      "Мар": 2058,
      "центр": 2059,
      "Бу": 2060,
      "больше": 2061,
      "11": 2062,
      "если": 2063,
      "построе": 2064,
      "тая": 2065,
      "выми": 2066,
      "хода": 2067,
      "Кар": 2068,
      "изобра": 2069,
      "сма": 2070,
      "разно": 2071,
      "жд": 2072,
      "ффе": 2073,
      "свою": 2074,
      "уго": 2075,
      "тый": 2076,
      "Ха": 2077,
      "Пи": 2078,
      "23": 2079,
      "фика": 2080,
      "тому": 2081,
      "ям": 2082,
      "многих": 2083,
      "имуще": 2084,
      "стала": 2085,
      "луч": 2086,
      "Север": 2087,
      "нную": 2088,
      "свои": 2089,
      "религи": 2090,
      "Лу": 2091,
      "тно": 2092,
      "христи": 2093,
      "волю": 2094,
      "тысяч": 2095,
      "спор": 2096,
      "иде": 2097,
      "ходят": 2098,
      "лежа": 2099,
      "даль": 2100,
      "Ту": 2101,
      "полови": 2102,
      "дома": 2103,
      "at": 2104,
      "es": 2105,
      "помощ": 2106,
      "утвер": 2107,
      "обре": 2108,
      "обществе": 2109,
      "вести": 2110,
      "шёл": 2111,
      "нец": 2112,
      "цуз": 2113,
      "жении": 2114,
      "игра": 2115,
      "шки": 2116,
      "столи": 2117,
      "уби": 2118,
      "мире": 2119,
      "менее": 2120,
      "тые": 2121,
      "импе": 2122,
      "государства": 2123,
      "сей": 2124,
      "крас": 2125,
      "четы": 2126,
      "мей": 2127,
      "отдель": 2128,
      "получа": 2129,
      "культур": 2130,
      "дой": 2131,
      "хими": 2132,
      "формирова": 2133,
      "сад": 2134,
      "жных": 2135,
      "лин": 2136,
      "al": 2137,
      "меди": 2138,
      "власти": 2139,
      "Согласно": 2140,
      "телем": 2141,
      "физи": 2142,
      "вок": 2143,
      "22": 2144,
      "пода": 2145,
      "значение": 2146,
      "множе": 2147,
      "тельного": 2148,
      "происходит": 2149,
      "перед": 2150,
      "пад": 2151,
      "ген": 2152,
      "имеют": 2153,
      "клад": 2154,
      "труд": 2155,
      "Ри": 2156,
      "эпо": 2157,
      "различных": 2158,
      "вли": 2159,
      "след": 2160,
      "тельства": 2161,
      "версите": 2162,
      "воро": 2163,
      "дека": 2164,
      "котором": 2165,
      "отноше": 2166,
      "показа": 2167,
      "этих": 2168,
      "материа": 2169,
      "янва": 2170,
      "затем": 2171,
      "второй": 2172,
      "Европе": 2173,
      "одним": 2174,
      "Евро": 2175,
      "нес": 2176,
      "Город": 2177,
      "личие": 2178,
      "Ав": 2179,
      "класси": 2180,
      "таль": 2181,
      "мон": 2182,
      "вов": 2183,
      "мас": 2184,
      "сент": 2185,
      "объя": 2186,
      "коман": 2187,
      "европе": 2188,
      "назва": 2189,
      "програм": 2190,
      "млн": 2191,
      "нологи": 2192,
      "коми": 2193,
      "пут": 2194,
      "исследова": 2195,
      "начина": 2196,
      "Моск": 2197,
      "энер": 2198,
      "своего": 2199,
      "используется": 2200,
      "наблю": 2201,
      "24": 2202,
      "поста": 2203,
      "тол": 2204,
      "Герма": 2205,
      "свобо": 2206,
      "популяр": 2207,
      "тар": 2208,
      "современ": 2209,
      "крупней": 2210,
      "тельный": 2211,
      "производи": 2212,
      "шие": 2213,
      "находя": 2214,
      "нор": 2215,
      "рах": 2216,
      "сона": 2217,
      "заня": 2218,
      "международ": 2219,
      "чная": 2220,
      "фон": 2221,
      "осуществля": 2222,
      "мерикан": 2223,
      "рок": 2224,
      "располага": 2225,
      "бой": 2226,
      "Кроме": 2227,
      "виа": 2228,
      "Российской": 2229,
      "тай": 2230,
      "социаль": 2231,
      "системы": 2232,
      "нин": 2233,
      "муж": 2234,
      "пли": 2235,
      "торго": 2236,
      "истории": 2237,
      "тельство": 2238,
      "щение": 2239,
      "сре": 2240,
      "стороны": 2241,
      "стоит": 2242,
      "постоя": 2243,
      "зация": 2244,
      "принад": 2245,
      "количество": 2246,
      "нев": 2247,
      "церков": 2248,
      "ог": 2249,
      "мат": 2250,
      "Раз": 2251,
      "комплек": 2252,
      "цами": 2253,
      "объеди": 2254,
      "Цент": 2255,
      "Влади": 2256,
      "цей": 2257,
      "настоящее": 2258,
      "льное": 2259,
      "причи": 2260,
      "Вол": 2261,
      "вшего": 2262,
      "шим": 2263,
      "196": 2264,
      "своих": 2265,
      "мени": 2266,
      "рд": 2267,
      "стана": 2268,
      "лых": 2269,
      "формы": 2270,
      "случае": 2271,
      "уча": 2272,
      "дина": 2273,
      "XVIII": 2274,
      "лой": 2275,
      "стью": 2276,
      "зирова": 2277,
      "поле": 2278,
      "людей": 2279,
      "официаль": 2280,
      "уз": 2281,
      "кол": 2282,
      "существова": 2283,
      "середи": 2284,
      "цен": 2285,
      "кино": 2286,
      "is": 2287,
      "тирова": 2288,
      "сами": 2289,
      "сдела": 2290,
      "Би": 2291,
      "крепо": 2292,
      "емо": 2293,
      "нок": 2294,
      "сколь": 2295,
      "имя": 2296,
      "тельное": 2297,
      "немец": 2298,
      "империи": 2299,
      "сня": 2300,
      "ган": 2301,
      "шло": 2302,
      "профе": 2303,
      "креп": 2304,
      "мере": 2305,
      "конструк": 2306,
      "места": 2307,
      "лами": 2308,
      "зако": 2309,
      "представле": 2310,
      "емых": 2311,
      "ходе": 2312,
      "опера": 2313,
      "техни": 2314,
      "жан": 2315,
      "развития": 2316,
      "октя": 2317,
      "сем": 2318,
      "христиан": 2319,
      "стату": 2320,
      "возник": 2321,
      "шла": 2322,
      "льная": 2323,
      "внутрен": 2324,
      "рек": 2325,
      "дования": 2326,
      "музыка": 2327,
      "ческом": 2328,
      "рует": 2329,
      "отлича": 2330,
      "пись": 2331,
      "Сан": 2332,
      "север": 2333,
      "Пу": 2334,
      "данным": 2335,
      "кисло": 2336,
      "применя": 2337,
      "течение": 2338,
      "завод": 2339,
      "шую": 2340,
      "поме": 2341,
      "вопро": 2342,
      "ступи": 2343,
      "памят": 2344,
      "вар": 2345,
      "разд": 2346,
      "стран": 2347,
      "цве": 2348,
      "маши": 2349,
      "авгу": 2350,
      "Украи": 2351,
      "учре": 2352,
      "ётся": 2353,
      "нци": 2354,
      "француз": 2355,
      "Свя": 2356,
      "мето": 2357,
      "Республи": 2358,
      "поня": 2359,
      "хотя": 2360,
      "вида": 2361,
      "сохрани": 2362,
      "юж": 2363,
      "направле": 2364,
      "Среди": 2365,
      "чей": 2366,
      "особенно": 2367,
      "дней": 2368,
      "све": 2369,
      "информа": 2370,
      "муни": 2371,
      "вместе": 2372,
      "уг": 2373,
      "основном": 2374,
      "университе": 2375,
      "геро": 2376,
      "укра": 2377,
      "195": 2378,
      "ссей": 2379,
      "установле": 2380,
      "нан": 2381,
      "ственных": 2382,
      "ментов": 2383,
      "собы": 2384,
      "побе": 2385,
      "моби": 2386,
      "бога": 2387,
      "золо": 2388,
      "иногда": 2389,
      "Пет": 2390,
      "нодоро": 2391,
      "лим": 2392,
      "меха": 2393,
      "нём": 2394,
      "сою": 2395,
      "оби": 2396,
      "первый": 2397,
      "правило": 2398,
      "производства": 2399,
      "чки": 2400,
      "Ша": 2401,
      "чле": 2402,
      "ческую": 2403,
      "работы": 2404,
      "характери": 2405,
      "ограни": 2406,
      "зь": 2407,
      "описа": 2408,
      "одного": 2409,
      "ic": 2410,
      "Основ": 2411,
      "административ": 2412,
      "28": 2413,
      "войска": 2414,
      "Ча": 2415,
      "меся": 2416,
      "щей": 2417,
      "упомина": 2418,
      "кола": 2419,
      "вались": 2420,
      "таких": 2421,
      "стар": 2422,
      "кур": 2423,
      "тепло": 2424,
      "рю": 2425,
      "ото": 2426,
      "учи": 2427,
      "ственной": 2428,
      "сматри": 2429,
      "паде": 2430,
      "2010": 2431,
      "сне": 2432,
      "общи": 2433,
      "всё": 2434,
      "полага": 2435,
      "197": 2436,
      "лах": 2437,
      "проводи": 2438,
      "буду": 2439,
      "Сер": 2440,
      "гии": 2441,
      "учё": 2442,
      "большой": 2443,
      "американ": 2444,
      "руется": 2445,
      "число": 2446,
      "дерев": 2447,
      "бом": 2448,
      "образования": 2449,
      "кими": 2450,
      "us": 2451,
      "регу": 2452,
      "годаря": 2453,
      "зависимости": 2454,
      "позволя": 2455,
      "нён": 2456,
      "пунк": 2457,
      "пыта": 2458,
      "здесь": 2459,
      "рит": 2460,
      "ключе": 2461,
      "продолжа": 2462,
      "Совет": 2463,
      "нас": 2464,
      "кта": 2465,
      "Ги": 2466,
      "Ду": 2467,
      "трёх": 2468,
      "жный": 2469,
      "Эти": 2470,
      "оказа": 2471,
      "поэ": 2472,
      "писи": 2473,
      "эффе": 2474,
      "республи": 2475,
      "несколь": 2476,
      "районе": 2477,
      "зву": 2478,
      "празд": 2479,
      "посред": 2480,
      "срав": 2481,
      "многие": 2482,
      "транспорт": 2483,
      "26": 2484,
      "син": 2485,
      "21": 2486,
      "отсут": 2487,
      "губер": 2488,
      "действия": 2489,
      "частности": 2490,
      "лина": 2491,
      "Ор": 2492,
      "вей": 2493,
      "слово": 2494,
      "Лю": 2495,
      "эро": 2496,
      "некоторые": 2497,
      "лые": 2498,
      "поро": 2499,
      "инстру": 2500,
      "массо": 2501,
      "употреб": 2502,
      "вёр": 2503,
      "лий": 2504,
      "разу": 2505,
      "никами": 2506,
      "вере": 2507,
      "выс": 2508,
      "писы": 2509,
      "происхо": 2510,
      "гие": 2511,
      "менты": 2512,
      "сказа": 2513,
      "тю": 2514,
      "бов": 2515,
      "29": 2516,
      "Зем": 2517,
      "городов": 2518,
      "определя": 2519,
      "благо": 2520,
      "Оди": 2521,
      "гар": 2522,
      "Воз": 2523,
      "000": 2524,
      "лев": 2525,
      "окон": 2526,
      "уро": 2527,
      "Ита": 2528,
      "типа": 2529,
      "зан": 2530,
      "внеш": 2531,
      "написа": 2532,
      "культуры": 2533,
      "Фа": 2534,
      "суль": 2535,
      "руб": 2536,
      "ческими": 2537,
      "централь": 2538,
      "группы": 2539,
      "Фи": 2540,
      "дово": 2541,
      "перио": 2542,
      "цов": 2543,
      "относя": 2544,
      "Наи": 2545,
      "апре": 2546,
      "права": 2547,
      "град": 2548,
      "ваться": 2549,
      "Пра": 2550,
      "жей": 2551,
      "Хо": 2552,
      "коле": 2553,
      "бое": 2554,
      "жителей": 2555,
      "сет": 2556,
      "чка": 2557,
      "Бер": 2558,
      "щего": 2559,
      "прав": 2560,
      "Пред": 2561,
      "женщи": 2562,
      "циона": 2563,
      "лье": 2564,
      "лег": 2565,
      "жил": 2566,
      "скольку": 2567,
      "долго": 2568,
      "емые": 2569,
      "револю": 2570,
      "80": 2571,
      "Дру": 2572,
      "теа": 2573,
      "тельным": 2574,
      "метров": 2575,
      "тить": 2576,
      "Запад": 2577,
      "вшая": 2578,
      "иг": 2579,
      "нка": 2580,
      "торов": 2581,
      "27": 2582,
      "пора": 2583,
      "скоро": 2584,
      "раста": 2585,
      "Как": 2586,
      "англи": 2587,
      "др": 2588,
      "печа": 2589,
      "ам": 2590,
      "пос": 2591,
      "значения": 2592,
      "лый": 2593,
      "произо": 2594,
      "ними": 2595,
      "оте": 2596,
      "церкви": 2597,
      "провод": 2598,
      "авиа": 2599,
      "нос": 2600,
      "ссии": 2601,
      "Петер": 2602,
      "селение": 2603,
      "зер": 2604,
      "центром": 2605,
      "лит": 2606,
      "ственного": 2607,
      "подоб": 2608,
      "другой": 2609,
      "пута": 2610,
      "точно": 2611,
      "онов": 2612,
      "обнару": 2613,
      "%.": 2614,
      "мед": 2615,
      "туа": 2616,
      "тика": 2617,
      "круг": 2618,
      "железнодоро": 2619,
      "успе": 2620,
      "юри": 2621,
      "вили": 2622,
      "ряда": 2623,
      "льным": 2624,
      "острова": 2625,
      "щую": 2626,
      "названия": 2627,
      "Ио": 2628,
      "устрой": 2629,
      "ност": 2630,
      "рази": 2631,
      "лее": 2632,
      "разру": 2633,
      "спорта": 2634,
      "городской": 2635,
      "el": 2636,
      "служ": 2637,
      "чёр": 2638,
      "ез": 2639,
      "сен": 2640,
      "бло": 2641,
      "тыва": 2642,
      "участи": 2643,
      "рон": 2644,
      "первой": 2645,
      "лью": 2646,
      "прово": 2647,
      "весь": 2648,
      "такие": 2649,
      "дий": 2650,
      "очеред": 2651,
      "теат": 2652,
      "суб": 2653,
      "XVII": 2654,
      "бург": 2655,
      "пси": 2656,
      "эпи": 2657,
      "рию": 2658,
      "обеспечи": 2659,
      "дня": 2660,
      "странах": 2661,
      "ата": 2662,
      "нены": 2663,
      "интере": 2664,
      "экс": 2665,
      "жные": 2666,
      "чным": 2667,
      "себе": 2668,
      "хва": 2669,
      "стало": 2670,
      "ственные": 2671,
      "форму": 2672,
      "догово": 2673,
      "лях": 2674,
      "аб": 2675,
      "циа": 2676,
      "протя": 2677,
      "шем": 2678,
      "помощью": 2679,
      "ведение": 2680,
      "ид": 2681,
      "Рус": 2682,
      "порт": 2683,
      "января": 2684,
      "кле": 2685,
      "това": 2686,
      "рин": 2687,
      "полностью": 2688,
      "получил": 2689,
      "пробле": 2690,
      "ключи": 2691,
      "жур": 2692,
      "тона": 2693,
      "Если": 2694,
      "мало": 2695,
      "религиоз": 2696,
      "режи": 2697,
      "преимуще": 2698,
      "%,": 2699,
      "Дж": 2700,
      "охра": 2701,
      "назначе": 2702,
      "фици": 2703,
      "вшей": 2704,
      "нства": 2705,
      "сной": 2706,
      "фло": 2707,
      "покры": 2708,
      "новых": 2709,
      "куп": 2710,
      "сах": 2711,
      "площадь": 2712,
      "Крас": 2713,
      "емый": 2714,
      "яр": 2715,
      "каде": 2716,
      "крати": 2717,
      "фра": 2718,
      "вза": 2719,
      "сце": 2720,
      "превра": 2721,
      "система": 2722,
      "ниц": 2723,
      "тела": 2724,
      "наблюда": 2725,
      "одна": 2726,
      "тря": 2727,
      "основе": 2728,
      "вдо": 2729,
      "it": 2730,
      "смы": 2731,
      "ланд": 2732,
      "интер": 2733,
      "еже": 2734,
      "нен": 2735,
      "веков": 2736,
      "тельная": 2737,
      "твор": 2738,
      "см": 2739,
      "составе": 2740,
      "ори": 2741,
      "вобо": 2742,
      "согла": 2743,
      "прези": 2744,
      "редко": 2745,
      "медици": 2746,
      "технологи": 2747,
      "нений": 2748,
      "фри": 2749,
      "ственное": 2750,
      "клу": 2751,
      "будет": 2752,
      "соверше": 2753,
      "Ло": 2754,
      "ственный": 2755,
      "бар": 2756,
      "жно": 2757,
      "вно": 2758,
      "эн": 2759,
      "впервые": 2760,
      "ниж": 2761,
      "проте": 2762,
      "паро": 2763,
      "близ": 2764,
      "жды": 2765,
      "милли": 2766,
      "моря": 2767,
      "холо": 2768,
      "смерти": 2769,
      "генера": 2770,
      "дераль": 2771,
      "возможно": 2772,
      "требо": 2773,
      "треть": 2774,
      "поверхности": 2775,
      "джи": 2776,
      "зада": 2777,
      "поэтому": 2778,
      "чен": 2779,
      "лам": 2780,
      "состоит": 2781,
      "190": 2782,
      "рома": 2783,
      "оконча": 2784,
      "шка": 2785,
      "Франции": 2786,
      "тё": 2787,
      "северо": 2788,
      "двига": 2789,
      "метал": 2790,
      "строен": 2791,
      "2011": 2792,
      "июля": 2793,
      "дерации": 2794,
      "борь": 2795,
      "ципа": 2796,
      "оно": 2797,
      "цвета": 2798,
      "чное": 2799,
      "компании": 2800,
      "толи": 2801,
      "нному": 2802,
      "телями": 2803,
      "оло": 2804,
      "мия": 2805,
      "отде": 2806,
      "самых": 2807,
      "скоре": 2808,
      "симво": 2809,
      "тный": 2810,
      "пуска": 2811,
      "диви": 2812,
      "отра": 2813,
      "тельности": 2814,
      "форм": 2815,
      "организации": 2816,
      "кс": 2817,
      "дре": 2818,
      "вался": 2819,
      "Германии": 2820,
      "Гре": 2821,
      "коль": 2822,
      "ющими": 2823,
      "Европы": 2824,
      "тного": 2825,
      "сок": 2826,
      "станов": 2827,
      "собра": 2828,
      "худож": 2829,
      "ктив": 2830,
      "мощ": 2831,
      "семей": 2832,
      "представляет": 2833,
      "февра": 2834,
      "озе": 2835,
      "торы": 2836,
      "храни": 2837,
      "монасты": 2838,
      "189": 2839,
      "автомоби": 2840,
      "сентября": 2841,
      "мел": 2842,
      "позд": 2843,
      "хло": 2844,
      "поля": 2845,
      "практически": 2846,
      "Централь": 2847,
      "тной": 2848,
      "быстро": 2849,
      "Они": 2850,
      "наро": 2851,
      "своё": 2852,
      "гри": 2853,
      "нских": 2854,
      "ятся": 2855,
      "ённые": 2856,
      "прожи": 2857,
      "управления": 2858,
      "октября": 2859,
      "рую": 2860,
      "выступа": 2861,
      "кую": 2862,
      "расположен": 2863,
      "суд": 2864,
      "специали": 2865,
      "стя": 2866,
      "чай": 2867,
      "отмеча": 2868,
      "персона": 2869,
      "тные": 2870,
      "тури": 2871,
      "площади": 2872,
      "нескольких": 2873,
      "лирова": 2874,
      "приро": 2875,
      "2000": 2876,
      "ил": 2877,
      "пен": 2878,
      "возгла": 2879,
      "логии": 2880,
      "закры": 2881,
      "именно": 2882,
      "моно": 2883,
      "най": 2884,
      "бассей": 2885,
      "край": 2886,
      "деятельности": 2887,
      "веду": 2888,
      "Никола": 2889,
      "широко": 2890,
      "тым": 2891,
      "называют": 2892,
      "тот": 2893,
      "Миха": 2894,
      "изгото": 2895,
      "Аль": 2896,
      "воло": 2897,
      "разде": 2898,
      "сообще": 2899,
      "тил": 2900,
      "компози": 2901,
      "использо": 2902,
      "языке": 2903,
      "езд": 2904,
      "оде": 2905,
      "провин": 2906,
      "свет": 2907,
      "лья": 2908,
      "2014": 2909,
      "Извест": 2910,
      "жная": 2911,
      "многочисле": 2912,
      "ссажи": 2913,
      "фер": 2914,
      "гом": 2915,
      "стом": 2916,
      "рос": 2917,
      "которым": 2918,
      "Гу": 2919,
      "театра": 2920,
      "мимо": 2921,
      "бес": 2922,
      "институ": 2923,
      "Его": 2924,
      "согласно": 2925,
      "стране": 2926,
      "двор": 2927,
      "достига": 2928,
      "соору": 2929,
      "Под": 2930,
      "бина": 2931,
      "сере": 2932,
      "мых": 2933,
      "раба": 2934,
      "рого": 2935,
      "раство": 2936,
      "ап": 2937,
      "означа": 2938,
      "новые": 2939,
      "допол": 2940,
      "моз": 2941,
      "ствия": 2942,
      "суда": 2943,
      "взя": 2944,
      "мм": 2945,
      "декабря": 2946,
      "Ива": 2947,
      "Рим": 2948,
      "закон": 2949,
      "первых": 2950,
      "чув": 2951,
      "журна": 2952,
      "нему": 2953,
      "добы": 2954,
      "принци": 2955,
      "верну": 2956,
      "воору": 2957,
      "хом": 2958,
      "захва": 2959,
      "юго": 2960,
      "следования": 2961,
      "смотря": 2962,
      "выша": 2963,
      "ствен": 2964,
      "увеличи": 2965,
      "понима": 2966,
      "Население": 2967,
      "становится": 2968,
      "частью": 2969,
      "сторон": 2970,
      "маг": 2971,
      "марта": 2972,
      "отношения": 2973,
      "художе": 2974,
      "Име": 2975,
      "бю": 2976,
      "чих": 2977,
      "жений": 2978,
      "приводи": 2979,
      "зом": 2980,
      "всей": 2981,
      "православ": 2982,
      "поряд": 2983,
      "предприятия": 2984,
      "зва": 2985,
      "Суще": 2986,
      "муниципа": 2987,
      "Чер": 2988,
      "звание": 2989,
      "шру": 2990,
      "нить": 2991,
      "расши": 2992,
      "возвра": 2993,
      "плане": 2994,
      "Бы": 2995,
      "Глав": 2996,
      "маги": 2997,
      "жела": 2998,
      "перво": 2999,
      "развитие": 3000,
      "положи": 3001,
      "стол": 3002,
      "финан": 3003,
      "Поль": 3004,
      "существует": 3005,
      "берегу": 3006,
      "относится": 3007,
      "полно": 3008,
      "XVI": 3009,
      "дж": 3010,
      "конца": 3011,
      "независи": 3012,
      "сил": 3013,
      "гип": 3014,
      "Государ": 3015,
      "августа": 3016,
      "крупных": 3017,
      "ковых": 3018,
      "нении": 3019,
      "доку": 3020,
      "няет": 3021,
      "стен": 3022,
      "рассматри": 3023,
      "логия": 3024,
      "професси": 3025,
      "Рас": 3026,
      "пят": 3027,
      "реак": 3028,
      "тогда": 3029,
      "чет": 3030,
      "разных": 3031,
      "ката": 3032,
      "пан": 3033,
      "единстве": 3034,
      "седа": 3035,
      "дальней": 3036,
      "Ком": 3037,
      "поте": 3038,
      "ссы": 3039,
      "освобо": 3040,
      "расска": 3041,
      "временно": 3042,
      "свобод": 3043,
      "топи": 3044,
      "веща": 3045,
      "дент": 3046,
      "уси": 3047,
      "мах": 3048,
      "отличие": 3049,
      "большое": 3050,
      "деревя": 3051,
      "лова": 3052,
      "заболе": 3053,
      "выбо": 3054,
      "промышленности": 3055,
      "Наиболее": 3056,
      "голов": 3057,
      "выделя": 3058,
      "ом": 3059,
      "земли": 3060,
      "строительство": 3061,
      "ноября": 3062,
      "поскольку": 3063,
      "море": 3064,
      "электри": 3065,
      "подвер": 3066,
      "ro": 3067,
      "музей": 3068,
      "гидро": 3069,
      "2009": 3070,
      "благодаря": 3071,
      "Азии": 3072,
      "законо": 3073,
      "час": 3074,
      "пассажи": 3075,
      "жид": 3076,
      "просто": 3077,
      "свяще": 3078,
      "Ад": 3079,
      "есте": 3080,
      "запре": 3081,
      "организа": 3082,
      "движения": 3083,
      "вё": 3084,
      "риаль": 3085,
      "температура": 3086,
      "положение": 3087,
      "стать": 3088,
      "армии": 3089,
      "млрд": 3090,
      "досто": 3091,
      "виды": 3092,
      "гене": 3093,
      "средне": 3094,
      "ющихся": 3095,
      "Между": 3096,
      "маршру": 3097,
      "последствии": 3098,
      "чемпи": 3099,
      "бир": 3100,
      "множество": 3101,
      "очередь": 3102,
      "реаль": 3103,
      "руп": 3104,
      "стья": 3105,
      "примерно": 3106,
      "оружи": 3107,
      "счёт": 3108,
      "нике": 3109,
      "2012": 3110,
      "гна": 3111,
      "всегда": 3112,
      "35": 3113,
      "Кли": 3114,
      "район": 3115,
      "радио": 3116,
      "имо": 3117,
      "свиде": 3118,
      "здания": 3119,
      "население": 3120,
      "обору": 3121,
      "мировой": 3122,
      "аэро": 3123,
      "ристо": 3124,
      "нью": 3125,
      "Пла": 3126,
      "вень": 3127,
      "тельность": 3128,
      "городского": 3129,
      "дороги": 3130,
      "тни": 3131,
      "нина": 3132,
      "линии": 3133,
      "учеб": 3134,
      "одо": 3135,
      "тием": 3136,
      "ol": 3137,
      "жного": 3138,
      "коне": 3139,
      "мера": 3140,
      "считается": 3141,
      "исполни": 3142,
      "середине": 3143,
      "преимущественно": 3144,
      "тором": 3145,
      "умень": 3146,
      "гг": 3147,
      "жены": 3148,
      "жением": 3149,
      "am": 3150,
      "вича": 3151,
      "влением": 3152,
      "ново": 3153,
      "Кали": 3154,
      "достаточно": 3155,
      "июня": 3156,
      "Анд": 3157,
      "1990": 3158,
      "тию": 3159,
      "гам": 3160,
      "2008": 3161,
      "находятся": 3162,
      "таким": 3163,
      "сек": 3164,
      "мые": 3165,
      "2013": 3166,
      "фут": 3167,
      "гну": 3168,
      "рина": 3169,
      "указа": 3170,
      "владе": 3171,
      "Украины": 3172,
      "he": 3173,
      "нена": 3174,
      "начало": 3175,
      "используются": 3176,
      "относительно": 3177,
      "называется": 3178,
      "возника": 3179,
      "значительно": 3180,
      "тальян": 3181,
      "Мон": 3182,
      "микро": 3183,
      "ждений": 3184,
      "апреля": 3185,
      "реше": 3186,
      "принадлежа": 3187,
      "90": 3188,
      "мнению": 3189,
      "реб": 3190,
      "тина": 3191,
      "бого": 3192,
      "бан": 3193,
      "начально": 3194,
      "автобу": 3195,
      "внутри": 3196,
      "философи": 3197,
      "лка": 3198,
      "Велико": 3199,
      "готов": 3200,
      "пересе": 3201,
      "Республики": 3202,
      "АО": 3203,
      "ковой": 3204,
      "Например": 3205,
      "лёг": 3206,
      "различные": 3207,
      "дя": 3208,
      "подо": 3209,
      "пове": 3210,
      "городом": 3211,
      "област": 3212,
      "воздуха": 3213,
      "слов": 3214,
      "мена": 3215,
      "зон": 3216,
      "форме": 3217,
      "разнообраз": 3218,
      "нар": 3219,
      "детей": 3220,
      "ённый": 3221,
      "руковод": 3222,
      "тине": 3223,
      "Амери": 3224,
      "Древ": 3225,
      "сю": 3226,
      "больших": 3227,
      "самым": 3228,
      "Федерации": 3229,
      "Мак": 3230,
      "музе": 3231,
      "2015": 3232,
      "чём": 3233,
      "другими": 3234,
      "оказыва": 3235,
      "арти": 3236,
      "славя": 3237,
      "власть": 3238,
      "Тер": 3239,
      "гля": 3240,
      "ие": 3241,
      "непосред": 3242,
      "искусства": 3243,
      "спек": 3244,
      "древне": 3245,
      "Чи": 3246,
      "ранее": 3247,
      "бит": 3248,
      "большая": 3249,
      "потом": 3250,
      "гах": 3251,
      "оце": 3252,
      "присут": 3253,
      "условиях": 3254,
      "гим": 3255,
      "мель": 3256,
      "станции": 3257,
      "растений": 3258,
      "нового": 3259,
      "зад": 3260,
      "джа": 3261,
      "фро": 3262,
      "тики": 3263,
      "требу": 3264,
      "гря": 3265,
      "кости": 3266,
      "щается": 3267,
      "рье": 3268,
      "животных": 3269,
      "летия": 3270,
      "прода": 3271,
      "своим": 3272,
      "новый": 3273,
      "тании": 3274,
      "еты": 3275,
      "ционных": 3276,
      "воде": 3277,
      "le": 3278,
      "нирова": 3279,
      "раб": 3280,
      "контро": 3281,
      "руса": 3282,
      "друг": 3283,
      "семь": 3284,
      "ОО": 3285,
      "ими": 3286,
      "изо": 3287,
      "группа": 3288,
      "пру": 3289,
      "несе": 3290,
      "существо": 3291,
      "церковь": 3292,
      "Москов": 3293,
      "Васи": 3294,
      "степени": 3295,
      "лон": 3296,
      "депута": 3297,
      "вии": 3298,
      "реали": 3299,
      "поги": 3300,
      "объё": 3301,
      "береж": 3302,
      "чаще": 3303,
      "Ир": 3304,
      "желе": 3305,
      "сбор": 3306,
      "ум": 3307,
      "фигу": 3308,
      "падает": 3309,
      "норма": 3310,
      "новой": 3311,
      "жили": 3312,
      "образование": 3313,
      "um": 3314,
      "Бла": 3315,
      "должен": 3316,
      "2016": 3317,
      "Кор": 3318,
      "метра": 3319,
      "жерт": 3320,
      "термин": 3321,
      "Бело": 3322,
      "дат": 3323,
      "сор": 3324,
      "употребля": 3325,
      "as": 3326,
      "корот": 3327,
      "Италии": 3328,
      "оне": 3329,
      "честь": 3330,
      "Тро": 3331,
      "комму": 3332,
      "чек": 3333,
      "шед": 3334,
      "подчи": 3335,
      "Ал": 3336,
      "Тран": 3337,
      "пяти": 3338,
      "Гра": 3339,
      "нг": 3340,
      "руют": 3341,
      "вызыва": 3342,
      "ныне": 3343,
      "момент": 3344,
      "тяжё": 3345,
      "чную": 3346,
      "речи": 3347,
      "лер": 3348,
      "началь": 3349,
      "вшим": 3350,
      "вшихся": 3351,
      "Же": 3352,
      "квар": 3353,
      "нией": 3354,
      "жизнь": 3355,
      "дами": 3356,
      "болез": 3357,
      "спортив": 3358,
      "взаимо": 3359,
      "чном": 3360,
      "кате": 3361,
      "природ": 3362,
      "жит": 3363,
      "ющиеся": 3364,
      "советский": 3365,
      "вес": 3366,
      "действие": 3367,
      "лета": 3368,
      "186": 3369,
      "помощи": 3370,
      "насчи": 3371,
      "ur": 3372,
      "которую": 3373,
      "Некоторые": 3374,
      "католи": 3375,
      "вить": 3376,
      "целью": 3377,
      "общества": 3378,
      "этим": 3379,
      "лимпи": 3380,
      "Вто": 3381,
      "чности": 3382,
      "стр": 3383,
      "верши": 3384,
      "экспе": 3385,
      "главным": 3386,
      "пой": 3387,
      "вело": 3388,
      "темати": 3389,
      "избира": 3390,
      "фир": 3391,
      "новь": 3392,
      "зелё": 3393,
      "производство": 3394,
      "следует": 3395,
      "вшиеся": 3396,
      "нская": 3397,
      "ниях": 3398,
      "зия": 3399,
      "путём": 3400,
      "деб": 3401,
      "стива": 3402,
      "газ": 3403,
      "клады": 3404,
      "реши": 3405,
      "лад": 3406,
      "Великобри": 3407,
      "Тем": 3408,
      "емой": 3409,
      "гори": 3410,
      "постепе": 3411,
      "служа": 3412,
      "определё": 3413,
      "роз": 3414,
      "библи": 3415,
      "Пло": 3416,
      "приходи": 3417,
      "сед": 3418,
      "Ци": 3419,
      "рение": 3420,
      "види": 3421,
      "оке": 3422,
      "войск": 3423,
      "Большо": 3424,
      "валась": 3425,
      "сильно": 3426,
      "люди": 3427,
      "именова": 3428,
      "соответству": 3429,
      "приобре": 3430,
      "фами": 3431,
      "om": 3432,
      "тет": 3433,
      "цам": 3434,
      "кажды": 3435,
      "езда": 3436,
      "средства": 3437,
      "силы": 3438,
      "русский": 3439,
      "расположены": 3440,
      "союз": 3441,
      "ниже": 3442,
      "центре": 3443,
      "театр": 3444,
      "услу": 3445,
      "тили": 3446,
      "гами": 3447,
      "Сою": 3448,
      "дене": 3449,
      "циони": 3450,
      "Констан": 3451,
      "княже": 3452,
      "емого": 3453,
      "Ши": 3454,
      "нео": 3455,
      "метри": 3456,
      "Таким": 3457,
      "прямо": 3458,
      "кса": 3459,
      "мусуль": 3460,
      "влека": 3461,
      "187": 3462,
      "безо": 3463,
      "федераль": 3464,
      "произведения": 3465,
      "влияние": 3466,
      "доба": 3467,
      "ведений": 3468,
      "половине": 3469,
      "лем": 3470,
      "пути": 3471,
      "Пар": 3472,
      "доли": 3473,
      "Англи": 3474,
      "занимает": 3475,
      "Кре": 3476,
      "плу": 3477,
      "первого": 3478,
      "Пере": 3479,
      "региона": 3480,
      "ac": 3481,
      "вновь": 3482,
      "писко": 3483,
      "стрирова": 3484,
      "свое": 3485,
      "Казах": 3486,
      "свойства": 3487,
      "построен": 3488,
      "демо": 3489,
      "щим": 3490,
      "люби": 3491,
      "русской": 3492,
      "стойчи": 3493,
      "возможность": 3494,
      "бля": 3495,
      "большие": 3496,
      "уничто": 3497,
      "Александр": 3498,
      "Она": 3499,
      "лиц": 3500,
      "такой": 3501,
      "статус": 3502,
      "относятся": 3503,
      "пожа": 3504,
      "последова": 3505,
      "кроме": 3506,
      "крови": 3507,
      "ступления": 3508,
      "февраля": 3509,
      "обу": 3510,
      "купа": 3511,
      "автор": 3512,
      "коллек": 3513,
      "акаде": 3514,
      "рица": 3515,
      "точки": 3516,
      "Этот": 3517,
      "периода": 3518,
      "днев": 3519,
      "рец": 3520,
      "Сол": 3521,
      "порта": 3522,
      "выда": 3523,
      "бал": 3524,
      "вала": 3525,
      "рубе": 3526,
      "ционной": 3527,
      "четыре": 3528,
      "45": 3529,
      "ia": 3530,
      "указыва": 3531,
      "итальян": 3532,
      "тельную": 3533,
      "язык": 3534,
      "атмо": 3535,
      "комплекс": 3536,
      "кома": 3537,
      "лиза": 3538,
      "числа": 3539,
      "ясь": 3540,
      "жена": 3541,
      "2006": 3542,
      "Тур": 3543,
      "содержи": 3544,
      "жай": 3545,
      "2018": 3546,
      "здание": 3547,
      "сро": 3548,
      "ковые": 3549,
      "сочи": 3550,
      "вила": 3551,
      "бен": 3552,
      "знания": 3553,
      "корпу": 3554,
      "десяти": 3555,
      "моне": 3556,
      "выпуска": 3557,
      "нюю": 3558,
      "географи": 3559,
      "зрения": 3560,
      "самостоя": 3561,
      "говори": 3562,
      "еписко": 3563,
      "Приме": 3564,
      "вся": 3565,
      "хорошо": 3566,
      "Ана": 3567,
      "внима": 3568,
      "лес": 3569,
      "метро": 3570,
      "рым": 3571,
      "2007": 3572,
      "русских": 3573,
      "Оте": 3574,
      "ева": 3575,
      "расстоя": 3576,
      "страда": 3577,
      "Националь": 3578,
      "появились": 3579,
      "пала": 3580,
      "Гор": 3581,
      "ностей": 3582,
      "действова": 3583,
      "пласти": 3584,
      "большинство": 3585,
      "РФ": 3586,
      "преду": 3587,
      "русского": 3588,
      "Санкт": 3589,
      "вало": 3590,
      "влении": 3591,
      "цом": 3592,
      "кнове": 3593,
      "используют": 3594,
      "вокза": 3595,
      "et": 3596,
      "мён": 3597,
      "позже": 3598,
      "предприятий": 3599,
      "опас": 3600,
      "раст": 3601,
      "стые": 3602,
      "пять": 3603,
      "станавли": 3604,
      "зали": 3605,
      "сум": 3606,
      "йские": 3607,
      "чении": 3608,
      "плот": 3609,
      "фабри": 3610,
      "неё": 3611,
      "нностью": 3612,
      "предоста": 3613,
      "мым": 3614,
      "ющую": 3615,
      "валось": 3616,
      "гия": 3617,
      "предме": 3618,
      "гой": 3619,
      "лежит": 3620,
      "ситуа": 3621,
      "циях": 3622,
      "украин": 3623,
      "il": 3624,
      "аре": 3625,
      "рыв": 3626,
      "дыха": 3627,
      "мяг": 3628,
      "фестива": 3629,
      "вокруг": 3630,
      "должны": 3631,
      "съ": 3632,
      "лаге": 3633,
      "сопрово": 3634,
      "ряду": 3635,
      "первым": 3636,
      "188": 3637,
      "исти": 3638,
      "тел": 3639,
      "школы": 3640,
      "близи": 3641,
      "движение": 3642,
      "туру": 3643,
      "компания": 3644,
      "включая": 3645,
      "вёл": 3646,
      "пля": 3647,
      "решение": 3648,
      "Географи": 3649,
      "»:": 3650,
      "духов": 3651,
      "названием": 3652,
      "мян": 3653,
      "следствие": 3654,
      "оса": 3655,
      "крити": 3656,
      "Ие": 3657,
      "лист": 3658,
      "31": 3659,
      "присоеди": 3660,
      "ходов": 3661,
      "высоко": 3662,
      "соответствии": 3663,
      "встречается": 3664,
      "река": 3665,
      "вляется": 3666,
      "эффектив": 3667,
      "дополни": 3668,
      "законода": 3669,
      "вшее": 3670,
      "фы": 3671,
      "кило": 3672,
      "шен": 3673,
      "собственно": 3674,
      "36": 3675,
      "входит": 3676,
      "сотруд": 3677,
      "тип": 3678,
      "восста": 3679,
      "случаях": 3680,
      "ежегод": 3681,
      "раи": 3682,
      "отвер": 3683,
      "ходили": 3684,
      "2017": 3685,
      "ант": 3686,
      "хро": 3687,
      "ъек": 3688,
      "уровня": 3689,
      "емая": 3690,
      "востоке": 3691,
      "современной": 3692,
      "ау": 3693,
      "вия": 3694,
      "стройки": 3695,
      "Великой": 3696,
      "утвержда": 3697,
      "угле": 3698,
      "игры": 3699,
      "увели": 3700,
      "устойчи": 3701,
      "кут": 3702,
      "предназначе": 3703,
      "вшийся": 3704,
      "век": 3705,
      "целом": 3706,
      "огром": 3707,
      "Испо": 3708,
      "попы": 3709,
      "тыми": 3710,
      "180": 3711,
      "связыва": 3712,
      "Авто": 3713,
      "Ис": 3714,
      "ограниче": 3715,
      "протяжении": 3716,
      "кость": 3717,
      "граждан": 3718,
      "соба": 3719,
      "страхо": 3720,
      "парла": 3721,
      "ющийся": 3722,
      "сон": 3723,
      "вероят": 3724,
      "рея": 3725,
      "мигра": 3726,
      "нять": 3727,
      "ционные": 3728,
      "рядом": 3729,
      "стров": 3730,
      "безопас": 3731,
      "удо": 3732,
      "потреб": 3733,
      "предполага": 3734,
      "рования": 3735,
      "основных": 3736,
      "побереж": 3737,
      "Жи": 3738,
      "Яро": 3739,
      "дри": 3740,
      "воду": 3741,
      "нением": 3742,
      "зая": 3743,
      "отда": 3744,
      "пом": 3745,
      "лик": 3746,
      "руются": 3747,
      "1930": 3748,
      "держ": 3749,
      "языка": 3750,
      "кин": 3751,
      "дах": 3752,
      "профессиональ": 3753,
      "чик": 3754,
      "нил": 3755,
      "стых": 3756,
      "Афри": 3757,
      "Им": 3758,
      "леко": 3759,
      "ровать": 3760,
      "происхождения": 3761,
      "1960": 3762,
      "евреев": 3763,
      "Бал": 3764,
      "разо": 3765,
      "парк": 3766,
      "процесс": 3767,
      "характеристи": 3768,
      "ходы": 3769,
      "бай": 3770,
      "самого": 3771,
      "стандар": 3772,
      "металли": 3773,
      "ССР": 3774,
      "расти": 3775,
      "роман": 3776,
      "тое": 3777,
      "бора": 3778,
      "чий": 3779,
      "Воло": 3780,
      "2005": 3781,
      "лая": 3782,
      "партии": 3783,
      "Литера": 3784,
      "двумя": 3785,
      "ждён": 3786,
      "Земли": 3787,
      "os": 3788,
      "макси": 3789,
      "правления": 3790,
      "ждении": 3791,
      "йская": 3792,
      "льными": 3793,
      "количества": 3794,
      "тиви": 3795,
      "всем": 3796,
      "российский": 3797,
      "позволяет": 3798,
      "рона": 3799,
      "организова": 3800,
      "связано": 3801,
      "штаб": 3802,
      "литератур": 3803,
      "Кла": 3804,
      "ТВ": 3805,
      "весьма": 3806,
      "хол": 3807,
      "писал": 3808,
      "большим": 3809,
      "императора": 3810,
      "аппара": 3811,
      "зве": 3812,
      "проходит": 3813,
      "обслужи": 3814,
      "анта": 3815,
      "перь": 3816,
      "лым": 3817,
      "военно": 3818,
      "38": 3819,
      "исследования": 3820,
      "скло": 3821,
      "высокой": 3822,
      "Северной": 3823,
      "сур": 3824,
      "1920": 3825,
      "большей": 3826,
      "равно": 3827,
      "шке": 3828,
      "национа": 3829,
      "дор": 3830,
      "зона": 3831,
      "торгов": 3832,
      "кост": 3833,
      "дам": 3834,
      "комбина": 3835,
      "хан": 3836,
      "185": 3837,
      "деятельность": 3838,
      "гряз": 3839,
      "дца": 3840,
      "чными": 3841,
      "щён": 3842,
      "риа": 3843,
      "последу": 3844,
      "четырёх": 3845,
      "лица": 3846,
      "тически": 3847,
      "император": 3848,
      "ябре": 3849,
      "пусты": 3850,
      "создания": 3851,
      "Ке": 3852,
      "здо": 3853,
      "ционный": 3854,
      "рамках": 3855,
      "постепенно": 3856,
      "библиоте": 3857,
      "остров": 3858,
      "эпоху": 3859,
      "сна": 3860,
      "умер": 3861,
      "судо": 3862,
      "зуется": 3863,
      "рьё": 3864,
      "обознача": 3865,
      "регуляр": 3866,
      "брь": 3867,
      "цеп": 3868,
      "ционного": 3869,
      "изменения": 3870,
      "Второй": 3871,
      "IV": 3872,
      "Афи": 3873,
      "мог": 3874,
      "общей": 3875,
      "посёл": 3876,
      "пока": 3877,
      "сокра": 3878,
      "мину": 3879,
      "тива": 3880,
      "чественной": 3881,
      "строительства": 3882,
      "мужчи": 3883,
      "Бри": 3884,
      "Кри": 3885,
      "впоследствии": 3886,
      "жён": 3887,
      "растения": 3888,
      "75": 3889,
      "re": 3890,
      "эль": 3891,
      "чность": 3892,
      "льп": 3893,
      "тино": 3894,
      "жить": 3895,
      "равни": 3896,
      "вка": 3897,
      "дого": 3898,
      "орке": 3899,
      "2019": 3900,
      "округа": 3901,
      "холод": 3902,
      "соче": 3903,
      "жем": 3904,
      "тья": 3905,
      "друга": 3906,
      "участие": 3907,
      "магистра": 3908,
      "48": 3909,
      "Здесь": 3910,
      "опы": 3911,
      "зоне": 3912,
      "применяется": 3913,
      "глубо": 3914,
      "лением": 3915,
      "сия": 3916,
      "мый": 3917,
      "Когда": 3918,
      "управля": 3919,
      "Москве": 3920,
      "довольно": 3921,
      "меж": 3922,
      "пище": 3923,
      "щает": 3924,
      "нефте": 3925,
      "ул": 3926,
      "лега": 3927,
      "доступ": 3928,
      "заклю": 3929,
      "рых": 3930,
      "бель": 3931,
      "исключи": 3932,
      "самой": 3933,
      "литературе": 3934,
      "Мно": 3935,
      "блей": 3936,
      "описы": 3937,
      "тков": 3938,
      "рези": 3939,
      "дование": 3940,
      "пусти": 3941,
      "переме": 3942,
      "ch": 3943,
      "пок": 3944,
      "тины": 3945,
      "начали": 3946,
      "иностра": 3947,
      "вещества": 3948,
      "отношении": 3949,
      "жности": 3950,
      "риф": 3951,
      "чие": 3952,
      "баш": 3953,
      "скульп": 3954,
      "жным": 3955,
      "йском": 3956,
      "шан": 3957,
      "осад": 3958,
      "реке": 3959,
      "помина": 3960,
      "няются": 3961,
      "плоть": 3962,
      "действу": 3963,
      "нося": 3964,
      "песни": 3965,
      "уровень": 3966,
      "гне": 3967,
      "повыше": 3968,
      "дента": 3969,
      "ion": 3970,
      "никах": 3971,
      "философ": 3972,
      "клет": 3973,
      "ус": 3974,
      "щении": 3975,
      "гель": 3976,
      "сылки": 3977,
      "территория": 3978,
      "открыт": 3979,
      "встречаются": 3980,
      "механи": 3981,
      "свидетель": 3982,
      "ot": 3983,
      "гон": 3984,
      "ремо": 3985,
      "Арме": 3986,
      "сеть": 3987,
      "легко": 3988,
      "Ино": 3989,
      "дел": 3990,
      "знамени": 3991,
      "большую": 3992,
      "колибри": 3993,
      "которому": 3994,
      "получили": 3995,
      "приводит": 3996,
      "37": 3997,
      "отве": 3998,
      "сан": 3999,
      "праве": 4000,
      "Поэтому": 4001,
      "крест": 4002,
      "правитель": 4003,
      "получила": 4004,
      "острове": 4005,
      "версии": 4006,
      "евич": 4007,
      "повто": 4008,
      "посвя": 4009,
      "газо": 4010,
      "снаб": 4011,
      "лена": 4012,
      "Пари": 4013,
      "меньше": 4014,
      "рождения": 4015,
      "лень": 4016,
      "гео": 4017,
      "государств": 4018,
      "падения": 4019,
      "Испа": 4020,
      "укреп": 4021,
      "лесо": 4022,
      "причём": 4023,
      "Коро": 4024,
      "фикация": 4025,
      "сформирова": 4026,
      "рат": 4027,
      "семи": 4028,
      "государство": 4029,
      "традиции": 4030,
      ".#": 4031,
      "Сте": 4032,
      "ия": 4033,
      "очи": 4034,
      "снова": 4035,
      "доне": 4036,
      "ляции": 4037,
      "жает": 4038,
      "конфе": 4039,
      "инду": 4040,
      ".«": 4041,
      "рана": 4042,
      "примеча": 4043,
      "зре": 4044,
      "моле": 4045,
      "превыша": 4046,
      "начал": 4047,
      "западе": 4048,
      "Сло": 4049,
      "решения": 4050,
      "могли": 4051,
      "граф": 4052,
      "фикации": 4053,
      "Серге": 4054,
      "означает": 4055,
      "Международ": 4056,
      "Чу": 4057,
      "эту": 4058,
      "частей": 4059,
      "вро": 4060,
      "потому": 4061,
      "тения": 4062,
      "титу": 4063,
      "пес": 4064,
      "бежа": 4065,
      "одновременно": 4066,
      "сопровожда": 4067,
      "пон": 4068,
      "лище": 4069,
      "ческому": 4070,
      "мато": 4071,
      "силу": 4072,
      "бело": 4073,
      "ственным": 4074,
      "ландии": 4075,
      "34": 4076,
      "каме": 4077,
      "особы": 4078,
      "напря": 4079,
      "первая": 4080,
      "защиты": 4081,
      "иска": 4082,
      "нда": 4083,
      "вор": 4084,
      "кает": 4085,
      "прежде": 4086,
      "инже": 4087,
      "Совета": 4088,
      "действует": 4089,
      "воздуш": 4090,
      "катего": 4091,
      "бран": 4092,
      "льную": 4093,
      "одном": 4094,
      "смотре": 4095,
      "основания": 4096,
      "эксплу": 4097,
      "Обы": 4098,
      "замет": 4099,
      "завода": 4100,
      "подви": 4101,
      "Москвы": 4102,
      "Ры": 4103,
      "май": 4104,
      "крупные": 4105,
      "разновид": 4106,
      "синте": 4107,
      "1941": 4108,
      "Апол": 4109,
      "дни": 4110,
      "жность": 4111,
      "пье": 4112,
      "мана": 4113,
      "крат": 4114,
      "эпохи": 4115,
      "рублей": 4116,
      "39": 4117,
      "Экономи": 4118,
      "вшись": 4119,
      "2004": 4120,
      "финансо": 4121,
      "ed": 4122,
      "Аб": 4123,
      "Ль": 4124,
      "мага": 4125,
      "Название": 4126,
      "первую": 4127,
      "рование": 4128,
      "обита": 4129,
      "Петербур": 4130,
      "un": 4131,
      "рост": 4132,
      "контине": 4133,
      "времена": 4134,
      "земле": 4135,
      "фильм": 4136,
      "необходимо": 4137,
      "кварти": 4138,
      "Осо": 4139,
      "особо": 4140,
      "утопи": 4141,
      "недоста": 4142,
      "гент": 4143,
      "концентра": 4144,
      "сын": 4145,
      "окси": 4146,
      "sp": 4147,
      "Лон": 4148,
      "твёр": 4149,
      "сети": 4150,
      "определён": 4151,
      "Ом": 4152,
      "Эта": 4153,
      "фото": 4154,
      "носит": 4155,
      "работки": 4156,
      "убий": 4157,
      "энергии": 4158,
      "Сы": 4159,
      "сви": 4160,
      "коре": 4161,
      "гора": 4162,
      "паль": 4163,
      "предо": 4164,
      "зин": 4165,
      "ционно": 4166,
      "Дан": 4167,
      "ито": 4168,
      "собира": 4169,
      "прида": 4170,
      "рый": 4171,
      "наук": 4172,
      "пост": 4173,
      "вании": 4174,
      "предложе": 4175,
      "государственный": 4176,
      "зме": 4177,
      "оп": 4178,
      "государственного": 4179,
      "материалов": 4180,
      "Известные": 4181,
      "jp": 4182,
      "подтвер": 4183,
      "британ": 4184,
      "1991": 4185,
      "распространение": 4186,
      "окружа": 4187,
      "дон": 4188,
      "путе": 4189,
      "каждый": 4190,
      "Кур": 4191,
      "кори": 4192,
      "емое": 4193,
      "юге": 4194,
      "ёв": 4195,
      "голь": 4196,
      "гота": 4197,
      "царя": 4198,
      "среднем": 4199,
      "самый": 4200,
      "соверша": 4201,
      "конструкции": 4202,
      "Греции": 4203,
      "Отечественной": 4204,
      "ённых": 4205,
      "дело": 4206,
      "своём": 4207,
      "составляют": 4208,
      "пользова": 4209,
      "всю": 4210,
      "крепости": 4211,
      "лл": 4212,
      "опа": 4213,
      "лиа": 4214,
      "льт": 4215,
      "вале": 4216,
      "хождение": 4217,
      "вляет": 4218,
      "зоны": 4219,
      "Помимо": 4220,
      "состоянию": 4221,
      "использовать": 4222,
      "региональ": 4223,
      "юр": 4224,
      "влен": 4225,
      "Поли": 4226,
      "начинается": 4227,
      "народов": 4228,
      "биз": 4229,
      "наде": 4230,
      "терми": 4231,
      "главе": 4232,
      "включает": 4233,
      "сфере": 4234,
      "непосредственно": 4235,
      "Цер": 4236,
      "блю": 4237,
      "введе": 4238,
      "сных": 4239,
      "ственная": 4240,
      "имели": 4241,
      "имеется": 4242,
      "систему": 4243,
      "солне": 4244,
      "современных": 4245,
      "вдоль": 4246,
      "чере": 4247,
      "составил": 4248,
      "Прези": 4249,
      "500": 4250,
      "прият": 4251,
      "фикси": 4252,
      "тропи": 4253,
      "другим": 4254,
      "веществ": 4255,
      "удоб": 4256,
      "ьер": 4257,
      "комен": 4258,
      "вино": 4259,
      "математи": 4260,
      "сухо": 4261,
      "станция": 4262,
      "герман": 4263,
      "кали": 4264,
      "хам": 4265,
      "средств": 4266,
      "1980": 4267,
      "Литература": 4268,
      "jpg": 4269,
      "вай": 4270,
      "ссив": 4271,
      "лян": 4272,
      "часов": 4273,
      "бин": 4274,
      "Восточной": 4275,
      "генерал": 4276,
      "философии": 4277,
      "Гри": 4278,
      "окра": 4279,
      "льном": 4280,
      "провозгла": 4281,
      "сел": 4282,
      "крупнейших": 4283,
      "учреждения": 4284,
      "информации": 4285,
      "32": 4286,
      "игро": 4287,
      "убе": 4288,
      "тело": 4289,
      "цах": 4290,
      "транспорта": 4291,
      "направления": 4292,
      "Великобритании": 4293,
      "лето": 4294,
      "началось": 4295,
      "культуре": 4296,
      "королев": 4297,
      "ступает": 4298,
      "позднее": 4299,
      "Климат": 4300,
      "Бар": 4301,
      "тических": 4302,
      "преоблада": 4303,
      "тельными": 4304,
      "трам": 4305,
      "военных": 4306,
      "сторону": 4307,
      "организация": 4308,
      "принято": 4309,
      "Владимир": 4310,
      "зло": 4311,
      "первое": 4312,
      "совмест": 4313,
      "трудо": 4314,
      "чемпиона": 4315,
      "оки": 4316,
      "прото": 4317,
      "телям": 4318,
      "объектов": 4319,
      "современного": 4320,
      "отдельных": 4321,
      "зам": 4322,
      "говор": 4323,
      "революции": 4324,
      "магни": 4325,
      "континента": 4326,
      "Олимпи": 4327,
      "динами": 4328,
      "выну": 4329,
      "стади": 4330,
      "разделя": 4331,
      "щими": 4332,
      "1918": 4333,
      "экономики": 4334,
      "районов": 4335,
      "руководи": 4336,
      "произошло": 4337,
      "зри": 4338,
      "ёлок": 4339,
      "камен": 4340,
      "боло": 4341,
      "прош": 4342,
      "стаби": 4343,
      "стиле": 4344,
      "надца": 4345,
      "анали": 4346,
      "de": 4347,
      "телю": 4348,
      "вызва": 4349,
      "стами": 4350,
      "гина": 4351,
      "подготов": 4352,
      "Несмотря": 4353,
      "государственной": 4354,
      "сравни": 4355,
      "рьёз": 4356,
      "проя": 4357,
      "разработа": 4358,
      "слой": 4359,
      "никам": 4360,
      "известно": 4361,
      "события": 4362,
      "300": 4363,
      "Егип": 4364,
      "Япо": 4365,
      "дже": 4366,
      "реша": 4367,
      "разделе": 4368,
      "поддержи": 4369,
      "Послед": 4370,
      "Куль": 4371,
      "44": 4372,
      "опубли": 4373,
      "назад": 4374,
      "молит": 4375,
      "прекра": 4376,
      "Современ": 4377,
      "системе": 4378,
      "университет": 4379,
      "ини": 4380,
      "ресур": 4381,
      "каль": 4382,
      "поддерж": 4383,
      "ступле": 4384,
      "собор": 4385,
      "использования": 4386,
      "мусульман": 4387,
      "КО": 4388,
      "вместо": 4389,
      "сные": 4390,
      "митри": 4391,
      "отрица": 4392,
      "1970": 4393,
      "Истори": 4394,
      "продолжи": 4395,
      "Многие": 4396,
      "Ссылки": 4397,
      "веру": 4398,
      "дис": 4399,
      "возраста": 4400,
      "поселения": 4401,
      "осе": 4402,
      "нередко": 4403,
      "тета": 4404,
      "заключа": 4405,
      "загряз": 4406,
      "пределах": 4407,
      "Первый": 4408,
      "Руси": 4409,
      "символи": 4410,
      "серебря": 4411,
      "кг": 4412,
      "ох": 4413,
      "отказа": 4414,
      "школа": 4415,
      "психо": 4416,
      "гимна": 4417,
      "нович": 4418,
      "Кита": 4419,
      "районах": 4420,
      "республики": 4421,
      "55": 4422,
      "РС": 4423,
      "вплоть": 4424,
      "звё": 4425,
      "кну": 4426,
      "кому": 4427,
      "мифо": 4428,
      "края": 4429,
      "крем": 4430,
      "класса": 4431,
      "последние": 4432,
      "уровне": 4433,
      "вказ": 4434,
      "дю": 4435,
      "кос": 4436,
      "ЕС": 4437,
      "умере": 4438,
      "устанавли": 4439,
      "вери": 4440,
      "дить": 4441,
      "севере": 4442,
      "няют": 4443,
      "пуще": 4444,
      "действий": 4445,
      "регистрирова": 4446,
      "соответственно": 4447,
      "элементов": 4448,
      "Даль": 4449,
      "вато": 4450,
      "вера": 4451,
      "преж": 4452,
      "времён": 4453,
      "общего": 4454,
      "XIV": 4455,
      "Том": 4456,
      "субъек": 4457,
      "Англии": 4458,
      "Стра": 4459,
      "копи": 4460,
      "кови": 4461,
      "чены": 4462,
      "сена": 4463,
      "состава": 4464,
      "получения": 4465,
      "температуры": 4466,
      "1950": 4467,
      "конкре": 4468,
      "границы": 4469,
      "районы": 4470,
      "нефти": 4471,
      "смысле": 4472,
      "Мор": 4473,
      "народа": 4474,
      "роли": 4475,
      "теории": 4476,
      "Зе": 4477,
      "ассо": 4478,
      "ина": 4479,
      "назнача": 4480,
      "русском": 4481,
      "состоянии": 4482,
      "структура": 4483,
      "южет": 4484,
      "упоминается": 4485,
      "Круп": 4486,
      "Спар": 4487,
      "оцен": 4488,
      "лища": 4489,
      "цели": 4490,
      "Россия": 4491,
      "объём": 4492,
      "Теле": 4493,
      "возможности": 4494,
      "цкий": 4495,
      "леген": 4496,
      "судеб": 4497,
      "тую": 4498,
      "случай": 4499,
      "Австра": 4500,
      "середины": 4501,
      "механиз": 4502,
      "Западной": 4503,
      "наказа": 4504,
      "демон": 4505,
      "сив": 4506,
      "газа": 4507,
      "цем": 4508,
      "страи": 4509,
      "основной": 4510,
      "Первые": 4511,
      "местах": 4512,
      "оны": 4513,
      "тное": 4514,
      "завое": 4515,
      "алкого": 4516,
      "юриди": 4517,
      "эй": 4518,
      "мология": 4519,
      "ЭС": 4520,
      "различа": 4521,
      "судов": 4522,
      "архе": 4523,
      "веках": 4524,
      "временем": 4525,
      "случаев": 4526,
      "транс": 4527,
      "опи": 4528,
      "капита": 4529,
      "Анти": 4530,
      "режисс": 4531,
      "Ново": 4532,
      "птиц": 4533,
      "возникнове": 4534,
      "потен": 4535,
      "дови": 4536,
      "ниями": 4537,
      "серьёз": 4538,
      "успеш": 4539,
      "пото": 4540,
      "данных": 4541,
      "декора": 4542,
      "секре": 4543,
      "изве": 4544,
      "половины": 4545,
      "постоянно": 4546,
      "ука": 4547,
      "почита": 4548,
      "дета": 4549,
      "щем": 4550,
      "ровки": 4551,
      "городских": 4552,
      "большого": 4553,
      "осуществляется": 4554,
      "шпа": 4555,
      "отношение": 4556,
      "щихся": 4557,
      "элемента": 4558,
      "Верхов": 4559,
      "губернии": 4560,
      "Белору": 4561,
      "раза": 4562,
      "горе": 4563,
      "совета": 4564,
      "дил": 4565,
      "конец": 4566,
      "такого": 4567,
      "вило": 4568,
      "Перво": 4569,
      "Через": 4570,
      "крепость": 4571,
      "сравнению": 4572,
      "Ряза": 4573,
      "рных": 4574,
      "член": 4575,
      "водоро": 4576,
      "Ниж": 4577,
      "железной": 4578,
      "приходится": 4579,
      "внимание": 4580,
      "ra": 4581,
      "Ше": 4582,
      "меро": 4583,
      "компо": 4584,
      "кового": 4585,
      "тической": 4586,
      "виду": 4587,
      "цили": 4588,
      "туаль": 4589,
      "сына": 4590,
      "представителей": 4591,
      "отличается": 4592,
      "службы": 4593,
      "².": 4594,
      "Бре": 4595,
      "Ещё": 4596,
      "2001": 4597,
      "территориаль": 4598,
      "артилле": 4599,
      "веси": 4600,
      "сосед": 4601,
      "боя": 4602,
      "испа": 4603,
      "ходил": 4604,
      "стую": 4605,
      "органов": 4606,
      "обыкнове": 4607,
      "пет": 4608,
      "мастер": 4609,
      "отрас": 4610,
      "войне": 4611,
      "самолё": 4612,
      "Фор": 4613,
      "шему": 4614,
      "шинство": 4615,
      "жается": 4616,
      "известны": 4617,
      "Мини": 4618,
      "Твер": 4619,
      "домов": 4620,
      "именем": 4621,
      "зданий": 4622,
      "150": 4623,
      "Дне": 4624,
      "катери": 4625,
      "фек": 4626,
      "Киев": 4627,
      "ответственно": 4628,
      "столицей": 4629,
      "дивиду": 4630,
      "семейства": 4631,
      "Существует": 4632,
      "молеку": 4633,
      "Сим": 4634,
      "сразу": 4635,
      "бота": 4636,
      "обусло": 4637,
      "дума": 4638,
      "водой": 4639,
      "средневе": 4640,
      "экспери": 4641,
      "эксплуата": 4642,
      "астро": 4643,
      "похо": 4644,
      "зарегистрирова": 4645,
      "боро": 4646,
      "пригото": 4647,
      "систем": 4648,
      "функции": 4649,
      "Иеруса": 4650,
      "47": 4651,
      "воин": 4652,
      "чением": 4653,
      "мото": 4654,
      "одну": 4655,
      "работу": 4656,
      "городах": 4657,
      "существуют": 4658,
      "применение": 4659,
      "улицы": 4660,
      "лицо": 4661,
      "шах": 4662,
      "правительства": 4663,
      "Памя": 4664,
      "отношению": 4665,
      "порядка": 4666,
      "готавли": 4667,
      "33": 4668,
      "уса": 4669,
      "Поло": 4670,
      "конф": 4671,
      "2003": 4672,
      "правительство": 4673,
      "восток": 4674,
      "фицирова": 4675,
      "вина": 4676,
      "лями": 4677,
      "турой": 4678,
      "арми": 4679,
      "ментом": 4680,
      "иметь": 4681,
      "связь": 4682,
      "область": 4683,
      "Стро": 4684,
      "поки": 4685,
      "шими": 4686,
      "беско": 4687,
      "Кам": 4688,
      "становление": 4689,
      "должна": 4690,
      "дальнейшем": 4691,
      "фар": 4692,
      "нику": 4693,
      "напи": 4694,
      "каса": 4695,
      "завер": 4696,
      "сегод": 4697,
      "коммер": 4698,
      "книги": 4699,
      "Хот": 4700,
      "араб": 4701,
      "жида": 4702,
      "труб": 4703,
      "ведён": 4704,
      "Союза": 4705,
      "свер": 4706,
      "ума": 4707,
      "нено": 4708,
      "нераль": 4709,
      "тира": 4710,
      "распространён": 4711,
      "управление": 4712,
      "сегодня": 4713,
      "65": 4714,
      "XIII": 4715,
      "ter": 4716,
      "Сле": 4717,
      "лог": 4718,
      "пей": 4719,
      "влено": 4720,
      "определе": 4721,
      "опти": 4722,
      "стями": 4723,
      "колле": 4724,
      "показыва": 4725,
      "дин": 4726,
      "предлага": 4727,
      "лённых": 4728,
      "концеп": 4729,
      "позволи": 4730,
      "хозяйства": 4731,
      "династи": 4732,
      "Администра": 4733,
      "of": 4734,
      "летом": 4735,
      "преда": 4736,
      "буд": 4737,
      "имел": 4738,
      "Сиби": 4739,
      "процессе": 4740,
      "тонн": 4741,
      "университета": 4742,
      "жёл": 4743,
      "сда": 4744,
      "реме": 4745,
      "добро": 4746,
      "имено": 4747,
      "тивно": 4748,
      "восстановле": 4749,
      "говоря": 4750,
      "основан": 4751,
      "вариан": 4752,
      "войсками": 4753,
      "Иногда": 4754,
      "хле": 4755,
      "кот": 4756,
      "гости": 4757,
      "доказа": 4758,
      "оба": 4759,
      "шер": 4760,
      "дорог": 4761,
      "использование": 4762,
      "реа": 4763,
      "распреде": 4764,
      "циями": 4765,
      "создан": 4766,
      "действием": 4767,
      "Интер": 4768,
      "ологии": 4769,
      "продуктов": 4770,
      "появился": 4771,
      "Большинство": 4772,
      "массы": 4773,
      "программы": 4774,
      "клуб": 4775,
      "сочета": 4776,
      "пто": 4777,
      "стая": 4778,
      "городу": 4779,
      "стый": 4780,
      "паралле": 4781,
      "площад": 4782,
      "нённых": 4783,
      "Одиссе": 4784,
      "Петербург": 4785,
      "меня": 4786,
      "заво": 4787,
      "сколько": 4788,
      "подъ": 4789,
      "принял": 4790,
      "фильма": 4791,
      "президент": 4792,
      "Именно": 4793,
      "утра": 4794,
      "деление": 4795,
      "мани": 4796,
      "2002": 4797,
      "ющем": 4798,
      "большинстве": 4799,
      "провинции": 4800,
      "путеше": 4801,
      "Ат": 4802,
      "насле": 4803,
      "чисто": 4804,
      "судь": 4805,
      "известных": 4806,
      "процесса": 4807,
      "полномо": 4808,
      "депутатов": 4809,
      "Пор": 4810,
      "Сто": 4811,
      "Эль": 4812,
      "визи": 4813,
      "сии": 4814,
      "сал": 4815,
      "подписа": 4816,
      "длиной": 4817,
      "Ман": 4818,
      "Фу": 4819,
      "кара": 4820,
      "тывает": 4821,
      "имеются": 4822,
      "история": 4823,
      "стрел": 4824,
      "западной": 4825,
      "центральной": 4826,
      "женщин": 4827,
      "Екатери": 4828,
      "жное": 4829,
      "йн": 4830,
      "цкого": 4831,
      "наличи": 4832,
      "напомина": 4833,
      "тические": 4834,
      "дио": 4835,
      "педа": 4836,
      "переписи": 4837,
      "тяже": 4838,
      "территорию": 4839,
      "Виль": 4840,
      "Ленин": 4841,
      "домаш": 4842,
      "Цице": 4843,
      "Солн": 4844,
      "nb": 4845,
      "Ок": 4846,
      "эко": 4847,
      "литов": 4848,
      "проведе": 4849,
      "обно": 4850,
      "приё": 4851,
      "концу": 4852,
      "Народ": 4853,
      "количе": 4854,
      "пользу": 4855,
      "содержание": 4856,
      "42": 4857,
      "индивиду": 4858,
      "древней": 4859,
      "продукции": 4860,
      "ступил": 4861,
      "Обычно": 4862,
      "ul": 4863,
      "вки": 4864,
      "издели": 4865,
      "купи": 4866,
      "стьян": 4867,
      "179": 4868,
      "численность": 4869,
      "Израи": 4870,
      "максима": 4871,
      "Гла": 4872,
      "госпо": 4873,
      "лита": 4874,
      "кита": 4875,
      "nbsp": 4876,
      "Дмитри": 4877,
      "реза": 4878,
      "старо": 4879,
      "долла": 4880,
      "самом": 4881,
      "состояние": 4882,
      "структуры": 4883,
      "аналоги": 4884,
      "элементы": 4885,
      "География": 4886,
      "46": 4887,
      "ri": 4888,
      "эр": 4889,
      "исче": 4890,
      "восточной": 4891,
      "строения": 4892,
      "положения": 4893,
      "членов": 4894,
      "исключительно": 4895,
      "эп": 4896,
      "вообще": 4897,
      "мами": 4898,
      "куда": 4899,
      "груз": 4900,
      "грузо": 4901,
      "понятие": 4902,
      "посёлок": 4903,
      "фиксирова": 4904,
      "света": 4905,
      "чрез": 4906,
      "преступ": 4907,
      "центров": 4908,
      "Лит": 4909,
      "способность": 4910,
      "материала": 4911,
      "губерна": 4912,
      "пассажир": 4913,
      "содержит": 4914,
      "жо": 4915,
      "делия": 4916,
      "отпра": 4917,
      "био": 4918,
      "циалисти": 4919,
      "архитектур": 4920,
      "Смо": 4921,
      "нтов": 4922,
      "лизма": 4923,
      "сих": 4924,
      "которыми": 4925,
      "русские": 4926,
      "Ген": 4927,
      "реже": 4928,
      "неодно": 4929,
      "месторо": 4930,
      "мур": 4931,
      "особенности": 4932,
      "активно": 4933,
      "Тре": 4934,
      "сра": 4935,
      "улуч": 4936,
      "ницей": 4937,
      "листь": 4938,
      "существу": 4939,
      "называли": 4940,
      "солют": 4941,
      "своими": 4942,
      "наблюде": 4943,
      "Хотя": 4944,
      "Их": 4945,
      "дё": 4946,
      "нке": 4947,
      "шё": 4948,
      "обши": 4949,
      "столько": 4950,
      "ряде": 4951,
      "крепле": 4952,
      "известный": 4953,
      "рабочих": 4954,
      "местного": 4955,
      "жизне": 4956,
      "зависит": 4957,
      "Александра": 4958,
      "Особе": 4959,
      "th": 4960,
      "йл": 4961,
      "выя": 4962,
      "привело": 4963,
      "града": 4964,
      "переименова": 4965,
      "применения": 4966,
      "ствовали": 4967,
      "историю": 4968,
      "уровнем": 4969,
      "важней": 4970,
      "входят": 4971,
      "сова": 4972,
      "тивные": 4973,
      "рья": 4974,
      "государственных": 4975,
      "дворя": 4976,
      "удалось": 4977,
      "подверга": 4978,
      "Экономика": 4979,
      "49": 4980,
      "вку": 4981,
      "установи": 4982,
      "родо": 4983,
      "листи": 4984,
      "мече": 4985,
      "проз": 4986,
      "крепи": 4987,
      "соединения": 4988,
      "исследователь": 4989,
      "Один": 4990,
      "вследствие": 4991,
      "кля": 4992,
      "нили": 4993,
      "леса": 4994,
      "сорев": 4995,
      "дири": 4996,
      "альбо": 4997,
      "служе": 4998,
      "хии": 4999,
      "Верх": 5000,
      "Этимология": 5001,
      "организаций": 5002,
      "чению": 5003,
      "располагается": 5004,
      "Шами": 5005,
      "ежегодно": 5006,
      "апо": 5007,
      "лта": 5008,
      "охот": 5009,
      "угро": 5010,
      "силь": 5011,
      "быто": 5012,
      "перевоз": 5013,
      "интен": 5014,
      "военной": 5015,
      "178": 5016,
      "Чёр": 5017,
      "еха": 5018,
      "шет": 5019,
      "ьев": 5020,
      "сово": 5021,
      "малень": 5022,
      "жители": 5023,
      "земель": 5024,
      "ткани": 5025,
      "памятник": 5026,
      "мероприя": 5027,
      "дных": 5028,
      "тным": 5029,
      "сооб": 5030,
      "гани": 5031,
      "армя": 5032,
      "ходить": 5033,
      "Затем": 5034,
      "становления": 5035,
      "политической": 5036,
      "музыки": 5037,
      "сейчас": 5038,
      "Основные": 5039,
      "доволь": 5040,
      "документа": 5041,
      "осадков": 5042,
      "зю": 5043,
      "председа": 5044,
      "расположена": 5045,
      "науки": 5046,
      "искусстве": 5047,
      "канала": 5048,
      "вопрос": 5049,
      "Другие": 5050,
      "разруше": 5051,
      "Калигу": 5052,
      "Гон": 5053,
      "кожи": 5054,
      "стави": 5055,
      "отправи": 5056,
      "1917": 5057,
      "зой": 5058,
      "полне": 5059,
      "брига": 5060,
      "брать": 5061,
      "известен": 5062,
      "XII": 5063,
      "Вар": 5064,
      "реда": 5065,
      "какой": 5066,
      "монет": 5067,
      "жению": 5068,
      "северной": 5069,
      "Исполь": 5070,
      "ссу": 5071,
      "этни": 5072,
      "далеко": 5073,
      "село": 5074,
      "тывается": 5075,
      "храм": 5076,
      "кварта": 5077,
      "официально": 5078,
      "инструмента": 5079,
      "оружия": 5080,
      "43": 5081,
      "кров": 5082,
      "вах": 5083,
      "стари": 5084,
      "селе": 5085,
      "представления": 5086,
      "техники": 5087,
      "ориен": 5088,
      "Дей": 5089,
      "удар": 5090,
      "ядер": 5091,
      "нести": 5092,
      "изобре": 5093,
      "конститу": 5094,
      "сложи": 5095,
      "компью": 5096,
      "противополо": 5097,
      "профессо": 5098,
      "футбо": 5099,
      "безопасности": 5100,
      "ФСР": 5101,
      "мого": 5102,
      "цир": 5103,
      "нями": 5104,
      "партия": 5105,
      "писатель": 5106,
      "искусство": 5107,
      "сферы": 5108,
      "европейских": 5109,
      "устройства": 5110,
      "торговли": 5111,
      "поко": 5112,
      "доме": 5113,
      "шек": 5114,
      "термина": 5115,
      "ствовать": 5116,
      "брон": 5117,
      "ВВ": 5118,
      "пору": 5119,
      "льд": 5120,
      "пари": 5121,
      "разные": 5122,
      "составляла": 5123,
      "проект": 5124,
      "уголов": 5125,
      "идёт": 5126,
      "Три": 5127,
      "свыше": 5128,
      "установ": 5129,
      "бели": 5130,
      "гусе": 5131,
      "нье": 5132,
      "обладает": 5133,
      "оборот": 5134,
      "изображения": 5135,
      "средо": 5136,
      "Фло": 5137,
      "Что": 5138,
      "ницу": 5139,
      "ковая": 5140,
      "повре": 5141,
      "доче": 5142,
      "мое": 5143,
      "москов": 5144,
      "нуть": 5145,
      "банк": 5146,
      "зим": 5147,
      "ссия": 5148,
      "институт": 5149,
      "погиб": 5150,
      "отверсти": 5151,
      "Фё": 5152,
      "вои": 5153,
      "цик": 5154,
      "выход": 5155,
      "вляют": 5156,
      "своему": 5157,
      "лыми": 5158,
      "тивное": 5159,
      "крестьян": 5160,
      "функциони": 5161,
      "Авгу": 5162,
      "сва": 5163,
      "рекомен": 5164,
      "фила": 5165,
      "численности": 5166,
      "главных": 5167,
      "следующие": 5168,
      "жёст": 5169,
      "ого": 5170,
      "сведения": 5171,
      "нель": 5172,
      "лоб": 5173,
      "тического": 5174,
      "руки": 5175,
      "препара": 5176,
      "путь": 5177,
      "партий": 5178,
      "Иван": 5179,
      "спу": 5180,
      "сначала": 5181,
      "шев": 5182,
      "остаётся": 5183,
      "телевиде": 5184,
      "вынужде": 5185,
      "тная": 5186,
      "льский": 5187,
      "земля": 5188,
      "Анто": 5189,
      "Москва": 5190,
      "заболевания": 5191,
      "РСФСР": 5192,
      "ссов": 5193,
      "спут": 5194,
      "наслед": 5195,
      "кратно": 5196,
      "работе": 5197,
      "частично": 5198,
      "Нидер": 5199,
      "энерге": 5200,
      "многочисленные": 5201,
      "Золо": 5202,
      "НК": 5203,
      "охва": 5204,
      "уме": 5205,
      "номина": 5206,
      "чено": 5207,
      "мол": 5208,
      "момента": 5209,
      "сид": 5210,
      "тельном": 5211,
      "оболо": 5212,
      "взгля": 5213,
      "канал": 5214,
      "устройство": 5215,
      "Благодаря": 5216,
      "осу": 5217,
      "топли": 5218,
      "сове": 5219,
      "довой": 5220,
      "скохозяй": 5221,
      "дие": 5222,
      "влены": 5223,
      "тивной": 5224,
      "средней": 5225,
      "Распо": 5226,
      "Индии": 5227,
      "ing": 5228,
      "нёс": 5229,
      "кал": 5230,
      "Нов": 5231,
      "компаний": 5232,
      "Петра": 5233,
      "вшаяся": 5234,
      "рассказыва": 5235,
      "Класси": 5236,
      "Ура": 5237,
      "Шот": 5238,
      "рем": 5239,
      "тение": 5240,
      "исключе": 5241,
      "дорога": 5242,
      "находился": 5243,
      "глуби": 5244,
      "ent": 5245,
      "архитектуры": 5246,
      "йти": 5247,
      "упа": 5248,
      "вость": 5249,
      "рису": 5250,
      "любов": 5251,
      "бума": 5252,
      "политических": 5253,
      "книге": 5254,
      "ОАО": 5255,
      "ощу": 5256,
      "голу": 5257,
      "качества": 5258,
      "сея": 5259,
      "консер": 5260,
      "план": 5261,
      "произведений": 5262,
      "стреми": 5263,
      "1992": 5264,
      "местных": 5265,
      "Бен": 5266,
      "Тру": 5267,
      "Тор": 5268,
      "агент": 5269,
      "йским": 5270,
      "ллей": 5271,
      "меры": 5272,
      "дона": 5273,
      "стане": 5274,
      "зок": 5275,
      "крае": 5276,
      "1945": 5277,
      "основании": 5278,
      "услуг": 5279,
      "ad": 5280,
      "ора": 5281,
      "окрест": 5282,
      "горы": 5283,
      "рее": 5284,
      "попа": 5285,
      "воль": 5286,
      "ваний": 5287,
      "прито": 5288,
      "шири": 5289,
      "ислам": 5290,
      "ственном": 5291,
      "ствовал": 5292,
      "российских": 5293,
      "отношений": 5294,
      "понятия": 5295,
      "крайне": 5296,
      "Лат": 5297,
      "сё": 5298,
      "наличие": 5299,
      "лоша": 5300,
      "даёт": 5301,
      "рые": 5302,
      "щены": 5303,
      "инди": 5304,
      "вшими": 5305,
      "ющаяся": 5306,
      "найде": 5307,
      "Аполло": 5308,
      "пони": 5309,
      "появляется": 5310,
      "кустар": 5311,
      "война": 5312,
      "Более": 5313,
      "академи": 5314,
      "Мер": 5315,
      "яй": 5316,
      "привлека": 5317,
      "сказыва": 5318,
      "краси": 5319,
      "основные": 5320,
      "строение": 5321,
      "получить": 5322,
      "учреждений": 5323,
      "потеря": 5324,
      "Мек": 5325,
      "тари": 5326,
      "сопроти": 5327,
      "желу": 5328,
      "проведения": 5329,
      "столь": 5330,
      "дых": 5331,
      "ального": 5332,
      "местности": 5333,
      "Первой": 5334,
      "древних": 5335,
      "словам": 5336,
      "питания": 5337,
      "im": 5338,
      "коп": 5339,
      "данные": 5340,
      "тиру": 5341,
      "изготавли": 5342,
      "большинства": 5343,
      "должно": 5344,
      "передачи": 5345,
      "Верги": 5346,
      "1000": 5347,
      "медле": 5348,
      "бесконе": 5349,
      "Кан": 5350,
      "рные": 5351,
      "вами": 5352,
      "масте": 5353,
      "масса": 5354,
      "бок": 5355,
      "нях": 5356,
      "военный": 5357,
      "графии": 5358,
      "лённые": 5359,
      "машино": 5360,
      "ллейбу": 5361,
      "АТ": 5362,
      "Ара": 5363,
      "Ху": 5364,
      "лизова": 5365,
      "тоже": 5366,
      "далее": 5367,
      "модер": 5368,
      "серии": 5369,
      "щено": 5370,
      "газе": 5371,
      "мую": 5372,
      "зонта": 5373,
      "подня": 5374,
      "плоско": 5375,
      "новая": 5376,
      "считать": 5377,
      "транспор": 5378,
      "Объ": 5379,
      "кризи": 5380,
      "тысячи": 5381,
      "педаго": 5382,
      "78": 5383,
      "Гру": 5384,
      "Южной": 5385,
      "ванием": 5386,
      "несмотря": 5387,
      "кир": 5388,
      "рук": 5389,
      "саха": 5390,
      "страте": 5391,
      "тивный": 5392,
      "крупный": 5393,
      "стороне": 5394,
      "групп": 5395,
      "должность": 5396,
      "сельскохозяй": 5397,
      "существования": 5398,
      "дан": 5399,
      "вий": 5400,
      "жено": 5401,
      "ровка": 5402,
      "среднего": 5403,
      "труда": 5404,
      "Произ": 5405,
      "Проис": 5406,
      "работает": 5407,
      "Высо": 5408,
      "представители": 5409,
      "аз": 5410,
      "чён": 5411,
      "зами": 5412,
      "изу": 5413,
      "Первая": 5414,
      "условий": 5415,
      "НТВ": 5416,
      "Фили": 5417,
      "теперь": 5418,
      "плани": 5419,
      "центри": 5420,
      "органы": 5421,
      "морской": 5422,
      "Выбор": 5423,
      "направлении": 5424,
      "Право": 5425,
      "st": 5426,
      "Впервые": 5427,
      "шком": 5428,
      "лизм": 5429,
      "предпринима": 5430,
      "Нача": 5431,
      "Бори": 5432,
      "культура": 5433,
      "емым": 5434,
      "верхней": 5435,
      "1940": 5436,
      "водохрани": 5437,
      "основы": 5438,
      "зантий": 5439,
      "монастыря": 5440,
      "Транспорт": 5441,
      "монеты": 5442,
      "наряду": 5443,
      "дав": 5444,
      "такое": 5445,
      "мае": 5446,
      "тивных": 5447,
      "носители": 5448,
      "ворот": 5449,
      "op": 5450,
      "Рей": 5451,
      "Полу": 5452,
      "испыта": 5453,
      "резко": 5454,
      "Северо": 5455,
      "драво": 5456,
      "and": 5457,
      "столицы": 5458,
      "описание": 5459,
      "совершенно": 5460,
      "мозже": 5461,
      "Иркут": 5462,
      "Армении": 5463,
      "41": 5464,
      "Кры": 5465,
      "соли": 5466,
      "обви": 5467,
      "способо": 5468,
      "бах": 5469,
      "влению": 5470,
      "трав": 5471,
      "водя": 5472,
      "состояния": 5473,
      "основным": 5474,
      "Великого": 5475,
      "монар": 5476,
      "VI": 5477,
      "Риме": 5478,
      "оли": 5479,
      "срок": 5480,
      "увиде": 5481,
      "хар": 5482,
      "вающих": 5483,
      "патри": 5484,
      "сай": 5485,
      "контак": 5486,
      "Петро": 5487,
      "Хар": 5488,
      "эм": 5489,
      "непре": 5490,
      "ложил": 5491,
      "тью": 5492,
      "начиная": 5493,
      "определяется": 5494,
      "епископ": 5495,
      "изделий": 5496,
      "iv": 5497,
      "Джа": 5498,
      "фаль": 5499,
      "изм": 5500,
      "чиков": 5501,
      "стены": 5502,
      "жённых": 5503,
      "объяс": 5504,
      "среды": 5505,
      "ностях": 5506,
      "Фри": 5507,
      "бль": 5508,
      "расту": 5509,
      "китай": 5510,
      "цивили": 5511,
      "выте": 5512,
      "мысли": 5513,
      "определи": 5514,
      "известные": 5515,
      "операции": 5516,
      "будут": 5517,
      "тюр": 5518,
      "Прави": 5519,
      "68": 5520,
      "ов": 5521,
      "гона": 5522,
      "линия": 5523,
      "кафе": 5524,
      "комна": 5525,
      "бук": 5526,
      "тяну": 5527,
      "Пав": 5528,
      "список": 5529,
      "представляют": 5530,
      "образует": 5531,
      "событий": 5532,
      "месяцев": 5533,
      "вшейся": 5534,
      "миллионов": 5535,
      "»;": 5536,
      "узна": 5537,
      "вак": 5538,
      "шести": 5539,
      "Кана": 5540,
      "Вене": 5541,
      "герцо": 5542,
      "каждого": 5543,
      "отдельные": 5544,
      "Зна": 5545,
      "вскоре": 5546,
      "ране": 5547,
      "совой": 5548,
      "гале": 5549,
      "ньше": 5550,
      "ложен": 5551,
      "одноим": 5552,
      "Одно": 5553,
      "общественного": 5554,
      "начинает": 5555,
      "принадлежит": 5556,
      "наблюдается": 5557,
      "стки": 5558,
      "поддержа": 5559,
      "двину": 5560,
      "использовались": 5561,
      "появилась": 5562,
      "теоре": 5563,
      "Трои": 5564,
      "Нидерлан": 5565,
      "дравоохра": 5566,
      "япо": 5567,
      "дал": 5568,
      "минера": 5569,
      "доби": 5570,
      "пуль": 5571,
      "предше": 5572,
      "языках": 5573,
      "говорит": 5574,
      "солдат": 5575,
      "горизонта": 5576,
      "схо": 5577,
      "нея": 5578,
      "кипу": 5579,
      "чев": 5580,
      "приз": 5581,
      "герой": 5582,
      "Поз": 5583,
      "поднима": 5584,
      "перевод": 5585,
      "ционная": 5586,
      "главный": 5587,
      "школ": 5588,
      "вариант": 5589,
      "достигает": 5590,
      "леги": 5591,
      "мыми": 5592,
      "являлся": 5593,
      "водство": 5594,
      "началась": 5595,
      "существенно": 5596,
      "Досто": 5597,
      "Феодо": 5598,
      "Всемир": 5599,
      "Средне": 5600,
      "Мин": 5601,
      "Юго": 5602,
      "ане": 5603,
      "рги": 5604,
      "явление": 5605,
      "рога": 5606,
      "лож": 5607,
      "песня": 5608,
      "рыб": 5609,
      "ходом": 5610,
      "переход": 5611,
      "инфра": 5612,
      "Начи": 5613,
      "началу": 5614,
      "работка": 5615,
      "планеты": 5616,
      "йское": 5617,
      "скры": 5618,
      "стати": 5619,
      "обер": 5620,
      "пато": 5621,
      "люб": 5622,
      "знание": 5623,
      "тракта": 5624,
      "ходила": 5625,
      "Китая": 5626,
      "марте": 5627,
      "руководством": 5628,
      "существование": 5629,
      "болезни": 5630,
      "Большой": 5631,
      "отвеча": 5632,
      "Белоруссии": 5633,
      "цилинд": 5634,
      "Памят": 5635,
      "Оре": 5636,
      "ври": 5637,
      "ирова": 5638,
      "чена": 5639,
      "стье": 5640,
      "живу": 5641,
      "колони": 5642,
      "фоне": 5643,
      "делает": 5644,
      "Отта": 5645,
      "Ставро": 5646,
      "внутренних": 5647,
      "фос": 5648,
      "горя": 5649,
      "деву": 5650,
      "заим": 5651,
      "выбор": 5652,
      "столе": 5653,
      "второ": 5654,
      "Сам": 5655,
      "короля": 5656,
      "Святого": 5657,
      "Файл": 5658,
      "Испании": 5659,
      "ковый": 5660,
      "кине": 5661,
      "сили": 5662,
      "любой": 5663,
      "170": 5664,
      "офице": 5665,
      "вшегося": 5666,
      "Распростра": 5667,
      "средото": 5668,
      "Уз": 5669,
      "Хи": 5670,
      "гром": 5671,
      "релье": 5672,
      "лены": 5673,
      "дочь": 5674,
      "дирек": 5675,
      "раздо": 5676,
      "тельством": 5677,
      "возрасте": 5678,
      "действуют": 5679,
      "Геор": 5680,
      "часток": 5681,
      "каждой": 5682,
      "источников": 5683,
      "происхождение": 5684,
      "58": 5685,
      "67": 5686,
      "Хри": 5687,
      "ода": 5688,
      "тическая": 5689,
      "зар": 5690,
      "заста": 5691,
      "прибы": 5692,
      "1919": 5693,
      "люд": 5694,
      "биологи": 5695,
      "научно": 5696,
      "царь": 5697,
      "построена": 5698,
      "уголь": 5699,
      "проводится": 5700,
      "проблемы": 5701,
      "футболь": 5702,
      "носят": 5703,
      "62": 5704,
      "Ган": 5705,
      "Фо": 5706,
      "независимости": 5707,
      "чему": 5708,
      "боже": 5709,
      "бега": 5710,
      "влена": 5711,
      "зимой": 5712,
      "перево": 5713,
      "распада": 5714,
      "троллейбу": 5715,
      "определения": 5716,
      "Литов": 5717,
      "выращи": 5718,
      "обороны": 5719,
      "побережье": 5720,
      "400": 5721,
      "Бан": 5722,
      "Кле": 5723,
      "ут": 5724,
      "чне": 5725,
      "чку": 5726,
      "тический": 5727,
      "куро": 5728,
      "втор": 5729,
      "текста": 5730,
      "условия": 5731,
      "поверхность": 5732,
      "оцени": 5733,
      "ag": 5734,
      "Нью": 5735,
      "спла": 5736,
      "шку": 5737,
      "моро": 5738,
      "фина": 5739,
      "Позд": 5740,
      "терпе": 5741,
      "позиции": 5742,
      "декабре": 5743,
      "борьбы": 5744,
      ":«": 5745,
      "опе": 5746,
      "лиру": 5747,
      "чивается": 5748,
      "трак": 5749,
      "водных": 5750,
      "тивного": 5751,
      "считают": 5752,
      "1944": 5753,
      "другого": 5754,
      "сделать": 5755,
      "абсолют": 5756,
      "Америки": 5757,
      "инженер": 5758,
      "магази": 5759,
      "инициа": 5760,
      "Элек": 5761,
      "счё": 5762,
      "новое": 5763,
      "посла": 5764,
      "вока": 5765,
      "зача": 5766,
      "прем": 5767,
      "гена": 5768,
      "шается": 5769,
      "составила": 5770,
      "1998": 5771,
      "тенден": 5772,
      "генераль": 5773,
      "вероятно": 5774,
      "ами": 5775,
      "сля": 5776,
      "наго": 5777,
      "лице": 5778,
      "типи": 5779,
      "вертика": 5780,
      "большее": 5781,
      "общество": 5782,
      "Образо": 5783,
      "представлены": 5784,
      "озера": 5785,
      "Нор": 5786,
      "Эр": 5787,
      "гры": 5788,
      "чок": 5789,
      "разили": 5790,
      "щена": 5791,
      "контроль": 5792,
      "дерева": 5793,
      "построены": 5794,
      "Японии": 5795,
      "звёзд": 5796,
      "астроно": 5797,
      "двой": 5798,
      "рией": 5799,
      "выз": 5800,
      "галь": 5801,
      "бек": 5802,
      "степ": 5803,
      "жар": 5804,
      "треби": 5805,
      "августе": 5806,
      "скорость": 5807,
      "Михаил": 5808,
      "древнегре": 5809,
      "фестиваль": 5810,
      "ано": 5811,
      "ваку": 5812,
      "мести": 5813,
      "мам": 5814,
      "проходят": 5815,
      "автомати": 5816,
      "другом": 5817,
      "иностранных": 5818,
      "совокуп": 5819,
      "Вос": 5820,
      "рной": 5821,
      "четвер": 5822,
      "доля": 5823,
      "преобразова": 5824,
      "ственную": 5825,
      "вяз": 5826,
      "ключения": 5827,
      "1999": 5828,
      "берега": 5829,
      "выполня": 5830,
      "помощь": 5831,
      "православной": 5832,
      "насчитыва": 5833,
      "Дю": 5834,
      "никогда": 5835,
      "проме": 5836,
      "конкур": 5837,
      "траге": 5838,
      "стым": 5839,
      "метр": 5840,
      "промышленность": 5841,
      "основу": 5842,
      "получают": 5843,
      "сентябре": 5844,
      "Волго": 5845,
      "ig": 5846,
      "ir": 5847,
      "ани": 5848,
      "гвар": 5849,
      "коме": 5850,
      "дать": 5851,
      "ману": 5852,
      "вычай": 5853,
      "щают": 5854,
      "щаются": 5855,
      "образи": 5856,
      "торами": 5857,
      "исторических": 5858,
      "Музей": 5859,
      "твори": 5860,
      "князя": 5861,
      "флота": 5862,
      "природы": 5863,
      "95": 5864,
      "Алла": 5865,
      "уника": 5866,
      "участок": 5867,
      "лизации": 5868,
      "вому": 5869,
      "Библи": 5870,
      "Константино": 5871,
      "мара": 5872,
      "проро": 5873,
      "душ": 5874,
      "разби": 5875,
      "шин": 5876,
      "создание": 5877,
      "Китай": 5878,
      "работают": 5879,
      "связанные": 5880,
      "элемент": 5881,
      "служит": 5882,
      "литературы": 5883,
      "отсутствие": 5884,
      "Макси": 5885,
      "Королев": 5886,
      "косми": 5887,
      "Октя": 5888,
      "ВВП": 5889,
      "85": 5890,
      "вшую": 5891,
      "нации": 5892,
      "маль": 5893,
      "сталли": 5894,
      "излу": 5895,
      "базе": 5896,
      "насеко": 5897,
      "развитию": 5898,
      "местом": 5899,
      "поселение": 5900,
      "Тибе": 5901,
      "природе": 5902,
      "категории": 5903,
      "Смолен": 5904,
      "ec": 5905,
      "Али": 5906,
      "Ря": 5907,
      "тными": 5908,
      "девя": 5909,
      "изма": 5910,
      "пишет": 5911,
      "производстве": 5912,
      "Виды": 5913,
      "Авст": 5914,
      "Русской": 5915,
      "окончательно": 5916,
      "Китае": 5917,
      "Крупней": 5918,
      "Ам": 5919,
      "уста": 5920,
      "боги": 5921,
      "сения": 5922,
      "беспо": 5923,
      "инте": 5924,
      "фов": 5925,
      "графия": 5926,
      "советской": 5927,
      "Площа": 5928,
      "Длина": 5929,
      "Её": 5930,
      "Зи": 5931,
      "вел": 5932,
      "старей": 5933,
      "тье": 5934,
      "ждая": 5935,
      "округ": 5936,
      "клима": 5937,
      "улице": 5938,
      "международных": 5939,
      "Сибири": 5940,
      "In": 5941,
      "лга": 5942,
      "пления": 5943,
      "изуча": 5944,
      "чика": 5945,
      "различи": 5946,
      "щений": 5947,
      "планирова": 5948,
      "Бога": 5949,
      "высотой": 5950,
      "одинако": 5951,
      "волж": 5952,
      "изготовления": 5953,
      "оборудования": 5954,
      "ребён": 5955,
      "Сей": 5956,
      "оши": 5957,
      "небольшой": 5958,
      "сериа": 5959,
      "изделия": 5960,
      "жив": 5961,
      "Сара": 5962,
      "считал": 5963,
      "способности": 5964,
      "книга": 5965,
      "общины": 5966,
      "долларов": 5967,
      "ост": 5968,
      "линей": 5969,
      "возбу": 5970,
      "владель": 5971,
      "фактически": 5972,
      "получает": 5973,
      "сооружения": 5974,
      "учебных": 5975,
      "Желез": 5976,
      "Еди": 5977,
      "ТЭ": 5978,
      "ила": 5979,
      "линий": 5980,
      "ликви": 5981,
      "Перед": 5982,
      "рейтин": 5983,
      "использовали": 5984,
      "Обще": 5985,
      "Конститу": 5986,
      "образуется": 5987,
      "январе": 5988,
      "четвёр": 5989,
      "64": 5990,
      "69": 5991,
      "фре": 5992,
      "рожда": 5993,
      "голосо": 5994,
      "дит": 5995,
      "чат": 5996,
      "нностей": 5997,
      "шипов": 5998,
      "земно": 5999,
      "слабо": 6000,
      "самые": 6001,
      "Всего": 6002,
      "сообщение": 6003,
      "усили": 6004,
      "фамилии": 6005,
      "демократи": 6006,
      "млад": 6007,
      "новым": 6008,
      "терии": 6009,
      "человеком": 6010,
      "Большая": 6011,
      "европейской": 6012,
      "Римской": 6013,
      "индивидуаль": 6014,
      "дирижа": 6015,
      "ut": 6016,
      "Вне": 6017,
      "мэ": 6018,
      "сход": 6019,
      "мок": 6020,
      "2020": 6021,
      "военные": 6022,
      "металла": 6023,
      "июле": 6024,
      "должности": 6025,
      "национальной": 6026,
      "кладби": 6027,
      "Рима": 6028,
      "резиден": 6029,
      "Бли": 6030,
      "ато": 6031,
      "ари": 6032,
      "уль": 6033,
      "роста": 6034,
      "ковым": 6035,
      "лию": 6036,
      "льда": 6037,
      "лати": 6038,
      "доль": 6039,
      "чинов": 6040,
      "парта": 6041,
      "Госпо": 6042,
      "дворец": 6043,
      "ворота": 6044,
      "нижней": 6045,
      "сюда": 6046,
      "Вместе": 6047,
      "Дер": 6048,
      "ой": 6049,
      "тём": 6050,
      "чков": 6051,
      "раско": 6052,
      "лера": 6053,
      "цифи": 6054,
      "отличи": 6055,
      "гал": 6056,
      "сыгра": 6057,
      "плодо": 6058,
      "периоди": 6059,
      "Тогда": 6060,
      "играет": 6061,
      "письме": 6062,
      "тюль": 6063,
      "оригина": 6064,
      "металлу": 6065,
      "парламент": 6066,
      "Ярослав": 6067,
      "Бор": 6068,
      "иду": 6069,
      "фла": 6070,
      "недель": 6071,
      "мело": 6072,
      "промы": 6073,
      "первом": 6074,
      "акт": 6075,
      "высоких": 6076,
      "морского": 6077,
      "Первоначально": 6078,
      "Эн": 6079,
      "жки": 6080,
      "фанта": 6081,
      "гое": 6082,
      "вошли": 6083,
      "кано": 6084,
      "дию": 6085,
      "дипло": 6086,
      "стихот": 6087,
      "организма": 6088,
      "1996": 6089,
      "длина": 6090,
      "лённый": 6091,
      "соверши": 6092,
      "улиц": 6093,
      "необходимости": 6094,
      "масштаб": 6095,
      "инструментов": 6096,
      "женщины": 6097,
      "требования": 6098,
      "Центральной": 6099,
      "Николай": 6100,
      "сотрудни": 6101,
      "промежу": 6102,
      "нился": 6103,
      "попада": 6104,
      "сосредото": 6105,
      "бед": 6106,
      "второго": 6107,
      "1995": 6108,
      "карто": 6109,
      "союза": 6110,
      "Америке": 6111,
      "семьи": 6112,
      "АН": 6113,
      "Мы": 6114,
      "агре": 6115,
      "номе": 6116,
      "ничего": 6117,
      "нагре": 6118,
      "лично": 6119,
      "недо": 6120,
      "лум": 6121,
      "конку": 6122,
      "була": 6123,
      "Коми": 6124,
      "водится": 6125,
      "высоте": 6126,
      "востоку": 6127,
      "токси": 6128,
      "1989": 6129,
      "независимость": 6130,
      "удовле": 6131,
      "помимо": 6132,
      "нета": 6133,
      "чел": 6134,
      "шением": 6135,
      "ордина": 6136,
      "осла": 6137,
      "водного": 6138,
      "общее": 6139,
      "населением": 6140,
      "сохраня": 6141,
      "выпуск": 6142,
      "сельского": 6143,
      "Советского": 6144,
      "Красно": 6145,
      "аэропорт": 6146,
      "пр": 6147,
      "эф": 6148,
      "ноги": 6149,
      "награ": 6150,
      "чека": 6151,
      "индей": 6152,
      "адре": 6153,
      "деревьев": 6154,
      "сказал": 6155,
      "Акаде": 6156,
      "ГУ": 6157,
      "Уи": 6158,
      "нит": 6159,
      "лению": 6160,
      "чая": 6161,
      "приблизи": 6162,
      "щиков": 6163,
      "бел": 6164,
      "городи": 6165,
      "торже": 6166,
      "обозначения": 6167,
      "Архи": 6168,
      "ьями": 6169,
      "1943": 6170,
      "связаны": 6171,
      "охла": 6172,
      "НР": 6173,
      "змом": 6174,
      "нату": 6175,
      "дена": 6176,
      "мило": 6177,
      "рука": 6178,
      "мане": 6179,
      "выдели": 6180,
      "хана": 6181,
      "мерно": 6182,
      "Кол": 6183,
      "канди": 6184,
      "длины": 6185,
      "помещения": 6186,
      "Австралии": 6187,
      "Министер": 6188,
      "твра": 6189,
      "шний": 6190,
      "вось": 6191,
      "лай": 6192,
      "татар": 6193,
      "бак": 6194,
      "хранения": 6195,
      "льному": 6196,
      "остальные": 6197,
      "1994": 6198,
      "Первое": 6199,
      "правом": 6200,
      "кристалли": 6201,
      "работке": 6202,
      "температуре": 6203,
      "воздухе": 6204,
      "принимает": 6205,
      "благоприят": 6206,
      "положительно": 6207,
      "примечательности": 6208,
      "опере": 6209,
      "построи": 6210,
      "модели": 6211,
      "щением": 6212,
      "мум": 6213,
      "беки": 6214,
      "возвыше": 6215,
      "Рай": 6216,
      "промышленных": 6217,
      "проекта": 6218,
      "археологи": 6219,
      "120": 6220,
      "сюжет": 6221,
      "лопа": 6222,
      "данный": 6223,
      "отца": 6224,
      "отдыха": 6225,
      "гипоте": 6226,
      "другу": 6227,
      "Кара": 6228,
      "получе": 6229,
      "Костро": 6230,
      "Города": 6231,
      "броне": 6232,
      "экономического": 6233,
      "договора": 6234,
      "возникает": 6235,
      "княжества": 6236,
      "Слово": 6237,
      "чрезвычай": 6238,
      "Начиная": 6239,
      "Октябрь": 6240,
      "Фин": 6241,
      "оси": 6242,
      "ёра": 6243,
      "течения": 6244,
      "миру": 6245,
      "масло": 6246,
      "влений": 6247,
      "подзем": 6248,
      "ствием": 6249,
      "брат": 6250,
      "политики": 6251,
      "клеток": 6252,
      "оборудова": 6253,
      "предотвра": 6254,
      "опубликова": 6255,
      "господ": 6256,
      "Свет": 6257,
      "ази": 6258,
      "бка": 6259,
      "трас": 6260,
      "ун": 6261,
      "уще": 6262,
      "ённого": 6263,
      "раньше": 6264,
      "изото": 6265,
      "рыва": 6266,
      "препят": 6267,
      "щина": 6268,
      "характера": 6269,
      "тысяче": 6270,
      "современном": 6271,
      "Одиссей": 6272,
      "Джон": 6273,
      "спектак": 6274,
      "здоров": 6275,
      "титул": 6276,
      "дный": 6277,
      "кке": 6278,
      "севдо": 6279,
      "Таджи": 6280,
      "фом": 6281,
      "Тол": 6282,
      "1942": 6283,
      "князь": 6284,
      "октябре": 6285,
      "характеризу": 6286,
      "зербай": 6287,
      "интерес": 6288,
      "реакции": 6289,
      "славян": 6290,
      "интенсив": 6291,
      "The": 6292,
      "нования": 6293,
      "ванию": 6294,
      "мост": 6295,
      "приш": 6296,
      "нужно": 6297,
      "парка": 6298,
      "птицы": 6299,
      "Мухам": 6300,
      "национального": 6301,
      "исключением": 6302,
      "Дон": 6303,
      "ий": 6304,
      "данной": 6305,
      "тации": 6306,
      "соль": 6307,
      "допуска": 6308,
      "палу": 6309,
      "сар": 6310,
      "размер": 6311,
      "целях": 6312,
      "началом": 6313,
      "военного": 6314,
      "ведении": 6315,
      "Дом": 6316,
      "марки": 6317,
      "нарушения": 6318,
      "героя": 6319,
      "регулирова": 6320,
      "преврати": 6321,
      "вакци": 6322,
      "id": 6323,
      "Бразили": 6324,
      "Швей": 6325,
      "ъя": 6326,
      "села": 6327,
      "избран": 6328,
      "приказа": 6329,
      "осна": 6330,
      "Вое": 6331,
      "Федераль": 6332,
      "российской": 6333,
      "ation": 6334,
      "Культура": 6335,
      "ЮН": 6336,
      "дно": 6337,
      "узе": 6338,
      "уезд": 6339,
      "этно": 6340,
      "южной": 6341,
      "стные": 6342,
      "неу": 6343,
      "теря": 6344,
      "бол": 6345,
      "сит": 6346,
      "души": 6347,
      "туристи": 6348,
      "распоря": 6349,
      "Таган": 6350,
      "Одним": 6351,
      "Герой": 6352,
      "берг": 6353,
      "ведёт": 6354,
      "связан": 6355,
      "кислоты": 6356,
      "разделения": 6357,
      "редак": 6358,
      "66": 6359,
      "79": 6360,
      "la": 6361,
      "Оде": 6362,
      "Фер": 6363,
      "вспо": 6364,
      "емости": 6365,
      "рово": 6366,
      "позна": 6367,
      "тике": 6368,
      "моги": 6369,
      "суди": 6370,
      "пии": 6371,
      "расы": 6372,
      "студен": 6373,
      "Пале": 6374,
      "землю": 6375,
      "1993": 6376,
      "распространены": 6377,
      "кристал": 6378,
      "ставки": 6379,
      "сочинения": 6380,
      "наследия": 6381,
      "Позже": 6382,
      "иско": 6383,
      "йло": 6384,
      "новую": 6385,
      "лении": 6386,
      "скон": 6387,
      "мони": 6388,
      "жесто": 6389,
      "ждению": 6390,
      "специфи": 6391,
      "трибу": 6392,
      "орган": 6393,
      "связана": 6394,
      "щиеся": 6395,
      "программ": 6396,
      "поражения": 6397,
      "президента": 6398,
      "мозга": 6399,
      "предусматри": 6400,
      "превышает": 6401,
      "the": 6402,
      "хво": 6403,
      "нат": 6404,
      "лекар": 6405,
      "самая": 6406,
      "цело": 6407,
      "ряды": 6408,
      "создана": 6409,
      "материаль": 6410,
      "влиянием": 6411,
      "молодё": 6412,
      "выраже": 6413,
      "формирования": 6414,
      "Пушки": 6415,
      "памятников": 6416,
      "ограничи": 6417,
      "борьбе": 6418,
      "железа": 6419,
      "приобрета": 6420,
      "роб": 6421,
      "росло": 6422,
      "лана": 6423,
      "чит": 6424,
      "пребы": 6425,
      "пис": 6426,
      "жают": 6427,
      "зиру": 6428,
      "инфек": 6429,
      "ходило": 6430,
      "плат": 6431,
      "высокого": 6432,
      "материал": 6433,
      "множества": 6434,
      "причиной": 6435,
      "Волги": 6436,
      "отличаются": 6437,
      "Иоан": 6438,
      "праведли": 6439,
      "ака": 6440,
      "азо": 6441,
      "жную": 6442,
      "кет": 6443,
      "появляются": 6444,
      "лив": 6445,
      "меда": 6446,
      "сигна": 6447,
      "бывшего": 6448,
      "щик": 6449,
      "ложения": 6450,
      "1997": 6451,
      "последний": 6452,
      "денти": 6453,
      "главной": 6454,
      "идеи": 6455,
      "применяются": 6456,
      "герои": 6457,
      "апреле": 6458,
      "сахар": 6459,
      "библиотека": 6460,
      "Сергей": 6461,
      "XXI": 6462,
      "Клав": 6463,
      "Уни": 6464,
      "левой": 6465,
      "тена": 6466,
      "Поскольку": 6467,
      "зию": 6468,
      "страна": 6469,
      "ровая": 6470,
      "нейтра": 6471,
      "нья": 6472,
      "Такие": 6473,
      "высоким": 6474,
      "называются": 6475,
      "связанных": 6476,
      "Средняя": 6477,
      "командова": 6478,
      "машины": 6479,
      "фраг": 6480,
      "мужчин": 6481,
      "St": 6482,
      "Ак": 6483,
      "оре": 6484,
      "упразд": 6485,
      "гораздо": 6486,
      "повы": 6487,
      "чеб": 6488,
      "ниям": 6489,
      "обру": 6490,
      "автоном": 6491,
      "структур": 6492,
      "главного": 6493,
      "социально": 6494,
      "победи": 6495,
      "Часто": 6496,
      "трамвай": 6497,
      "Происхождение": 6498,
      "Образование": 6499,
      "Площадь": 6500,
      "Спи": 6501,
      "включе": 6502,
      "неров": 6503,
      "вез": 6504,
      "вец": 6505,
      "данного": 6506,
      "зафиксирова": 6507,
      "столетия": 6508,
      "сак": 6509,
      "Пол": 6510,
      "строили": 6511,
      "раскры": 6512,
      "ансам": 6513,
      "остан": 6514,
      "ренции": 6515,
      "противоречи": 6516,
      "Украине": 6517,
      "сохранились": 6518,
      "сцена": 6519,
      "видимо": 6520,
      "корпуса": 6521,
      "Григо": 6522,
      "КП": 6523,
      "Све": 6524,
      "Цар": 6525,
      "дной": 6526,
      "жном": 6527,
      "рный": 6528,
      "дают": 6529,
      "обстоя": 6530,
      "сила": 6531,
      "превос": 6532,
      "шает": 6533,
      "Воль": 6534,
      "Май": 6535,
      "слишком": 6536,
      "160": 6537,
      "советских": 6538,
      "значении": 6539,
      "порядке": 6540,
      "пассажиров": 6541,
      "вызывает": 6542,
      "экспеди": 6543,
      "ЮНЕС": 6544,
      "жского": 6545,
      "яко": 6546,
      "стной": 6547,
      "изуче": 6548,
      "числу": 6549,
      "любы": 6550,
      "будь": 6551,
      "храма": 6552,
      "манской": 6553,
      "составляли": 6554,
      "экспо": 6555,
      "использоваться": 6556,
      "строительстве": 6557,
      "дерево": 6558,
      "команду": 6559,
      "учёный": 6560,
      "протекает": 6561,
      "монастырь": 6562,
      "бассейна": 6563,
      "нарко": 6564,
      "Следу": 6565,
      "Генри": 6566,
      "ЮНЕСКО": 6567,
      "54": 6568,
      "72": 6569,
      "VII": 6570,
      "Ии": 6571,
      "опро": 6572,
      "опу": 6573,
      "рог": 6574,
      "рика": 6575,
      "вающие": 6576,
      "вела": 6577,
      "заведения": 6578,
      "мура": 6579,
      "шесть": 6580,
      "орби": 6581,
      "инвести": 6582,
      "буква": 6583,
      "здании": 6584,
      "правила": 6585,
      "создал": 6586,
      "воскре": 6587,
      "работать": 6588,
      "источником": 6589,
      "среде": 6590,
      "металлов": 6591,
      "выступает": 6592,
      "единственный": 6593,
      "Британ": 6594,
      "натураль": 6595,
      "99": 6596,
      "Крым": 6597,
      "Физи": 6598,
      "ара": 6599,
      "вступи": 6600,
      "гно": 6601,
      "дные": 6602,
      "иной": 6603,
      "чке": 6604,
      "мора": 6605,
      "суды": 6606,
      "имела": 6607,
      "логических": 6608,
      "единица": 6609,
      "стыми": 6610,
      "оккупа": 6611,
      "корре": 6612,
      "версия": 6613,
      "носить": 6614,
      "ющейся": 6615,
      "месяц": 6616,
      "династии": 6617,
      "od": 6618,
      "ай": 6619,
      "дне": 6620,
      "розы": 6621,
      "поезда": 6622,
      "ленной": 6623,
      "риан": 6624,
      "давно": 6625,
      "выделе": 6626,
      "правление": 6627,
      "бии": 6628,
      "пережи": 6629,
      "предвари": 6630,
      "всеми": 6631,
      "ждением": 6632,
      "ложение": 6633,
      "развитии": 6634,
      "появления": 6635,
      "располагаются": 6636,
      "религиозных": 6637,
      "коричне": 6638,
      ",.": 6639,
      "Вну": 6640,
      "Сего": 6641,
      "брю": 6642,
      "мс": 6643,
      "повсе": 6644,
      "тони": 6645,
      "база": 6646,
      "консу": 6647,
      "городская": 6648,
      "Пара": 6649,
      "частных": 6650,
      "Новый": 6651,
      "Евге": 6652,
      "одино": 6653,
      "значительной": 6654,
      "использовался": 6655,
      "драмати": 6656,
      "ступление": 6657,
      "искусств": 6658,
      "штата": 6659,
      "практике": 6660,
      "важным": 6661,
      "Харак": 6662,
      "крупнейший": 6663,
      "поэт": 6664,
      "психи": 6665,
      "технологии": 6666,
      "окончания": 6667,
      "Иису": 6668,
      "oc": 6669,
      "пки": 6670,
      "постройки": 6671,
      "воспо": 6672,
      "тания": 6673,
      "сино": 6674,
      "прибли": 6675,
      "чин": 6676,
      "страха": 6677,
      "возобно": 6678,
      "полё": 6679,
      "Коли": 6680,
      "клар": 6681,
      "собора": 6682,
      "крупным": 6683,
      "обеспечения": 6684,
      "специальных": 6685,
      "национальных": 6686,
      "пункт": 6687,
      "52": 6688,
      "иды": 6689,
      "товой": 6690,
      "неса": 6691,
      "чешу": 6692,
      "тизма": 6693,
      "духо": 6694,
      "парт": 6695,
      "исла": 6696,
      "Соеди": 6697,
      "Каза": 6698,
      "правил": 6699,
      "личности": 6700,
      "территорий": 6701,
      "смеси": 6702,
      "симфо": 6703,
      "химических": 6704,
      "Разви": 6705,
      "скорее": 6706,
      "хлоп": 6707,
      "Сегодня": 6708,
      "Бур": 6709,
      "Меди": 6710,
      "Тар": 6711,
      "Укра": 6712,
      "иденти": 6713,
      "элли": 6714,
      "стской": 6715,
      "пострада": 6716,
      "лукови": 6717,
      "платы": 6718,
      "полуострова": 6719,
      "летний": 6720,
      "фунда": 6721,
      "горных": 6722,
      "посредством": 6723,
      "феврале": 6724,
      "сооружений": 6725,
      "зво": 6726,
      "окраи": 6727,
      "ппи": 6728,
      "сфер": 6729,
      "фона": 6730,
      "давления": 6731,
      "сило": 6732,
      "креди": 6733,
      "средних": 6734,
      "Рели": 6735,
      "ционным": 6736,
      "температур": 6737,
      "нефть": 6738,
      "разуме": 6739,
      "игр": 6740,
      "товаров": 6741,
      "вокзал": 6742,
      "Африки": 6743,
      "нельзя": 6744,
      "спустя": 6745,
      "Шу": 6746,
      "зор": 6747,
      "космо": 6748,
      "вие": 6749,
      "прогре": 6750,
      "бывает": 6751,
      "кура": 6752,
      "сущ": 6753,
      "рован": 6754,
      "Моло": 6755,
      "определение": 6756,
      "народных": 6757,
      "регионе": 6758,
      "специально": 6759,
      "скорости": 6760,
      "становятся": 6761,
      "костю": 6762,
      "Верховного": 6763,
      "исчез": 6764,
      "Позднее": 6765,
      "98": 6766,
      "Шта": 6767,
      "оформ": 6768,
      "нице": 6769,
      "товые": 6770,
      "сократи": 6771,
      "вис": 6772,
      "стиль": 6773,
      "садо": 6774,
      "тут": 6775,
      "безу": 6776,
      "верхов": 6777,
      "бая": 6778,
      "городами": 6779,
      "соблю": 6780,
      "брати": 6781,
      "крово": 6782,
      "Первым": 6783,
      "востока": 6784,
      "видные": 6785,
      "широкое": 6786,
      "гломера": 6787,
      "1939": 6788,
      "участник": 6789,
      "французский": 6790,
      "печат": 6791,
      "нынеш": 6792,
      "Цвет": 6793,
      "гет": 6794,
      "жными": 6795,
      "мнение": 6796,
      "ол": 6797,
      "цкой": 6798,
      "тивы": 6799,
      "изгна": 6800,
      "ственными": 6801,
      "грамо": 6802,
      "ваясь": 6803,
      "созданы": 6804,
      "содержания": 6805,
      "российского": 6806,
      "огне": 6807,
      "договор": 6808,
      "художник": 6809,
      "специализирова": 6810,
      "фабрика": 6811,
      "ru": 6812,
      "Иль": 6813,
      "здравоохра": 6814,
      "яви": 6815,
      "зал": 6816,
      "пале": 6817,
      "шел": 6818,
      "спосо": 6819,
      "фили": 6820,
      "дьми": 6821,
      "ссель": 6822,
      "Систе": 6823,
      "использованием": 6824,
      "помога": 6825,
      "древности": 6826,
      "идеологи": 6827,
      "протяжё": 6828,
      "проблем": 6829,
      "отделения": 6830,
      "музея": 6831,
      "неоднократно": 6832,
      "оном": 6833,
      "ноябре": 6834,
      "немного": 6835,
      "капи": 6836,
      "руби": 6837,
      "являлись": 6838,
      "церк": 6839,
      "экономической": 6840,
      "июне": 6841,
      "представлен": 6842,
      "площадью": 6843,
      "достоин": 6844,
      "оружие": 6845,
      "дзю": 6846,
      "звания": 6847,
      "мг": 6848,
      "погре": 6849,
      "поним": 6850,
      "жига": 6851,
      "терна": 6852,
      "евро": 6853,
      "ракет": 6854,
      "Кир": 6855,
      "ётр": 6856,
      "последнего": 6857,
      "Выс": 6858,
      "черты": 6859,
      "обладают": 6860,
      "обязанности": 6861,
      "исследований": 6862,
      "клетки": 6863,
      "сравнительно": 6864,
      "эксперимента": 6865,
      ",,": 6866,
      "IX": 6867,
      "юг": 6868,
      "годом": 6869,
      "речь": 6870,
      "небольшие": 6871,
      "вечер": 6872,
      "зай": 6873,
      "жел": 6874,
      "пали": 6875,
      "пати": 6876,
      "преды": 6877,
      "следование": 6878,
      "ковский": 6879,
      "менте": 6880,
      "ствий": 6881,
      "русско": 6882,
      "занимают": 6883,
      "красно": 6884,
      "священ": 6885,
      "кирпи": 6886,
      "77": 6887,
      "СМ": 6888,
      "Тю": 6889,
      "егип": 6890,
      "уна": 6891,
      "шён": 6892,
      "ённой": 6893,
      "намест": 6894,
      "реку": 6895,
      "листо": 6896,
      "латы": 6897,
      "сорта": 6898,
      "такси": 6899,
      "формой": 6900,
      "скри": 6901,
      "частиц": 6902,
      "Тай": 6903,
      "ствовало": 6904,
      "последних": 6905,
      "регионов": 6906,
      "валют": 6907,
      "Карл": 6908,
      "торговых": 6909,
      "первоначально": 6910,
      "компонен": 6911,
      "Уже": 6912,
      "вв": 6913,
      "ково": 6914,
      "волок": 6915,
      "нега": 6916,
      "типов": 6917,
      "византий": 6918,
      "модель": 6919,
      "рядов": 6920,
      "ковского": 6921,
      "Воро": 6922,
      "считает": 6923,
      "упомя": 6924,
      "точка": 6925,
      "почвы": 6926,
      "Индоне": 6927,
      "соответствует": 6928,
      "соединя": 6929,
      "диалек": 6930,
      "производится": 6931,
      "массовой": 6932,
      "Древней": 6933,
      "Термин": 6934,
      "профессор": 6935,
      "63": 6936,
      "атом": 6937,
      "пту": 6938,
      "швед": 6939,
      "явления": 6940,
      "некоторое": 6941,
      "небольших": 6942,
      "скор": 6943,
      "моди": 6944,
      "пев": 6945,
      "пригла": 6946,
      "щины": 6947,
      "жая": 6948,
      "трополи": 6949,
      "находилась": 6950,
      "Сибир": 6951,
      "Визан": 6952,
      "предприятие": 6953,
      "появилось": 6954,
      "источниках": 6955,
      "метод": 6956,
      "пунктов": 6957,
      "президен": 6958,
      "водорода": 6959,
      "Шотландии": 6960,
      "ap": 6961,
      "Эк": 6962,
      "ир": 6963,
      "швей": 6964,
      "эфир": 6965,
      "пород": 6966,
      "побрати": 6967,
      "сознания": 6968,
      "боли": 6969,
      "стил": 6970,
      "пами": 6971,
      "супру": 6972,
      "Вой": 6973,
      "фана": 6974,
      "чённых": 6975,
      "Дол": 6976,
      "различными": 6977,
      "соединений": 6978,
      "традиционно": 6979,
      "книг": 6980,
      "продукты": 6981,
      "проекту": 6982,
      "лучше": 6983,
      "европей": 6984,
      "написал": 6985,
      "озеро": 6986,
      "вшееся": 6987,
      "способом": 6988,
      "250": 6989,
      "входя": 6990,
      "уди": 6991,
      "чью": 6992,
      "юно": 6993,
      "равен": 6994,
      "нашей": 6995,
      "наимено": 6996,
      "льского": 6997,
      "приви": 6998,
      "патро": 6999,
      "кула": 7000,
      "били": 7001,
      "менных": 7002,
      "святых": 7003,
      "средняя": 7004,
      "развивается": 7005,
      "Одна": 7006,
      "Общая": 7007,
      "прямой": 7008,
      "исполня": 7009,
      "звуча": 7010,
      "бассейн": 7011,
      "Ивана": 7012,
      "Польши": 7013,
      "минут": 7014,
      "600": 7015,
      "Бра": 7016,
      "эт": 7017,
      "стных": 7018,
      "посад": 7019,
      "вора": 7020,
      "лечения": 7021,
      "варь": 7022,
      "кай": 7023,
      "зий": 7024,
      "щать": 7025,
      "красо": 7026,
      "лёт": 7027,
      "носили": 7028,
      "администрации": 7029,
      "принадле": 7030,
      "Церков": 7031,
      "зачастую": 7032,
      "кты": 7033,
      "настолько": 7034,
      "ресто": 7035,
      "пола": 7036,
      "присвое": 7037,
      "жать": 7038,
      "арха": 7039,
      "Наход": 7040,
      "обраба": 7041,
      "пространства": 7042,
      "ционное": 7043,
      "вышел": 7044,
      "представлена": 7045,
      "установлен": 7046,
      "Андре": 7047,
      "Монго": 7048,
      "вокзала": 7049,
      "посёлка": 7050,
      "сл": 7051,
      "сный": 7052,
      "рецеп": 7053,
      "неуда": 7054,
      "песен": 7055,
      "выста": 7056,
      "целей": 7057,
      "шению": 7058,
      "войско": 7059,
      "подгото": 7060,
      "альбом": 7061,
      "экзем": 7062,
      "местные": 7063,
      "работали": 7064,
      "память": 7065,
      "образуют": 7066,
      "столица": 7067,
      "американский": 7068,
      "Гражда": 7069,
      "попытки": 7070,
      "тюльпа": 7071,
      ".—": 7072,
      "Впоследствии": 7073,
      "ада": 7074,
      "жский": 7075,
      "ожида": 7076,
      "урав": 7077,
      "хреб": 7078,
      "весной": 7079,
      "деления": 7080,
      "вига": 7081,
      "приспособ": 7082,
      "пах": 7083,
      "сати": 7084,
      "туда": 7085,
      "верса": 7086,
      "Коло": 7087,
      "Бог": 7088,
      "писание": 7089,
      "Мари": 7090,
      "точных": 7091,
      "квадра": 7092,
      "драма": 7093,
      "взрос": 7094,
      "мостью": 7095,
      "внутренней": 7096,
      "внешней": 7097,
      "коммуника": 7098,
      "ступлений": 7099,
      "em": 7100,
      "ВД": 7101,
      "Кра": 7102,
      "Пётр": 7103,
      "сверх": 7104,
      "чень": 7105,
      "засе": 7106,
      "изобрази": 7107,
      "прика": 7108,
      "тывать": 7109,
      "стеле": 7110,
      "общем": 7111,
      "Можай": 7112,
      "стройка": 7113,
      "административный": 7114,
      "многочисленных": 7115,
      "требует": 7116,
      "услуги": 7117,
      "Национальный": 7118,
      "статисти": 7119,
      "предыду": 7120,
      "VIII": 7121,
      "Шве": 7122,
      "ит": 7123,
      "плы": 7124,
      "вости": 7125,
      "мога": 7126,
      "граду": 7127,
      "армия": 7128,
      "полной": 7129,
      "единиц": 7130,
      "личного": 7131,
      "расположено": 7132,
      "западу": 7133,
      "характе": 7134,
      "группе": 7135,
      "морских": 7136,
      "изображение": 7137,
      "социальной": 7138,
      "единственным": 7139,
      "газеты": 7140,
      "метрополи": 7141,
      "стратеги": 7142,
      "Ай": 7143,
      "Осно": 7144,
      "Сем": 7145,
      "вблизи": 7146,
      "иных": 7147,
      "нские": 7148,
      "варе": 7149,
      "каче": 7150,
      "лога": 7151,
      "зато": 7152,
      "семян": 7153,
      "привле": 7154,
      "коммуни": 7155,
      "близо": 7156,
      "авторов": 7157,
      "восстанови": 7158,
      "большими": 7159,
      "Гале": 7160,
      "диапа": 7161,
      "общественных": 7162,
      "характеризуется": 7163,
      "ООН": 7164,
      "объёма": 7165,
      "Узбеки": 7166,
      "Значи": 7167,
      "Офи": 7168,
      "вполне": 7169,
      "мё": 7170,
      "полез": 7171,
      "сот": 7172,
      "зарубе": 7173,
      "прочем": 7174,
      "тельств": 7175,
      "бами": 7176,
      "тивная": 7177,
      "ведены": 7178,
      "Там": 7179,
      "высокая": 7180,
      "самое": 7181,
      "пространстве": 7182,
      "одному": 7183,
      "видно": 7184,
      "новей": 7185,
      "работал": 7186,
      "музыке": 7187,
      "хозяйство": 7188,
      "источники": 7189,
      "закончи": 7190,
      "ООО": 7191,
      "епар": 7192,
      "оча": 7193,
      "хта": 7194,
      "насы": 7195,
      "логов": 7196,
      "дора": 7197,
      "шены": 7198,
      "возраст": 7199,
      "всему": 7200,
      "полков": 7201,
      "едино": 7202,
      "стрем": 7203,
      "развитием": 7204,
      "Сау": 7205,
      "известна": 7206,
      "количестве": 7207,
      "парово": 7208,
      "одежды": 7209,
      "Существуют": 7210,
      "Казахстан": 7211,
      "повторя": 7212,
      "ассоциа": 7213,
      "59": 7214,
      "потреби": 7215,
      "мене": 7216,
      "деми": 7217,
      "цизма": 7218,
      "чатые": 7219,
      "стиля": 7220,
      "верху": 7221,
      "щаться": 7222,
      "глад": 7223,
      "лём": 7224,
      "высота": 7225,
      "открытия": 7226,
      "низма": 7227,
      "процессов": 7228,
      "достижения": 7229,
      "факт": 7230,
      "популя": 7231,
      "деньги": 7232,
      "Средние": 7233,
      "существовало": 7234,
      "пункты": 7235,
      "своеобраз": 7236,
      "Импера": 7237,
      "роду": 7238,
      "поря": 7239,
      "вошёл": 7240,
      "довая": 7241,
      "тину": 7242,
      "мать": 7243,
      "бывают": 7244,
      "хокке": 7245,
      "актё": 7246,
      "ровали": 7247,
      "Кавказ": 7248,
      "польского": 7249,
      "улица": 7250,
      "машин": 7251,
      "училище": 7252,
      "экспер": 7253,
      "романа": 7254,
      "древеси": 7255,
      "индустри": 7256,
      "возникновения": 7257,
      "насчитывалось": 7258,
      "ребёнка": 7259,
      "Яко": 7260,
      "нож": 7261,
      "кад": 7262,
      "кавказ": 7263,
      "зацию": 7264,
      "цифро": 7265,
      "сить": 7266,
      "сибир": 7267,
      "жилых": 7268,
      "людьми": 7269,
      "концер": 7270,
      "словом": 7271,
      "евского": 7272,
      "парти": 7273,
      "резер": 7274,
      "системати": 7275,
      "Институ": 7276,
      "140": 7277,
      "симметри": 7278,
      "растение": 7279,
      "Александро": 7280,
      "Хай": 7281,
      "исследователи": 7282,
      "найти": 7283,
      "Террито": 7284,
      "Чтобы": 7285,
      "Таджики": 7286,
      "Украин": 7287,
      "ta": 7288,
      "СТ": 7289,
      "Улья": 7290,
      "стка": 7291,
      "рекор": 7292,
      "минима": 7293,
      "пец": 7294,
      "цита": 7295,
      "стадии": 7296,
      "раздели": 7297,
      "белого": 7298,
      "автора": 7299,
      "границе": 7300,
      "историк": 7301,
      "распространения": 7302,
      "вещество": 7303,
      "издания": 7304,
      "ющегося": 7305,
      "объекты": 7306,
      "скепти": 7307,
      "общественный": 7308,
      "международный": 7309,
      "высших": 7310,
      "туристов": 7311,
      "чувстви": 7312,
      "вещание": 7313,
      "сортов": 7314,
      "океан": 7315,
      "Казахстана": 7316,
      "Применение": 7317,
      "Гонкон": 7318,
      ";°": 7319,
      "Хор": 7320,
      "жской": 7321,
      "рного": 7322,
      "химе": 7323,
      "розо": 7324,
      "таком": 7325,
      "щен": 7326,
      "стекло": 7327,
      "бат": 7328,
      "англо": 7329,
      "Социалисти": 7330,
      "спект": 7331,
      "городские": 7332,
      "турни": 7333,
      "текст": 7334,
      "народной": 7335,
      "находились": 7336,
      "занял": 7337,
      "конструкция": 7338,
      "деревни": 7339,
      "пытался": 7340,
      "ремонт": 7341,
      "валент": 7342,
      "57": 7343,
      "ov": 7344,
      "Ага": 7345,
      "камер": 7346,
      "меч": 7347,
      "выхода": 7348,
      "приписы": 7349,
      "размно": 7350,
      "развед": 7351,
      "кен": 7352,
      "конди": 7353,
      "гут": 7354,
      "глаз": 7355,
      "создании": 7356,
      "называть": 7357,
      "станций": 7358,
      "открыта": 7359,
      "лланд": 7360,
      "другое": 7361,
      "царство": 7362,
      "команды": 7363,
      "колеба": 7364,
      "пенси": 7365,
      "возникают": 7366,
      "залива": 7367,
      "Аристо": 7368,
      "Тради": 7369,
      "устья": 7370,
      "эволю": 7371,
      "стры": 7372,
      "ната": 7373,
      "невозможно": 7374,
      "руках": 7375,
      "масси": 7376,
      "обр": 7377,
      "чики": 7378,
      "чисел": 7379,
      "хождения": 7380,
      "путей": 7381,
      "вяза": 7382,
      "евский": 7383,
      "авторы": 7384,
      "последней": 7385,
      "черно": 7386,
      "Основа": 7387,
      "объединения": 7388,
      "относят": 7389,
      "барди": 7390,
      "указывает": 7391,
      "расстояние": 7392,
      "песча": 7393,
      "приблизительно": 7394,
      "51": 7395,
      "ДП": 7396,
      "Оль": 7397,
      "жённые": 7398,
      "тром": 7399,
      "комо": 7400,
      "забо": 7401,
      "записа": 7402,
      "жий": 7403,
      "испы": 7404,
      "худ": 7405,
      "нтами": 7406,
      "Откры": 7407,
      "снизи": 7408,
      "сердца": 7409,
      "фильмов": 7410,
      "влияния": 7411,
      "ющееся": 7412,
      "специальные": 7413,
      "месяца": 7414,
      "мелких": 7415,
      "финанси": 7416,
      "88": 7417,
      "Гар": 7418,
      "Гали": 7419,
      "Около": 7420,
      "агломера": 7421,
      "лло": 7422,
      "устраи": 7423,
      "поезд": 7424,
      "лиде": 7425,
      "тик": 7426,
      "тила": 7427,
      "закан": 7428,
      "проявля": 7429,
      "стого": 7430,
      "Поч": 7431,
      "колон": 7432,
      "языков": 7433,
      "Пери": 7434,
      "значительное": 7435,
      "портре": 7436,
      "Бай": 7437,
      "герб": 7438,
      "противника": 7439,
      "современные": 7440,
      "причине": 7441,
      "боевых": 7442,
      "проводятся": 7443,
      "областях": 7444,
      "Яросла": 7445,
      "Петербурге": 7446,
      "Брю": 7447,
      "Есть": 7448,
      "Пен": 7449,
      "жь": 7450,
      "нились": 7451,
      "видом": 7452,
      "щению": 7453,
      "тельностью": 7454,
      "бази": 7455,
      "расчё": 7456,
      "персид": 7457,
      "имён": 7458,
      "ствовала": 7459,
      "расположенный": 7460,
      "Толь": 7461,
      "островов": 7462,
      "содержат": 7463,
      "клопе": 7464,
      "начинают": 7465,
      "вопросы": 7466,
      "лагеря": 7467,
      "Ленинград": 7468,
      "Солнца": 7469,
      "листьев": 7470,
      "мозжечка": 7471,
      "53": 7472,
      "Аф": 7473,
      "Чем": 7474,
      "координа": 7475,
      "горь": 7476,
      "товых": 7477,
      "неве": 7478,
      "непри": 7479,
      "мили": 7480,
      "силами": 7481,
      "гин": 7482,
      "керами": 7483,
      "бата": 7484,
      "возле": 7485,
      "исход": 7486,
      "стояние": 7487,
      "воспринима": 7488,
      "концерт": 7489,
      "климат": 7490,
      "черте": 7491,
      "размеров": 7492,
      "предметов": 7493,
      "Иерусалим": 7494,
      "эффици": 7495,
      "Дже": 7496,
      "аристо": 7497,
      "повед": 7498,
      "поэта": 7499,
      "либе": 7500,
      "вольно": 7501,
      "льской": 7502,
      "жие": 7503,
      "областей": 7504,
      "тяги": 7505,
      "Само": 7506,
      "принят": 7507,
      "материалы": 7508,
      "употребления": 7509,
      "высшего": 7510,
      "иллю": 7511,
      "Николая": 7512,
      "восстания": 7513,
      "конфли": 7514,
      "Строи": 7515,
      "Счита": 7516,
      "фрак": 7517,
      "экра": 7518,
      "тока": 7519,
      "вана": 7520,
      "ветра": 7521,
      "митрополи": 7522,
      "могло": 7523,
      "изначально": 7524,
      "числи": 7525,
      "премии": 7526,
      "единицы": 7527,
      "государством": 7528,
      "Промышле": 7529,
      "живописи": 7530,
      "гражданской": 7531,
      "Дио": 7532,
      "популярность": 7533,
      "художников": 7534,
      "фронта": 7535,
      "Петербурга": 7536,
      "заключается": 7537,
      "Оно": 7538,
      "тность": 7539,
      "штур": 7540,
      "лока": 7541,
      "вырази": 7542,
      "прочих": 7543,
      "класс": 7544,
      "ющему": 7545,
      "обрати": 7546,
      "научных": 7547,
      "воздух": 7548,
      "теория": 7549,
      "энерги": 7550,
      "сделал": 7551,
      "французского": 7552,
      "сообщения": 7553,
      "выборах": 7554,
      "жидкости": 7555,
      "сюже": 7556,
      "итоге": 7557,
      "итогам": 7558,
      "дисци": 7559,
      "Классификация": 7560,
      "медленно": 7561,
      "модерни": 7562,
      "пришлось": 7563,
      "азота": 7564,
      "to": 7565,
      "Сла": 7566,
      "вной": 7567,
      "вклад": 7568,
      "иу": 7569,
      "сная": 7570,
      "нибудь": 7571,
      "заведений": 7572,
      "избежа": 7573,
      "вляются": 7574,
      "1929": 7575,
      "балла": 7576,
      "Подоб": 7577,
      "хищ": 7578,
      "плодов": 7579,
      "обоб": 7580,
      "Непту": 7581,
      "трубо": 7582,
      "низм": 7583,
      "Стар": 7584,
      "радика": 7585,
      "солн": 7586,
      "кораблей": 7587,
      "римля": 7588,
      "Центр": 7589,
      "теплово": 7590,
      "отсутствует": 7591,
      "обнаружи": 7592,
      "муниципального": 7593,
      "требуется": 7594,
      "служат": 7595,
      "отрасли": 7596,
      "Одиссея": 7597,
      "Тольят": 7598,
      "Галь": 7599,
      "Христо": 7600,
      "аэ": 7601,
      "афри": 7602,
      "бр": 7603,
      "ед": 7604,
      "огра": 7605,
      "поступа": 7606,
      "вам": 7607,
      "зака": 7608,
      "секу": 7609,
      "ходу": 7610,
      "прекрати": 7611,
      "целе": 7612,
      "буль": 7613,
      "имену": 7614,
      "водят": 7615,
      "появление": 7616,
      "политический": 7617,
      "достиг": 7618,
      "команди": 7619,
      "рокко": 7620,
      "крепля": 7621,
      "цветов": 7622,
      "оказался": 7623,
      "автомобилей": 7624,
      "прошлом": 7625,
      "компьютер": 7626,
      "qu": 7627,
      "Ах": 7628,
      "склады": 7629,
      "тку": 7630,
      "тном": 7631,
      "фони": 7632,
      "ровой": 7633,
      "коры": 7634,
      "дание": 7635,
      "вита": 7636,
      "прилега": 7637,
      "стихи": 7638,
      "преступления": 7639,
      "шена": 7640,
      "шить": 7641,
      "подчёр": 7642,
      "расп": 7643,
      "гуль": 7644,
      "известным": 7645,
      "исторического": 7646,
      "Демо": 7647,
      "озёр": 7648,
      "классической": 7649,
      "административно": 7650,
      "Органи": 7651,
      "обеспечивает": 7652,
      "Балтий": 7653,
      "кандида": 7654,
      "узел": 7655,
      "Спа": 7656,
      "юн": 7657,
      "лири": 7658,
      "затра": 7659,
      "вины": 7660,
      "гипер": 7661,
      "препода": 7662,
      "спон": 7663,
      "испан": 7664,
      "ступе": 7665,
      "средство": 7666,
      "пределами": 7667,
      "автори": 7668,
      "считали": 7669,
      "метрии": 7670,
      "падают": 7671,
      "Француз": 7672,
      "религии": 7673,
      "монголь": 7674,
      "нциклопе": 7675,
      "упомяну": 7676,
      "Кер": 7677,
      "Успе": 7678,
      "глю": 7679,
      "ько": 7680,
      "эмо": 7681,
      "повыша": 7682,
      "рун": 7683,
      "ровал": 7684,
      "ветви": 7685,
      "плато": 7686,
      "ждает": 7687,
      "высоты": 7688,
      "высокие": 7689,
      "последнее": 7690,
      "адвока": 7691,
      "советское": 7692,
      "Ростеле": 7693,
      "сфера": 7694,
      "лучших": 7695,
      "деревня": 7696,
      "бюро": 7697,
      "выделяют": 7698,
      "побережья": 7699,
      "дзюдо": 7700,
      "74": 7701,
      "нское": 7702,
      "снима": 7703,
      "югу": 7704,
      "мети": 7705,
      "заводы": 7706,
      "стекла": 7707,
      "вленные": 7708,
      "предложил": 7709,
      "вторая": 7710,
      "ближай": 7711,
      "чуть": 7712,
      "народного": 7713,
      "король": 7714,
      "низме": 7715,
      "порту": 7716,
      "промышленного": 7717,
      "корабля": 7718,
      "культурного": 7719,
      "применяют": 7720,
      "гарни": 7721,
      "Московской": 7722,
      "схе": 7723,
      "тр": 7724,
      "листа": 7725,
      "левом": 7726,
      "тани": 7727,
      "ченных": 7728,
      "мач": 7729,
      "севера": 7730,
      "войну": 7731,
      "земе": 7732,
      "зуб": 7733,
      "общественно": 7734,
      "создать": 7735,
      "земной": 7736,
      "Архиме": 7737,
      "серде": 7738,
      "1988": 7739,
      "фильме": 7740,
      "исполнения": 7741,
      "источник": 7742,
      "республикан": 7743,
      "расстоянии": 7744,
      "ситуации": 7745,
      "звез": 7746,
      "артиллерий": 7747,
      "приготовления": 7748,
      "Швейца": 7749,
      "ub": 7750,
      "Оста": 7751,
      "Хе": 7752,
      "олимпи": 7753,
      "штей": 7754,
      "ночь": 7755,
      "напротив": 7756,
      "листов": 7757,
      "кина": 7758,
      "тиков": 7759,
      "могла": 7760,
      "выходит": 7761,
      "высказыва": 7762,
      "оты": 7763,
      "стола": 7764,
      "рыбо": 7765,
      "примеру": 7766,
      "состоялся": 7767,
      "открыто": 7768,
      "политика": 7769,
      "Алексей": 7770,
      "направление": 7771,
      "антисеми": 7772,
      "масшта": 7773,
      "программа": 7774,
      "крупнейшим": 7775,
      "закона": 7776,
      "взаим": 7777,
      "миллиона": 7778,
      "употребляется": 7779,
      "федерального": 7780,
      "ресурсов": 7781,
      "людям": 7782,
      "премьер": 7783,
      "порядок": 7784,
      ".:": 7785,
      "Ch": 7786,
      "Джу": 7787,
      "Фла": 7788,
      "нском": 7789,
      "чками": 7790,
      "эфи": 7791,
      "нисти": 7792,
      "рот": 7793,
      "поэти": 7794,
      "посвяще": 7795,
      "покрови": 7796,
      "тории": 7797,
      "латин": 7798,
      "пропа": 7799,
      "сезона": 7800,
      "измен": 7801,
      "сий": 7802,
      "пригород": 7803,
      "чины": 7804,
      "зование": 7805,
      "бия": 7806,
      "перспе": 7807,
      "Вик": 7808,
      "размеры": 7809,
      "щийся": 7810,
      "объясня": 7811,
      "социальных": 7812,
      "ежеднев": 7813,
      "любви": 7814,
      "заимствова": 7815,
      "кинемато": 7816,
      "Электро": 7817,
      "56": 7818,
      "Ран": 7819,
      "Спе": 7820,
      "тности": 7821,
      "недели": 7822,
      "ведом": 7823,
      "циен": 7824,
      "сели": 7825,
      "избра": 7826,
      "чил": 7827,
      "1921": 7828,
      "рассмотре": 7829,
      "щались": 7830,
      "плав": 7831,
      "обоих": 7832,
      "скет": 7833,
      "назван": 7834,
      "остальных": 7835,
      "значительные": 7836,
      "Ленина": 7837,
      "функций": 7838,
      "изобража": 7839,
      "Городской": 7840,
      "ist": 7841,
      "законом": 7842,
      "Публи": 7843,
      "восстание": 7844,
      "регулярно": 7845,
      "покину": 7846,
      "заводов": 7847,
      "Вскоре": 7848,
      "Еже": 7849,
      "Жан": 7850,
      "Сар": 7851,
      "Ты": 7852,
      "вру": 7853,
      "сное": 7854,
      "нилась": 7855,
      "ничества": 7856,
      "нагруз": 7857,
      "послужи": 7858,
      "мораль": 7859,
      "циан": 7860,
      "привели": 7861,
      "подразуме": 7862,
      "фоль": 7863,
      "Донец": 7864,
      "восточных": 7865,
      "структуре": 7866,
      "исторический": 7867,
      "всём": 7868,
      "западных": 7869,
      "смерть": 7870,
      "имущества": 7871,
      "эффект": 7872,
      "технологий": 7873,
      "Черно": 7874,
      "мифологии": 7875,
      "Особенно": 7876,
      "газета": 7877,
      "стихотво": 7878,
      "Род": 7879,
      "дка": 7880,
      "мра": 7881,
      "охо": 7882,
      "сного": 7883,
      "углу": 7884,
      "реи": 7885,
      "поход": 7886,
      "тория": 7887,
      "теро": 7888,
      "кипа": 7889,
      "масла": 7890,
      "муче": 7891,
      "шель": 7892,
      "населённых": 7893,
      "называемый": 7894,
      "восприя": 7895,
      "греческого": 7896,
      "запада": 7897,
      "Только": 7898,
      "клини": 7899,
      "родился": 7900,
      "свободы": 7901,
      "памятники": 7902,
      "Фами": 7903,
      "амми": 7904,
      "регионах": 7905,
      "километров": 7906,
      "Иерусали": 7907,
      "окрестностях": 7908,
      "Памятник": 7909,
      "Распространение": 7910,
      "ГЭС": 7911,
      "Джей": 7912,
      "Осе": 7913,
      "афи": 7914,
      "емость": 7915,
      "зму": 7916,
      "поведения": 7917,
      "погло": 7918,
      "лика": 7919,
      "льности": 7920,
      "метео": 7921,
      "обуча": 7922,
      "стиму": 7923,
      "кер": 7924,
      "Мир": 7925,
      "распространё": 7926,
      "ьера": 7927,
      "Тихо": 7928,
      "гроб": 7929,
      "ющимся": 7930,
      "объекта": 7931,
      "культурных": 7932,
      "существовали": 7933,
      "технических": 7934,
      "института": 7935,
      "решил": 7936,
      "осенью": 7937,
      "будди": 7938,
      "прозра": 7939,
      "Тольятти": 7940,
      "ce": 7941,
      "нака": 7942,
      "несли": 7943,
      "кален": 7944,
      "тана": 7945,
      "записи": 7946,
      "руд": 7947,
      "циал": 7948,
      "бег": 7949,
      "мыс": 7950,
      "имена": 7951,
      "скур": 7952,
      "крупными": 7953,
      "основана": 7954,
      "Теге": 7955,
      "основой": 7956,
      "Москву": 7957,
      "французской": 7958,
      "героев": 7959,
      "долгое": 7960,
      "интернет": 7961,
      "Михайло": 7962,
      "экологи": 7963,
      "альбома": 7964,
      "перевозки": 7965,
      "Мерку": 7966,
      "61": 7967,
      "71": 7968,
      "Много": 7969,
      "склад": 7970,
      "носа": 7971,
      "минераль": 7972,
      "домини": 7973,
      "заключе": 7974,
      "заседа": 7975,
      "проник": 7976,
      "филиа": 7977,
      "терро": 7978,
      "имеющие": 7979,
      "1870": 7980,
      "ранних": 7981,
      "Нового": 7982,
      "Мол": 7983,
      "водород": 7984,
      "Цеза": 7985,
      "солда": 7986,
      "нефтя": 7987,
      "построено": 7988,
      "несён": 7989,
      "раствори": 7990,
      "Василий": 7991,
      "растёт": 7992,
      "жемчу": 7993,
      "эксплуатацию": 7994,
      "экземпля": 7995,
      "700": 7996,
      "og": 7997,
      "зья": 7998,
      "квали": 7999,
      "опо": 8000,
      "росла": 8001,
      "листья": 8002,
      "кише": 8003,
      "дали": 8004,
      "дети": 8005,
      "тиве": 8006,
      "запи": 8007,
      "моста": 8008,
      "сама": 8009,
      "знаме": 8010,
      "полуша": 8011,
      "русская": 8012,
      "дороге": 8013,
      "самоуправления": 8014,
      "воспита": 8015,
      "измерения": 8016,
      "штад": 8017,
      "серд": 8018,
      "Пифа": 8019,
      "общим": 8020,
      "будущего": 8021,
      "поэзии": 8022,
      "проживало": 8023,
      "джет": 8024,
      "банков": 8025,
      "хрони": 8026,
      "парламента": 8027,
      "говорят": 8028,
      "месторождения": 8029,
      "Расположен": 8030,
      "Палести": 8031,
      "Зев": 8032,
      "Эне": 8033,
      "Эсто": 8034,
      "вшем": 8035,
      "ппо": 8036,
      "почёт": 8037,
      "поез": 8038,
      "заключи": 8039,
      "обсу": 8040,
      "прин": 8041,
      "преодо": 8042,
      "мысле": 8043,
      "1922": 8044,
      "сказ": 8045,
      "войн": 8046,
      "Бого": 8047,
      "Самый": 8048,
      "телевизи": 8049,
      "экспорт": 8050,
      "языком": 8051,
      "известного": 8052,
      "тексте": 8053,
      "результатам": 8054,
      "образованием": 8055,
      "Музы": 8056,
      "свойств": 8057,
      "определяет": 8058,
      "Иоси": 8059,
      "блоки": 8060,
      "медицине": 8061,
      "мелкие": 8062,
      "денег": 8063,
      "судоход": 8064,
      "Латвии": 8065,
      "оперы": 8066,
      "Австрии": 8067,
      "Сейчас": 8068,
      "африкан": 8069,
      ":#": 8070,
      "if": 8071,
      "ава": 8072,
      "нила": 8073,
      "натри": 8074,
      "роза": 8075,
      "созна": 8076,
      "дое": 8077,
      "тическое": 8078,
      "тируется": 8079,
      "сец": 8080,
      "обработки": 8081,
      "шений": 8082,
      "лую": 8083,
      "белый": 8084,
      "1924": 8085,
      "знак": 8086,
      "шать": 8087,
      "полиции": 8088,
      "обращения": 8089,
      "корне": 8090,
      "Вале": 8091,
      "степень": 8092,
      "отметить": 8093,
      "законы": 8094,
      "ченко": 8095,
      "оказывается": 8096,
      "дочери": 8097,
      "Аполлона": 8098,
      "желудо": 8099,
      "Лан": 8100,
      "бь": 8101,
      "вклю": 8102,
      "вверх": 8103,
      "стях": 8104,
      "ковод": 8105,
      "поляр": 8106,
      "пеще": 8107,
      "церемо": 8108,
      "строго": 8109,
      "тремя": 8110,
      "пыль": 8111,
      "Ташке": 8112,
      "длину": 8113,
      "считаются": 8114,
      "орудий": 8115,
      "симпто": 8116,
      "водоё": 8117,
      "образуются": 8118,
      "ess": 8119,
      "немецкий": 8120,
      "жанра": 8121,
      "свети": 8122,
      "туризма": 8123,
      "рабатыва": 8124,
      "выборов": 8125,
      "Андрей": 8126,
      "природных": 8127,
      "академии": 8128,
      "Церкви": 8129,
      "Фридри": 8130,
      "Галерея": 8131,
      "ph": 8132,
      "бру": 8133,
      "има": 8134,
      "наше": 8135,
      "наших": 8136,
      "намере": 8137,
      "лено": 8138,
      "черта": 8139,
      "цикла": 8140,
      "выбра": 8141,
      "стара": 8142,
      "обмен": 8143,
      "гий": 8144,
      "супер": 8145,
      "мыше": 8146,
      "мясо": 8147,
      "ровский": 8148,
      "ферен": 8149,
      "третий": 8150,
      "произведение": 8151,
      "высокий": 8152,
      "составлял": 8153,
      "составляло": 8154,
      "получило": 8155,
      "Тех": 8156,
      "принимать": 8157,
      "Среднего": 8158,
      "Республика": 8159,
      "содержится": 8160,
      "комбинат": 8161,
      "окружающей": 8162,
      "подготовки": 8163,
      "командованием": 8164,
      "Астраха": 8165,
      "укрепле": 8166,
      "чо": 8167,
      "кона": 8168,
      "рекла": 8169,
      "точной": 8170,
      "лед": 8171,
      "заи": 8172,
      "серо": 8173,
      "рынка": 8174,
      "гиб": 8175,
      "фей": 8176,
      "втором": 8177,
      "берегах": 8178,
      "ционер": 8179,
      "приняли": 8180,
      "взрыв": 8181,
      "царства": 8182,
      "Средней": 8183,
      "учёные": 8184,
      "Земле": 8185,
      "заболеваний": 8186,
      "контроля": 8187,
      "начальник": 8188,
      "Африке": 8189,
      "усадь": 8190,
      "количеством": 8191
    },
    "merges": [
      [
        "с",
        "т"
      ],
      [
        "н",
        "о"
      ],
      [
        "н",
        "и"
      ],
      [
        "р",
        "а"
      ],
      [
        "н",
        "а"
      ],
      [
        "р",
        "о"
      ],
      [
        "к",
        "о"
      ],
      [
        "г",
        "о"
      ],
      [
        "р",
        "е"
      ],
      [
        "п",
        "о"
      ],
      [
        "н",
        "ы"
      ],
      [
        "л",
        "и"
      ],
      [
        "т",
        "о"
      ],
      [
        "в",
        "о"
      ],
      [
        "л",
        "ь"
      ],
      [
        "л",
        "е"
      ],
      [
        "р",
        "и"
      ],
      [
        "в",
        "а"
      ],
      [
        "н",
        "е"
      ],
      [
        "к",
        "а"
      ],
      [
        "в",
        "е"
      ],
      [
        "л",
        "о"
      ],
      [
        "т",
        "е"
      ],
      [
        "м",
        "е"
      ],
      [
        "к",
        "и"
      ],
      [
        "л",
        "а"
      ],
      [
        "д",
        "а"
      ],
      [
        "д",
        "е"
      ],
      [
        "т",
        "а"
      ],
      [
        "с",
        "о"
      ],
      [
        "м",
        "и"
      ],
      [
        "ч",
        "е"
      ],
      [
        "д",
        "о"
      ],
      [
        "т",
        "и"
      ],
      [
        "с",
        "я"
      ],
      [
        "з",
        "а"
      ],
      [
        "в",
        "и"
      ],
      [
        "с",
        "ко"
      ],
      [
        "е",
        "т"
      ],
      [
        "р",
        "у"
      ],
      [
        "м",
        "о"
      ],
      [
        "д",
        "и"
      ],
      [
        "м",
        "а"
      ],
      [
        "л",
        "я"
      ],
      [
        "б",
        "о"
      ],
      [
        "ж",
        "е"
      ],
      [
        "п",
        "е"
      ],
      [
        "ц",
        "и"
      ],
      [
        "ни",
        "я"
      ],
      [
        "в",
        "ы"
      ],
      [
        "п",
        "ро"
      ],
      [
        "ст",
        "а"
      ],
      [
        "с",
        "е"
      ],
      [
        "ни",
        "е"
      ],
      [
        "о",
        "б"
      ],
      [
        "с",
        "ки"
      ],
      [
        "и",
        "з"
      ],
      [
        "с",
        "и"
      ],
      [
        "о",
        "т"
      ],
      [
        "ч",
        "а"
      ],
      [
        "п",
        "ри"
      ],
      [
        "ст",
        "и"
      ],
      [
        "ст",
        "о"
      ],
      [
        "б",
        "ы"
      ],
      [
        "ны",
        "х"
      ],
      [
        "д",
        "у"
      ],
      [
        "п",
        "а"
      ],
      [
        "н",
        "но"
      ],
      [
        "ч",
        "и"
      ],
      [
        "т",
        "ь"
      ],
      [
        "р",
        "ы"
      ],
      [
        "с",
        "а"
      ],
      [
        "ра",
        "з"
      ],
      [
        "х",
        "о"
      ],
      [
        "г",
        "и"
      ],
      [
        "щ",
        "е"
      ],
      [
        "п",
        "ре"
      ],
      [
        "ны",
        "е"
      ],
      [
        "г",
        "а"
      ],
      [
        "но",
        "й"
      ],
      [
        "м",
        "у"
      ],
      [
        "к",
        "у"
      ],
      [
        "ц",
        "е"
      ],
      [
        "ш",
        "е"
      ],
      [
        "ю",
        "т"
      ],
      [
        "ны",
        "й"
      ],
      [
        "те",
        "ль"
      ],
      [
        "ш",
        "и"
      ],
      [
        "ст",
        "ь"
      ],
      [
        "с",
        "ь"
      ],
      [
        "с",
        "у"
      ],
      [
        "п",
        "и"
      ],
      [
        "т",
        "у"
      ],
      [
        "ет",
        "ся"
      ],
      [
        "т",
        "ы"
      ],
      [
        "л",
        "у"
      ],
      [
        "щ",
        "и"
      ],
      [
        "б",
        "е"
      ],
      [
        "но",
        "го"
      ],
      [
        "н",
        "у"
      ],
      [
        "ко",
        "то"
      ],
      [
        "ж",
        "и"
      ],
      [
        "с",
        "по"
      ],
      [
        "н",
        "я"
      ],
      [
        "с",
        "ле"
      ],
      [
        "м",
        "ы"
      ],
      [
        "ско",
        "й"
      ],
      [
        "ст",
        "ве"
      ],
      [
        "о",
        "р"
      ],
      [
        "р",
        "я"
      ],
      [
        "ст",
        "во"
      ],
      [
        "ст",
        "е"
      ],
      [
        "в",
        "ля"
      ],
      [
        "го",
        "ро"
      ],
      [
        "о",
        "с"
      ],
      [
        "1",
        "9"
      ],
      [
        "ско",
        "го"
      ],
      [
        "на",
        "я"
      ],
      [
        "ф",
        "и"
      ],
      [
        "к",
        "е"
      ],
      [
        "ве",
        "р"
      ],
      [
        "ны",
        "м"
      ],
      [
        "п",
        "у"
      ],
      [
        "го",
        "да"
      ],
      [
        "че",
        "ски"
      ],
      [
        "б",
        "а"
      ],
      [
        "с",
        "ка"
      ],
      [
        "ни",
        "и"
      ],
      [
        "п",
        "ра"
      ],
      [
        "з",
        "о"
      ],
      [
        "в",
        "ле"
      ],
      [
        "л",
        "ю"
      ],
      [
        "г",
        "е"
      ],
      [
        "ч",
        "то"
      ],
      [
        "н",
        "т"
      ],
      [
        "в",
        "у"
      ],
      [
        "ци",
        "и"
      ],
      [
        "ж",
        "а"
      ],
      [
        "П",
        "о"
      ],
      [
        "во",
        "й"
      ],
      [
        "в",
        "ре"
      ],
      [
        "б",
        "и"
      ],
      [
        "з",
        "и"
      ],
      [
        "з",
        "ы"
      ],
      [
        "2",
        "0"
      ],
      [
        "ст",
        "ра"
      ],
      [
        "го",
        "ду"
      ],
      [
        "д",
        "ы"
      ],
      [
        "о",
        "н"
      ],
      [
        "г",
        "ра"
      ],
      [
        "ст",
        "ро"
      ],
      [
        "э",
        "то"
      ],
      [
        "по",
        "д"
      ],
      [
        "а",
        "р"
      ],
      [
        "та",
        "к"
      ],
      [
        "д",
        "ля"
      ],
      [
        "пе",
        "ре"
      ],
      [
        "ст",
        "ва"
      ],
      [
        "е",
        "р"
      ],
      [
        "ка",
        "к"
      ],
      [
        "ко",
        "в"
      ],
      [
        "кото",
        "ры"
      ],
      [
        "з",
        "на"
      ],
      [
        "м",
        "я"
      ],
      [
        "ски",
        "й"
      ],
      [
        "и",
        "ли"
      ],
      [
        "ко",
        "н"
      ],
      [
        "ко",
        "м"
      ],
      [
        "и",
        "н"
      ],
      [
        "х",
        "а"
      ],
      [
        "ра",
        "с"
      ],
      [
        "о",
        "д"
      ],
      [
        "пре",
        "д"
      ],
      [
        "ни",
        "й"
      ],
      [
        "г",
        "у"
      ],
      [
        "с",
        "ло"
      ],
      [
        "ме",
        "н"
      ],
      [
        "во",
        "з"
      ],
      [
        "Н",
        "а"
      ],
      [
        "но",
        "в"
      ],
      [
        "а",
        "н"
      ],
      [
        "ю",
        "щи"
      ],
      [
        "ро",
        "в"
      ],
      [
        "е",
        "го"
      ],
      [
        "пе",
        "р"
      ],
      [
        "б",
        "у"
      ],
      [
        "и",
        "с"
      ],
      [
        "а",
        "к"
      ],
      [
        "»",
        ","
      ],
      [
        "ют",
        "ся"
      ],
      [
        "те",
        "р"
      ],
      [
        "но",
        "е"
      ],
      [
        "в",
        "я"
      ],
      [
        "и",
        "ме"
      ],
      [
        "з",
        "е"
      ],
      [
        "»",
        "."
      ],
      [
        "ц",
        "а"
      ],
      [
        "ро",
        "ва"
      ],
      [
        "но",
        "м"
      ],
      [
        "то",
        "в"
      ],
      [
        "а",
        "ль"
      ],
      [
        "щ",
        "а"
      ],
      [
        "с",
        "во"
      ],
      [
        "о",
        "на"
      ],
      [
        "т",
        "ра"
      ],
      [
        "хо",
        "ди"
      ],
      [
        "т",
        "ся"
      ],
      [
        "н",
        "ных"
      ],
      [
        "ф",
        "е"
      ],
      [
        "не",
        "й"
      ],
      [
        "но",
        "сти"
      ],
      [
        "бо",
        "ль"
      ],
      [
        "но",
        "сть"
      ],
      [
        "ш",
        "а"
      ],
      [
        "об",
        "раз"
      ],
      [
        "ве",
        "т"
      ],
      [
        "л",
        "ы"
      ],
      [
        "я",
        "вля"
      ],
      [
        "ре",
        "д"
      ],
      [
        "н",
        "ь"
      ],
      [
        "в",
        "се"
      ],
      [
        "д",
        "ру"
      ],
      [
        "з",
        "у"
      ],
      [
        "ны",
        "ми"
      ],
      [
        "к",
        "ра"
      ],
      [
        "бы",
        "л"
      ],
      [
        "г",
        "ла"
      ],
      [
        "то",
        "м"
      ],
      [
        "во",
        "д"
      ],
      [
        "ние",
        "м"
      ],
      [
        "ти",
        "в"
      ],
      [
        "ска",
        "я"
      ],
      [
        "ф",
        "ор"
      ],
      [
        "нно",
        "й"
      ],
      [
        "так",
        "же"
      ],
      [
        "ли",
        "сь"
      ],
      [
        "сто",
        "я"
      ],
      [
        "л",
        "ся"
      ],
      [
        "ски",
        "х"
      ],
      [
        "до",
        "в"
      ],
      [
        "и",
        "м"
      ],
      [
        "ри",
        "и"
      ],
      [
        "бо",
        "ле"
      ],
      [
        "мо",
        "ж"
      ],
      [
        "ци",
        "я"
      ],
      [
        "с",
        "ы"
      ],
      [
        "ни",
        "ю"
      ],
      [
        "ё",
        "н"
      ],
      [
        "на",
        "ча"
      ],
      [
        "т",
        "ре"
      ],
      [
        "е",
        "й"
      ],
      [
        "в",
        "то"
      ],
      [
        "и",
        "спо"
      ],
      [
        "ну",
        "ю"
      ],
      [
        "С",
        "о"
      ],
      [
        "с",
        "лу"
      ],
      [
        "со",
        "ста"
      ],
      [
        "ст",
        "у"
      ],
      [
        "ро",
        "м"
      ],
      [
        "1",
        "8"
      ],
      [
        "по",
        "сле"
      ],
      [
        "к",
        "ру"
      ],
      [
        "зы",
        "ва"
      ],
      [
        "ра",
        "бо"
      ],
      [
        "ж",
        "де"
      ],
      [
        "х",
        "и"
      ],
      [
        "ме",
        "р"
      ],
      [
        "ст",
        "ву"
      ],
      [
        "ле",
        "й"
      ],
      [
        "ст",
        "ви"
      ],
      [
        "ва",
        "ния"
      ],
      [
        "ле",
        "к"
      ],
      [
        "ро",
        "д"
      ],
      [
        "по",
        "л"
      ],
      [
        "нно",
        "го"
      ],
      [
        "В",
        "о"
      ],
      [
        "де",
        "р"
      ],
      [
        "б",
        "ли"
      ],
      [
        "п",
        "ло"
      ],
      [
        "К",
        "а"
      ],
      [
        "и",
        "х"
      ],
      [
        "горо",
        "да"
      ],
      [
        "с",
        "си"
      ],
      [
        "ко",
        "й"
      ],
      [
        "с",
        "пе"
      ],
      [
        "де",
        "й"
      ],
      [
        "т",
        "ри"
      ],
      [
        "да",
        "р"
      ],
      [
        "боле",
        "е"
      ],
      [
        "горо",
        "д"
      ],
      [
        "в",
        "ши"
      ],
      [
        "0",
        "0"
      ],
      [
        "ль",
        "ко"
      ],
      [
        "з",
        "да"
      ],
      [
        "ра",
        "н"
      ],
      [
        "с",
        "вя"
      ],
      [
        "хо",
        "д"
      ],
      [
        "п",
        "ла"
      ],
      [
        "ве",
        "ка"
      ],
      [
        "вы",
        "е"
      ],
      [
        "н",
        "ный"
      ],
      [
        "про",
        "из"
      ],
      [
        "н",
        "ные"
      ],
      [
        "к",
        "ры"
      ],
      [
        "I",
        "I"
      ],
      [
        "е",
        "в"
      ],
      [
        "вре",
        "мя"
      ],
      [
        "ва",
        "ние"
      ],
      [
        "е",
        "м"
      ],
      [
        "ни",
        "ка"
      ],
      [
        "по",
        "лу"
      ],
      [
        "ло",
        "ги"
      ],
      [
        "ц",
        "ы"
      ],
      [
        "к",
        "ре"
      ],
      [
        "ло",
        "же"
      ],
      [
        "вы",
        "х"
      ],
      [
        "г",
        "да"
      ],
      [
        "ло",
        "сь"
      ],
      [
        "е",
        "ди"
      ],
      [
        "Р",
        "ос"
      ],
      [
        "испо",
        "ль"
      ],
      [
        "бы",
        "ли"
      ],
      [
        "до",
        "л"
      ],
      [
        "ни",
        "к"
      ],
      [
        "п",
        "ы"
      ],
      [
        "с",
        "ла"
      ],
      [
        "ле",
        "ния"
      ],
      [
        "це",
        "нт"
      ],
      [
        "ть",
        "ся"
      ],
      [
        "Рос",
        "си"
      ],
      [
        "то",
        "р"
      ],
      [
        "во",
        "е"
      ],
      [
        "ла",
        "сь"
      ],
      [
        "кото",
        "ро"
      ],
      [
        "явля",
        "ется"
      ],
      [
        "К",
        "о"
      ],
      [
        "и",
        "сто"
      ],
      [
        "к",
        "ла"
      ],
      [
        "ско",
        "е"
      ],
      [
        "бы",
        "ло"
      ],
      [
        "ско",
        "м"
      ],
      [
        "об",
        "ще"
      ],
      [
        "ни",
        "ма"
      ],
      [
        "т",
        "ро"
      ],
      [
        "дру",
        "ги"
      ],
      [
        "че",
        "ло"
      ],
      [
        "20",
        "1"
      ],
      [
        "образ",
        "о"
      ],
      [
        "ски",
        "е"
      ],
      [
        "ф",
        "а"
      ],
      [
        "ч",
        "ё"
      ],
      [
        "су",
        "ще"
      ],
      [
        "ве",
        "де"
      ],
      [
        "бы",
        "ла"
      ],
      [
        "П",
        "ри"
      ],
      [
        "те",
        "м"
      ],
      [
        "су",
        "дар"
      ],
      [
        "ти",
        "я"
      ],
      [
        "к",
        "лю"
      ],
      [
        "со",
        "б"
      ],
      [
        "х",
        "ра"
      ],
      [
        "ж",
        "ду"
      ],
      [
        "л",
        "ё"
      ],
      [
        "ка",
        "за"
      ],
      [
        "ч",
        "но"
      ],
      [
        "н",
        "д"
      ],
      [
        "об",
        "ла"
      ],
      [
        "которы",
        "е"
      ],
      [
        "чески",
        "х"
      ],
      [
        "З",
        "а"
      ],
      [
        "р",
        "т"
      ],
      [
        "от",
        "но"
      ],
      [
        "т",
        "я"
      ],
      [
        "р",
        "ь"
      ],
      [
        "20",
        "0"
      ],
      [
        "ле",
        "т"
      ],
      [
        "вре",
        "ме"
      ],
      [
        "г",
        "ру"
      ],
      [
        "ло",
        "в"
      ],
      [
        "ю",
        "ще"
      ],
      [
        "ни",
        "х"
      ],
      [
        "ор",
        "га"
      ],
      [
        "пред",
        "ста"
      ],
      [
        "че",
        "ской"
      ],
      [
        "об",
        "ъ"
      ],
      [
        "но",
        "ва"
      ],
      [
        "с",
        "ред"
      ],
      [
        "ри",
        "я"
      ],
      [
        "стве",
        "нно"
      ],
      [
        "о",
        "бо"
      ],
      [
        "не",
        "е"
      ],
      [
        "до",
        "м"
      ],
      [
        "па",
        "р"
      ],
      [
        "Б",
        "о"
      ],
      [
        "с",
        "к"
      ],
      [
        "го",
        "судар"
      ],
      [
        "е",
        "к"
      ],
      [
        "ст",
        "ы"
      ],
      [
        "пре",
        "де"
      ],
      [
        "пе",
        "ра"
      ],
      [
        "ма",
        "н"
      ],
      [
        "ра",
        "спо"
      ],
      [
        "ра",
        "й"
      ],
      [
        "м",
        "но"
      ],
      [
        "ре",
        "в"
      ],
      [
        "на",
        "з"
      ],
      [
        "ре",
        "з"
      ],
      [
        "пи",
        "са"
      ],
      [
        "по",
        "ли"
      ],
      [
        "М",
        "а"
      ],
      [
        "ра",
        "ль"
      ],
      [
        "во",
        "го"
      ],
      [
        "Р",
        "а"
      ],
      [
        "те",
        "ри"
      ],
      [
        "тель",
        "но"
      ],
      [
        "В",
        "е"
      ],
      [
        "ча",
        "сти"
      ],
      [
        "зо",
        "ва"
      ],
      [
        "ж",
        "да"
      ],
      [
        "ле",
        "ние"
      ],
      [
        "ст",
        "ре"
      ],
      [
        "ме",
        "жду"
      ],
      [
        "в",
        "ра"
      ],
      [
        "а",
        "вто"
      ],
      [
        "вы",
        "й"
      ],
      [
        "ко",
        "ло"
      ],
      [
        "во",
        "ди"
      ],
      [
        "вле",
        "ния"
      ],
      [
        "со",
        "в"
      ],
      [
        "я",
        "т"
      ],
      [
        "го",
        "д"
      ],
      [
        "ё",
        "м"
      ],
      [
        "не",
        "ния"
      ],
      [
        "Н",
        "е"
      ],
      [
        "ру",
        "с"
      ],
      [
        "ри",
        "то"
      ],
      [
        "на",
        "д"
      ],
      [
        "то",
        "го"
      ],
      [
        "ра",
        "к"
      ],
      [
        "которы",
        "х"
      ],
      [
        "С",
        "С"
      ],
      [
        "с",
        "ку"
      ],
      [
        "ста",
        "но"
      ],
      [
        "ш",
        "о"
      ],
      [
        "ци",
        "аль"
      ],
      [
        "Г",
        "о"
      ],
      [
        "пра",
        "ви"
      ],
      [
        "в",
        "ла"
      ],
      [
        "ре",
        "ди"
      ],
      [
        "о",
        "ни"
      ],
      [
        "на",
        "се"
      ],
      [
        "ст",
        "ру"
      ],
      [
        "ту",
        "р"
      ],
      [
        "с",
        "ли"
      ],
      [
        "на",
        "ко"
      ],
      [
        "П",
        "а"
      ],
      [
        "до",
        "ро"
      ],
      [
        "ли",
        "ч"
      ],
      [
        "ль",
        "но"
      ],
      [
        "ва",
        "я"
      ],
      [
        "ки",
        "х"
      ],
      [
        "раз",
        "ви"
      ],
      [
        "по",
        "ло"
      ],
      [
        "ве",
        "ст"
      ],
      [
        "че",
        "ние"
      ],
      [
        "е",
        "ё"
      ],
      [
        "н",
        "ным"
      ],
      [
        "со",
        "зда"
      ],
      [
        "то",
        "лько"
      ],
      [
        "1",
        "7"
      ],
      [
        "чи",
        "та"
      ],
      [
        "С",
        "а"
      ],
      [
        "Т",
        "а"
      ],
      [
        "тер",
        "рито"
      ],
      [
        "вы",
        "со"
      ],
      [
        "Росси",
        "и"
      ],
      [
        "са",
        "мо"
      ],
      [
        "чело",
        "ве"
      ],
      [
        "о",
        "ста"
      ],
      [
        "че",
        "ского"
      ],
      [
        "на",
        "зыва"
      ],
      [
        "ющи",
        "х"
      ],
      [
        "е",
        "н"
      ],
      [
        "чески",
        "е"
      ],
      [
        "ф",
        "о"
      ],
      [
        "чески",
        "й"
      ],
      [
        "ни",
        "ков"
      ],
      [
        "при",
        "ме"
      ],
      [
        "че",
        "ния"
      ],
      [
        "т",
        "ру"
      ],
      [
        "ку",
        "ль"
      ],
      [
        "ко",
        "но"
      ],
      [
        "во",
        "с"
      ],
      [
        "р",
        "та"
      ],
      [
        "мож",
        "ет"
      ],
      [
        "ча",
        "ст"
      ],
      [
        "Р",
        "е"
      ],
      [
        "ли",
        "я"
      ],
      [
        "со",
        "бо"
      ],
      [
        "не",
        "го"
      ],
      [
        "те",
        "лей"
      ],
      [
        "пе",
        "ри"
      ],
      [
        "ли",
        "чи"
      ],
      [
        "С",
        "е"
      ],
      [
        "ра",
        "в"
      ],
      [
        "кру",
        "п"
      ],
      [
        "об",
        "ра"
      ],
      [
        "г",
        "ре"
      ],
      [
        "х",
        "у"
      ],
      [
        "которы",
        "й"
      ],
      [
        "ча",
        "сть"
      ],
      [
        "э",
        "ти"
      ],
      [
        "же",
        "ния"
      ],
      [
        "ро",
        "й"
      ],
      [
        "ста",
        "н"
      ],
      [
        "н",
        "ная"
      ],
      [
        "ство",
        "ва"
      ],
      [
        "соста",
        "вля"
      ],
      [
        "си",
        "сте"
      ],
      [
        "ло",
        "м"
      ],
      [
        "ви",
        "де"
      ],
      [
        "ходи",
        "т"
      ],
      [
        "зе",
        "м"
      ],
      [
        "те",
        "ле"
      ],
      [
        "ни",
        "м"
      ],
      [
        "ко",
        "го"
      ],
      [
        "б",
        "ря"
      ],
      [
        "ющи",
        "е"
      ],
      [
        "н",
        "та"
      ],
      [
        "она",
        "ль"
      ],
      [
        "чи",
        "сле"
      ],
      [
        "сто",
        "ро"
      ],
      [
        "1",
        "5"
      ],
      [
        "орга",
        "ни"
      ],
      [
        "э",
        "к"
      ],
      [
        "1",
        "0"
      ],
      [
        "л",
        "ли"
      ],
      [
        "нно",
        "е"
      ],
      [
        "е",
        "мы"
      ],
      [
        "до",
        "ва"
      ],
      [
        "я",
        "зы"
      ],
      [
        "ка",
        "н"
      ],
      [
        "ни",
        "ки"
      ],
      [
        "те",
        "ля"
      ],
      [
        "д",
        "ви"
      ],
      [
        "з",
        "я"
      ],
      [
        "б",
        "ри"
      ],
      [
        "с",
        "но"
      ],
      [
        "я",
        "х"
      ],
      [
        "со",
        "стоя"
      ],
      [
        "м",
        "ного"
      ],
      [
        "П",
        "ро"
      ],
      [
        "дер",
        "жа"
      ],
      [
        "Н",
        "о"
      ],
      [
        "ски",
        "м"
      ],
      [
        "М",
        "е"
      ],
      [
        "б",
        "ра"
      ],
      [
        "боль",
        "ши"
      ],
      [
        "то",
        "й"
      ],
      [
        "П",
        "е"
      ],
      [
        "те",
        "х"
      ],
      [
        "ст",
        "в"
      ],
      [
        "го",
        "во"
      ],
      [
        "про",
        "стра"
      ],
      [
        "н",
        "к"
      ],
      [
        "че",
        "м"
      ],
      [
        "ц",
        "у"
      ],
      [
        "ч",
        "ной"
      ],
      [
        "о",
        "к"
      ],
      [
        "ми",
        "ни"
      ],
      [
        "ва",
        "ется"
      ],
      [
        "щ",
        "ё"
      ],
      [
        "же",
        "н"
      ],
      [
        "а",
        "л"
      ],
      [
        "М",
        "о"
      ],
      [
        "о",
        "преде"
      ],
      [
        "а",
        "т"
      ],
      [
        "Е",
        "в"
      ],
      [
        "X",
        "V"
      ],
      [
        "ф",
        "у"
      ],
      [
        "не",
        "ско"
      ],
      [
        "это",
        "м"
      ],
      [
        "д",
        "ь"
      ],
      [
        "не",
        "ние"
      ],
      [
        "ос",
        "нов"
      ],
      [
        "19",
        "9"
      ],
      [
        "пу",
        "бли"
      ],
      [
        "по",
        "з"
      ],
      [
        "ме",
        "ст"
      ],
      [
        "дей",
        "стви"
      ],
      [
        "из",
        "вест"
      ],
      [
        "ка",
        "р"
      ],
      [
        "Д",
        "о"
      ],
      [
        "мож",
        "но"
      ],
      [
        "ка",
        "ми"
      ],
      [
        "И",
        "з"
      ],
      [
        "де",
        "ла"
      ],
      [
        "ко",
        "р"
      ],
      [
        "ч",
        "у"
      ],
      [
        "те",
        "к"
      ],
      [
        "че",
        "стве"
      ],
      [
        "к",
        "ро"
      ],
      [
        "распо",
        "ложе"
      ],
      [
        "ци",
        "й"
      ],
      [
        "при",
        "мер"
      ],
      [
        "Л",
        "и"
      ],
      [
        "мы",
        "ш"
      ],
      [
        "о",
        "ди"
      ],
      [
        "ла",
        "га"
      ],
      [
        "не",
        "м"
      ],
      [
        "стро",
        "и"
      ],
      [
        "ё",
        "л"
      ],
      [
        "за",
        "па"
      ],
      [
        "об",
        "ы"
      ],
      [
        "г",
        "ли"
      ],
      [
        "П",
        "ер"
      ],
      [
        "ки",
        "е"
      ],
      [
        "с",
        "са"
      ],
      [
        "от",
        "кры"
      ],
      [
        "исполь",
        "зу"
      ],
      [
        "1",
        "6"
      ],
      [
        "ше",
        "й"
      ],
      [
        "я",
        "н"
      ],
      [
        "те",
        "ра"
      ],
      [
        "те",
        "ли"
      ],
      [
        "ва",
        "ет"
      ],
      [
        "ту",
        "ра"
      ],
      [
        "Т",
        "ак"
      ],
      [
        "ц",
        "о"
      ],
      [
        "ци",
        "ю"
      ],
      [
        "д",
        "ли"
      ],
      [
        "М",
        "и"
      ],
      [
        "де",
        "ль"
      ],
      [
        "вы",
        "м"
      ],
      [
        "ство",
        "м"
      ],
      [
        "на",
        "род"
      ],
      [
        "ка",
        "х"
      ],
      [
        "о",
        "че"
      ],
      [
        "ми",
        "на"
      ],
      [
        "нно",
        "сти"
      ],
      [
        "К",
        "и"
      ],
      [
        "у",
        "р"
      ],
      [
        "мен",
        "та"
      ],
      [
        "с",
        "чита"
      ],
      [
        "ти",
        "й"
      ],
      [
        "г",
        "де"
      ],
      [
        "на",
        "ми"
      ],
      [
        "п",
        "ле"
      ],
      [
        "гра",
        "фи"
      ],
      [
        "о",
        "ру"
      ],
      [
        "на",
        "ходи"
      ],
      [
        "а",
        "ли"
      ],
      [
        "вер",
        "х"
      ],
      [
        "про",
        "ис"
      ],
      [
        "ки",
        "м"
      ],
      [
        "Н",
        "и"
      ],
      [
        "горо",
        "де"
      ],
      [
        "же",
        "ние"
      ],
      [
        "произ",
        "вод"
      ],
      [
        "от",
        "вет"
      ],
      [
        "други",
        "х"
      ],
      [
        "ха",
        "рак"
      ],
      [
        "д",
        "ву"
      ],
      [
        "гра",
        "ни"
      ],
      [
        "ь",
        "ю"
      ],
      [
        "во",
        "сто"
      ],
      [
        "слу",
        "ча"
      ],
      [
        "ё",
        "т"
      ],
      [
        "это",
        "го"
      ],
      [
        "ща",
        "я"
      ],
      [
        "ющи",
        "й"
      ],
      [
        "нно",
        "сть"
      ],
      [
        "вле",
        "ние"
      ],
      [
        "По",
        "сле"
      ],
      [
        "од",
        "но"
      ],
      [
        "фор",
        "ма"
      ],
      [
        "с",
        "се"
      ],
      [
        "стро",
        "е"
      ],
      [
        "ко",
        "ли"
      ],
      [
        "полу",
        "чи"
      ],
      [
        "пра",
        "во"
[...]
